<unk>	0
<s>	0
</s>	0
,	-3.00848
.	-3.30011
▁die	-3.73227
▁der	-3.76558
▁und	-3.81283
▁in	-4.41613
s	-4.50026
en	-4.51825
▁zu	-4.70939
▁den	-4.79896
▁	-4.80333
▁von	-4.80657
-	-4.81773
e	-4.93167
▁ist	-4.95944
▁für	-5.00177
▁mit	-5.1145
▁das	-5.14201
▁auf	-5.14989
n	-5.17259
▁des	-5.23035
▁eine	-5.29851
▁im	-5.40259
▁Sie	-5.408
▁nicht	-5.42012
▁ein	-5.43944
▁werden	-5.47315
▁dass	-5.5451
▁dem	-5.54537
▁sich	-5.55511
▁Die	-5.57844
▁wir	-5.5921
▁es	-5.63046
▁auch	-5.69383
er	-5.76124
▁sind	-5.77276
▁an	-5.77324
▁wird	-5.83201
▁(	-5.93146
▁als	-5.94906
▁um	-5.96993
▁ich	-5.98628
▁über	-5.98992
▁oder	-6.0069
▁haben	-6.06427
:	-6.10093
▁-	-6.10694
▁hat	-6.13291
▁einer	-6.13897
▁sie	-6.14315
▁wie	-6.1503
▁aus	-6.16303
▁zur	-6.21434
)	-6.23442
▁bei	-6.23509
▁Das	-6.27287
▁einen	-6.27435
▁Ich	-6.34234
▁können	-6.34267
▁nach	-6.4208
▁einem	-6.44562
r	-6.45369
▁durch	-6.48813
▁diese	-6.4947
▁Wir	-6.49742
▁zum	-6.50088
▁uns	-6.51502
es	-6.52793
▁nur	-6.52942
▁kann	-6.55828
▁vor	-6.56769
t	-6.58447
▁Der	-6.60815
▁so	-6.6235
▁dieser	-6.62394
▁Kommission	-6.63215
▁Es	-6.66211
!	-6.66585
▁daß	-6.67314
▁noch	-6.70809
▁In	-6.71643
▁wurde	-6.7181
▁"	-6.71824
▁Herr	-6.72985
▁aber	-6.76545
▁wenn	-6.77329
▁sein	-6.79535
▁er	-6.79622
▁müssen	-6.81853
▁sehr	-6.81899
▁am	-6.85503
?	-6.86959
▁diesem	-6.92252
▁Union	-6.94109
▁was	-6.94713
▁man	-6.94808
▁mehr	-6.95899
▁alle	-6.96628
▁Europäischen	-6.96845
▁war	-7.02538
m	-7.02539
▁–	-7.0291
▁möchte	-7.03959
▁bis	-7.04605
"	-7.07678
▁unter	-7.09114
▁Präsident	-7.10678
▁ihre	-7.12236
▁vom	-7.12596
▁Hotel	-7.13899
▁sowie	-7.16427
▁eines	-7.16826
▁gibt	-7.19519
d	-7.2019
▁dieses	-7.2042
▁hier	-7.21746
▁EU	-7.22529
▁zwischen	-7.24077
▁Parlament	-7.24252
a	-7.26508
▁Bericht	-7.26903
▁muss	-7.27503
▁unsere	-7.28445
▁keine	-7.29424
▁Ihnen	-7.32595
/	-7.3275
▁Europa	-7.35136
▁anderen	-7.35258
▁„	-7.3673
;	-7.36736
▁Mitgliedstaaten	-7.37841
▁de	-7.38209
ung	-7.39591
▁the	-7.39992
▁Zeit	-7.40544
▁Im	-7.40796
▁immer	-7.41905
▁Wenn	-7.41909
▁dann	-7.42691
▁Entwicklung	-7.42937
▁damit	-7.45992
▁Frau	-7.47566
▁Ein	-7.47931
▁gegen	-7.48312
▁wurden	-7.48479
▁diesen	-7.48506
▁Diese	-7.4927
▁da	-7.49322
▁ab	-7.50608
de	-7.52265
▁Ihre	-7.53168
▁unserer	-7.53745
▁Europäische	-7.54071
▁habe	-7.54863
▁sondern	-7.55308
▁a	-7.55386
▁seine	-7.55649
▁Menschen	-7.56295
▁jedoch	-7.56891
in	-7.57432
▁A	-7.58593
▁neue	-7.58873
▁Rat	-7.59015
o	-7.60348
'	-7.6099
▁Jahr	-7.61285
▁S	-7.61321
▁heute	-7.61693
▁Welt	-7.64855
▁bereits	-7.65842
▁sollte	-7.66632
▁zwei	-7.67004
▁mich	-7.67414
“	-7.67752
▁and	-7.67981
▁ihrer	-7.68379
B	-7.68421
▁andere	-7.69143
▁europäischen	-7.69692
▁ohne	-7.6986
▁selbst	-7.70214
▁neuen	-7.70426
▁Frage	-7.70986
▁Mit	-7.71197
▁Jahren	-7.7172
▁ganz	-7.72632
▁sollten	-7.75497
▁finden	-7.75928
▁B	-7.75972
den	-7.76044
▁E	-7.7745
i	-7.77506
▁wieder	-7.77652
te	-7.79468
▁bietet	-7.79902
▁viele	-7.81034
▁Unternehmen	-7.82016
ten	-7.82245
▁liegt	-7.82442
▁machen	-7.82559
▁dazu	-7.82577
▁2	-7.82586
▁weil	-7.82614
▁Arbeit	-7.828
▁of	-7.83776
▁allen	-7.8445
▁Recht	-7.84955
z	-7.8498
▁jetzt	-7.86597
▁Land	-7.86641
▁Er	-7.87175
▁Lage	-7.87751
▁wo	-7.87942
ing	-7.87976
▁seiner	-7.88279
▁darauf	-7.88543
▁geht	-7.89263
▁schon	-7.89941
▁einige	-7.90228
▁Maßnahmen	-7.90421
▁Bereich	-7.90972
▁Informationen	-7.91214
).	-7.91599
▁dafür	-7.91856
▁ob	-7.91895
y	-7.9211
▁ihr	-7.93064
▁be	-7.93547
▁Auf	-7.95093
▁Herrn	-7.95217
▁Jahre	-7.95217
▁meine	-7.96084
▁allem	-7.96575
▁Zimmer	-7.96755
▁denen	-7.97013
▁viel	-7.97791
▁ihren	-7.97845
▁denn	-7.97996
▁bin	-7.99463
▁mir	-7.99784
▁würde	-8.00099
▁Eine	-8.00224
▁wollen	-8.00815
▁ver	-8.00924
▁Stadt	-8.019
▁Teil	-8.01922
▁.	-8.01925
▁Wie	-8.02037
▁3	-8.02052
▁Für	-8.02215
▁unseren	-8.03034
▁Daten	-8.03455
▁C	-8.03493
▁Rahmen	-8.03526
▁1	-8.03782
▁während	-8.03991
S	-8.04063
▁gut	-8.04261
▁Sicherheit	-8.04268
em	-8.04455
▁möglich	-8.04662
▁dies	-8.047
▁Und	-8.05184
▁Bürger	-8.05632
▁to	-8.05922
▁sagen	-8.06225
▁etwas	-8.064
k	-8.06604
▁doch	-8.06783
▁nun	-8.06972
▁seit	-8.07081
h	-8.07591
▁Ziel	-8.07802
▁Bei	-8.08238
▁Länder	-8.08291
A	-8.08386
▁insbesondere	-8.09348
▁Parlaments	-8.0995
▁erhalten	-8.10267
▁Dies	-8.10312
▁Aus	-8.11202
▁Art	-8.11553
▁G	-8.11877
▁Unterstützung	-8.12103
▁weiter	-8.12808
▁Fall	-8.13006
▁drei	-8.13757
▁Nach	-8.13829
st	-8.1405
...	-8.14238
▁soll	-8.14411
▁ersten	-8.14631
▁F	-8.14653
▁Namen	-8.15005
▁Vorschlag	-8.1509
▁Zusammenarbeit	-8.15208
▁waren	-8.15396
▁lassen	-8.15491
▁Regierung	-8.15935
▁also	-8.16015
▁wissen	-8.16651
▁geben	-8.16752
▁Problem	-8.16849
▁%	-8.17207
▁einfach	-8.17284
▁beim	-8.17434
▁besteht	-8.17873
▁un	-8.18127
▁Kommissar	-8.18176
▁stehen	-8.18517
▁Kunden	-8.19022
▁Euro	-8.19671
ge	-8.198
▁Ländern	-8.20173
▁wichtig	-8.20359
▁steht	-8.2076
▁sehen	-8.20935
▁Um	-8.21506
▁I	-8.21601
▁wäre	-8.21674
▁...	-8.21828
▁einmal	-8.21954
),	-8.22048
▁tun	-8.22062
▁Fragen	-8.22386
▁An	-8.22462
be	-8.23099
▁dabei	-8.23161
▁Kollegen	-8.2329
▁du	-8.23515
▁Vor	-8.23676
l	-8.23976
▁letzten	-8.24146
▁M	-8.24252
▁große	-8.25648
▁worden	-8.25689
▁welche	-8.26019
▁Bedeutung	-8.26432
▁seinen	-8.26507
▁Ver	-8.26542
▁So	-8.26804
▁Verfügung	-8.272
▁Ihr	-8.27546
▁K	-8.27567
▁Grund	-8.27579
▁großen	-8.27731
ed	-8.27977
▁P	-8.282
▁Möglichkeit	-8.28716
▁Seite	-8.29001
▁Thema	-8.30057
▁Was	-8.30492
▁T	-8.30569
▁Aber	-8.30888
▁muß	-8.31171
▁Auch	-8.31584
sten	-8.31604
an	-8.32221
▁Ab	-8.32545
▁5	-8.32562
▁Be	-8.33089
▁Weise	-8.33177
▁aller	-8.33192
▁Als	-8.33346
▁bieten	-8.3339
▁Mittel	-8.33524
▁davon	-8.336
2	-8.33644
▁kein	-8.33901
▁stellen	-8.34058
▁System	-8.34121
▁Zukunft	-8.34194
▁darüber	-8.34261
▁pro	-8.34729
▁daher	-8.35342
▁Politik	-8.35345
▁weitere	-8.3539
▁kommen	-8.35509
▁Probleme	-8.3554
▁könnte	-8.35605
▁Beispiel	-8.35607
▁Weg	-8.36028
▁wirklich	-8.36071
▁eigenen	-8.36254
ver	-8.36486
▁ge	-8.36814
▁sowohl	-8.36903
▁4	-8.36904
▁Ende	-8.36996
▁politischen	-8.37119
▁D	-8.37188
▁gegenüber	-8.37234
▁Frauen	-8.37251
▁befindet	-8.37443
▁erreichen	-8.37459
▁natürlich	-8.37482
▁la	-8.37511
D	-8.37718
▁entfernt	-8.37726
al	-8.37857
▁Hier	-8.37885
▁hatte	-8.37943
▁unterstützen	-8.3833
▁Kinder	-8.38822
g	-8.39006
▁meiner	-8.39056
f	-8.39086
▁Ihrer	-8.3914
▁zusammen	-8.39164
der	-8.39323
▁besonders	-8.39721
▁Staaten	-8.39905
▁unser	-8.402
▁ihnen	-8.40568
▁Gemeinschaft	-8.40774
▁d	-8.41008
▁Da	-8.41201
▁verschiedenen	-8.41208
▁Rolle	-8.41354
▁innerhalb	-8.41704
▁Seiten	-8.41985
▁Schutz	-8.43016
▁alles	-8.43047
▁10	-8.43302
▁zwar	-8.43467
re	-8.43591
▁Meinung	-8.43979
C	-8.44325
▁m	-8.4457
▁Markt	-8.44648
▁internationalen	-8.44929
▁Tag	-8.45122
▁vielen	-8.45129
K	-8.4566
▁dort	-8.46096
▁direkt	-8.46318
▁Richtlinie	-8.46364
▁Wirtschaft	-8.46755
▁europäische	-8.4683
▁Alle	-8.47072
▁USA	-8.47077
▁The	-8.47746
▁Haus	-8.48052
▁Umwelt	-8.4807
▁möchten	-8.48344
▁erste	-8.4902
▁L	-8.49182
▁Internet	-8.49404
▁Programm	-8.49469
c	-8.49668
▁Leben	-8.49804
▁Ihren	-8.50268
F	-8.50473
b	-8.50988
▁führen	-8.51277
u	-8.51624
▁Uhr	-8.51673
▁Lösung	-8.51724
ischen	-8.53326
▁zurück	-8.53466
▁Zusammenhang	-8.53924
▁Artikel	-8.53994
com	-8.54033
▁Situation	-8.54142
▁stellt	-8.54173
▁H	-8.54261
▁z	-8.55008
▁beiden	-8.55138
▁ja	-8.55251
▁kommt	-8.55336
▁Zu	-8.5537
M	-8.55518
▁hinaus	-8.55616
▁unserem	-8.55723
▁Hilfe	-8.5608
▁Entschließung	-8.56658
▁Energie	-8.57046
▁Präsidentin	-8.57237
▁Qualität	-8.57267
▁will	-8.57759
▁bitte	-8.5826
▁bringen	-8.58335
▁hin	-8.58361
▁Personen	-8.58392
▁Am	-8.58849
▁daran	-8.59194
▁Man	-8.59446
]]	-8.59686
▁weniger	-8.59747
▁V	-8.60058
▁O	-8.60089
▁Form	-8.60137
▁jeder	-8.60145
E	-8.60534
▁all	-8.60622
▁bzw	-8.60625
▁Wasser	-8.60689
politik	-8.60893
▁gilt	-8.60949
ste	-8.61077
▁Deshalb	-8.6111
▁Produkte	-8.61243
▁gesagt	-8.61455
▁Kosten	-8.61488
▁Fraktion	-8.61675
▁politische	-8.61814
▁nämlich	-8.61816
▁indem	-8.6197
▁Dieses	-8.62073
▁sogar	-8.62636
et	-8.62761
▁Millionen	-8.62857
▁N	-8.63183
us	-8.63235
▁Preis	-8.63294
▁20	-8.6338
G	-8.63463
▁Region	-8.63516
▁etwa	-8.63535
ern	-8.63582
▁W	-8.63685
P	-8.64252
▁[[	-8.64333
▁nehmen	-8.64369
▁ihn	-8.64809
▁Rates	-8.6481
▁gemacht	-8.64985
▁Punkt	-8.65278
▁Unsere	-8.6555
w	-8.65675
▁18	-8.66168
T	-8.6669
▁Europas	-8.66703
▁ebenfalls	-8.66704
▁unterstützt	-8.66866
▁ihm	-8.66905
▁for	-8.66939
▁Abstimmung	-8.67029
▁wirtschaftliche	-8.67452
▁dessen	-8.67717
▁2009	-8.6776
▁seinem	-8.67766
▁unterschiedlich	-8.67857
▁Ort	-8.67924
▁Entscheidung	-8.68045
▁gehen	-8.68268
W	-8.68295
▁darf	-8.68457
▁&	-8.68786
▁Software	-8.68821
▁is	-8.6892
▁Verbraucher	-8.6895
▁Dieser	-8.69243
▁darin	-8.69615
▁Durch	-8.69706
▁gerade	-8.69782
▁Aussprache	-8.69812
▁Gesellschaft	-8.69974
▁gute	-8.70233
▁Rechte	-8.70566
ieren	-8.70626
▁glaube	-8.70964
ar	-8.70967
▁Deutschland	-8.71238
▁Wettbewerb	-8.71243
▁öffentlichen	-8.71891
▁dürfen	-8.72097
▁Bezug	-8.72131
▁schaffen	-8.7232
▁Unter	-8.72334
▁genau	-8.72882
▁Anwendung	-8.72899
▁15	-8.72955
▁deutlich	-8.73079
▁R	-8.73102
▁meisten	-8.73496
▁handelt	-8.73501
▁La	-8.73577
le	-8.73616
▁klar	-8.7374
▁brauchen	-8.73759
▁einigen	-8.73761
▁Hotels	-8.73892
p	-8.73945
▁sicher	-8.74077
▁ihrem	-8.74217
▁jeden	-8.74224
▁Kultur	-8.74233
▁nationalen	-8.74233
▁bedeutet	-8.74332
▁sei	-8.74379
ierung	-8.74667
H	-8.75344
▁sollen	-8.75393
▁Service	-8.75556
▁weiterhin	-8.7559
▁6	-8.75776
▁solche	-8.75934
▁Ebene	-8.76183
▁besser	-8.76299
▁betrifft	-8.76701
▁Verantwortung	-8.76733
▁macht	-8.7703
▁schnell	-8.77355
▁Mal	-8.77399
Änderungsanträge	-8.77911
▁keinen	-8.78201
▁Haushalts	-8.78365
▁Zugang	-8.78408
▁Natur	-8.78412
▁Umsetzung	-8.78688
▁Industrie	-8.78821
▁deshalb	-8.78847
▁Über	-8.78902
▁Dank	-8.79104
▁aufgrund	-8.79473
▁bekannt	-8.79532
ungen	-8.79546
▁wichtige	-8.79671
3	-8.79929
um	-8.7999
el	-8.80354
▁erst	-8.80502
▁würden	-8.80592
▁Richtung	-8.80668
▁weit	-8.80675
▁Bar	-8.80701
▁Forschung	-8.80824
▁Geld	-8.80853
▁Dienstleistung	-8.8096
▁besten	-8.81016
x	-8.81147
▁Menschenrechte	-8.81156
▁notwendig	-8.8118
▁Website	-8.8133
▁Demokratie	-8.8136
▁'	-8.8137
ly	-8.81506
▁Berichterstatt	-8.8152
▁Ansicht	-8.81704
spolitik	-8.81734
▁Von	-8.82025
ch	-8.82254
R	-8.82432
▁nächsten	-8.82556
▁Interesse	-8.82618
▁per	-8.82661
▁findet	-8.82674
▁Gebiet	-8.82797
▁gehört	-8.8301
▁statt	-8.83057
▁Nähe	-8.83324
▁nutzen	-8.83349
▁Bevölkerung	-8.83561
ab	-8.83799
iert	-8.83843
▁/	-8.84071
▁allerdings	-8.84388
▁Spiel	-8.84433
▁Wahl	-8.84639
at	-8.84928
▁Projekt	-8.85046
▁s	-8.85089
▁Wirtschafts	-8.85184
lichen	-8.85275
▁f	-8.85304
▁hoffe	-8.85856
▁Bedingungen	-8.86042
▁Ge	-8.86134
▁Verfahren	-8.86367
▁beispielsweise	-8.86407
▁verwendet	-8.86516
ter	-8.86523
▁Haupt	-8.86685
▁Vertrag	-8.86825
▁Grundlage	-8.86839
lich	-8.86845
▁Ziele	-8.87046
▁Vorschläge	-8.8733
▁Produkt	-8.87458
▁re	-8.87467
V	-8.87527
▁De	-8.8761
▁vielleicht	-8.87736
▁erreicht	-8.87877
▁gemeinsamen	-8.87921
L	-8.88285
ig	-8.88399
▁China	-8.8844
▁Re	-8.88598
▁sozialen	-8.88801
to	-8.88937
▁Bild	-8.89013
▁|	-8.89034
▁kleinen	-8.89182
▁Reihe	-8.89189
▁U	-8.8919
▁sprechen	-8.89223
▁Geschichte	-8.89363
▁ermöglicht	-8.89462
▁Finanz	-8.89644
▁Ihrem	-8.89777
1	-8.89779
▁Un	-8.89779
▁Daher	-8.89792
und	-8.89934
sch	-8.89943
▁werde	-8.90001
▁Damen	-8.90267
ische	-8.90658
’	-8.90918
▁Herren	-8.90983
▁bleiben	-8.91044
▁halten	-8.91097
▁arbeiten	-8.91128
▁Debatte	-8.91368
▁weltweit	-8.91628
▁verfügt	-8.9164
land	-8.91805
on	-8.91913
▁zeigt	-8.91996
▁gemeinsame	-8.92243
▁vier	-8.92377
▁verschiedene	-8.92594
▁Erfolg	-8.92854
▁Möglichkeiten	-8.92963
is	-8.93119
▁Le	-8.93132
▁Hinblick	-8.9342
▁könnten	-8.93454
▁lange	-8.93734
▁Doch	-8.93845
▁8	-8.93982
▁wenig	-8.94005
ner	-8.94086
▁gleichzeitig	-8.94657
▁2010	-8.94794
▁Strategie	-8.94818
▁erforderlich	-8.94845
N	-8.94862
▁neu	-8.94945
▁30	-8.94997
▁Auswirkungen	-8.95072
▁2008	-8.95247
▁Institutionen	-8.95379
▁oft	-8.95484
▁Einsatz	-8.95499
▁führt	-8.95534
▁Jahres	-8.95715
or	-8.95789
▁Minuten	-8.95952
▁bereit	-8.95972
▁Änderungsantrag	-8.95987
▁7	-8.95988
▁Text	-8.96117
▁Tatsache	-8.96123
▁Du	-8.96229
▁ebenso	-8.96304
ne	-8.96567
▁km	-8.97073
▁Schritt	-8.97336
▁Ergebnis	-8.9761
▁Nicht	-8.97647
▁Ausdruck	-8.97691
▁“	-8.97722
▁Blick	-8.97836
▁Nutzung	-8.97986
▁entwickelt	-8.9814
zu	-8.98223
▁Kolleginnen	-8.98265
▁Landes	-8.98358
▁hatten	-8.9851
▁gesamten	-8.98826
▁Druck	-8.99069
▁darum	-8.99181
▁Abgeordneten	-8.99357
▁Musik	-8.99367
▁ca	-8.99453
▁danken	-8.99476
▁einzelnen	-8.99484
▁dar	-8.99495
▁fast	-8.99541
▁Regionen	-8.99764
bar	-8.99802
liche	-9.00021
▁Mitglieder	-9.00097
▁Antwort	-9.00231
_	-9.00307
▁Wort	-9.00328
▁internationale	-9.00328
▁Hand	-9.00429
▁Restaurant	-9.00514
▁weiß	-9.00541
▁Bau	-9.00913
▁denke	-9.00924
EN	-9.0095
▁Erweiterung	-9.01048
▁gestellt	-9.01266
▁voll	-9.01268
▁hätte	-9.01273
im	-9.01301
▁Außerdem	-9.01311
▁Platz	-9.01695
▁Verhandlungen	-9.0202
ra	-9.02104
▁gemeinsam	-9.02265
▁konnte	-9.02318
▁jedem	-9.0247
▁Herausforderung	-9.02607
ma	-9.0278
▁befinden	-9.02948
▁hoch	-9.03083
ia	-9.0312
▁setzen	-9.03276
▁12	-9.03588
▁u	-9.03749
▁Beziehungen	-9.03951
▁Seit	-9.04016
na	-9.04046
▁Selbst	-9.04243
▁kleine	-9.04312
▁Förderung	-9.04317
▁jede	-9.04433
▁Fischerei	-9.04447
▁Wert	-9.04452
4	-9.04463
▁Abkommen	-9.04475
▁rund	-9.04485
chen	-9.04601
▁Version	-9.0468
▁heißt	-9.04832
▁e	-9.04832
▁wohl	-9.04868
▁Gesundheit	-9.05039
▁Verordnung	-9.05134
▁Zentrum	-9.05316
▁Aufgabe	-9.05421
▁Bereichen	-9.05565
▁verbunden	-9.05596
▁Partner	-9.05757
▁50	-9.05872
▁helfen	-9.06121
▁on	-9.06162
ation	-9.06186
▁Beschäftigung	-9.06192
▁Beitrag	-9.06308
▁Verbindung	-9.06426
▁fest	-9.06448
▁Türkei	-9.06486
▁völlig	-9.06668
▁Liste	-9.06689
▁Kontrolle	-9.06894
▁Unser	-9.06913
▁gleich	-9.06963
▁richtig	-9.07099
▁enthalten	-9.07502
▁US	-9.07849
▁weiteren	-9.0795
▁nichts	-9.08173
▁Ausschuss	-9.08196
▁Produktion	-9.08412
▁liegen	-9.08509
▁gegeben	-9.08607
▁gab	-9.08983
▁Zum	-9.09227
▁äußerst	-9.09414
▁Interessen	-9.09599
▁gestimmt	-9.09812
▁bleibt	-9.1006
▁Verbesserung	-9.10103
▁Themen	-9.10185
5	-9.10355
no	-9.10415
▁Mai	-9.10553
v	-9.10597
man	-9.10626
▁Ausschusses	-9.10693
▁Meer	-9.10764
▁meinen	-9.11047
os	-9.11078
▁bekommen	-9.11081
”	-9.11092
▁jedes	-9.11318
▁wichtigen	-9.11327
▁St	-9.11341
▁b	-9.11555
▁wegen	-9.11677
▁neben	-9.11762
▁2007	-9.11895
gen	-9.12074
ta	-9.12147
▁fünf	-9.12309
▁Krise	-9.12429
▁Behörden	-9.12524
▁Bitte	-9.12623
ka	-9.12929
▁Handels	-9.12945
▁Macht	-9.12978
▁je	-9.13027
▁J	-9.13331
▁Damit	-9.13427
▁mehrere	-9.13544
ein	-9.13563
▁wichtigsten	-9.13599
▁hinsichtlich	-9.136
se	-9.14039
▁Kampf	-9.14053
▁gerne	-9.14248
▁Rechts	-9.14294
▁ganze	-9.14382
▁Lissabon	-9.14401
it	-9.14567
▁wobei	-9.14875
▁Gruppe	-9.14929
zeit	-9.15354
▁ermöglichen	-9.15372
▁Mitarbeiter	-9.15485
▁Kunst	-9.15597
▁Verwendung	-9.15741
▁unseres	-9.15832
▁soziale	-9.15875
▁enthält	-9.15903
▁Z	-9.15918
▁Ergebnisse	-9.16227
▁See	-9.16297
bereich	-9.16314
▁Gelegenheit	-9.16481
▁ent	-9.16504
j	-9.16723
ur	-9.1674
▁Notwendigkeit	-9.16764
▁Sport	-9.16812
▁zeigen	-9.16863
▁Schaffung	-9.17002
▁Auswahl	-9.17027
▁Anfang	-9.17073
▁Erfahrung	-9.1708
▁Informations	-9.17108
▁Strand	-9.17355
▁spielen	-9.17362
▁di	-9.17397
▁Meine	-9.17557
(	-9.17747
▁Wachstum	-9.17755
schutz	-9.17775
▁Prozess	-9.18467
▁Steuer	-9.18527
ke	-9.18658
▁Raum	-9.18893
▁später	-9.19193
▁Insel	-9.19202
▁vorgeschlagen	-9.19216
▁schriftlich	-9.19277
▁Gewalt	-9.1934
▁verbessern	-9.19346
ä	-9.19403
▁Tage	-9.19431
▁Russland	-9.19433
O	-9.1957
▁eigene	-9.19648
▁100	-9.19654
▁2000	-9.1971
▁derzeit	-9.19781
▁lässt	-9.19818
co	-9.19875
▁Familien	-9.19961
il	-9.2
▁Auto	-9.20065
▁Zeitpunkt	-9.20121
▁Vereinigt	-9.20178
▁wirtschaftlich	-9.20313
▁Umgebung	-9.20318
▁ganzen	-9.20379
▁Angebot	-9.20514
▁tatsächlich	-9.20525
▁with	-9.20628
▁Gäste	-9.20916
▁Landwirtschaft	-9.20923
▁verfügen	-9.20956
▁Benutzer	-9.2096
▁Integration	-9.2114
▁Herzen	-9.21194
▁Darüber	-9.21248
▁Woche	-9.2134
▁verwenden	-9.21377
▁gehören	-9.21495
▁angenommen	-9.21921
igen	-9.22213
▁großer	-9.22281
un	-9.22416
▁gebracht	-9.22455
▁fördern	-9.2252
▁Sozial	-9.22539
▁Web	-9.22595
▁Mehrheit	-9.22643
▁Person	-9.22758
▁Juni	-9.22762
▁l	-9.22985
▁Reform	-9.23004
▁gesamte	-9.23038
la	-9.23097
▁Online	-9.23207
▁meinem	-9.23222
▁Einführung	-9.23255
▁zunächst	-9.23289
▁Handel	-9.23289
ca	-9.23321
▁geführt	-9.23583
▁et	-9.23761
Mail	-9.23857
▁16	-9.23972
▁Frankreich	-9.24295
verständlich	-9.24298
▁sorgen	-9.24353
Berichterstatter	-9.24398
▁Neu	-9.24469
da	-9.24782
▁Änderungen	-9.24795
▁Während	-9.24844
▁Sch	-9.24925
system	-9.25091
▁Dialog	-9.25207
▁Lösungen	-9.25246
▁frei	-9.25302
aus	-9.25484
▁Mitglied	-9.25586
▁Fehler	-9.25623
▁entwickeln	-9.25694
▁gleichen	-9.25699
ce	-9.25899
▁bestehen	-9.25935
▁guten	-9.26424
▁Dabei	-9.26583
▁verstehen	-9.26717
▁Regierungen	-9.26773
▁leicht	-9.26807
▁Flughafen	-9.26814
▁Geschäfts	-9.26824
▁leben	-9.26885
▁1.	-9.26935
▁lediglich	-9.27189
▁Zahl	-9.27209
▁9	-9.27254
▁2006	-9.27342
▁Bildung	-9.27348
▁Sicherheits	-9.27353
▁Änderung	-9.27393
Z	-9.27496
I	-9.27531
▁bisher	-9.27619
as	-9.27658
▁somit	-9.2767
▁gewährleisten	-9.27728
▁se	-9.28003
▁hohen	-9.28291
▁Standpunkt	-9.2832
▁Anzahl	-9.28504
▁con	-9.28542
▁bestimmte	-9.28559
▁h	-9.2868
▁Familie	-9.28698
▁tragen	-9.28775
▁ausgestattet	-9.29038
▁25	-9.29049
▁zweite	-9.29219
li	-9.29242
▁Sommer	-9.29343
isch	-9.2947
sfähigkeit	-9.29572
▁17	-9.29765
▁Dinge	-9.29767
▁anderer	-9.29888
▁hotel	-9.29977
▁Bekämpfung	-9.30011
▁Freiheit	-9.30073
▁Sprache	-9.30221
▁hinter	-9.30402
▁zahlreiche	-9.3048
▁mein	-9.30564
▁Erachtens	-9.30638
▁Funktion	-9.30645
▁neuer	-9.30671
▁Pro	-9.30688
▁Diskussion	-9.30729
▁Jahrhundert	-9.30824
▁nie	-9.30848
th	-9.30896
▁obwohl	-9.30964
▁Personal	-9.31132
industrie	-9.31139
▁stark	-9.31207
▁heraus	-9.31217
▁Gruppen	-9.31431
▁Fortschritte	-9.31509
▁Medien	-9.31637
so	-9.31689
▁scheint	-9.31757
▁:	-9.3191
▁Ja	-9.32008
▁September	-9.3202
▁Design	-9.32198
▁Kraft	-9.32207
▁Reise	-9.32263
▁Aktivitäten	-9.32271
▁geschlossen	-9.32422
▁hohe	-9.32445
me	-9.32477
▁Position	-9.3259
▁sagte	-9.32618
▁bestimmten	-9.32641
Fraktion	-9.32691
▁Neben	-9.32891
▁Co	-9.32907
▁X	-9.32928
▁Initiative	-9.33055
▁einzige	-9.33099
▁versuchen	-9.332
▁außerdem	-9.33315
▁Standard	-9.33354
▁Finanzierung	-9.33427
▁Computer	-9.33436
▁Basis	-9.33449
erin	-9.33503
▁Frühstück	-9.33655
▁bevor	-9.33778
▁14	-9.33848
▁Gefahr	-9.33887
▁erster	-9.33927
▁Dezember	-9.33953
▁Erklärung	-9.34005
▁Stelle	-9.34017
▁dadurch	-9.34047
ler	-9.3434
▁Preise	-9.34351
▁durchgeführt	-9.34373
▁Bestimmungen	-9.3442
▁Punkte	-9.34436
▁gar	-9.34461
▁zweiten	-9.34613
▁Information	-9.34731
di	-9.35092
▁solchen	-9.35131
▁meines	-9.35176
▁Verfassung	-9.35205
▁gemäß	-9.35319
▁insgesamt	-9.35361
▁Arbeits	-9.35572
▁Stunden	-9.35642
▁kurz	-9.35649
▁eingesetzt	-9.35763
|	-9.35802
▁Aufmerksamkeit	-9.35858
▁Haushalt	-9.35861
▁vergangenen	-9.36008
▁aufgenommen	-9.36018
▁erneut	-9.36027
▁schließlich	-9.36226
®	-9.36244
▁San	-9.36292
ismus	-9.3638
▁Konferenz	-9.36399
▁c	-9.36485
▁Al	-9.36529
▁Nur	-9.36576
▁Film	-9.36877
bau	-9.36998
▁einschließlich	-9.37197
ige	-9.37271
▁Verwaltung	-9.3738
▁öffentliche	-9.37408
▁ändern	-9.37569
▁Behandlung	-9.37701
▁alten	-9.37879
▁genießen	-9.37969
ion	-9.38072
é	-9.38093
▁eigentlich	-9.38217
▁März	-9.38345
▁Arbeitnehmer	-9.38355
▁vertreten	-9.38418
ul	-9.38448
▁Tat	-9.38461
ak	-9.38481
▁Entscheidungen	-9.3862
6	-9.38672
▁Öffentlichkeit	-9.38731
▁Küche	-9.39037
▁Anforderungen	-9.39037
▁Präsidentschaft	-9.392
▁größten	-9.39644
▁Vorschriften	-9.39683
keit	-9.39719
▁Folge	-9.39771
▁Tagesordnung	-9.398
Gästebewertungen	-9.39809
▁Frieden	-9.39949
▁leisten	-9.39978
heit	-9.4002
▁Transparenz	-9.40071
▁2005	-9.40161
▁Grenzen	-9.40205
▁Investitionen	-9.40282
▁wichtiger	-9.40489
▁Sinne	-9.40497
▁Höhe	-9.40505
▁Park	-9.4051
▁erwarten	-9.40556
▁Anfrage	-9.40706
▁Sitzung	-9.40738
sa	-9.40998
▁allein	-9.40999
▁Den	-9.41071
▁le	-9.41134
▁Folgen	-9.41158
▁Vertrags	-9.41292
▁leider	-9.4138
▁behandelt	-9.41483
▁geworden	-9.41513
▁vorgelegt	-9.41531
▁Nationen	-9.416
▁konnten	-9.41634
▁Bereiche	-9.41669
▁Berlin	-9.41708
▁Oktober	-9.41714
ic	-9.41719
▁Organisation	-9.41798
▁Programme	-9.41814
▁Januar	-9.41856
▁wenige	-9.42037
▁genommen	-9.42045
▁beste	-9.42076
▁Lebensmittel	-9.42101
▁i	-9.42279
ie	-9.42294
▁Aufenthalt	-9.42365
▁erfolgt	-9.42432
▁Ent	-9.4245
▁Binnenmarkt	-9.42506
▁suchen	-9.42561
▁verantwortlich	-9.42685
▁Team	-9.42806
▁angesicht	-9.42864
▁Gesamt	-9.42904
▁Bilder	-9.42932
▁Kontakt	-9.43028
▁benötigen	-9.43052
▁Staat	-9.43183
▁Juli	-9.43206
▁Video	-9.43221
00	-9.43323
7	-9.43513
▁Zur	-9.43563
▁Auffassung	-9.43629
▁versucht	-9.43743
▁halte	-9.43817
▁13	-9.43932
▁Beginn	-9.43966
▁Gründen	-9.43993
ir	-9.4405
ro	-9.44064
▁aktuellen	-9.4422
▁Firma	-9.44232
▁europäischer	-9.44274
▁40	-9.44372
▁Sache	-9.44394
ry	-9.44611
ster	-9.44692
▁erklärt	-9.44783
▁bezüglich	-9.44787
▁geschaffen	-9.44816
▁weder	-9.44897
▁del	-9.45024
gesellschaft	-9.45031
▁2004	-9.4507
▁gefunden	-9.4513
die	-9.45143
▁Sicht	-9.4516
▁Urlaub	-9.45162
▁Projekte	-9.45179
▁Unternehmens	-9.45194
haus	-9.45307
▁erwartet	-9.45342
▁en	-9.45394
▁kannst	-9.45406
▁nahe	-9.45441
raum	-9.45502
sicherheit	-9.45609
▁sofort	-9.45735
X	-9.45798
▁treffen	-9.45819
▁häufig	-9.45835
▁Republik	-9.45918
▁Werte	-9.45924
id	-9.45939
▁eher	-9.46249
▁begrüße	-9.46263
▁Bad	-9.46301
▁Wochen	-9.46334
▁diejenigen	-9.46376
▁Lebens	-9.46471
▁Regeln	-9.46585
art	-9.46636
▁sieht	-9.46751
svorschriften	-9.46828
▁Heute	-9.46962
▁bringt	-9.46976
▁Solidarität	-9.47134
▁beitragen	-9.47136
▁Ressourcen	-9.47275
▁sechs	-9.4747
▁ziehen	-9.47505
▁Bemühungen	-9.47533
▁recht	-9.47604
▁vergessen	-9.47743
innen	-9.47766
▁19	-9.47806
▁Wunsch	-9.47831
▁größte	-9.47948
▁k	-9.47984
▁Luft	-9.48001
▁Berg	-9.48021
▁Linie	-9.48067
▁erfolgreich	-9.48074
▁getan	-9.4816
▁zehn	-9.48181
▁Licht	-9.48215
▁Rede	-9.48225
▁Ansatz	-9.48247
ber	-9.48269
▁Technologie	-9.48318
▁Transport	-9.48363
▁El	-9.48421
ers	-9.48553
",	-9.48562
▁verhindern	-9.48672
▁Fällen	-9.48691
▁GmbH	-9.48696
▁ausschließlich	-9.48822
▁Nr	-9.48838
ent	-9.48841
auf	-9.48845
▁Flug	-9.48869
▁entsprechenden	-9.4901
▁gelten	-9.492
Schlusselwortern	-9.49224
▁Gebäude	-9.4923
▁Wein	-9.4928
▁)	-9.49287
ja	-9.49307
▁folgt	-9.49386
ko	-9.49486
▁Natürlich	-9.4949
lo	-9.49552
9	-9.49553
▁Monaten	-9.49886
▁11	-9.49914
▁morgen	-9.49993
▁y	-9.50309
go	-9.50328
ci	-9.50385
Kommissarin	-9.50465
▁besondere	-9.50484
▁Bank	-9.50497
▁Italien	-9.50623
▁hätten	-9.50751
▁vollständig	-9.50788
▁Präsidenten	-9.51168
▁genannten	-9.51223
▁lang	-9.51233
▁Krieg	-9.51268
▁nimmt	-9.5135
▁Inhalt	-9.51418
▁New	-9.51512
end	-9.51595
▁Windows	-9.51608
▁anderem	-9.51697
▁paar	-9.51811
▁by	-9.51825
▁Viele	-9.5191
▁Berichts	-9.51943
▁gewesen	-9.51995
30	-9.52022
▁November	-9.5208
▁richtige	-9.52087
ger	-9.52272
▁verpflichtet	-9.52284
▁Atmosphäre	-9.52317
▁que	-9.52411
".	-9.52443
lage	-9.52504
▁berücksichtigt	-9.52521
▁Bürgerinnen	-9.5273
▁fordern	-9.52753
▁Opfer	-9.52985
8	-9.53007
▁erlaubt	-9.53122
mit	-9.5317
▁Vertreter	-9.53234
▁schwer	-9.53294
▁überhaupt	-9.53321
▁erfüllen	-9.53379
Die	-9.53403
&	-9.53465
▁warum	-9.53588
▁Ar	-9.53588
▁entsprechend	-9.53621
schaft	-9.53706
▁Spieler	-9.53831
▁dringend	-9.53892
▁April	-9.54004
▁Praxis	-9.54124
▁Vertrauen	-9.5419
▁Durchführung	-9.5426
▁usw	-9.54361
▁24	-9.54457
▁schützen	-9.54536
▁Erfahrungen	-9.54547
▁Vergangenheit	-9.54555
ton	-9.54661
▁Spanien	-9.54793
▁Aspekte	-9.54853
▁Aufgaben	-9.54894
▁Ratspräsident	-9.54925
▁Dr	-9.55013
▁Annahme	-9.5503
▁very	-9.55114
mann	-9.55119
▁Lassen	-9.55135
▁Tagen	-9.55144
▁Bürgern	-9.55162
▁zahlreichen	-9.55176
▁setzt	-9.55267
▁Augen	-9.55275
▁benutzt	-9.55327
▁Terrorismus	-9.55373
▁nächste	-9.55392
▁ihres	-9.55446
▁gesetzt	-9.55496
▁stimmen	-9.55574
▁at	-9.55629
▁Struktur	-9.55675
▁Außen	-9.5581
á	-9.55877
▁jeweiligen	-9.56046
▁genutzt	-9.56095
sverfahren	-9.56103
weg	-9.56149
los	-9.56167
▁Einrichtung	-9.56192
stand	-9.5621
▁Server	-9.56317
▁Rechnung	-9.56337
▁EUR	-9.56398
▁darstellt	-9.56452
▁Partei	-9.56464
▁Zweitens	-9.56482
▁Restaurants	-9.56511
▁wählen	-9.56601
▁eindeutig	-9.56671
ität	-9.56712
▁stets	-9.56784
▁außerhalb	-9.57075
▁zumindest	-9.57081
▁2003	-9.57092
stellen	-9.57135
▁Gesundheits	-9.57145
▁historischen	-9.57218
ga	-9.57228
▁Einige	-9.57327
▁offen	-9.57343
▁Schritte	-9.57456
▁Angelegenheit	-9.57458
her	-9.57481
▁Armut	-9.57492
▁Garten	-9.57513
▁000	-9.57562
▁AG	-9.57613
0	-9.57614
▁trotz	-9.57622
▁kam	-9.57678
▁zusätzliche	-9.57712
▁automatisch	-9.57751
▁Klima	-9.57897
▁Beitritt	-9.57943
▁größere	-9.57988
In	-9.58008
stein	-9.58064
▁genug	-9.58074
ist	-9.58121
▁deine	-9.58128
rat	-9.5813
▁Nacht	-9.58337
oder	-9.58587
▁modernen	-9.58625
▁heutigen	-9.58628
▁Parteien	-9.5874
▁Abend	-9.58785
▁Vergleich	-9.58815
▁kennen	-9.5885
ut	-9.58984
▁Dazu	-9.58995
▁bessere	-9.59038
▁Besuch	-9.59063
ti	-9.59089
▁Buch	-9.59095
▁Denn	-9.59176
▁Schwierigkeiten	-9.5922
ik	-9.59228
platz	-9.59292
▁from	-9.59294
▁Allerdings	-9.59635
▁Hinsicht	-9.59743
am	-9.59747
vor	-9.59753
▁Test	-9.59755
ien	-9.59784
▁erinnern	-9.59968
▁welches	-9.60212
▁Angelegenheiten	-9.60266
tal	-9.60281
ben	-9.60363
▁mal	-9.60427
▁Stand	-9.60506
▁etc	-9.60551
▁persönlichen	-9.60603
▁All	-9.60625
▁folgenden	-9.60629
▁Staats	-9.60654
▁you	-9.60708
▁v	-9.6074
▁Prozent	-9.60827
▁it	-9.60841
▁technischen	-9.60991
ment	-9.61048
▁Dann	-9.61093
Be	-9.61106
▁Firmen	-9.61299
▁letzte	-9.6134
▁überzeugt	-9.61346
he	-9.6141
▁Arbeitsplätze	-9.61576
▁deutschen	-9.61584
▁her	-9.61666
▁Milliarden	-9.61745
▁übernehmen	-9.61762
▁Wer	-9.61783
▁Nun	-9.6182
▁Ausbildung	-9.6186
▁Post	-9.61883
mal	-9.61912
▁Instrument	-9.61922
▁entscheiden	-9.61983
▁beide	-9.62141
ende	-9.6232
▁sch	-9.62376
▁erfahren	-9.62381
▁gesehen	-9.62394
▁privaten	-9.6244
▁Rück	-9.6249
▁Obwohl	-9.62493
▁allgemeinen	-9.62573
▁genannt	-9.62889
▁endlich	-9.62901
ft	-9.62929
mm	-9.63035
▁Osten	-9.63057
▁Zeichen	-9.63139
▁Protokoll	-9.6319
▁Einfluss	-9.63195
isierung	-9.63304
▁Zustimmung	-9.63365
mo	-9.6341
▁stärker	-9.63439
▁Volk	-9.63448
▁begrüßen	-9.63555
▁eben	-9.63593
▁Datei	-9.63595
▁zudem	-9.63599
unternehmen	-9.63829
▁entsprechende	-9.63832
io	-9.63838
do	-9.63857
programm	-9.63859
▁gezeigt	-9.63916
▁Leistung	-9.64056
▁Erstens	-9.64062
▁Stabilität	-9.64117
▁[	-9.6412
▁gelegen	-9.6428
▁Stil	-9.64364
▁bewusst	-9.64488
▁unbedingt	-9.6461
▁aktuelle	-9.64626
▁not	-9.64711
▁Leute	-9.64765
▁Konzept	-9.64805
▁erstellt	-9.6497
▁Netzwerk	-9.64991
form	-9.65004
markt	-9.65157
▁Management	-9.6528
▁kaum	-9.65342
ale	-9.65388
▁Tätigkeit	-9.65433
▁Anerkennung	-9.65448
▁Irak	-9.65475
▁Öl	-9.65573
▁bitten	-9.65575
▁Wann	-9.65639
▁neues	-9.65651
je	-9.65908
▁60	-9.65947
min	-9.66107
▁beginnen	-9.66111
▁Anstrengungen	-9.66165
▁Risiko	-9.66335
▁Währung	-9.66486
recht	-9.66537
▁Verpflichtungen	-9.66571
▁Falle	-9.66693
▁Aufnahme	-9.66714
▁Ausschuß	-9.66722
▁Ist	-9.66745
▁p	-9.66936
▁à	-9.67009
Ver	-9.67188
▁beschlossen	-9.67207
▁moderne	-9.67244
▁seines	-9.67306
▁Telefon	-9.67346
▁bilden	-9.67378
▁Idee	-9.6745
▁Hause	-9.67483
▁room	-9.67503
▁erkennen	-9.67506
son	-9.67584
▁wahrscheinlich	-9.67619
▁Abschluss	-9.67696
]	-9.6772
▁r	-9.67722
▁Menschenrechts	-9.6775
▁Kompromiss	-9.67865
▁wesentlich	-9.67983
▁nationale	-9.68037
▁veröffentlicht	-9.68061
▁Verkehrs	-9.68077
▁verfügbar	-9.68104
▁entspricht	-9.68111
▁Organisationen	-9.68131
▁bald	-9.68147
▁Überwachung	-9.68169
▁Vereinbarung	-9.68263
▁Modell	-9.68433
▁Mar	-9.68437
▁Mo	-9.68553
▁entschieden	-9.68589
▁braucht	-9.68656
▁folgen	-9.68712
▁Site	-9.68727
▁Holz	-9.68808
▁Mitteilung	-9.69041
des	-9.69067
▁Gemeinschafts	-9.69098
▁berücksichtigen	-9.69106
▁t	-9.69203
▁Haltung	-9.69207
▁getroffen	-9.69343
▁Paris	-9.69368
▁Mitgliedstaat	-9.69401
U	-9.69476
▁Besucher	-9.69588
▁unten	-9.69699
▁geändert	-9.69845
ier	-9.6985
▁Falls	-9.6986
▁Fuß	-9.6989
technik	-9.69988
daten	-9.69989
▁as	-9.70092
▁Kriterien	-9.70223
▁außer	-9.70247
▁€	-9.70344
zen	-9.7042
är	-9.70454
▁Mehr	-9.70469
▁Foto	-9.70475
▁Straßen	-9.70493
▁Wahlen	-9.70498
▁Plan	-9.70619
▁erwähnt	-9.70638
▁erfüllt	-9.70647
ü	-9.7066
▁mindestens	-9.70672
Y	-9.70706
ana	-9.70882
▁Vorteile	-9.70969
▁globalen	-9.71002
▁nachdem	-9.71045
▁Ausgaben	-9.71176
▁danke	-9.71304
▁Ihres	-9.714
▁Anspruch	-9.7144
▁ausdrücklich	-9.71451
▁Sektor	-9.7156
▁Schluss	-9.71586
▁demokratischen	-9.71613
ha	-9.7162
▁hinweisen	-9.7162
ex	-9.71646
▁ergreifen	-9.7176
ad	-9.71821
sektor	-9.71898
▁mehreren	-9.7191
▁umgesetzt	-9.72209
▁erzielt	-9.72277
▁Hintergrund	-9.72347
▁angezeigt	-9.72376
▁August	-9.72379
▁Sa	-9.72503
isten	-9.72516
▁technische	-9.72531
▁Con	-9.72615
▁gesprochen	-9.72639
▁Körper	-9.7264
▁festgelegt	-9.72658
▁Inhalte	-9.72668
▁Antrag	-9.72683
▁glauben	-9.72703
▁el	-9.72826
▁akzeptieren	-9.72827
▁2002	-9.72851
10	-9.72994
▁sicherzustellen	-9.7324
▁jene	-9.733
▁gleiche	-9.73462
▁euch	-9.73485
▁Reformen	-9.73491
▁benutzen	-9.73532
tro	-9.73541
▁Sprachen	-9.73555
ell	-9.73652
▁bestimmt	-9.73708
▁Nutzen	-9.74029
▁eingerichtet	-9.7404
▁möglicherweise	-9.74078
▁Schließlich	-9.74093
ierte	-9.74254
▁verbessert	-9.74268
▁Zudem	-9.74271
▁besonderen	-9.74291
ina	-9.74327
▁Zeitraum	-9.74389
▁Sollte	-9.74442
▁Zunächst	-9.74452
▁aktiv	-9.74484
pro	-9.74489
▁bestehenden	-9.74499
au	-9.74505
berg	-9.74537
▁Winter	-9.74538
▁Wo	-9.74711
mittel	-9.74736
J	-9.74782
▁online	-9.74817
ve	-9.74946
▁Karte	-9.74962
▁Golf	-9.74975
▁Komfort	-9.74992
▁Mio	-9.75015
▁oben	-9.75029
▁2001	-9.75066
druck	-9.75076
▁UN	-9.75109
▁Israel	-9.75281
ine	-9.75296
▁ging	-9.75386
▁Stimme	-9.7545
▁Kenntnis	-9.75495
▁Chance	-9.75756
▁Homepage	-9.75862
▁prüfen	-9.75877
▁zuletzt	-9.75914
▁lösen	-9.75945
▁fahren	-9.75971
▁funktioniert	-9.76019
▁Minister	-9.76038
▁Herstellung	-9.7605
▁Suche	-9.76117
▁Regelung	-9.76145
▁freuen	-9.76302
▁Gas	-9.76323
▁Partnerschaft	-9.76348
▁gefordert	-9.76482
▁Groß	-9.76487
▁finanziellen	-9.76488
▁Schlüssel	-9.76515
gt	-9.76558
ni	-9.766
▁Titel	-9.76609
▁Kooperation	-9.76615
▁konkrete	-9.76759
▁dienen	-9.76773
▁Sonder	-9.76778
▁Monate	-9.76793
▁Unterkategorien	-9.7682
▁Anteil	-9.76937
▁geeignet	-9.76964
▁vermeiden	-9.77148
▁Wege	-9.77159
▁or	-9.77267
santrag	-9.77302
▁anders	-9.77328
▁He	-9.77389
▁hoffen	-9.77429
▁Kommunikation	-9.77478
▁Produktions	-9.77498
▁beziehen	-9.77505
che	-9.77545
▁80	-9.77655
▁0	-9.7768
▁Forderung	-9.77752
▁alte	-9.77864
▁Technologien	-9.77931
▁wünschen	-9.78077
▁vorhanden	-9.78188
▁wer	-9.78216
ling	-9.78293
ant	-9.78311
▁ständig	-9.78326
▁Aufbau	-9.78361
▁jederzeit	-9.7838
▁Japan	-9.78388
net	-9.78391
▁we	-9.78516
▁200	-9.78568
▁teilweise	-9.78698
▁Vielfalt	-9.78746
▁Zweck	-9.78801
▁notwendigen	-9.7887
bild	-9.78901
ungs	-9.78943
▁g	-9.78945
ken	-9.79025
▁Richtlinien	-9.7909
ze	-9.79105
▁Systems	-9.79123
▁Hafen	-9.79124
­	-9.79147
ho	-9.7919
▁freien	-9.79266
▁verfolgt	-9.79292
▁Menge	-9.79349
▁Ob	-9.79459
“,	-9.79479
▁vorgesehen	-9.79499
▁Waffen	-9.79525
▁Funktionen	-9.79539
▁Ski	-9.79563
ren	-9.79573
▁Zweifel	-9.79616
▁lesen	-9.79625
▁Februar	-9.79635
▁sicherlich	-9.79653
▁o	-9.79655
systeme	-9.79736
▁Gesetzgebung	-9.7978
▁Boden	-9.79786
▁Gipfel	-9.79812
▁darunter	-9.7986
▁Großbritannien	-9.79961
▁Meter	-9.79988
Re	-9.80006
▁Bus	-9.80031
▁erzielen	-9.80084
▁sagt	-9.80089
▁gern	-9.80097
▁Regel	-9.80111
▁offensichtlich	-9.80138
▁Wissen	-9.80169
▁garantiert	-9.80206
▁Dateien	-9.80291
▁geleistet	-9.80338
▁Forschungs	-9.80339
▁Grundsatz	-9.80447
lichkeit	-9.80501
▁dank	-9.80597
▁Waren	-9.80655
▁Straße	-9.80665
▁erhöhen	-9.80711
▁Kindern	-9.80748
▁1999	-9.808
▁gelangen	-9.80815
▁entweder	-9.80903
▁eingeführt	-9.80925
iz	-9.80952
▁Vereint	-9.80967
▁Iran	-9.80969
▁Ro	-9.80983
▁relativ	-9.81054
up	-9.81088
▁jeweils	-9.81178
▁no	-9.81181
▁entstehen	-9.81188
▁Einrichtungen	-9.81218
▁tätig	-9.81344
▁Österreich	-9.81507
ach	-9.81534
▁No	-9.81539
▁speziell	-9.81575
▁bestätigt	-9.81577
▁Kapital	-9.81643
▁wollte	-9.81707
▁Abschließend	-9.81743
age	-9.81802
▁National	-9.81896
▁übernachten	-9.8191
▁Je	-9.81911
▁besuchen	-9.81935
gang	-9.81983
▁Start	-9.82095
▁betrachtet	-9.82167
tra	-9.82254
▁Stellen	-9.82291
ol	-9.82307
seite	-9.82402
▁Na	-9.82414
▁gekommen	-9.82418
▁stimme	-9.82433
▁spielt	-9.82848
▁schwierig	-9.82862
▁Banken	-9.82865
▁Produkten	-9.82946
▁betonen	-9.82992
kosten	-9.83003
▁Abgeordnete	-9.83073
▁Nord	-9.83101
▁Volks	-9.83107
▁kommenden	-9.83127
▁Villa	-9.83164
▁Kritik	-9.83205
▁Installation	-9.8321
▁gegründet	-9.83353
feld	-9.83383
ok	-9.83391
▁that	-9.83408
▁Instrumente	-9.83422
vo	-9.83472
entwicklung	-9.83486
tag	-9.83506
▁Bewertung	-9.83539
▁Veränderungen	-9.83595
▁welcher	-9.83621
▁Dienst	-9.83622
▁handeln	-9.83625
▁Barcelona	-9.83629
▁wären	-9.83703
ek	-9.8373
▁gerecht	-9.83733
An	-9.83736
▁lernen	-9.83786
▁darstellen	-9.83799
▁aufmerksam	-9.83854
▁Sitz	-9.83986
▁informieren	-9.84009
▁Gast	-9.84032
▁Dienste	-9.84138
ó	-9.84227
▁Paket	-9.84267
▁Engagement	-9.84279
▁Tradition	-9.84355
▁finanzielle	-9.84496
▁Einigung	-9.84507
▁Ka	-9.84508
▁Tor	-9.84525
▁umfasst	-9.84577
▁Hoch	-9.84611
▁Sinn	-9.84624
▁Li	-9.84628
▁Webseite	-9.8468
▁Car	-9.84689
▁geschützt	-9.84888
▁klare	-9.84939
▁Des	-9.84971
▁fragen	-9.84976
▁Leider	-9.85008
▁dagegen	-9.8503
▁erfolgen	-9.85071
▁Initiativen	-9.85136
▁Absatz	-9.85141
▁Netz	-9.85143
pa	-9.85165
▁Hersteller	-9.85173
▁Mitte	-9.85239
▁London	-9.85254
▁anderes	-9.8526
▁stärken	-9.85277
▁gewährleistet	-9.85305
▁Leistungen	-9.85305
▁Klein	-9.85337
▁benötigt	-9.85349
▁Jetzt	-9.85349
▁are	-9.85422
▁TV	-9.85429
▁erklären	-9.85461
50	-9.85529
▁Charakter	-9.85549
▁Betrieb	-9.85563
▁Schweiz	-9.85578
▁Analyse	-9.85585
St	-9.85634
▁absolut	-9.85663
▁groß	-9.85781
▁durchaus	-9.85801
▁Einzel	-9.85884
▁Fonds	-9.85989
▁Teile	-9.86028
▁Innovation	-9.86053
▁Gesetz	-9.86186
▁erleben	-9.862
buch	-9.86274
▁Welche	-9.86357
▁Fach	-9.86457
▁Moment	-9.86501
ich	-9.86531
▁arbeitet	-9.86544
▁Status	-9.86666
▁Angaben	-9.86824
über	-9.86848
▁bezeichnet	-9.86851
í	-9.86887
▁unternehmen	-9.86921
▁allgemeine	-9.86929
▁freue	-9.86956
nach	-9.86963
▁al	-9.86987
enden	-9.87051
▁Kauf	-9.87089
▁angesprochen	-9.87101
IT	-9.87144
▁Worte	-9.87432
▁Dokument	-9.87451
▁lokalen	-9.87478
ang	-9.8749
▁Brüssel	-9.87537
▁Lesung	-9.87538
▁jegliche	-9.87563
▁ausreichend	-9.87586
▁Dollar	-9.87593
▁trägt	-9.87636
▁Zwei	-9.87639
ri	-9.87657
▁Stellungnahme	-9.8771
▁Warum	-9.8772
gel	-9.87803
▁Vielen	-9.87849
▁hält	-9.87852
Sch	-9.87863
▁komplett	-9.87894
▁näher	-9.87895
igkeit	-9.87929
▁zufrieden	-9.87929
▁abgeschlossen	-9.88033
▁erscheint	-9.88198
▁Prioritäten	-9.88206
▁Verpflichtung	-9.88207
▁Untersuchung	-9.88209
▁Material	-9.88255
▁legen	-9.88309
▁verloren	-9.88336
fall	-9.88347
▁konzentrieren	-9.88405
▁unabhängig	-9.8844
sh	-9.88444
Hotel	-9.88463
▁verfolgen	-9.88485
▁Aspekt	-9.88597
arbeit	-9.88645
▁Fortschritt	-9.88853
▁Einhaltung	-9.88859
▁Beteiligung	-9.88939
▁übertragen	-9.8894
ac	-9.88984
maßnahmen	-9.89024
▁Systeme	-9.8903
▁Sehenswürdigkei	-9.89043
▁Prinzip	-9.89055
▁me	-9.89154
able	-9.89167
ck	-9.89182
▁Dennoch	-9.89194
▁möglichst	-9.89202
▁dennoch	-9.8925
▁Klicken	-9.89365
▁Hauses	-9.89435
▁Kern	-9.89441
▁wenigen	-9.89507
▁Achtung	-9.89516
▁Nutzer	-9.89655
▁klicken	-9.89656
▁Kirche	-9.89694
ino	-9.89721
▁positive	-9.89803
▁Nachfolgend	-9.8985
▁erstellen	-9.89872
▁Arbeiten	-9.89891
pe	-9.89978
▁Forderungen	-9.90005
▁II	-9.9001
▁amerikanischen	-9.9006
▁Sorge	-9.90063
▁eingehen	-9.90064
▁herzlich	-9.90081
60	-9.901
▁Berichte	-9.9016
▁International	-9.90171
▁entgegen	-9.90285
▁21	-9.90369
▁los	-9.90445
po	-9.90495
▁verlassen	-9.90631
▁Gebieten	-9.90647
zimmer	-9.90701
▁Di	-9.90771
ba	-9.9083
fragen	-9.9087
▁Ko	-9.90895
▁Jahrhunderts	-9.90931
▁diskutieren	-9.90935
▁Terrasse	-9.90943
▁Realität	-9.91012
▁angeboten	-9.91063
▁Patienten	-9.91108
▁Verkehr	-9.91111
per	-9.91137
▁Unterkunft	-9.91226
▁Globalisierung	-9.91242
▁länger	-9.91247
▁Seine	-9.91378
▁Stärkung	-9.91406
▁Umfang	-9.9145
▁Gemeinsamen	-9.91498
▁erhält	-9.91626
▁Anti	-9.91691
▁persönlich	-9.91701
zi	-9.91777
▁Führung	-9.9184
▁zahlen	-9.91849
▁schneller	-9.9195
▁PC	-9.91987
▁Ideen	-9.91992
▁w	-9.92174
▁Begriff	-9.92176
wie	-9.9221
▁Gott	-9.92272
▁Gleichzeitig	-9.92371
▁Werk	-9.92391
▁Ruhe	-9.92431
ow	-9.92518
▁Polen	-9.92536
▁ideal	-9.92579
▁feststellen	-9.92618
▁hören	-9.92685
▁mag	-9.92686
▁entscheidend	-9.92708
▁täglich	-9.92779
▁beteiligt	-9.92788
nd	-9.92789
Geschäftsordnung	-9.9279
▁Ukraine	-9.92867
▁folgende	-9.92955
▁geöffnet	-9.93003
▁West	-9.93004
▁Bis	-9.93014
▁Afrika	-9.93015
ert	-9.93068
▁Vielzahl	-9.93206
▁York	-9.93282
▁Formen	-9.93428
Arbeitslosigkeit	-9.9344
▁Teilnehmer	-9.93444
▁übrigen	-9.9347
▁überprüfen	-9.93609
▁hergestellt	-9.93628
▁stattfinden	-9.93662
▁positiv	-9.93731
▁23	-9.93823
▁500	-9.93845
▁schönen	-9.93949
▁Militär	-9.94067
▁hingewiesen	-9.94078
▁Name	-9.9415
▁kulturellen	-9.9416
▁denken	-9.94219
organisation	-9.94237
▁gegenwärtig	-9.94314
va	-9.94328
nt	-9.94394
▁Texte	-9.94483
men	-9.94498
▁profitieren	-9.94532
▁Flexibilität	-9.94579
▁Debian	-9.94596
▁miteinander	-9.94605
▁links	-9.94609
▁einiger	-9.94684
▁Anpassung	-9.94872
▁Infrastruktur	-9.94931
▁diskutiert	-9.94957
op	-9.94973
▁Städte	-9.94983
▁Priorität	-9.94996
▁Entwurf	-9.95048
les	-9.95057
▁Bedürfnisse	-9.95108
ive	-9.95189
▁Irland	-9.95199
▁Wirkung	-9.95226
▁einsetzen	-9.95283
▁*	-9.95299
▁Angesichts	-9.95387
▁erforderlichen	-9.95549
▁gewinnen	-9.95611
▁Standards	-9.95622
▁sämtliche	-9.95664
stadt	-9.95857
▁Prüfung	-9.95864
▁gewisse	-9.95877
▁Liebe	-9.9596
▁Niveau	-9.95984
sprozess	-9.96067
▁Tourismus	-9.96091
▁Pa	-9.96169
▁Business	-9.96307
▁Beschreibung	-9.96311
▁zentrale	-9.96419
▁19.	-9.96427
▁do	-9.96472
sbereich	-9.96475
▁betroffen	-9.96478
▁nennen	-9.96486
▁Dem	-9.96505
▁geschehen	-9.9652
produktion	-9.96665
▁informiert	-9.9671
▁Sehr	-9.96715
ei	-9.96727
▁Aussicht	-9.96766
lu	-9.96831
▁beinhaltet	-9.96853
▁regionalen	-9.96883
▁Europäer	-9.96935
▁Maschinen	-9.9694
▁danach	-9.96965
▁Tisch	-9.97019
▁Größe	-9.97022
▁unterstütze	-9.97035
▁Griechenland	-9.9705
▁kostenlos	-9.97065
▁spezielle	-9.97077
▁überall	-9.97118
▁Arten	-9.97142
zug	-9.97143
▁Diskriminierung	-9.97157
ssystem	-9.97268
▁Indien	-9.97303
▁Elemente	-9.9737
▁Anwendungen	-9.97379
▁Privat	-9.97466
▁Jeder	-9.97489
▁Koordinierung	-9.97612
spiel	-9.97625
▁Versuch	-9.97689
▁beginnt	-9.97726
▁umfassende	-9.97736
▁besitzt	-9.97742
▁IT	-9.97783
▁Anlagen	-9.97783
stellung	-9.97832
▁www	-9.97855
▁weiterer	-9.97916
▁Maße	-9.97966
▁vorliegenden	-9.97996
▁erhöht	-9.98051
bo	-9.98053
keinerlei	-9.98157
▁politischer	-9.98227
▁beschäftigt	-9.98247
▁CD	-9.98299
▁Überprüfung	-9.983
plan	-9.9833
▁Y	-9.98361
▁Kosovo	-9.98377
mar	-9.98456
▁Club	-9.98456
▁Band	-9.98493
▁richtigen	-9.98512
management	-9.98569
▁Wettbewerbs	-9.98576
satz	-9.98581
▁vollkommen	-9.98601
▁gestalten	-9.98689
▁französischen	-9.98693
▁Ho	-9.9873
▁Hinweis	-9.98782
sbedingungen	-9.98783
▁abge	-9.98806
▁Einwanderung	-9.98814
▁Inter	-9.98819
bel	-9.98872
▁Ereignisse	-9.98956
tes	-9.99029
▁Hoffnung	-9.99039
▁End	-9.99067
▁Monat	-9.9916
halten	-9.99164
fer	-9.99191
▁Altstadt	-9.99199
▁Zeiten	-9.99224
▁Süd	-9.99275
▁Asyl	-9.9933
erweise	-9.99333
fi	-9.9936
ort	-9.9943
▁Treffen	-9.99474
▁90	-9.99478
wert	-9.99543
▁fallen	-9.99636
org	-9.99638
▁Meiner	-9.9969
▁demokratische	-9.99703
▁les	-9.99707
▁Vorbereitung	-9.99789
que	-9.99793
kommen	-9.99804
▁Künstler	-9.99817
▁zusätzlich	-9.99825
▁Gold	-9.99839
ö	-10.0002
ot	-10.0003
▁ergeben	-10.0005
▁garantieren	-10.0009
▁CO	-10.001
▁Ordnung	-10.0012
▁falls	-10.0013
Sterne	-10.0015
▁Liberalisierung	-10.0016
▁Fenster	-10.0018
▁festgestellt	-10.002
ki	-10.0023
▁größeren	-10.0024
▁hauptsächlich	-10.0032
▁empfehlen	-10.0038
▁com	-10.0046
▁Gründe	-10.0054
▁Anlage	-10.0058
▁Märkte	-10.0064
▁»	-10.0069
▁Ri	-10.0071
Ge	-10.0076
20	-10.0082
▁ideale	-10.0083
▁solcher	-10.0095
ierten	-10.0097
▁WTO	-10.0098
▁einfache	-10.01
▁wichtigste	-10.0102
▁dient	-10.0111
▁internationaler	-10.0114
▁Eindruck	-10.0115
▁Ober	-10.0119
▁liebe	-10.0119
▁Tier	-10.0122
ate	-10.0126
▁70	-10.0127
▁Technik	-10.013
▁Gesetze	-10.0133
▁gegenwärtigen	-10.0135
hilfe	-10.0136
ou	-10.0153
ven	-10.0155
bi	-10.0155
▁Grundrechte	-10.0159
▁Buchung	-10.0162
▁warten	-10.0162
▁Regelungen	-10.017
▁Fisch	-10.017
▁Universität	-10.0181
▁meist	-10.0184
▁rechts	-10.0185
teil	-10.0185
▁Polizei	-10.0193
▁akzeptiert	-10.0197
▁zuvor	-10.0201
Das	-10.0205
▁22	-10.0207
▁Tages	-10.0209
▁Gebiete	-10.0223
▁Unabhängigkeit	-10.0229
▁Karten	-10.023
▁Download	-10.023
▁entsprechen	-10.0236
wirtschaft	-10.0237
▁Weitere	-10.024
punkt	-10.0249
▁Museum	-10.0254
▁Reaktion	-10.026
▁Botschaft	-10.026
möglichkeiten	-10.0268
5-0	-10.0272
▁Worten	-10.0273
▁betrachten	-10.0276
▁Stadtzentrum	-10.0285
anlagen	-10.0299
▁deutsche	-10.0302
▁regelmäßig	-10.0303
▁Erde	-10.0305
▁eng	-10.0306
▁Kurs	-10.0312
▁Gegensatz	-10.0315
▁Mann	-10.0342
▁We	-10.035
▁300	-10.035
▁Studien	-10.0352
▁Justiz	-10.0354
kraft	-10.0356
▁verbundenen	-10.0361
▁erfordert	-10.0367
▁Option	-10.0369
du	-10.0374
▁Meeres	-10.0375
▁1998	-10.0381
▁wesentlichen	-10.0386
▁Angriff	-10.0387
za	-10.0388
▁Verständnis	-10.0388
▁Spa	-10.039
▁Kohäsion	-10.0393
ug	-10.0417
verfahren	-10.0419
bedingungen	-10.0427
▁Bestandteil	-10.0431
▁Ne	-10.0436
▁Booking	-10.0448
▁Lo	-10.0452
▁Go	-10.0459
▁Gedanken	-10.0466
▁starke	-10.0466
▁Verteidigung	-10.0468
▁Erklärungen	-10.047
▁gelungen	-10.0475
▁Gebrauch	-10.0476
▁britischen	-10.0483
legen	-10.0484
▁Klimaanlage	-10.0491
▁were	-10.0492
▁Mindest	-10.0493
▁Stein	-10.0495
▁Fa	-10.0506
▁Westen	-10.0508
▁Konflikt	-10.051
▁Jo	-10.0511
EL	-10.0514
▁daraus	-10.0525
▁persönliche	-10.0526
▁Ausland	-10.0531
▁derartige	-10.0532
▁Aktionen	-10.0533
▁27	-10.0533
▁zunehmend	-10.0538
▁Ma	-10.0545
▁Vorteil	-10.0552
▁nachhaltige	-10.0555
▁schöne	-10.0561
▁Zwischen	-10.0562
dienst	-10.0563
▁+	-10.0566
▁Gefühl	-10.0573
▁Problemen	-10.0576
sion	-10.0582
▁beachten	-10.0582
▁Formular	-10.0582
fahrt	-10.0583
▁Portugal	-10.0583
▁kürzlich	-10.0585
▁Farb	-10.0586
System	-10.0591
▁junge	-10.0593
▁Agentur	-10.0593
smöglichkeiten	-10.0605
▁Englisch	-10.0608
▁Amsterdam	-10.0609
▁bequem	-10.0613
▁Zahlen	-10.0614
▁Nachdem	-10.0614
▁Po	-10.0617
▁großes	-10.0626
▁Kombination	-10.0632
▁Se	-10.0635
▁Risiken	-10.0638
▁Erhöhung	-10.0642
▁speziellen	-10.0644
▁Wissenschaft	-10.0645
▁Fotos	-10.0647
▁Zugriff	-10.0647
si	-10.0648
▁höhere	-10.0649
▁this	-10.0653
▁Papier	-10.0653
hi	-10.0658
▁Dorf	-10.0661
▁Völker	-10.0673
▁Königreich	-10.0675
▁gutes	-10.0676
▁Haut	-10.0679
▁beglückwünsche	-10.0681
▁Agrar	-10.0685
▁2.	-10.0687
▁Empfehlungen	-10.07
▁einverstanden	-10.0713
res	-10.0713
▁Star	-10.0718
▁Süden	-10.0725
▁Laufe	-10.0725
▁jüngsten	-10.0728
Innen	-10.0729
▁manchmal	-10.0731
▁praktisch	-10.0735
▁gehalten	-10.074
▁historische	-10.0741
▁Experten	-10.0741
▁Beihilfen	-10.0742
▁treten	-10.0742
▁Gegenteil	-10.0751
frage	-10.0754
▁Bo	-10.0769
▁geschieht	-10.077
▁gewählt	-10.0782
▁Architektur	-10.0785
▁Politiker	-10.0791
▁außerordentlich	-10.0792
▁Bedarf	-10.0802
▁zugänglich	-10.0804
smaßnahmen	-10.0807
tisch	-10.0811
▁Entwicklungen	-10.0817
▁unternommen	-10.0822
▁langen	-10.0825
▁Feld	-10.0825
führung	-10.083
ide	-10.083
▁Zustand	-10.0834
▁Männer	-10.0834
▁n	-10.0841
▁kaufen	-10.0842
▁Wind	-10.0844
▁Teilnahme	-10.0846
▁sobald	-10.0846
fe	-10.0852
▁Geist	-10.0854
▁Voraussetzungen	-10.0854
ES	-10.0857
▁zählen	-10.0857
▁Planung	-10.0857
▁anerkannt	-10.0857
▁Rand	-10.0863
▁einzelne	-10.0864
▁Farben	-10.0867
▁spricht	-10.0868
▁3.	-10.0869
▁mittels	-10.0869
▁jungen	-10.0876
▁acht	-10.088
▁Hälfte	-10.0882
▁nationaler	-10.0896
▁installiert	-10.09
▁Rest	-10.0901
▁Links	-10.0902
▁Beim	-10.0904
▁übernommen	-10.0907
▁Minderheiten	-10.0907
▁Zoll	-10.0926
▁Bio	-10.0928
▁Landschaft	-10.093
▁einzigen	-10.0933
▁bewegen	-10.0947
▁globale	-10.095
▁sage	-10.0951
▁Hauptstadt	-10.0953
▁Jugend	-10.0953
▁Phase	-10.0955
▁damals	-10.0955
▁fordert	-10.0955
▁Mitteln	-10.0956
▁abhängig	-10.0956
▁ernst	-10.0957
▁Pflicht	-10.096
▁Ratsvorsitz	-10.0961
▁bildet	-10.0962
▁Bahnhof	-10.0966
▁Auftrag	-10.0975
▁Freunde	-10.0986
▁wodurch	-10.0992
▁Überzeugung	-10.0993
▁Erholung	-10.0995
..."	-10.1002
▁Touristen	-10.1011
▁Austausch	-10.1012
▁Frei	-10.1014
▁Presse	-10.1015
▁Grunde	-10.1016
▁This	-10.1019
gruppe	-10.102
ium	-10.1025
▁guter	-10.1026
tor	-10.1027
▁echte	-10.1028
▁teilen	-10.1033
▁Veranstaltung	-10.1036
▁betont	-10.1038
▁Ebenso	-10.1039
▁zugleich	-10.1042
▁andererseits	-10.1045
▁Tod	-10.1045
▁sonst	-10.105
stehen	-10.1052
▁Kon	-10.1053
▁Immobilien	-10.1053
▁anbieten	-10.1064
werk	-10.1064
schen	-10.1069
ker	-10.107
▁Strom	-10.1077
▁sieben	-10.1079
▁Zivil	-10.1084
hin	-10.1093
▁Regional	-10.1112
organisationen	-10.1113
TM	-10.1113
hotel	-10.1117
▁vorschlagen	-10.1117
▁private	-10.112
“.	-10.1124
▁Effizienz	-10.1126
▁have	-10.1127
▁Fraktionen	-10.1128
▁verstärkt	-10.1134
▁präsentiert	-10.1135
▁Vom	-10.1136
▁betroffenen	-10.114
▁«	-10.1144
▁Qualitäts	-10.1147
▁Pe	-10.1147
od	-10.1154
▁international	-10.1157
▁Linux	-10.1158
▁freie	-10.1162
▁basiert	-10.1171
▁Her	-10.1191
bahn	-10.1191
+	-10.1196
ere	-10.1196
▁Mitgliedern	-10.1202
▁Or	-10.1203
▁hervorragende	-10.1214
FR	-10.1215
we	-10.1217
▁Cor	-10.1218
▁Entwicklungs	-10.1228
Ã	-10.1228
ap	-10.1234
▁Willen	-10.1235
▁begann	-10.1251
▁Bewegung	-10.1251
▁Schwerpunkt	-10.1256
▁fällt	-10.1263
▁World	-10.1264
▁traditionellen	-10.1267
▁allgemein	-10.1268
▁Freude	-10.1272
▁Ausnahme	-10.1285
11	-10.1286
▁Lizenz	-10.1286
ski	-10.1292
▁Methode	-10.1297
isieren	-10.1298
▁erscheinen	-10.13
▁grenzüberschrei	-10.1304
▁entstanden	-10.1313
▁Trotz	-10.1315
▁Datenschutz	-10.1321
▁siehe	-10.1322
▁Internationalen	-10.133
▁Tiere	-10.1333
▁Su	-10.1334
see	-10.1338
ischer	-10.1339
▁interessiert	-10.134
del	-10.1344
▁Unterschiede	-10.1346
▁Mittelmeer	-10.1349
▁reagieren	-10.1353
▁seitens	-10.1358
▁reicht	-10.1362
▁hervor	-10.1363
Programm	-10.1365
▁Verkauf	-10.1375
▁Unterschied	-10.1377
▁erhältlich	-10.1379
▁Wald	-10.1382
anlage	-10.1385
fach	-10.1385
▁Ex	-10.1388
▁Fähigkeit	-10.1391
▁Ost	-10.1394
amp	-10.1396
▁Morgen	-10.1405
▁ausgezeichnete	-10.1421
Veröffentlichung	-10.1422
▁Dimension	-10.1427
▁gefördert	-10.1428
▁früher	-10.1433
▁produziert	-10.1433
▁finde	-10.1435
▁Programms	-10.144
▁Aufgrund	-10.1441
▁Verbot	-10.1446
▁Methoden	-10.1447
TV	-10.1449
kon	-10.1453
▁Wahrheit	-10.1456
dem	-10.1466
ance	-10.1468
▁kleiner	-10.1469
tin	-10.1478
▁Verhältnis	-10.148
▁willkommen	-10.148
▁Schaden	-10.1483
▁Messe	-10.1483
park	-10.1487
▁grundlegende	-10.1488
▁Stück	-10.149
▁beschränkt	-10.1499
▁Studie	-10.1501
▁berechtigt	-10.1503
▁Tal	-10.1507
▁Generation	-10.151
▁Drogen	-10.1511
▁Gründung	-10.1512
▁It	-10.1516
▁Haftung	-10.1516
▁Klimawandel	-10.1517
welt	-10.1528
▁Anliegen	-10.1531
▁1997	-10.1539
tel	-10.154
ß	-10.154
▁behandeln	-10.1544
ag	-10.1545
▁Signal	-10.1545
▁Marken	-10.1547
▁Vi	-10.1547
▁ländlichen	-10.1549
▁Alter	-10.1551
▁Kurz	-10.1551
▁angeht	-10.1552
bei	-10.1561
▁Nachfrage	-10.1568
▁nötig	-10.1577
▁Ca	-10.1581
▁künftig	-10.1588
▁Rom	-10.1588
▁verändert	-10.1593
▁kulturelle	-10.1597
▁Schweden	-10.1598
▁Maß	-10.1598
▁Erst	-10.1598
▁Einklang	-10.1601
▁Beweis	-10.1604
▁Veranstaltungen	-10.1605
▁tut	-10.1608
hof	-10.1609
ini	-10.161
▁Vereinigte	-10.161
▁Link	-10.1612
▁Inseln	-10.1612
PL	-10.1614
▁Lu	-10.1616
SE	-10.1618
▁dritten	-10.1618
▁sorgt	-10.1619
▁Gästen	-10.162
▁Norden	-10.1626
▁Fälle	-10.1629
▁Zug	-10.1638
versorgung	-10.1641
▁sichern	-10.1642
ity	-10.1645
gruppen	-10.1647
▁Original	-10.1648
▁Motor	-10.1649
▁politisch	-10.1651
▁begonnen	-10.1656
zentrum	-10.1658
▁möglichen	-10.1666
▁vielmehr	-10.1671
▁General	-10.1671
▁nochmals	-10.1673
▁bereitgestellt	-10.1679
▁kontextuell	-10.1688
▁regionale	-10.1688
▁sicherstellen	-10.1693
▁verlieren	-10.1697
▁vorher	-10.1698
▁berühmten	-10.1703
▁zustimmen	-10.1705
▁Umständen	-10.1719
▁Mein	-10.1719
vi	-10.1723
▁umgeben	-10.1726
▁Stunde	-10.1728
▁Teilen	-10.1728
▁höchste	-10.1731
DE	-10.1735
Ein	-10.1736
tu	-10.1737
▁Amerika	-10.1738
▁führenden	-10.1739
gesellschaften	-10.1742
▁Kopf	-10.1743
▁21.	-10.1748
Berücksichtigung	-10.1748
▁staff	-10.1755
▁fand	-10.1757
▁ehemaligen	-10.1762
▁Agenda	-10.177
▁extrem	-10.1776
▁Strukturfonds	-10.1779
▁Kollege	-10.1782
ix	-10.1784
Q	-10.1784
▁Theater	-10.1787
▁Port	-10.1788
▁besseren	-10.1789
Der	-10.1792
▁su	-10.1798
▁Lager	-10.1799
▁Apartments	-10.1799
▁Beratung	-10.1805
mp	-10.1806
out	-10.1808
▁Spiele	-10.1813
▁Verbrechen	-10.1816
▁ergriffen	-10.1818
sabkommen	-10.1821
▁Angebote	-10.1821
▁Red	-10.1828
▁abzu	-10.183
▁Bedenken	-10.1831
▁positiven	-10.1836
iger	-10.1838
heim	-10.1843
▁dir	-10.1843
▁Nachrichten	-10.1844
▁Do	-10.1846
▁breite	-10.1848
▁City	-10.1851
▁Grenze	-10.1851
karte	-10.1856
▁Verhalten	-10.1856
▁Verfügbarkeit	-10.186
▁Empfehlung	-10.1862
▁derzeitigen	-10.1866
fa	-10.187
▁Einheit	-10.1871
▁schließen	-10.1878
▁Friedens	-10.1881
▁rein	-10.1881
▁Dadurch	-10.1882
▁wiederum	-10.1883
▁sinnvoll	-10.1884
▁befassen	-10.1887
ay	-10.1888
▁Einstellung	-10.1891
ty	-10.1901
▁vorgenommen	-10.1901
▁Garantie	-10.1903
▁erheblich	-10.1904
▁Gegen	-10.1909
▁Super	-10.1912
▁genauso	-10.1914
▁Voraussetzung	-10.1919
▁Absicht	-10.1928
▁Geräte	-10.1942
▁van	-10.1943
▁Schäden	-10.1943
▁weg	-10.1945
iv	-10.195
▁x	-10.1951
▁eröffnet	-10.1955
▁Kunde	-10.1957
▁ziemlich	-10.1962
▁voraus	-10.1964
▁Dokumente	-10.1965
ya	-10.1974
ps	-10.199
▁betreffen	-10.1992
wa	-10.2002
▁11.	-10.2003
▁20.	-10.2004
anz	-10.2011
▁Zimmern	-10.2016
▁Adresse	-10.202
ue	-10.2021
▁Arbeitsmarkt	-10.2022
▁Grundsätze	-10.2022
▁verlangt	-10.2029
▁interessante	-10.2033
▁Haushaltsplan	-10.2034
burg	-10.2035
▁Datenbank	-10.2036
▁läuft	-10.2041
▁Badezimmer	-10.2044
mer	-10.205
▁Kontroll	-10.205
tre	-10.205
ian	-10.2055
▁jährlich	-10.2056
▁Aktion	-10.2058
ado	-10.2058
▁niemand	-10.2067
pf	-10.2071
▁Identität	-10.2072
▁Vielleicht	-10.2076
ard	-10.2079
12	-10.208
25	-10.2083
▁Eltern	-10.2097
qui	-10.2098
▁entscheidende	-10.2098
▁gespeichert	-10.2104
▁but	-10.2107
▁Diskussionen	-10.2109
▁Not	-10.211
▁landwirtschaft	-10.2118
▁Kind	-10.212
▁Fahrzeug	-10.2124
▁starken	-10.2125
port	-10.2125
▁sorgfältig	-10.2126
struktur	-10.2126
▁weiteres	-10.2129
▁Betriebs	-10.2129
▁konkreten	-10.2133
▁laut	-10.2133
▁Grad	-10.2134
▁volle	-10.2135
▁au	-10.2139
▁Essen	-10.2139
▁reichen	-10.214
▁verlangen	-10.2147
▁Eigenschaften	-10.2149
ada	-10.2149
▁wiederholt	-10.2152
▁Regulierung	-10.2155
▁bemüht	-10.2158
▁schafft	-10.2164
▁stimmt	-10.2168
▁Sanktionen	-10.2178
▁Allgemeinen	-10.218
▁Microsoft	-10.2189
▁entlang	-10.219
▁Maßnahme	-10.2191
▁stand	-10.2193
▁Pi	-10.2194
▁Kamera	-10.2202
▁lautet	-10.2203
▁institutionelle	-10.2209
▁bezieht	-10.2211
▁falsch	-10.2211
material	-10.2216
▁gestern	-10.2222
▁rasch	-10.2224
sländern	-10.2229
rad	-10.2231
▁zählt	-10.2231
▁Leitlinien	-10.2237
▁Dauer	-10.2243
La	-10.2244
▁seien	-10.2251
▁Ausstattung	-10.2254
▁Küste	-10.2256
▁unmittelbar	-10.2256
gebiet	-10.2256
▁Element	-10.2258
▁trotzdem	-10.2263
▁bedarf	-10.2266
▁erweitert	-10.2272
▁Abschnitt	-10.2273
▁Gestaltung	-10.2274
▁Dafür	-10.2276
▁Grün	-10.2278
▁Vermittlung	-10.2279
▁Sprach	-10.228
▁hoher	-10.2285
▁deiner	-10.2287
▁dritte	-10.2288
▁Ru	-10.2292
▁gemeinschaft	-10.2292
▁Verwaltungs	-10.2293
▁Ferien	-10.2293
▁Bundes	-10.2296
▁Pool	-10.2296
▁liefern	-10.2306
▁Tour	-10.2315
▁Eisenbahn	-10.2324
setzen	-10.2325
▁Export	-10.2325
liste	-10.2326
▁Verträge	-10.2342
▁gewährt	-10.2343
▁einge	-10.2349
▁Landwirte	-10.2349
▁italienischen	-10.2353
nahme	-10.2354
▁Google	-10.2355
▁führte	-10.2361
▁Casino	-10.2375
▁!	-10.2377
ts	-10.2381
▁Wachstums	-10.2381
▁inter	-10.2383
▁Rad	-10.2383
ologie	-10.2387
▁Ferner	-10.2391
▁wenden	-10.2391
▁Genehmigung	-10.2392
▁welchen	-10.2395
▁organisiert	-10.2397
▁außergewöhnlich	-10.24
▁keiner	-10.2407
▁4.	-10.2413
▁Per	-10.2414
▁Definition	-10.2414
▁Forum	-10.2415
13	-10.2425
▁senden	-10.2429
▁umfassenden	-10.2429
▁Institution	-10.2433
cken	-10.2444
▁geschrieben	-10.2448
▁Antworten	-10.2449
▁erzeugt	-10.2449
▁35	-10.2453
▁Glas	-10.2458
▁Freizeit	-10.2458
elle	-10.2459
▁Blut	-10.2465
stelle	-10.247
linie	-10.2477
▁Herz	-10.2485
ure	-10.2489
produkte	-10.2494
▁Schulden	-10.2494
▁teilnehmen	-10.2502
▁Geschäft	-10.2507
kt	-10.2513
▁beträgt	-10.2517
and	-10.2517
▁ausgerichtet	-10.2519
2-	-10.252
istischen	-10.2521
▁grundsätzlich	-10.2526
ari	-10.2526
▁höher	-10.2526
▁Studenten	-10.2532
▁leiden	-10.2535
▁Dort	-10.2536
▁schön	-10.2536
01	-10.2541
preis	-10.2548
sche	-10.2553
▁entdecken	-10.2554
▁gebaut	-10.2561
▁ange	-10.2563
▁Wirklichkeit	-10.2564
▁wesentliche	-10.2564
▁Typ	-10.2568
▁Werbe	-10.257
▁Übersetzung	-10.2571
▁Schule	-10.2572
ny	-10.2576
▁Wegen	-10.2577
▁perfekt	-10.2581
▁Harmonisierung	-10.2584
▁Strategien	-10.2584
19	-10.2586
▁gelegt	-10.259
▁Erwartungen	-10.2592
▁amtierende	-10.2597
▁Code	-10.2601
service	-10.2602
▁Open	-10.2603
▁kurzem	-10.2607
▁po	-10.2614
▁besitzen	-10.2622
▁Ton	-10.2623
▁Stellung	-10.2624
▁To	-10.2627
skonferenz	-10.2629
▁Wohn	-10.2632
ordnung	-10.2633
▁bedeuten	-10.2633
isiert	-10.2636
▁Festlegung	-10.2637
▁Materialien	-10.2638
▁Ausführung	-10.2639
▁Mittelpunkt	-10.2641
▁grundlegenden	-10.2641
con	-10.2653
▁Afghanistan	-10.2663
▁Details	-10.2666
▁Tagung	-10.2666
▁good	-10.2668
▁abgelehnt	-10.2676
▁Top	-10.2683
▁Mac	-10.2684
▁laufen	-10.2685
▁Kategorie	-10.2687
▁1996	-10.2689
qualität	-10.2689
eu	-10.2697
q	-10.2698
▁öffnen	-10.27
line	-10.2701
▁zweifellos	-10.2704
▁Kaffee	-10.2707
lan	-10.2713
▁hilft	-10.2715
▁Ohne	-10.2716
▁jemand	-10.2717
▁Roma	-10.272
▁niemals	-10.2728
politischen	-10.273
▁sofern	-10.2732
▁inzwischen	-10.2735
▁Umgang	-10.2737
▁co	-10.2744
gemeinschaft	-10.2748
bad	-10.2749
straße	-10.2749
▁Leistungs	-10.2756
ran	-10.2757
▁geprüft	-10.2758
▁schönsten	-10.2771
AS	-10.2774
▁Wien	-10.2779
▁Ausgangspunkt	-10.2782
▁Val	-10.2783
▁einerseits	-10.2784
▁München	-10.2787
▁Agrarpolitik	-10.2787
▁wider	-10.2788
▁zusätzlichen	-10.2789
▁durchzuführen	-10.2792
▁ex	-10.2798
▁Gericht	-10.2804
▁weshalb	-10.2807
▁Büro	-10.2808
▁Ambiente	-10.2813
▁schwierigen	-10.2819
ator	-10.2819
▁voller	-10.2825
▁vollständige	-10.2826
>	-10.2828
▁wichtiges	-10.283
▁zuerst	-10.2831
▁tief	-10.2837
▁kurze	-10.2839
das	-10.284
▁Me	-10.2841
▁Nahrungsmittel	-10.2849
▁Übereinstimmung	-10.2853
▁weltweiten	-10.2858
▁bekannten	-10.2859
ring	-10.2861
▁Kann	-10.2862
leben	-10.2871
▁Mangel	-10.2872
▁Drei	-10.2882
▁fühlen	-10.289
▁Ad	-10.2894
▁Doppel	-10.2902
▁Regime	-10.2902
▁Hu	-10.2905
richtlinie	-10.2907
▁Mensch	-10.2908
▁Marketing	-10.2914
▁Dusche	-10.292
▁angemessene	-10.2922
▁Ausstellung	-10.2929
▁na	-10.293
▁Sicherung	-10.293
▁Küsten	-10.2931
tage	-10.2934
▁abgestimmt	-10.2937
▁umzusetzen	-10.2945
''	-10.2953
▁reden	-10.2954
▁Sand	-10.2955
▁zentral	-10.2962
De	-10.297
▁schreiben	-10.2972
▁gerichtet	-10.2972
▁spanischen	-10.2973
▁verändern	-10.2973
val	-10.2976
▁neuesten	-10.2977
▁Tatsächlich	-10.298
▁verursacht	-10.2982
▁Kommunikations	-10.2987
▁Schul	-10.2987
dy	-10.2991
▁Nahen	-10.2994
preise	-10.2996
▁Balkon	-10.3001
▁Normen	-10.3014
▁5.	-10.302
ley	-10.3022
▁Bi	-10.3022
▁erreichbar	-10.3023
handel	-10.3028
grenzen	-10.3029
sp	-10.3032
▁Sein	-10.3033
wissenschaftlich	-10.3034
▁richten	-10.3036
▁betreffenden	-10.3037
40	-10.3046
▁funktionieren	-10.3047
▁Ba	-10.305
▁Services	-10.3053
▁Anfragen	-10.3054
»	-10.3054
▁Center	-10.3055
▁can	-10.3057
▁gelöst	-10.306
▁eigenes	-10.3062
▁anwesend	-10.307
om	-10.3073
▁aufzunehmen	-10.3074
▁fehlt	-10.3075
▁legt	-10.3076
▁menschlichen	-10.3081
sländer	-10.3086
▁fort	-10.3086
ah	-10.3094
gi	-10.3096
▁ruhigen	-10.3101
▁Sauna	-10.3106
▁ausgezeichneten	-10.3106
▁Wieder	-10.3107
Er	-10.3111
▁ursprünglichen	-10.3119
▁Mutter	-10.312
bare	-10.3121
▁Delegation	-10.3122
Adresse	-10.3123
▁Radio	-10.3125
▁ausgeführt	-10.3128
▁individuelle	-10.3128
the	-10.313
▁trifft	-10.3134
▁beraten	-10.3135
▁gezogen	-10.3137
EG	-10.3138
▁Standort	-10.314
▁Audio	-10.3142
tische	-10.3144
▁verkauft	-10.3145
▁Viertel	-10.3146
▁verhindert	-10.3147
▁Konsens	-10.3155
▁heutige	-10.3157
▁Gewicht	-10.3163
angebot	-10.3166
▁Gerichtshof	-10.3168
▁Vorgehen	-10.3172
▁höchsten	-10.3173
▁musste	-10.3173
▁wirksam	-10.3175
▁alt	-10.3175
▁sur	-10.3178
rechte	-10.3186
▁erinnert	-10.3188
▁he	-10.3193
setzung	-10.3195
▁Mobilität	-10.3197
▁König	-10.32
▁gesellschaft	-10.3201
▁Ausgabe	-10.3201
▁Verantwortlich	-10.3204
▁Plenum	-10.3206
▁unterzeichnet	-10.3212
▁erlauben	-10.3218
▁Gleichgewicht	-10.3218
▁bekämpfen	-10.3218
▁Besorgnis	-10.322
▁ausgesprochen	-10.322
ud	-10.3222
▁erlebt	-10.3225
▁starten	-10.3226
▁erhebliche	-10.3231
▁anschließend	-10.3234
▁erfolgreiche	-10.3235
▁Vision	-10.3235
▁Verbesserungen	-10.3235
▁Burg	-10.3236
tr	-10.3241
▁Zahlung	-10.3241
arbeiten	-10.3242
▁anstatt	-10.3246
Г	-10.3248
▁Schatten	-10.3252
▁offenen	-10.3254
▁Ki	-10.3262
▁Beziehung	-10.3262
licher	-10.3265
▁Jedes	-10.3269
▁innovative	-10.3269
▁Bucht	-10.327
▁Beispiele	-10.3272
▁Browser	-10.3273
▁riesigen	-10.3274
▁Bestellung	-10.3277
▁Angst	-10.3278
▁gratulieren	-10.3279
▁Zuständigkeit	-10.3283
▁Zusätzlich	-10.3284
▁passiert	-10.3287
▁langsam	-10.3287
▁achten	-10.329
ub	-10.3291
▁begrüßt	-10.3291
▁NATO	-10.3291
▁übernimmt	-10.3292
gleich	-10.3295
▁verurteilt	-10.3296
▁gewonnen	-10.33
▁Format	-10.3301
las	-10.3301
▁laden	-10.3302
24	-10.3304
▁Gemeinde	-10.3304
gehen	-10.3305
▁Vater	-10.3306
▁ausgeschlossen	-10.331
▁ungefähr	-10.331
▁Anbieter	-10.3313
▁Kapitel	-10.3314
▁Religion	-10.3315
▁verschiedener	-10.3325
è	-10.3327
▁Rumänien	-10.333
sta	-10.3333
voll	-10.3336
ron	-10.3336
▁Zentralbank	-10.3336
▁Milch	-10.3337
▁einzigartige	-10.3342
▁verdient	-10.3347
ong	-10.3352
▁ernsthaft	-10.3356
▁unmöglich	-10.3359
▁reduziert	-10.3361
▁öffentlich	-10.3361
▁UNO	-10.3362
▁pre	-10.3363
maschinen	-10.3363
▁angesehen	-10.3368
▁künftigen	-10.3369
mon	-10.3371
▁schlecht	-10.3375
▁Kontinent	-10.338
▁soweit	-10.3382
▁verehrte	-10.3386
systems	-10.3392
▁Fi	-10.3394
):	-10.3396
one	-10.3396
▁annehmen	-10.3396
technologie	-10.3397
pi	-10.3397
ons	-10.34
▁finanziert	-10.34
▁your	-10.3402
▁Also	-10.3403
▁geboren	-10.3404
lin	-10.3407
▁Q	-10.3407
▁buchen	-10.3407
▁uneingeschränkt	-10.3407
▁Opposition	-10.3407
▁Strukturen	-10.3408
▁angemessen	-10.3409
netz	-10.341
▁Bearbeitung	-10.341
▁fordere	-10.3412
ica	-10.3414
▁Verhandlungs	-10.3414
▁bezug	-10.3416
barkeit	-10.3418
▁geprägt	-10.342
▁Live	-10.3427
▁aufgefordert	-10.3428
▁Drittländern	-10.3429
▁DVD	-10.3429
▁Grand	-10.3429
▁sehe	-10.3431
▁Bahn	-10.3432
▁verabschiedet	-10.3438
unter	-10.3439
▁traditionelle	-10.3441
▁Krankheiten	-10.3443
▁Kilometer	-10.3445
▁hervorheben	-10.3447
¤	-10.3449
verkehr	-10.3452
▁zugunsten	-10.3452
▁Umfeld	-10.3452
US	-10.3463
▁notwendige	-10.3463
▁Schönheit	-10.3471
▁Fleisch	-10.3475
bildung	-10.3482
▁Jede	-10.3487
▁Serie	-10.3494
▁kostet	-10.3494
▁Zusatz	-10.3497
▁zufolge	-10.3502
15	-10.3504
ual	-10.3508
▁konzentriert	-10.3511
Ab	-10.3512
▁definiert	-10.3513
▁unverzüglich	-10.3515
▁Gegend	-10.3518
gar	-10.352
▁ausgesetzt	-10.3524
▁Steuern	-10.3526
ick	-10.3535
▁par	-10.3536
▁verstanden	-10.3537
▁Ausführungen	-10.3537
▁durchführen	-10.3539
namen	-10.354
▁Farbe	-10.3541
elt	-10.3547
▁Wohnung	-10.3548
▁Übereinkommen	-10.3552
▁fertig	-10.3557
▁vorbereitet	-10.3558
▁En	-10.3558
Aus	-10.3563
▁bestehende	-10.3565
▁Direkt	-10.3565
▁einfacher	-10.357
▁schnelle	-10.3571
low	-10.3575
▁Tra	-10.3576
▁location	-10.3582
▁qualitativ	-10.3582
▁Geschäfte	-10.3582
▁Geschmack	-10.3584
▁bestätigen	-10.3587
▁Mess	-10.359
arten	-10.3591
ip	-10.3596
▁Tri	-10.3598
▁Gewinn	-10.3603
ju	-10.361
▁Fähigkeiten	-10.3612
▁''	-10.3612
kultur	-10.3614
▁Kroatien	-10.3615
▁Vorstellung	-10.3618
▁Alternative	-10.362
▁herrscht	-10.3624
Strategie	-10.3629
▁natürlichen	-10.3632
▁Zusammen	-10.3639
▁bezahlen	-10.3639
▁Eis	-10.364
▁mögliche	-10.3642
▁zentralen	-10.3645
kel	-10.3647
▁sodass	-10.3653
▁Bulgarien	-10.3655
tik	-10.366
zahl	-10.3661
▁Verringerung	-10.3663
▁Costa	-10.3664
ins	-10.3667
▁verbringen	-10.3668
▁Vorschlägen	-10.3674
igt	-10.3676
▁hinzu	-10.3678
▁britische	-10.3679
▁Automobil	-10.3679
▁beruht	-10.3679
▁Redner	-10.368
▁bestimmen	-10.368
▁Mut	-10.3685
▁Verlust	-10.3695
hu	-10.3699
▁zuständigen	-10.37
▁Ganz	-10.37
%	-10.3701
▁Enterprise	-10.3706
sk	-10.371
PT	-10.3713
▁nachhaltigen	-10.3718
▁früheren	-10.3722
▁Aktien	-10.3725
▁7.	-10.3726
▁Arbeitsplätzen	-10.3727
▁Sal	-10.3744
▁liefert	-10.3747
▁Kredit	-10.3748
fonds	-10.3749
▁Geschwindigkeit	-10.3749
▁Arbeitsplatz	-10.3754
▁Prinzipien	-10.376
▁Fest	-10.3764
▁Sonne	-10.3765
▁Ta	-10.3768
▁KMU	-10.3774
▁Entlastung	-10.3778
▁serviert	-10.3778
all	-10.3783
geräte	-10.3784
▁Com	-10.3785
▁$	-10.3786
▁hängt	-10.379
ato	-10.3791
for	-10.3792
gl	-10.3793
▁Kontext	-10.3793
▁Speicher	-10.3799
▁dich	-10.38
tic	-10.3801
ence	-10.3812
sort	-10.3817
▁Drittens	-10.382
▁Sonnen	-10.3838
rt	-10.3842
▁Hohen	-10.3844
▁Schlafzimmer	-10.3844
▁Fischer	-10.3851
▁Pflanzen	-10.3852
schau	-10.3857
à	-10.3859
▁Krankheit	-10.3861
▁verleihen	-10.3861
▁angepasst	-10.3866
▁Schiff	-10.3868
mi	-10.3868
▁vieler	-10.3876
▁effektiv	-10.3879
▁Zusammenhalt	-10.3886
0.000	-10.389
▁Ra	-10.3891
▁Einbeziehung	-10.3897
▁Kräfte	-10.3903
KP	-10.3903
▁eingegangen	-10.3908
▁kontrolliert	-10.391
▁weitgehend	-10.3911
▁trans	-10.3914
▁Werbung	-10.3915
▁grosse	-10.3917
▁Asien	-10.392
▁kämpfen	-10.3924
ice	-10.3925
▁Stahl	-10.3926
▁=	-10.3932
▁ma	-10.3935
▁Wellness	-10.3935
▁aufnehmen	-10.3936
▁eingereicht	-10.3936
▁6.	-10.3937
▁kurzen	-10.394
ez	-10.3942
▁Faktoren	-10.3946
▁Handeln	-10.395
@	-10.3952
▁geboten	-10.3952
▁Werke	-10.3952
ros	-10.3953
wechsel	-10.3954
programme	-10.3961
einrichtungen	-10.3966
▁para	-10.3967
gut	-10.397
▁18.	-10.3973
▁Konto	-10.3975
▁mm	-10.3976
wesen	-10.3977
▁gezwungen	-10.3981
▁entsteht	-10.3982
öl	-10.3982
▁Kompetenz	-10.3983
▁BIP	-10.3983
informationen	-10.3983
by	-10.3989
▁Rechtsgrundlage	-10.399
nom	-10.3995
▁Gerichte	-10.4002
▁Ziffer	-10.4002
▁Mir	-10.4003
leistung	-10.4008
▁ersetzt	-10.4016
▁staatlichen	-10.4019
▁klein	-10.402
▁chinesischen	-10.4025
tion	-10.4033
▁stolz	-10.4033
▁beschrieben	-10.4035
▁Glück	-10.4036
▁Punkten	-10.404
ku	-10.4044
▁Ha	-10.4045
▁einfachen	-10.4048
▁überzeugen	-10.405
▁ad	-10.4051
▁geäußert	-10.4051
ER	-10.4057
▁welchem	-10.4058
▁Schloss	-10.406
▁verringern	-10.4061
▁gespielt	-10.4062
▁Gewährleistung	-10.4064
▁komfortable	-10.4064
hol	-10.4065
▁Besonders	-10.4068
ero	-10.4077
▁16.	-10.4083
▁Beiträge	-10.4085
▁ferner	-10.4086
▁Wünsche	-10.4087
▁150	-10.4093
▁Fluss	-10.4094
▁erleichtern	-10.4098
▁Cha	-10.41
▁Wird	-10.4104
▁amerikanische	-10.4104
▁ausge	-10.411
Ma	-10.4112
▁letztlich	-10.4116
▁Verbreitung	-10.4118
▁entschlossen	-10.4126
▁Ankunft	-10.4126
▁westlichen	-10.4133
ruf	-10.414
▁hochwertige	-10.4148
▁Leitung	-10.4149
▁Deswegen	-10.4154
▁Multi	-10.4154
log	-10.4161
▁hinzufügen	-10.4164
ial	-10.4168
▁wollten	-10.4169
16	-10.4172
▁geltenden	-10.4174
▁Weiter	-10.4185
▁Bord	-10.4186
▁ha	-10.4189
cy	-10.4192
Le	-10.4196
schlag	-10.4196
ai	-10.4202
ör	-10.4203
▁nahezu	-10.4204
▁Registrierung	-10.4206
▁Sorgen	-10.4216
▁vorbei	-10.4217
▁Bemerkungen	-10.4218
▁Noch	-10.422
▁bemühen	-10.4221
▁Best	-10.4222
▁Provinz	-10.4223
▁Rezeption	-10.4223
▁solange	-10.4224
▁Ungarn	-10.4227
▁17.	-10.4228
▁Aktionsplan	-10.4232
▁Außenpolitik	-10.4233
▁vorgeschlagene	-10.4235
▁1995	-10.4237
▁page	-10.4238
▁Freiheiten	-10.4241
▁menschliche	-10.4242
–	-10.4242
▁sauber	-10.4242
4-0	-10.4243
▁entwickelten	-10.4246
▁Gi	-10.4246
▁vorlegen	-10.4247
verwaltung	-10.4248
band	-10.425
▁Erzeugnisse	-10.4252
▁größer	-10.4253
cher	-10.4254
▁beendet	-10.4258
RO	-10.426
licht	-10.4263
▁einig	-10.4267
ies	-10.4277
▁Partnern	-10.4278
š	-10.4289
▁verteilt	-10.4291
▁höheren	-10.4291
▁Korruption	-10.4293
baren	-10.4295
▁Gut	-10.4301
▁Te	-10.4302
ette	-10.4303
▁Dach	-10.4305
▁Studio	-10.4306
▁bedeutende	-10.431
▁auszu	-10.4317
▁Patent	-10.4319
stoff	-10.4325
▁(19	-10.4325
▁echten	-10.4331
lose	-10.4332
▁Umweltschutz	-10.4333
▁Gespräche	-10.4335
tischen	-10.4336
▁Beschluss	-10.4349
▁Ware	-10.435
▁lokale	-10.4357
cia	-10.436
▁Chancen	-10.4361
gebiete	-10.4362
▁Symbol	-10.4364
ll	-10.4367
▁knapp	-10.4369
▁spezifischen	-10.4372
länder	-10.4377
▁our	-10.4378
▁ruhig	-10.4386
usschuß	-10.4387
▁Front	-10.439
▁parlamentarisch	-10.439
▁wahr	-10.4392
▁Fernseh	-10.4397
wasser	-10.4398
▁Vereinbarungen	-10.4399
")	-10.4402
weise	-10.4403
▁Übernachtung	-10.4403
▁Mon	-10.4414
▁Dom	-10.4419
mail	-10.4424
tar	-10.4424
▁Pre	-10.4426
▁Pu	-10.4429
▁Subsidiarität	-10.4431
://	-10.4432
▁Boot	-10.4432
▁behalten	-10.4434
▁Betrag	-10.4438
▁Webseiten	-10.4439
▁einzu	-10.4439
▁WLAN	-10.444
▁wann	-10.4443
▁nützlich	-10.4444
▁Deutschen	-10.4448
gesundheit	-10.445
▁Detail	-10.4452
▁französische	-10.4453
:00	-10.4453
einander	-10.4454
nis	-10.4455
▁österreichische	-10.4458
zeichen	-10.4458
▁Anschluss	-10.4461
▁Schengen	-10.4465
▁mitten	-10.4468
▁4-	-10.4469
eck	-10.4471
bericht	-10.4474
▁vi	-10.4479
▁2020	-10.4481
bett	-10.4482
▁Deutsch	-10.4492
▁13.	-10.4496
fest	-10.4507
▁organisieren	-10.4509
ür	-10.451
▁optimale	-10.451
▁gestaltet	-10.4511
▁Ausmaß	-10.4516
▁installieren	-10.4517
schaftlichen	-10.4524
▁32	-10.4527
▁Fax	-10.4529
▁Amt	-10.4534
▁Mini	-10.4537
▁Schiffe	-10.454
▁übrigens	-10.454
▁Insbesondere	-10.454
▁Konzert	-10.4544
▁Stimmen	-10.4544
▁my	-10.4547
cker	-10.4547
▁Gefahren	-10.4547
▁Respekt	-10.4551
▁errichtet	-10.4554
▁Ti	-10.4559
▁verbinden	-10.4559
▁manche	-10.4563
70	-10.4566
▁Revolution	-10.4568
▁wiederholen	-10.4568
istische	-10.4568
▁Verbindungen	-10.4569
▁Werkzeug	-10.4569
▁Hostels	-10.4571
▁beschäftigen	-10.4575
▁Auge	-10.4579
▁Komponenten	-10.4585
karten	-10.4586
▁Vorhaben	-10.4589
▁Zwecke	-10.4589
rang	-10.459
▁Wohlstand	-10.4591
▁IP	-10.4592
▁nunmehr	-10.4594
▁jenen	-10.4594
alen	-10.4595
▁Führer	-10.4599
▁Übertragung	-10.4603
▁Innen	-10.4608
▁Tür	-10.4609
▁palästinensisch	-10.461
▁Gegenstand	-10.4612
▁dürfte	-10.4621
schein	-10.4628
▁bezahlt	-10.4628
▁auftreten	-10.4631
▁einheitlichen	-10.4635
▁Poker	-10.4635
sfonds	-10.4638
▁direkte	-10.4639
Pro	-10.4642
ary	-10.4644
▁Bedrohung	-10.4646
let	-10.4654
▁Renten	-10.4656
▁Termin	-10.4661
▁Marktes	-10.4662
▁anzu	-10.4666
▁ho	-10.4668
▁integriert	-10.4669
▁Gleichstellung	-10.467
▁Krisen	-10.4671
č	-10.4674
The	-10.4675
21	-10.4676
▁rechtlichen	-10.4678
▁Blog	-10.4678
▁Brasilien	-10.4681
▁Frankfurt	-10.4682
с	-10.4687
▁Bemerkung	-10.4694
▁führende	-10.4694
ola	-10.4695
▁Einkaufs	-10.4698
▁Einkommen	-10.47
text	-10.4708
▁aktive	-10.471
Datei	-10.4711
▁Trans	-10.4713
haltung	-10.4714
▁vorstellen	-10.4714
est	-10.4716
▁reduzieren	-10.4717
▁Steuerung	-10.472
▁Air	-10.4728
▁pa	-10.4736
▁Untersuchungen	-10.4736
car	-10.4738
bre	-10.4741
▁betreffend	-10.4742
▁jener	-10.4743
▁erhielt	-10.4746
▁Erfüllung	-10.4748
▁Wissenschaftler	-10.4749
▁Sp	-10.475
▁Ausflüge	-10.475
▁Bereitstellung	-10.4752
▁verstärken	-10.4752
▁Mrd	-10.4753
lauf	-10.4758
bus	-10.4761
▁Mi	-10.4762
▁Group	-10.4763
▁Grenz	-10.4764
▁Pass	-10.4764
▁just	-10.4767
▁Vorsitz	-10.4767
▁verkaufen	-10.4769
▁offene	-10.4775
srecht	-10.4779
▁russischen	-10.4781
▁genannte	-10.4783
▁modern	-10.4786
fin	-10.4791
▁Rechnungshof	-10.4792
▁direkten	-10.4792
▁Darstellung	-10.4795
zer	-10.4797
▁sichtbar	-10.4799
▁letztendlich	-10.48
ov	-10.4807
▁zerstört	-10.4808
ight	-10.481
▁Neue	-10.4814
▁Traum	-10.4815
▁Lieferung	-10.4821
▁aussprechen	-10.4823
uk	-10.4824
▁geehrte	-10.4826
bringen	-10.4826
▁Befugnisse	-10.4837
▁Gesellschaften	-10.4838
wo	-10.4841
shilfe	-10.4849
▁stehenden	-10.4857
region	-10.4857
▁Projekten	-10.4861
▁Berufs	-10.4862
teile	-10.4863
werte	-10.4864
▁45	-10.4867
▁Verlauf	-10.4868
▁spezifische	-10.4869
▁wirksame	-10.487
▁angewandt	-10.4873
ding	-10.4879
▁gefährdet	-10.4881
▁langfristige	-10.4881
lösung	-10.4886
fahren	-10.4887
▁schlägt	-10.4888
▁st	-10.4889
geschäft	-10.489
▁vorhandenen	-10.4892
▁Mitgliedschaft	-10.4893
ys	-10.4899
if	-10.4899
▁Städten	-10.4901
gr	-10.4904
▁Metall	-10.4904
▁entspannen	-10.4905
▁begrenzt	-10.4905
▁Einwohner	-10.4912
▁John	-10.4913
sel	-10.4914
räume	-10.4914
▁nahm	-10.4916
▁EG	-10.4916
▁Deutsche	-10.4918
▁aufzu	-10.492
frei	-10.4923
▁Bush	-10.4923
ON	-10.4924
▁rechtzeitig	-10.4924
▁1990	-10.493
▁individuellen	-10.4932
▁Spaß	-10.4933
geht	-10.4936
▁Versammlung	-10.4945
▁Freitag	-10.4945
▁ursprünglich	-10.4949
▁sa	-10.4949
▁12.	-10.4952
▁bed	-10.4952
▁Verletzung	-10.4952
▁Real	-10.4952
▁Charta	-10.496
abkommen	-10.496
▁dargestellt	-10.4961
▁Tochter	-10.4961
cha	-10.4964
▁Sektoren	-10.4966
chi	-10.4967
▁äußern	-10.4979
▁Freunden	-10.4988
beschreibung	-10.4989
▁zuständig	-10.4993
▁bestimmter	-10.4993
▁Har	-10.4996
▁Kar	-10.4996
▁Support	-10.5008
▁26	-10.5008
▁Eigentum	-10.5013
09	-10.5015
macht	-10.5017
▁Elektro	-10.5019
▁High	-10.502
▁beigetragen	-10.5026
zusammenarbeiten	-10.503
▁Optionen	-10.503
▁Männern	-10.5031
▁Ci	-10.5033
▁Tu	-10.5038
▁angegebenen	-10.5039
▁Alpen	-10.5049
▁Mission	-10.5051
▁Kongress	-10.5055
▁vermitteln	-10.5055
▁Autor	-10.5056
▁8.	-10.5057
▁empfohlen	-10.5058
▁28	-10.5064
▁Martin	-10.5065
▁Par	-10.5067
▁Erstellung	-10.5068
▁Hof	-10.5068
versicherung	-10.5069
▁Websites	-10.5075
▁Abkommens	-10.5077
▁15.	-10.5078
minister	-10.5079
▁Flugzeug	-10.5086
▁Abhängigkeit	-10.5089
▁zukünftige	-10.5093
ziehen	-10.5093
weisen	-10.5094
▁Lehrer	-10.5095
▁empfangen	-10.5097
oni	-10.5098
ska	-10.5104
ille	-10.5107
▁PHP	-10.5109
▁Parkplatz	-10.5115
▁angegeben	-10.5116
sicht	-10.5118
▁überprüft	-10.5119
sätze	-10.5121
▁Wi	-10.5122
▁Ke	-10.5126
▁Staates	-10.5129
▁Satelliten	-10.5134
▁individuell	-10.5136
▁Si	-10.514
▁Oder	-10.5143
▁letzter	-10.5144
▁kamen	-10.5146
▁last	-10.5146
▁Menü	-10.5147
▁gearbeitet	-10.5148
▁Anstieg	-10.5151
▁Nachricht	-10.5151
▁beteiligen	-10.5152
▁eingehalten	-10.5155
nnen	-10.5156
▁inklusive	-10.5157
nde	-10.5159
▁Fahrt	-10.5163
▁Mitarbeitern	-10.5163
▁Heimat	-10.5164
▁Chinas	-10.5164
▁komme	-10.5165
▁ISO	-10.5171
▁Vo	-10.5172
▁militärische	-10.5181
▁Spar	-10.5181
▁Schüler	-10.5185
▁genügend	-10.5186
▁Verarbeitung	-10.5189
für	-10.519
▁unbe	-10.5191
▁Sol	-10.5192
paket	-10.5194
ani	-10.5195
▁perfekte	-10.5204
80	-10.5209
▁freundlich	-10.521
leg	-10.5211
▁fuer	-10.5211
wagen	-10.5212
ish	-10.5213
▁großem	-10.5216
▁Brand	-10.5222
▁früh	-10.5223
▁Bett	-10.5225
▁Reduzierung	-10.5228
▁Madrid	-10.5228
▁http	-10.5228
▁Schulen	-10.5229
▁Ruf	-10.523
mat	-10.5234
▁ausgezeichnet	-10.5235
▁Stoffe	-10.5235
▁bislang	-10.5236
▁strategischen	-10.5236
▁Wetter	-10.5239
▁Glaubwürdigkeit	-10.5242
▁entscheidender	-10.5242
▁Balkan	-10.5242
▁Fahr	-10.5243
ella	-10.5244
svorschlag	-10.5245
▁ähnlich	-10.5246
▁nachdrücklich	-10.5247
▁künftige	-10.5249
▁Kandidaten	-10.5249
▁gekennzeichnet	-10.5253
▁Paul	-10.5254
staaten	-10.5254
▁sprach	-10.5255
▁beobachten	-10.5258
mäßig	-10.5259
äu	-10.5261
vertrag	-10.5261
«	-10.5261
▁verboten	-10.5267
▁eingestellt	-10.5269
ting	-10.5269
▁Feuer	-10.527
▁Voll	-10.5272
▁400	-10.5274
▁pour	-10.5274
mb	-10.5278
▁Spezial	-10.5281
▁Vorschlags	-10.5287
ala	-10.5287
▁Santa	-10.5288
ras	-10.5295
▁aktivieren	-10.5295
▁Apartment	-10.5297
sprogramm	-10.5303
steuer	-10.5307
last	-10.531
▁Entspannung	-10.5312
▁Organ	-10.5313
▁elektronischen	-10.5316
▁Kontrollen	-10.5318
▁Volkswirtschaft	-10.5321
▁sozialer	-10.5324
▁Konsequenzen	-10.5325
▁entwickelte	-10.5327
▁wunderschönen	-10.5329
▁Donnerstag	-10.5334
▁Beschlüsse	-10.5339
richtung	-10.534
station	-10.5345
ast	-10.5347
▁anbelangt	-10.5351
▁spezialisiert	-10.5354
▁Belgien	-10.5357
▁Urteil	-10.5358
schw	-10.5361
▁Käufer	-10.5364
▁Alt	-10.5365
acht	-10.5365
▁anti	-10.5374
wahl	-10.5375
▁Anlass	-10.5378
▁erkannt	-10.5379
▁existiert	-10.5381
▁Ban	-10.5383
▁verbindet	-10.5386
▁elegante	-10.5389
▁Überlegungen	-10.5391
-/	-10.5391
ria	-10.5393
▁Reich	-10.5397
▁allzu	-10.5398
funktion	-10.5399
▁Sohn	-10.54
▁Ni	-10.54
▁Chi	-10.54
zo	-10.5402
▁Min	-10.5402
situation	-10.5403
▁strategische	-10.5405
ün	-10.5412
hält	-10.5412
wettbewerbsfähig	-10.5413
▁gestattet	-10.5415
ziel	-10.5417
▁erfolgreichen	-10.5419
▁Armee	-10.5419
▁Erinnerung	-10.542
▁weist	-10.5424
▁Darum	-10.5425
reise	-10.5427
▁gewissen	-10.543
▁has	-10.543
oli	-10.5432
▁Potenzial	-10.5434
▁einzigartigen	-10.5434
era	-10.5435
▁Au	-10.5437
▁EADS	-10.5443
zahlen	-10.5443
▁Schon	-10.5444
▁had	-10.5445
▁Van	-10.5446
▁Wochenende	-10.5447
▁Problems	-10.5448
▁Parameter	-10.5448
▁verteidigen	-10.5448
tan	-10.5449
▁Zeitung	-10.5452
▁beantworten	-10.5463
▁schicken	-10.5469
▁Resort	-10.547
▁Gang	-10.5476
▁Kollegin	-10.5479
hy	-10.5481
▁hinweg	-10.5482
han	-10.5484
tri	-10.5487
planung	-10.5488
Bahn	-10.5489
▁mittleren	-10.5489
▁Politiken	-10.5494
sam	-10.5501
▁investieren	-10.5503
▁Wähler	-10.5506
▁ta	-10.5511
Server	-10.5514
▁14.	-10.5517
gibt	-10.5523
ill	-10.5525
▁offiziellen	-10.5529
▁Preisen	-10.553
laufen	-10.553
▁Peter	-10.5531
treffen	-10.5533
ssysteme	-10.5533
▁Widerspruch	-10.5535
▁Wiederaufbau	-10.5538
▁Verteilung	-10.5539
▁Sozialdemokrat	-10.554
▁praktische	-10.5541
▁Veränderung	-10.5546
▁Gesetzes	-10.5549
▁klaren	-10.5549
▁untersucht	-10.5556
▁Station	-10.5561
▁leichter	-10.5564
▁höchst	-10.5564
pol	-10.5572
sehen	-10.5576
▁fa	-10.5576
▁Augenblick	-10.5579
modell	-10.5581
▁2011	-10.5584
geben	-10.5585
▁una	-10.5585
▁Willkommen	-10.5587
▁unabhängige	-10.559
▁Straf	-10.559
▁inmitten	-10.5592
▁Can	-10.5593
▁Sterne	-10.5593
▁si	-10.5596
▁Zucker	-10.5598
▁—	-10.5604
▁Luxus	-10.5607
ban	-10.5609
▁Gerade	-10.5613
forschung	-10.5616
▁My	-10.562
▁wohnen	-10.5621
▁stärkere	-10.5624
my	-10.5625
▁betreiben	-10.5632
▁Gerechtigkeit	-10.5633
▁Sonntag	-10.5633
▁Eigen	-10.5637
ara	-10.5639
▁Kontakte	-10.5641
▁zer	-10.5641
е	-10.5642
05	-10.5645
90	-10.5651
Wir	-10.5653
▁vorzulegen	-10.5655
position	-10.5657
▁Saison	-10.5657
▁Alles	-10.566
▁einzusetzen	-10.5665
fen	-10.5667
▁vous	-10.567
ru	-10.5674
dienstleistungen	-10.5676
rechts	-10.5681
are	-10.5688
▁staatliche	-10.5692
durch	-10.5694
▁Andere	-10.5695
22	-10.5698
▁ne	-10.5703
▁gelingt	-10.5703
problem	-10.5706
press	-10.5708
35	-10.571
▁Regen	-10.5715
▁erstmals	-10.5718
▁Marke	-10.5721
▁Handy	-10.5721
▁one	-10.5721
▁Anwender	-10.5724
▁konkret	-10.5726
▁mussten	-10.5737
14	-10.5743
▁ersetzen	-10.5746
▁Katastrophe	-10.5748
▁Via	-10.5752
jo	-10.5754
▁Länge	-10.5755
▁Erlebnis	-10.5755
▁Beide	-10.5755
▁enorme	-10.5756
eg	-10.5757
▁Massen	-10.576
▁Gerät	-10.5761
▁Hi	-10.5762
▁tritt	-10.5769
▁Katalog	-10.5773
▁vorgestellt	-10.5775
▁unterscheiden	-10.5776
▁Nein	-10.5779
▁betrieben	-10.5779
*	-10.578
▁Allianz	-10.578
▁Kanada	-10.578
▁Wählen	-10.5781
▁aufgebaut	-10.5781
▁Praktiken	-10.5782
ord	-10.5784
▁Ablehnung	-10.5786
▁Bars	-10.5787
▁breakfast	-10.5789
sport	-10.5793
▁Finanzkrise	-10.5794
▁Fahrzeuge	-10.5795
▁Gehminuten	-10.5798
▁Quellen	-10.58
▁bekommt	-10.58
▁erwähnen	-10.5802
▁breiten	-10.5804
▁fördert	-10.5804
▁Beschäftigungs	-10.5805
▁Luxemburg	-10.5807
reichen	-10.5809
jährige	-10.5811
▁Reservierung	-10.5813
▁Einstellungen	-10.5814
▁Trotzdem	-10.5816
Ro	-10.5821
▁behaupten	-10.5822
▁fr	-10.583
▁ländliche	-10.5837
▁Pakistan	-10.5842
ile	-10.5848
tschaftswachstum	-10.585
▁Tabak	-10.585
▁Klasse	-10.5853
▁las	-10.5853
▁Besitz	-10.5853
▁versichern	-10.5854
▁interessant	-10.5855
▁hierbei	-10.5857
Beifall	-10.5857
▁gefallen	-10.5866
▁Ju	-10.5867
▁Fußball	-10.5872
▁Zentral	-10.5874
▁Schweizer	-10.5876
▁zukünftigen	-10.5877
▁ähnliche	-10.5879
▁Autobahn	-10.5881
▁Maria	-10.5885
▁10.	-10.5887
▁machte	-10.589
▁begleitet	-10.589
▁unterliegen	-10.5893
▁einbezogen	-10.5895
▁umfangreiche	-10.5896
ata	-10.5896
▁hervorgehoben	-10.5896
▁Positionen	-10.5898
von	-10.5898
▁unterstreichen	-10.5899
▁Grünen	-10.59
▁konfrontiert	-10.5902
▁Vorausschau	-10.5903
▁Ansichten	-10.5904
Projekt	-10.5905
▁umfassend	-10.5908
bl	-10.5909
▁Heizung	-10.5913
▁Montag	-10.5919
▁herum	-10.5919
▁kleines	-10.5923
▁vereinbart	-10.5924
▁Reinigung	-10.5924
fu	-10.5925
▁richtet	-10.593
pen	-10.5931
ack	-10.5934
▁geraten	-10.5937
▁Sammlung	-10.5938
▁German	-10.5944
▁deswegen	-10.5946
▁illegalen	-10.5948
▁getragen	-10.5958
box	-10.5962
▁Mängel	-10.5962
betrieb	-10.5965
ati	-10.5972
▁Frist	-10.5975
len	-10.5976
ep	-10.5982
▁Wissens	-10.5984
▁kontaktieren	-10.5989
▁Herbst	-10.5992
▁Übergang	-10.5995
▁Media	-10.5996
ob	-10.5999
▁Plattform	-10.6002
▁Rückkehr	-10.6002
▁solches	-10.6003
▁Planeten	-10.6004
bu	-10.6005
steht	-10.601
Frühstücksbuffet	-10.6014
▁tra	-10.6019
▁langfristig	-10.602
▁stellte	-10.6025
▁Öffnung	-10.6026
▁Sind	-10.6032
▁rooms	-10.6035
▁Eurozone	-10.6036
ori	-10.6037
ano	-10.6038
pass	-10.6039
seiten	-10.6041
▁Freizügigkeit	-10.6041
politische	-10.6041
▁spät	-10.6043
▁Mode	-10.6045
▁Widerstand	-10.6046
▁Programmen	-10.6046
▁könnt	-10.6049
eln	-10.6051
▁Perspektive	-10.6051
führer	-10.6052
▁selten	-10.6054
schaftliche	-10.6054
▁Spitzen	-10.6055
▁erhoben	-10.6056
spräsidentschaft	-10.6063
▁mitteilen	-10.6065
▁Rund	-10.6066
▁9.	-10.6066
▁Ger	-10.6068
▁Hilfs	-10.607
▁entdeckt	-10.6073
▁Stärke	-10.6073
team	-10.6074
krise	-10.6075
▁Ga	-10.6077
▁angebracht	-10.608
▁abstimmen	-10.6085
▁Genießen	-10.6087
▁ber	-10.6087
tätigkeit	-10.6091
▁professionelle	-10.6093
Bericht	-10.6094
▁effiziente	-10.6094
▁Zielen	-10.6096
▁Stiftung	-10.6096
▁korrekt	-10.6097
▁tr	-10.6097
▁kombiniert	-10.6099
▁lag	-10.61
Service	-10.6101
test	-10.6103
ika	-10.6107
▁Zypern	-10.6108
▁Prozesse	-10.6111
wald	-10.6111
▁zugrunde	-10.6114
▁Ze	-10.6118
▁anschließen	-10.612
▁optimal	-10.612
rand	-10.6121
ite	-10.6122
▁Passwort	-10.6123
lang	-10.6124
▁bisherigen	-10.6124
▁out	-10.6125
▁Kriminalität	-10.6126
▁stammt	-10.6127
ford	-10.6133
▁Manager	-10.6134
▁For	-10.6134
▁lieber	-10.6134
▁Bauern	-10.6135
▁erfreut	-10.6139
rin	-10.6139
▁Zahlungs	-10.614
IP	-10.614
▁geregelt	-10.6148
▁EZB	-10.6148
▁Nachbarschaft	-10.6148
ging	-10.6154
▁überein	-10.6156
▁Bereitschaft	-10.6157
▁angewendet	-10.6157
▁Konflikte	-10.6158
▁geeignete	-10.6159
typ	-10.6163
▁Power	-10.6163
▁Entfernung	-10.6166
▁Ebenen	-10.6167
▁Hat	-10.6169
▁Premierminister	-10.6169
▁Fremdenverkehr	-10.6179
▁Know	-10.618
▁vorgesehenen	-10.6181
▁which	-10.6185
▁kontrollieren	-10.6185
▁est	-10.6185
▁Kabel	-10.6186
▁Email	-10.6193
▁Tätigkeiten	-10.6194
og	-10.6197
ral	-10.6197
of	-10.6197
▁teile	-10.6197
07	-10.6199
▁une	-10.62
▁vorliegende	-10.6201
Abschaffung	-10.6201
▁eingeleitet	-10.6202
▁ergibt	-10.6203
tur	-10.6203
▁verfügbaren	-10.6204
▁Wa	-10.621
▁Vereinfachung	-10.6216
▁nieder	-10.6224
▁Michael	-10.6226
sprache	-10.6228
tum	-10.6229
rie	-10.6229
▁Bestimmung	-10.6231
▁ch	-10.6231
▁geplant	-10.6231
sausschuss	-10.6236
▁bar	-10.6237
▁erteilt	-10.6237
▁neun	-10.6237
▁Existenz	-10.624
way	-10.6241
version	-10.6244
▁Hindernisse	-10.6247
▁Fahrer	-10.6248
▁Förder	-10.6251
fläche	-10.6253
▁Nachbarn	-10.6254
europäischen	-10.6256
tten	-10.6258
▁Free	-10.6258
▁Regierungschefs	-10.6258
▁England	-10.6259
▁dankbar	-10.6263
▁Energien	-10.6264
▁herunterladen	-10.6268
▁Pläne	-10.6271
▁Pflege	-10.6273
▁personenbezogen	-10.6275
▁schlagen	-10.6275
hl	-10.6285
▁Gemeinsame	-10.6286
▁Gu	-10.6286
▁Hohe	-10.6287
▁Weiteren	-10.6288
staat	-10.6296
▁Verteidigungs	-10.6302
▁Volkes	-10.6304
zeiten	-10.6306
▁Großteil	-10.6307
▁up	-10.6307
kurs	-10.6312
▁Show	-10.6313
▁Freund	-10.6313
▁Medizin	-10.6314
▁Leiter	-10.6315
▁aktualisiert	-10.6318
▁militärischen	-10.6319
▁gefragt	-10.6319
▁behoben	-10.6321
▁ergänzt	-10.6324
dienste	-10.633
▁scheinen	-10.6332
▁Hardware	-10.6334
▁Abendessen	-10.6334
▁internen	-10.6335
▁Betracht	-10.6335
▁sogenannten	-10.6336
▁Abfall	-10.6336
▁festzulegen	-10.6338
▁anhand	-10.6341
▁Schuld	-10.6342
▁Parkplätze	-10.6343
ET	-10.6344
▁Tausende	-10.6344
▁Sachen	-10.6347
punkte	-10.6347
lig	-10.6348
ement	-10.6349
▁komplette	-10.6352
▁Lernen	-10.6352
▁Dokumentation	-10.6354
▁Betten	-10.6355
▁Zuge	-10.6357
▁anzuzeigen	-10.6359
CD	-10.6365
serv	-10.6366
▁hingegen	-10.6372
▁Newsletter	-10.6375
▁1994	-10.6375
▁Mandat	-10.6379
▁verdienen	-10.6381
▁größeres	-10.6382
ett	-10.6383
▁Budget	-10.6384
▁Häuser	-10.6384
▁Cal	-10.6386
▁humanitäre	-10.6387
▁Mikro	-10.6388
▁Katastrophen	-10.6391
▁Ku	-10.6391
▁Dritten	-10.64
04	-10.6401
▁momentan	-10.6404
ff	-10.6405
▁gestärkt	-10.6409
▁präsentieren	-10.641
▁läßt	-10.641
▁gebeten	-10.6412
▁Unternehmer	-10.6415
▁Internationale	-10.6416
Software	-10.6416
fang	-10.6418
▁Nachhaltigkeit	-10.6418
▁car	-10.642
Staaten	-10.6427
▁Erhaltung	-10.6429
▁wirkt	-10.6431
▁Pakete	-10.6436
gestellt	-10.6437
▁sucht	-10.6439
met	-10.644
▁Gegner	-10.6441
▁Barroso	-10.6444
▁besonderer	-10.6446
▁hilfreich	-10.6447
▁angekündigt	-10.6447
häuser	-10.6447
▁Wild	-10.6449
▁effektive	-10.645
▁House	-10.6451
▁voran	-10.6451
▁dans	-10.6452
ations	-10.6454
how	-10.6459
▁kosten	-10.646
▁Suiten	-10.6461
ph	-10.6463
ball	-10.6463
▁PDF	-10.6465
▁gewähren	-10.6466
swert	-10.6467
▁Verkaufs	-10.6467
▁Dienstleistungs	-10.6468
▁Wärme	-10.6469
▁).	-10.6475
▁befasst	-10.6475
▁kostenlose	-10.6479
о	-10.648
▁Hamburg	-10.6481
format	-10.6481
▁froh	-10.6482
▁einheitliche	-10.6482
▁beabsichtigt	-10.6485
gerät	-10.6485
▁Empfang	-10.6486
▁jetzigen	-10.6498
cu	-10.6503
▁Ägypten	-10.6504
▁formuliert	-10.6504
▁Filter	-10.6506
ausschuss	-10.6509
î	-10.651
▁eignet	-10.6511
▁Dokumenten	-10.6517
▁Kriegs	-10.6517
▁zieht	-10.6518
▁natürliche	-10.6518
ey	-10.6521
▁Flüchtlinge	-10.6521
dor	-10.6526
sfreiheit	-10.6532
▁ehrlich	-10.6536
▁Digital	-10.654
AR	-10.6545
▁Inflation	-10.6546
▁Lehr	-10.6547
▁min	-10.6547
▁beschränken	-10.6552
▁teil	-10.6559
▁As	-10.656
ec	-10.6563
▁Lohn	-10.6563
▁zurückzuführen	-10.6563
▁Ve	-10.6567
▁Faktor	-10.6576
RA	-10.6577
▁Eingang	-10.658
▁Beteiligten	-10.6582
▁post	-10.6582
▁Heil	-10.6583
▁Wechsel	-10.6584
▁außen	-10.6584
AN	-10.6586
▁Märkten	-10.6586
▁Fremd	-10.6587
fallen	-10.6588
▁Ratifizierung	-10.6589
ón	-10.6592
▁Street	-10.6593
▁Ausrüstung	-10.6594
PPE	-10.6596
www	-10.6598
▁Straßburg	-10.66
▁Himmel	-10.6601
▁schlechte	-10.6602
ST	-10.6605
▁Album	-10.6606
bt	-10.6609
▁Vorlage	-10.6613
▁Mil	-10.6613
▁Za	-10.6614
▁Schlacht	-10.6615
▁Ben	-10.6615
▁Kulturen	-10.6616
leitung	-10.6618
▁Binnenmarktes	-10.6621
▁Glauben	-10.6622
ete	-10.6622
▁Prag	-10.6626
▁hohem	-10.6631
▁besorgt	-10.6632
Vor	-10.6632
▁verletzt	-10.6639
▁Betreiber	-10.6639
▁Atom	-10.6648
▁Dritte	-10.665
ji	-10.665
▁Ursachen	-10.6656
dorf	-10.6657
garten	-10.6661
raten	-10.6663
▁Berge	-10.6665
▁erarbeitet	-10.6667
▁hervorragenden	-10.6671
▁Mexiko	-10.6671
zone	-10.6672
18	-10.6673
ationen	-10.6675
▁sichere	-10.6675
▁Reisen	-10.6677
▁Modul	-10.6679
▁Serbien	-10.6681
▁Versorgung	-10.6683
▁Nummer	-10.6684
▁rechtliche	-10.6684
▁effizient	-10.6686
lat	-10.6686
ssen	-10.6687
▁mo	-10.6689
laden	-10.669
▁Hinter	-10.6692
krieg	-10.6695
lager	-10.6697
▁hart	-10.6699
vers	-10.6705
▁Brief	-10.6708
▁Lauf	-10.6708
▁IN	-10.6711
▁Prüf	-10.6711
▁Videos	-10.6711
Mitgliedstaaten	-10.6712
IS	-10.6712
▁mehrfach	-10.6714
▁Weil	-10.6714
ehr	-10.6715
institutionellen	-10.6717
▁Muster	-10.6722
cht	-10.6724
▁Bildschirm	-10.6724
▁gewünschten	-10.6728
ida	-10.6729
▁nutzt	-10.6733
▁Last	-10.6736
teilen	-10.6737
ical	-10.6739
▁rechten	-10.674
har	-10.6741
▁Entwickler	-10.6742
);	-10.6745
▁Euch	-10.6746
▁bedanken	-10.6749
▁Würde	-10.6749
▁Organe	-10.6751
▁externen	-10.6751
▁clean	-10.6752
▁Fl	-10.6756
▁halb	-10.6756
▁ließ	-10.6757
▁Gottes	-10.6759
reisen	-10.6766
▁Vorstand	-10.6773
▁reagiert	-10.6775
szeit	-10.6776
▁verringert	-10.6778
nehmen	-10.678
ausschusses	-10.6786
▁Anmeldung	-10.6788
▁genauer	-10.679
fähigkeit	-10.6791
▁mittel	-10.6791
▁Innenstadt	-10.6792
▁Rechner	-10.6792
▁Fang	-10.6797
▁vereint	-10.6802
▁Benutzung	-10.6803
▁Erzeuger	-10.6805
pu	-10.6806
▁Pan	-10.6807
▁Bezeichnung	-10.6809
ef	-10.6809
sausschusses	-10.681
06	-10.6812
▁Wandel	-10.6814
▁Objekt	-10.6815
▁plus	-10.6818
▁Los	-10.6818
▁unabhängigen	-10.6819
SA	-10.682
▁speichern	-10.6821
ther	-10.6821
bank	-10.6832
▁unentgeltlich	-10.6834
▁Generationen	-10.6834
▁erweitern	-10.6844
▁umsetzen	-10.6844
▁Datum	-10.6847
bra	-10.6847
▁Situationen	-10.6848
▁time	-10.6849
▁einzuführen	-10.685
haft	-10.6853
name	-10.6853
▁Festival	-10.6854
▁hast	-10.6856
▁eingeschränkt	-10.6857
▁überaus	-10.6857
▁USB	-10.6861
▁erfordern	-10.6861
▁enthaltenen	-10.6869
▁chinesische	-10.687
▁normalerweise	-10.687
rahmen	-10.6872
kunst	-10.6873
führen	-10.6873
ique	-10.6876
▁schwierige	-10.6879
▁Grundlagen	-10.6879
▁Bu	-10.6879
▁hoffentlich	-10.6881
▁generell	-10.6881
▁konsequent	-10.6882
▁Speisen	-10.6885
gg	-10.689
▁Modernisierung	-10.69
ellen	-10.6901
nummer	-10.6902
▁wahren	-10.6902
▁Bestätigung	-10.6906
▁Betreuung	-10.6907
▁Modelle	-10.6909
▁verwende	-10.6909
Ä	-10.6912
tieren	-10.6913
▁sozial	-10.6919
essen	-10.692
▁•	-10.6921
▁Investitions	-10.6921
▁wunderschöne	-10.6923
▁ra	-10.6925
tz	-10.6931
▁Schreiben	-10.6931
branche	-10.6934
linien	-10.6937
▁Obama	-10.694
▁bewältigen	-10.6943
jährigen	-10.6944
red	-10.6944
▁aktuell	-10.6947
▁behauptet	-10.695
▁Transfer	-10.695
▁ausgewählt	-10.6952
▁zeichnet	-10.6954
AT	-10.6958
▁Kreditkarte	-10.6963
▁Museen	-10.6963
saal	-10.6964
höhe	-10.6965
▁wünsche	-10.6968
▁hierfür	-10.6968
mel	-10.6969
▁Finnland	-10.697
45	-10.6972
▁Publikum	-10.698
▁antworten	-10.698
stück	-10.6981
▁stattfindet	-10.6983
ij	-10.6988
▁.....	-10.6989
▁Belarus	-10.699
▁Konstruktion	-10.699
▁rufen	-10.6991
▁Maschine	-10.6993
ausgaben	-10.6994
ita	-10.6995
beauftragten	-10.6995
▁mittlerweile	-10.7
kontrolle	-10.7002
lä	-10.7004
urlaub	-10.7004
hersteller	-10.7005
ú	-10.7006
▁bedroht	-10.7006
▁por	-10.7014
▁festgelegten	-10.7015
▁Bildungs	-10.702
▁verständlich	-10.7024
▁Lateinamerika	-10.7024
ön	-10.7025
▁Branchen	-10.7025
▁laufenden	-10.7028
film	-10.7039
▁überwinden	-10.704
▁Fe	-10.7041
▁produzieren	-10.7041
AL	-10.7042
08	-10.7042
tenden	-10.7047
а	-10.7048
▁Investoren	-10.7048
▁vieles	-10.705
ht	-10.7051
▁Kaiser	-10.7054
▁vornehmen	-10.7054
▁italienische	-10.7055
IA	-10.7058
▁Phänomen	-10.706
▁Terror	-10.7063
▁Jahrzehnten	-10.7063
ax	-10.7063
▁Sound	-10.7064
ama	-10.7064
▁Kopenhagen	-10.7065
▁begründet	-10.7067
▁niederländische	-10.7076
▁heißen	-10.7078
▁sichergestellt	-10.7079
▁offizielle	-10.708
▁Denken	-10.7082
▁zugelassen	-10.7083
▁Ausblick	-10.7083
▁bauen	-10.7084
Sp	-10.7085
▁Bra	-10.7089
▁Mail	-10.709
▁ruhige	-10.7091
▁Zahlungen	-10.7091
▁Kur	-10.7092
▁integrierte	-10.7092
▁Versand	-10.7095
Al	-10.7095
▁offenbar	-10.7095
▁hand	-10.7097
▁eventuell	-10.7101
▁derzeitige	-10.7101
ib	-10.7103
▁enger	-10.7106
pre	-10.7106
▁Verfahrens	-10.7107
▁Mor	-10.7108
▁Währungsunion	-10.7111
▁3-	-10.7111
▁Regierungs	-10.7115
av	-10.7119
▁Tr	-10.7121
▁Überblick	-10.7122
▁Versionen	-10.7124
ings	-10.7131
02	-10.7134
sitz	-10.7141
▁normalen	-10.7147
stell	-10.7147
▁gedacht	-10.7148
”.	-10.7149
▁Revision	-10.7149
▁selben	-10.7155
wege	-10.7156
▁Verein	-10.7157
▁Ferienwohnung	-10.7159
cke	-10.7161
▁Umsatz	-10.7167
üb	-10.7168
▁berechnet	-10.7169
spräsident	-10.7171
▁überlassen	-10.7172
▁Samstag	-10.7172
▁Orte	-10.7176
▁frühen	-10.718
akt	-10.718
legung	-10.7182
▁Stock	-10.7183
▁Branche	-10.7185
▁Fernsehen	-10.7185
äng	-10.7188
ise	-10.7188
▁Somit	-10.719
▁Satz	-10.7193
▁Arbeitgeber	-10.7194
▁Effekt	-10.7197
▁Kreis	-10.7201
▁Persönlichkeit	-10.7205
▁Ausbau	-10.7207
▁bekannte	-10.7208
▁grossen	-10.7209
▁Ol	-10.721
▁bewegt	-10.7213
▁türkischen	-10.7213
ning	-10.7214
mos	-10.7216
eine	-10.7217
▁Niederlanden	-10.7219
▁Argument	-10.7221
▁selber	-10.7223
▁Urlaubs	-10.7224
strategie	-10.7225
aktivitäten	-10.7227
▁modified	-10.723
tet	-10.7231
qu	-10.7233
▁Händler	-10.7237
sstrategie	-10.7238
geschichte	-10.7238
▁erklärte	-10.7244
tlich	-10.7244
▁Wesentlichen	-10.7246
▁besucht	-10.7247
▁leiten	-10.7247
bach	-10.7255
▁steigen	-10.7256
▁Ur	-10.7256
▁beenden	-10.7258
behörde	-10.726
Energieeffizienz	-10.7263
▁Genau	-10.7264
reg	-10.7271
Wirtschaftskrise	-10.7272
▁Übernahme	-10.7276
▁Sub	-10.728
▁Beseitigung	-10.7281
▁Bücher	-10.7281
ank	-10.7282
DA	-10.7287
▁untersuchen	-10.7287
▁klassischen	-10.7289
▁Haben	-10.7291
95	-10.7293
blick	-10.7293
une	-10.7296
▁bereitet	-10.7306
▁gegenwärtige	-10.7308
▁Tauch	-10.7308
▁Kategorien	-10.7312
▁stammen	-10.7312
▁Global	-10.7314
lor	-10.7315
▁Todesstrafe	-10.7315
▁erzeugen	-10.7317
▁Pension	-10.7322
▁On	-10.7326
▁Senkung	-10.7329
ges	-10.7329
▁gesetzlichen	-10.7337
▁bestellen	-10.7338
PC	-10.7338
▁Produktivität	-10.7344
▁Debatten	-10.7344
д	-10.7347
▁gleichermaßen	-10.7351
▁unmittelbarer	-10.7353
gan	-10.736
▁keinem	-10.7362
▁spreche	-10.7364
museum	-10.7367
▁diesbezüglich	-10.7368
▁frage	-10.7368
▁Richter	-10.7369
▁lebt	-10.7372
▁Flash	-10.7372
▁illegale	-10.7373
tsch	-10.7373
wand	-10.7376
▁Andererseits	-10.7381
▁angeblich	-10.7382
▁verweisen	-10.7382
▁Visa	-10.7384
▁Hauptbahnhof	-10.7385
▁gesichert	-10.7385
▁hierzu	-10.7385
▁avec	-10.7388
▁Mädchen	-10.7392
sperr	-10.7396
steigen	-10.7398
▁Quelle	-10.7401
auch	-10.7402
▁0,	-10.7406
▁Jean	-10.7407
nden	-10.7407
▁Geburt	-10.7409
▁digitalen	-10.7409
ans	-10.7415
▁Zi	-10.7416
▁Drittel	-10.7417
▁Tonnen	-10.7418
▁Arbeiter	-10.7422
▁Schlussfolger	-10.7426
▁geschätzt	-10.7427
▁digitale	-10.743
lag	-10.7431
▁wirken	-10.7431
▁;	-10.7433
▁anzubieten	-10.7433
▁Intervention	-10.7434
▁Ergänzung	-10.7436
▁via	-10.7443
IC	-10.7445
▁präzise	-10.745
▁Sieg	-10.745
()	-10.7451
▁weltweite	-10.7452
rate	-10.7454
▁griechischen	-10.7462
▁herrlichen	-10.7462
▁auffordern	-10.7468
organ	-10.747
000	-10.7473
▁Bewusstsein	-10.7475
▁Ball	-10.7477
▁Tee	-10.7479
▁Temperatur	-10.7479
▁Betriebssystem	-10.7481
ous	-10.7482
itz	-10.7485
▁aufbauen	-10.7488
▁Doppelzimmer	-10.749
▁Bibliothek	-10.7491
▁Linien	-10.7492
▁Französisch	-10.7493
▁Berliner	-10.7497
dra	-10.7497
TE	-10.7498
get	-10.7498
▁bestand	-10.7498
▁wert	-10.75
lon	-10.7502
▁super	-10.7504
mut	-10.7507
▁renoviert	-10.7508
▁spanische	-10.751
▁get	-10.751
stil	-10.7511
gu	-10.7519
mas	-10.7522
dal	-10.7522
▁Sc	-10.7523
star	-10.7524
▁Hinweise	-10.7528
▁schweren	-10.7528
dro	-10.753
▁Profil	-10.7533
▁Ö	-10.7534
▁Schnee	-10.7535
▁sah	-10.7535
▁zulassen	-10.7535
99	-10.7541
▁Robert	-10.7543
▁Jugendlichen	-10.7544
▁Finanzielle	-10.7545
▁31.	-10.7547
ries	-10.7547
▁müsste	-10.7553
räumen	-10.7554
▁Wander	-10.7554
▁75	-10.7555
▁ehemalige	-10.7555
▁denjenigen	-10.7557
Bereich	-10.7558
▁Baby	-10.7561
▁Panorama	-10.7563
lassen	-10.7564
▁Update	-10.7566
▁Auseinandersetz	-10.7567
▁il	-10.7574
pl	-10.7574
ible	-10.7583
▁Fort	-10.7587
▁Monte	-10.7589
▁hinein	-10.7591
▁geliefert	-10.7592
king	-10.7592
▁Mag	-10.7596
▁freut	-10.7596
▁mangelnde	-10.7596
▁Beach	-10.7596
▁ro	-10.76
jahr	-10.7601
▁Güter	-10.7602
▁bedauerlich	-10.7606
▁Vorgehensweise	-10.761
▁"...	-10.761
▁beinhalten	-10.7613
pp	-10.7614
▁eingebracht	-10.7615
leistungen	-10.7617
▁Amerikaner	-10.762
▁senken	-10.762
skosten	-10.7622
▁Schicksal	-10.7624
▁Saint	-10.7624
ID	-10.7625
▁Strecke	-10.7627
mission	-10.7631
▁kon	-10.7635
▁Dingen	-10.7636
▁Mechanismen	-10.7637
▁Betriebe	-10.7638
▁negative	-10.7638
▁us	-10.7644
▁elektronische	-10.7644
▁teilt	-10.7645
▁Umweltfragen	-10.7646
▁Journalisten	-10.7647
▁Leit	-10.7647
iere	-10.765
▁Eröffnung	-10.765
▁mögen	-10.7652
rum	-10.7655
17	-10.7655
▁kontinuierlich	-10.7662
▁Zauber	-10.7663
▁integrierten	-10.7665
▁schätzen	-10.7665
▁Nachmittag	-10.7667
▁verantwortungs	-10.7671
▁Ablauf	-10.7674
▁Beurteilung	-10.7677
▁Frühjahr	-10.7681
▁getrennt	-10.7681
▁negativen	-10.7682
lt	-10.7683
sentwurf	-10.7689
▁dis	-10.769
▁brachte	-10.7691
konferenz	-10.7691
ž	-10.7692
▁erworben	-10.7692
wi	-10.7696
▁Bla	-10.77
kom	-10.7703
reich	-10.7703
▁festzustellen	-10.7707
▁there	-10.7712
iti	-10.7712
Stunden	-10.7718
▁gelangt	-10.7719
▁jüngste	-10.772
To	-10.7723
▁Rot	-10.7729
Finde	-10.773
▁Beachtung	-10.7732
▁III	-10.7732
als	-10.7736
▁Bevor	-10.7739
▁Tool	-10.7739
luft	-10.7744
▁sp	-10.7744
▁Mehrwertsteuer	-10.7746
ius	-10.775
▁Gelder	-10.775
▁Archiv	-10.7751
hm	-10.7751
▁Bedürfnissen	-10.7752
▁Verwirklichung	-10.7753
▁kümmern	-10.7753
▁anzunehmen	-10.7754
SV	-10.7754
ona	-10.7755
termin	-10.7755
verletzungen	-10.7758
▁29	-10.776
tour	-10.7765
▁Kirchen	-10.7766
▁Weiß	-10.7766
▁Vertrages	-10.7767
gas	-10.7773
▁enthalt	-10.7773
▁gemütliche	-10.7774
▁egal	-10.7783
▁enge	-10.7787
IN	-10.7791
▁Argumente	-10.7791
▁aktiviert	-10.7793
holz	-10.7796
▁Ansprüche	-10.7797
▁ansprechen	-10.7799
ico	-10.7809
▁hervorragend	-10.7811
uch	-10.7812
▁Fläche	-10.7815
▁extra	-10.7815
▁Liefer	-10.7815
ris	-10.7815
anten	-10.7816
rot	-10.7818
landschaft	-10.7822
▁Lesen	-10.7823
▁Wirksamkeit	-10.7829
▁dauert	-10.783
pflicht	-10.7831
▁Acht	-10.7833
▁War	-10.7836
▁DE	-10.7843
▁Aussage	-10.7845
▁geringer	-10.7847
▁beeinflussen	-10.785
▁zweitens	-10.7851
▁Ersatz	-10.7852
▁wachsenden	-10.7852
gekommen	-10.7857
kla	-10.786
▁Errichtung	-10.7863
▁Bereits	-10.7866
▁Truppen	-10.7866
▁MP	-10.787
▁Dänemark	-10.7872
▁gewidmet	-10.7872
hen	-10.7873
▁berichtet	-10.7873
▁bedeutenden	-10.7874
vin	-10.7879
▁realer	-10.7879
▁Sobald	-10.788
spiele	-10.7881
maschine	-10.7881
vis	-10.7882
▁eigener	-10.7883
▁1992	-10.7884
▁ergänzen	-10.7889
▁Gar	-10.789
sstaatlichkeit	-10.7893
▁berühmte	-10.7893
▁lo	-10.7893
▁Theorie	-10.7899
Se	-10.7901
▁Zuverlässigkeit	-10.7902
GAP	-10.7902
beziehungen	-10.7902
▁ausgegeben	-10.7903
ante	-10.7905
▁glaubt	-10.7905
▁steigern	-10.7909
▁Vorrang	-10.7913
▁vertraut	-10.7913
▁Kunststoff	-10.7914
fo	-10.7917
▁Bade	-10.7922
▁Schnell	-10.7923
kreis	-10.7924
ova	-10.7924
▁aufgestellt	-10.7924
▁Wohnzimmer	-10.7924
bas	-10.7925
▁Col	-10.7932
▁Venedig	-10.7935
▁User	-10.7937
▁müssten	-10.7938
musik	-10.7938
ura	-10.794
fälle	-10.7942
▁Kennzeichnung	-10.7942
▁Mitentscheidung	-10.7944
▁Konvention	-10.7946
▁Card	-10.7946
▁infolge	-10.7951
▁Viel	-10.7951
▁Oberfläche	-10.7955
▁Autos	-10.7956
▁Fitness	-10.7956
▁soeben	-10.7959
▁schnellen	-10.7962
▁Wesen	-10.7964
▁new	-10.7967
▁sicheren	-10.7969
▁wechseln	-10.797
▁interne	-10.7971
▁ausüben	-10.7972
▁Übrigen	-10.7972
▁realisiert	-10.7974
▁Präsenz	-10.7976
ham	-10.7977
▁Gra	-10.7977
▁che	-10.7979
▁irischen	-10.798
▁langfristigen	-10.798
▁anzuwenden	-10.7983
▁Gebühren	-10.7983
falls	-10.7983
▁Souveränität	-10.7986
kette	-10.7988
▁einstimmig	-10.799
▁Bier	-10.7991
dateien	-10.7997
▁Minute	-10.8004
▁jedenfalls	-10.8006
ng	-10.801
▁glücklich	-10.8011
schreiben	-10.8013
▁24-	-10.8017
gänge	-10.8017
▁älteren	-10.8017
ito	-10.8019
lösungen	-10.8024
mes	-10.8025
▁Vertretern	-10.8026
ré	-10.8026
eten	-10.8028
▁Luftfahrt	-10.8028
▁48	-10.8029
▁Mu	-10.8036
erei	-10.8037
shop	-10.8038
200	-10.8041
▁Str	-10.8041
uß	-10.8042
ECU	-10.8042
▁Ausarbeitung	-10.8043
▁komplexe	-10.8044
fern	-10.8046
▁Versicherungs	-10.8049
alität	-10.8055
▁oftmals	-10.8056
prozess	-10.8057
▁Shop	-10.8057
▁Bewohner	-10.806
▁Konzentration	-10.8064
kar	-10.8065
▁wertvolle	-10.8065
▁reisen	-10.8066
▁angemessenen	-10.8066
▁typischen	-10.8067
▁Spezialitäten	-10.8069
▁Georgien	-10.807
▁Client	-10.8076
▁Such	-10.8078
SI	-10.8079
halt	-10.8079
▁vermittelt	-10.8082
▁cm	-10.8085
▁wesentlicher	-10.8086
▁Durchsetzung	-10.8089
▁wahre	-10.8091
pel	-10.8092
▁Rock	-10.8094
Gruppe	-10.8094
▁22.	-10.8094
▁Kor	-10.8096
▁Hans	-10.8096
code	-10.8097
▁Strände	-10.8097
wirtschaftlichen	-10.8097
▁weisen	-10.8098
▁Aufzug	-10.8098
▁Erd	-10.81
▁Player	-10.8101
▁falsche	-10.8102
hand	-10.8103
▁Airport	-10.8105
▁schwere	-10.8105
ram	-10.8107
▁heran	-10.811
smittel	-10.8113
plätze	-10.8113
▁Schw	-10.8113
▁festlegen	-10.8115
и	-10.8115
züge	-10.8117
flug	-10.812
▁Ergebnissen	-10.8121
▁stelle	-10.8122
▁einst	-10.8123
dern	-10.8123
▁nice	-10.8127
Fi	-10.8129
▁effizienter	-10.8129
ktion	-10.8131
▁Auflösung	-10.8132
▁Haar	-10.8134
▁gefährlich	-10.8135
▁Image	-10.8136
▁Philosophie	-10.8136
▁praktischen	-10.8138
▁übermittelt	-10.8139
RE	-10.8142
▁Appartements	-10.8144
▁pe	-10.8145
freundliche	-10.8146
▁Fassung	-10.8146
qua	-10.8147
▁vorzunehmen	-10.8147
▁finanzieren	-10.8152
▁erwiesen	-10.8155
▁Zeitplan	-10.8157
kor	-10.8158
▁Konvent	-10.8159
▁Inn	-10.8166
▁humanitären	-10.8168
nder	-10.8175
sprozesses	-10.8181
▁Spitze	-10.8184
▁JavaScript	-10.8184
▁Ufer	-10.8184
▁angenehm	-10.8186
▁Il	-10.8186
ED	-10.8188
▁längst	-10.8191
setzt	-10.8195
▁Alkohol	-10.8197
dr	-10.8197
äch	-10.8197
brechen	-10.8198
▁abgegeben	-10.8202
▁Objekte	-10.8206
▁great	-10.8206
▁Obst	-10.8208
cc	-10.8209
MA	-10.8209
▁beantwortet	-10.821
▁ansehen	-10.821
▁31	-10.8211
avi	-10.8211
din	-10.8211
▁Gefängnis	-10.8217
å	-10.8217
31	-10.8217
▁maximal	-10.8218
▁?	-10.8223
▁Lieferanten	-10.8224
▁Sw	-10.8225
rück	-10.8227
▁Bern	-10.8227
RI	-10.8229
▁Master	-10.823
kauf	-10.8231
▁Mark	-10.8231
▁Vertretung	-10.8233
▁Dialogs	-10.8236
▁dargelegt	-10.8237
ME	-10.8241
▁wirkliche	-10.8241
▁Beschluß	-10.8242
°	-10.8243
alter	-10.8245
block	-10.8248
▁typisch	-10.8251
van	-10.8253
wach	-10.8255
▁Taxi	-10.8256
▁Prozesses	-10.8261
amerikanischen	-10.8262
▁Vorstellungen	-10.8263
▁Anträge	-10.8264
▁chemische	-10.8265
▁Jedoch	-10.8267
KOM	-10.827
▁(*	-10.827
amt	-10.8278
▁Getränke	-10.828
▁Räume	-10.8283
▁behält	-10.8284
03	-10.8285
Version	-10.8285
▁Dringlichkeit	-10.8286
produkten	-10.8287
fahrer	-10.8287
▁Hol	-10.8288
▁23.	-10.8299
schiff	-10.8302
▁verbreitet	-10.8305
▁vollen	-10.8306
▁30.	-10.8308
ble	-10.8308
▁Ratschlag	-10.8308
▁25.	-10.831
▁Kenntnisse	-10.8313
▁helpful	-10.8316
▁Unterhaltung	-10.8317
▁sogenannte	-10.8318
▁kennt	-10.8318
lar	-10.8319
freiheit	-10.832
sie	-10.8323
▁entfernen	-10.8324
▁Flughäfen	-10.8324
Vi	-10.8328
▁sammeln	-10.8328
▁Übersicht	-10.833
bewegung	-10.833
▁Florenz	-10.8331
▁angeschlossen	-10.8333
transfer	-10.8333
verbot	-10.8334
▁Ehre	-10.8338
▁vorliegen	-10.834
Benutzer	-10.8342
▁Schrift	-10.8344
▁Gran	-10.8345
▁Zwar	-10.8345
1⁄4	-10.8347
mark	-10.8348
▁plötzlich	-10.835
VO	-10.8351
▁Abbau	-10.8351
▁Schl	-10.8352
▁Tro	-10.8354
▁News	-10.8355
▁Schi	-10.8357
▁Konkurrenz	-10.8358
▁Lobby	-10.8359
war	-10.8359
▁Referendum	-10.8366
▁Besuchen	-10.8368
MS	-10.8369
▁leistet	-10.8374
▁go	-10.8375
▁op	-10.8378
▁Außenminister	-10.8378
bro	-10.8378
stoffe	-10.8378
aktiv	-10.8379
Auf	-10.8381
ev	-10.8381
▁unterbreitet	-10.8381
santräge	-10.8382
▁entstand	-10.8383
uff	-10.8385
▁genaue	-10.8388
▁Innovationen	-10.8389
▁And	-10.8394
tier	-10.8395
▁Chr	-10.8396
▁hinzugefügt	-10.8397
▁versteht	-10.8397
kapital	-10.8399
▁service	-10.8402
▁Dis	-10.8402
LT	-10.8404
▁Vier	-10.8405
pri	-10.8411
▁Sha	-10.8412
▁́	-10.8412
▁Kuba	-10.8413
▁Ideal	-10.8415
▁Jan	-10.8416
▁überwachen	-10.8416
▁aktiven	-10.8417
▁Arbeitszeit	-10.8419
▁Zulassung	-10.842
Mo	-10.8422
nie	-10.8426
▁bewerten	-10.8427
▁Cu	-10.8429
▁trat	-10.843
fluss	-10.8434
PA	-10.8435
▁ernsthafte	-10.8435
▁Köln	-10.8435
â	-10.8439
▁Gespräch	-10.844
ink	-10.8441
▁günstige	-10.8441
▁anwenden	-10.8442
▁>	-10.8442
▁Ausrichtung	-10.8443
▁Lounge	-10.8446
▁Erhalt	-10.8446
▁Prodi	-10.8447
▁beseitigen	-10.8448
regelung	-10.8448
▁Zerstörung	-10.8451
▁absolute	-10.8455
▁gebraucht	-10.8455
▁Hügel	-10.846
▁fortgesetzt	-10.8462
▁Palette	-10.8462
tt	-10.8465
▁Kein	-10.8466
▁Kampagne	-10.8469
▁Ausweitung	-10.847
▁Vordergrund	-10.847
losen	-10.8471
▁sitzen	-10.8476
64	-10.8478
neu	-10.8479
ces	-10.8483
▁wachsende	-10.8483
▁Schlusselwort	-10.8484
▁Les	-10.8485
hör	-10.8485
▁Tom	-10.8486
▁Tanz	-10.8491
▁Akteure	-10.8492
▁Bekannt	-10.8497
▁ordnungsgemäß	-10.85
▁Emissionen	-10.85
▁Block	-10.8503
▁aufzubauen	-10.8505
kal	-10.8505
▁Verhältnisse	-10.8509
▁Operation	-10.8513
▁Institut	-10.8513
-1	-10.8516
▁registriert	-10.8517
▁Volkspartei	-10.8517
▁Kl	-10.8518
LE	-10.8518
▁geblieben	-10.8519
▁erheben	-10.852
▁Safe	-10.8523
führt	-10.8523
▁Nizza	-10.8525
▁Arbeitnehmern	-10.8531
▁Zürich	-10.8532
mmer	-10.8534
▁Spielen	-10.8538
svorschläge	-10.854
ländern	-10.8541
grund	-10.8543
▁angenehmen	-10.8543
▁Anbetracht	-10.8544
▁Geschlechter	-10.8545
▁Feststellung	-10.8545
▁Dynamik	-10.8548
▁definieren	-10.8548
▁Steuerzahler	-10.8548
▁Traditionen	-10.8548
Technologie	-10.8548
=	-10.8549
▁Java	-10.855
▁250	-10.855
▁Unterkünfte	-10.855
▁Jung	-10.855
Annehmlichkeiten	-10.8551
körper	-10.8555
schrift	-10.8555
▁Saal	-10.856
▁Bonus	-10.856
▁herunter	-10.8563
▁gewählten	-10.8566
▁Don	-10.8568
▁1000	-10.8568
gra	-10.8569
gh	-10.8571
▁Suite	-10.8573
▁grammatisch	-10.8575
▁geniessen	-10.8575
eur	-10.8575
▁SE	-10.8577
▁Steigerung	-10.8583
▁kleinere	-10.8583
▁views	-10.8586
▁verarbeitet	-10.8588
ave	-10.859
▁IWF	-10.8591
vorschriften	-10.8594
▁Arm	-10.8594
▁Mont	-10.8594
tende	-10.8596
genommen	-10.8596
▁südlichen	-10.8598
▁Südafrika	-10.86
NL	-10.8602
▁ändert	-10.8603
▁linken	-10.8604
▁Kommentare	-10.8605
quellen	-10.8606
ith	-10.8608
▁Mechanismus	-10.861
ula	-10.861
folge	-10.8611
▁verstehe	-10.8615
SP	-10.8617
▁Danach	-10.8621
▁Vereinigung	-10.8621
par	-10.8622
▁Werden	-10.8623
tas	-10.8623
OS	-10.8626
▁entdeckst	-10.8626
Umstrukturierung	-10.8626
▁1993	-10.8626
niveau	-10.8629
zig	-10.8629
▁Keine	-10.8633
▁schließt	-10.8638
rei	-10.8642
▁Laut	-10.8645
▁WC	-10.8646
▁NICHT	-10.8646
▁Erfolge	-10.865
▁Hände	-10.865
▁Listings	-10.8654
▁Montage	-10.8655
dar	-10.8657
▁multilaterale	-10.8657
▁Spaziergang	-10.8658
▁Schlaf	-10.8659
leiter	-10.8661
▁Australien	-10.8661
Pa	-10.8661
verkehrs	-10.8662
gebäude	-10.8664
bit	-10.8669
▁leichte	-10.867
▁Fahrrad	-10.867
▁umgehen	-10.8671
▁bearbeiten	-10.8672
▁Kapazität	-10.8672
▁keineswegs	-10.8673
Ja	-10.8676
ebene	-10.8676
▁36	-10.8679
▁Sekunden	-10.8681
▁Dublin	-10.8681
eh	-10.8684
▁Demokraten	-10.8685
▁Konjunktur	-10.8685
▁hinzufugen	-10.8685
ING	-10.8685
▁manchen	-10.8688
▁typische	-10.8692
з	-10.8697
▁Miet	-10.8702
▁Mischung	-10.8705
▁irgendwelche	-10.8705
▁Win	-10.8705
lle	-10.8712
Ich	-10.8716
elphrase	-10.8727
▁Anzeige	-10.8727
▁Pri	-10.8727
▁Erwachsene	-10.8728
ient	-10.873
▁aufgezahlt	-10.8733
▁gegebenenfalls	-10.8733
▁umgehend	-10.8734
▁Summe	-10.8735
▁veröffentlichen	-10.8736
..."...	-10.8736
Ha	-10.8737
▁Vertrieb	-10.8737
▁é	-10.8744
▁Bal	-10.8746
anbieter	-10.8749
▁ou	-10.8754
▁Erwägung	-10.8756
▁zulässig	-10.8757
▁täglichen	-10.8759
▁Minderheit	-10.876
ili	-10.8763
▁Konzern	-10.8766
▁Wohnungen	-10.8766
▁Airbus	-10.8766
▁Tieren	-10.8766
▁Laden	-10.8768
▁Mur	-10.8768
schicht	-10.8773
ative	-10.8776
▁Kürze	-10.8778
use	-10.878
▁Reparatur	-10.878
▁Nehmen	-10.878
▁befürwortet	-10.8783
▁ar	-10.8784
▁Vorsitzenden	-10.8787
flächen	-10.879
Dateien	-10.879
stunde	-10.879
▁Appartement	-10.8791
▁Bilanz	-10.8792
sol	-10.8796
▁essen	-10.8797
▁Human	-10.8798
▁Green	-10.8798
75	-10.8799
▁herzustellen	-10.8801
▁gegangen	-10.8803
▁Einfuhr	-10.8804
▁Las	-10.8806
▁Weltkrieg	-10.881
side	-10.8812
ender	-10.8812
zel	-10.8813
▁800	-10.8814
▁Aufsicht	-10.8816
▁Designer	-10.8818
▁Check	-10.8819
UR	-10.8822
stor	-10.8822
gesetz	-10.8825
▁Visum	-10.8826
т	-10.8827
▁Bed	-10.883
“)	-10.883
▁gelesen	-10.8833
schule	-10.8834
▁Sowohl	-10.8834
▁stattgefunden	-10.8837
reform	-10.8837
▁Ereignis	-10.8837
▁Menschheit	-10.8838
▁Weiterentwickl	-10.884
▁riesige	-10.884
oren	-10.8841
▁Bürokratie	-10.8842
tritt	-10.8843
▁zustande	-10.8848
eil	-10.8849
ava	-10.8851
▁Island	-10.8851
▁Können	-10.8853
▁Prozeß	-10.8854
▁friendly	-10.8857
▁Verzeichnis	-10.8859
▁Verfolgung	-10.8861
siehe	-10.8861
▁Wall	-10.8862
▁Unsicherheit	-10.8862
▁Sektors	-10.8865
▁Gibt	-10.8867
▁Back	-10.8868
▁Kyoto	-10.8869
▁eindeutige	-10.8869
design	-10.8871
▁Bildern	-10.8871
Entschlossenheit	-10.8873
▁anerkennen	-10.8873
▁dahin	-10.8875
▁innere	-10.8876
▁ablehnen	-10.8876
▁lädt	-10.8877
▁überrascht	-10.8877
▁intensiv	-10.888
▁best	-10.8886
▁schrittweise	-10.8889
tru	-10.8892
▁Koch	-10.8892
dan	-10.8893
▁ausgehen	-10.8894
▁problemlos	-10.8895
▁Betrug	-10.8896
▁umfassen	-10.8897
▁Weiterbildung	-10.8898
▁ba	-10.8899
äre	-10.8901
schnitt	-10.8902
▁endgültige	-10.8903
▁zwölf	-10.8905
▁fassen	-10.8906
és	-10.8906
▁ID	-10.8907
grad	-10.8907
▁Erreichung	-10.8909
▁angenehme	-10.8913
#1	-10.8915
23	-10.8916
▁Pen	-10.8917
ech	-10.8917
strasse	-10.8921
▁solide	-10.8922
meister	-10.8923
▁gering	-10.8924
Format	-10.8924
▁gegenseitige	-10.8927
▁Fern	-10.893
▁Streit	-10.8934
▁vollständigen	-10.8935
zentren	-10.8937
▁Aktualisierung	-10.8937
▁total	-10.8943
▁Sant	-10.8944
händler	-10.8945
▁parallel	-10.8946
▁gestatten	-10.8946
▁Eingabe	-10.8946
▁Arzneimittel	-10.8946
nicht	-10.8947
kommt	-10.8949
▁politisches	-10.8949
▁Beruf	-10.895
▁ausgestattete	-10.8951
▁Konsultation	-10.8951
▁Ch	-10.8953
▁medizinische	-10.8955
▁hochwertigen	-10.8956
tür	-10.896
▁Gemüse	-10.8961
▁Putin	-10.8963
▁Tele	-10.8963
▁Western	-10.8963
Me	-10.8963
▁NI	-10.8964
▁ausreichende	-10.8965
▁Zweiten	-10.8967
▁David	-10.8968
▁Th	-10.8968
▁Besitzer	-10.897
▁erkunden	-10.8973
▁Portal	-10.8974
▁Niederlande	-10.8975
sagen	-10.8977
griff	-10.8982
TI	-10.8982
arch	-10.8982
▁normale	-10.8983
▁only	-10.8984
▁günstig	-10.8984
schl	-10.8984
▁Gen	-10.8985
table	-10.8986
top	-10.8987
▁Tre	-10.8993
▁existieren	-10.8993
▁Begründung	-10.8995
ks	-10.8995
▁Massage	-10.8996
▁Investition	-10.8999
▁24.	-10.9
pack	-10.9
▁Trend	-10.9001
▁erleichtert	-10.9003
förderung	-10.9003
▁Rotary	-10.9003
▁verurteilen	-10.9006
▁erfasst	-10.9007
lagen	-10.9007
dia	-10.901
▁sparen	-10.9011
▁Abenteuer	-10.9011
ressourcen	-10.9011
bis	-10.9012
▁ri	-10.9013
▁more	-10.9014
▁öffnet	-10.9015
▁teuer	-10.9016
bereit	-10.9016
▁Skype	-10.9019
verhalten	-10.902
▁innovativen	-10.9021
▁Dreh	-10.9023
idad	-10.9025
▁Gesicht	-10.9025
EU	-10.9025
▁Verfasser	-10.9031
▁vereinfacht	-10.9035
▁Einschätzung	-10.9038
▁("	-10.9038
▁erwerben	-10.904
▁Agenturen	-10.904
▁Bedienung	-10.9044
halle	-10.9045
ture	-10.9049
▁solch	-10.9049
л	-10.905
▁bewahren	-10.9056
produkt	-10.9062
▁geleitet	-10.9062
vorschlag	-10.9068
▁offiziell	-10.9075
▁passende	-10.9076
▁te	-10.9079
▁schauen	-10.9081
ath	-10.9082
▁abschließend	-10.9084
▁Soldaten	-10.9085
▁ökologischen	-10.9089
▁beibehalten	-10.9093
redner	-10.9095
lau	-10.9097
▁Lang	-10.9098
finanzierung	-10.91
▁Kreuz	-10.91
▁enormen	-10.91
▁befürworten	-10.9101
▁gestartet	-10.9101
▁Jugendliche	-10.9102
zugehen	-10.9104
ney	-10.9109
▁Domain	-10.9111
▁professionellen	-10.9112
technologien	-10.9114
▁engagiert	-10.9118
▁Gepäck	-10.9121
▁well	-10.9122
▁comp	-10.9124
rechnung	-10.9125
▁freundliche	-10.9126
▁Ausgleich	-10.9128
▁gerechtfertigt	-10.913
▁gebildet	-10.9132
▁Wichtig	-10.9133
▁Universitäten	-10.9134
▁widmen	-10.9138
systemen	-10.9141
act	-10.9142
▁Karriere	-10.9144
▁George	-10.9146
▁Ref	-10.9146
▁Ring	-10.9151
▁(2	-10.9153
aire	-10.9154
fenster	-10.9157
▁Slowakei	-10.9159
bereiche	-10.9164
▁gesunde	-10.9173
behandlung	-10.9176
Team	-10.9178
▁ko	-10.9181
▁Islam	-10.9181
freie	-10.9182
32	-10.9183
bekämpfung	-10.9185
▁Migration	-10.9191
gre	-10.9192
▁ausländischen	-10.9195
▁unzureichend	-10.9198
klasse	-10.92
▁Klarheit	-10.9201
LA	-10.9201
illa	-10.9202
strom	-10.9203
▁hundert	-10.9204
kehr	-10.9204
▁600	-10.9205
▁auswählen	-10.9205
▁langer	-10.9205
FI	-10.9206
lesen	-10.9211
▁Beförderung	-10.9211
märkte	-10.9213
▁Kompetenzen	-10.9213
▁Insgesamt	-10.9213
▁erlassen	-10.9214
ware	-10.9214
▁schwedischen	-10.9216
▁Weine	-10.9217
▁erstreckt	-10.9217
▁eure	-10.9223
▁Sta	-10.9224
▁Beamten	-10.9224
▁Fan	-10.9228
▁Seele	-10.9229
schi	-10.923
▁Vertriebs	-10.923
don	-10.9232
▁Klang	-10.9232
▁Garantien	-10.9234
our	-10.9234
suche	-10.9234
▁Cap	-10.9235
transport	-10.9236
▁Rechten	-10.9239
lü	-10.9243
▁begleiten	-10.9244
Es	-10.9245
▁Spanisch	-10.9248
▁ständigen	-10.9249
▁erteilen	-10.9249
CO	-10.925
▁Nation	-10.9253
▁Runde	-10.9254
▁Anmerkungen	-10.9254
▁Spiegel	-10.9255
▁sensible	-10.9255
▁Filme	-10.9256
▁Konsum	-10.9257
án	-10.9262
▁maßgeblich	-10.9263
▁grünen	-10.9264
▁Funktionieren	-10.9265
vent	-10.9265
▁desto	-10.9266
26	-10.9268
fassung	-10.9271
▁verursachen	-10.9272
▁stay	-10.9273
Ex	-10.9274
▁Kra	-10.9275
▁schriftliche	-10.9276
projekte	-10.9277
▁sub	-10.9278
▁begeistert	-10.9279
▁Überleben	-10.9283
▁genehmigt	-10.9284
▁Krieges	-10.9286
▁Sam	-10.9287
zulegen	-10.9288
▁Bosnien	-10.9293
▁Professor	-10.9293
werten	-10.9295
▁effektiver	-10.9296
▁südlich	-10.9299
▁Textil	-10.93
▁Herkunft	-10.9301
tern	-10.9304
▁Ursache	-10.9304
▁reich	-10.9304
alt	-10.9305
▁geringe	-10.9305
▁Photo	-10.9307
elf	-10.9307
ê	-10.9309
▁Nachdruck	-10.9311
ido	-10.9311
ness	-10.9314
97	-10.9315
xi	-10.9315
datei	-10.9319
ekt	-10.9319
nu	-10.9323
▁Roman	-10.9325
▁Wohl	-10.9326
▁bestellt	-10.9326
bin	-10.9328
schalten	-10.9329
fisch	-10.9329
▁mittelalterlich	-10.9331
▁geschickt	-10.9331
▁blieb	-10.9333
▁vertritt	-10.9334
elemente	-10.9336
▁free	-10.9338
▁besonderes	-10.934
▁00	-10.9342
IE	-10.9346
▁Ber	-10.9348
▁Gute	-10.9348
▁bewußt	-10.935
▁zweiter	-10.9353
▁li	-10.9354
▁Empfänger	-10.9355
▁Tests	-10.9356
▁Chef	-10.9358
arm	-10.9358
▁Sil	-10.9358
▁Behörde	-10.9359
▁Sat	-10.9361
▁Kernel	-10.9361
▁Verkäufer	-10.9362
▁überwiegend	-10.9365
▁Systemen	-10.937
Ka	-10.9371
personal	-10.9371
▁schlicht	-10.9378
▁Angel	-10.9378
▁streng	-10.9379
▁Extra	-10.9379
boot	-10.938
▁Schwarz	-10.9382
stellungen	-10.9383
▁Wiederherstell	-10.9385
▁investiert	-10.9386
▁Plaza	-10.9386
▁Quoten	-10.9387
Li	-10.9389
▁Anbau	-10.9389
▁anzupassen	-10.939
▁Prävention	-10.939
kur	-10.9391
IG	-10.9394
▁Beobachter	-10.9394
▁Wichtigkeit	-10.9395
trag	-10.9398
▁Wünschen	-10.9401
▁Alters	-10.9401
▁Missbrauch	-10.9403
▁Teams	-10.9406
▁Seminar	-10.9406
entwurf	-10.9407
▁Fu	-10.9407
▁ausländische	-10.9407
▁sonstige	-10.941
▁Häfen	-10.9411
▁bedienen	-10.9411
▁technologische	-10.9414
Co	-10.9414
kunden	-10.9417
wort	-10.9419
▁Spektrum	-10.942
▁Wahrung	-10.9422
▁close	-10.9424
gewicht	-10.9425
▁beweisen	-10.9425
▁Versprechen	-10.9425
▁Hostel	-10.9425
▁respektieren	-10.9427
▁Höchst	-10.9429
▁Aufhebung	-10.9437
▁Gleich	-10.9438
ux	-10.9446
ativ	-10.9447
maß	-10.9447
▁zunehmende	-10.945
ld	-10.9453
▁Wahrscheinlich	-10.9454
500	-10.9454
▁Aspekten	-10.9457
▁erkennt	-10.9458
▁erörtert	-10.9458
▁Syrien	-10.9458
▁Karl	-10.9459
▁Aussagen	-10.9459
▁Autonomie	-10.9462
▁Parlamente	-10.9463
▁#	-10.9464
▁Referenz	-10.9466
rent	-10.9468
▁Gemeinden	-10.9469
▁Präsentation	-10.9471
▁Orten	-10.9473
▁Anders	-10.9474
▁moderner	-10.9475
Zu	-10.9476
▁Liberalen	-10.9478
TEN	-10.9478
▁Stadtteil	-10.9478
▁technisch	-10.9478
▁Ser	-10.9478
▁verankert	-10.9479
▁Gemeinschaften	-10.9481
▁Lasten	-10.9483
▁Erzeugung	-10.9484
▁Logistik	-10.9484
▁work	-10.9484
kan	-10.9485
▁könne	-10.9487
▁Deine	-10.9488
▁Rubrik	-10.9488
▁Netze	-10.949
▁Reg	-10.949
▁verwendeten	-10.9491
az	-10.9491
▁europäisches	-10.9491
▁aufge	-10.9492
▁genetisch	-10.9492
▁mar	-10.9494
▁part	-10.9496
▁Import	-10.9497
typen	-10.9497
gy	-10.9498
oll	-10.9506
CS	-10.9506
▁vergeben	-10.9507
▁Mehrwert	-10.9508
▁gebe	-10.9509
uck	-10.9511
▁gemeinsames	-10.9517
▁At	-10.952
▁Menschenhandel	-10.952
phon	-10.9525
▁bewertet	-10.9527
▁lenken	-10.9527
▁Europe	-10.9527
▁kurzer	-10.9531
▁öffentlicher	-10.9534
▁120	-10.9538
menge	-10.9538
▁Immer	-10.9539
▁centre	-10.954
berichterstatter	-10.954
board	-10.9542
oberfläche	-10.9543
▁MySQL	-10.9544
▁Bre	-10.9545
▁normal	-10.9545
uv	-10.9546
geld	-10.9548
м	-10.9551
▁Funktionalität	-10.9551
▁SA	-10.9552
▁versehen	-10.9557
▁begegnen	-10.9557
▁etabliert	-10.9557
▁auswirken	-10.9558
▁city	-10.9559
▁Rußland	-10.9561
▁konzipiert	-10.9561
▁Statut	-10.9561
▁ursprüngliche	-10.9562
ira	-10.9562
▁pi	-10.9563
gelegt	-10.9568
▁Edition	-10.9575
▁Wunder	-10.9579
server	-10.958
kus	-10.9581
▁Inkrafttreten	-10.9583
spielen	-10.9584
▁organisierte	-10.9584
▁vorliegt	-10.9586
▁Data	-10.9588
▁Uns	-10.9592
▁Eigentümer	-10.9596
▁Mittwoch	-10.9596
▁armen	-10.9597
▁Krebs	-10.9603
AC	-10.9605
ía	-10.9606
▁33	-10.9611
temperatur	-10.9613
▁Einzelheiten	-10.9613
▁Verbrauchern	-10.9615
▁mittlere	-10.9615
inisterpräsident	-10.9617
▁GNU	-10.9618
▁geringen	-10.9619
gna	-10.962
pos	-10.9626
versammlung	-10.9627
▁Welthandels	-10.9627
▁Rückgang	-10.9628
▁Fuss	-10.963
▁unterbrochen	-10.963
▁festen	-10.9634
▁Ministerrat	-10.9636
▁überwacht	-10.9636
▁derselben	-10.9636
▁Berater	-10.9638
▁fortsetzen	-10.964
bruch	-10.9641
km	-10.9642
▁bezeichnen	-10.9643
▁Plätze	-10.9644
cio	-10.9645
}	-10.9648
gebieten	-10.965
▁kostenlosen	-10.9651
Kon	-10.9652
▁Ostsee	-10.9652
▁Erarbeitung	-10.9654
▁Ferienwohnungen	-10.9656
regionen	-10.9659
▁Bro	-10.9662
▁Eintritt	-10.9663
äum	-10.9664
GE	-10.9664
▁Herrschaft	-10.9666
▁Gro	-10.9668
▁Labor	-10.967
▁Kohle	-10.967
▁vorsieht	-10.9674
▁benannt	-10.9674
▁davor	-10.9674
▁Turnier	-10.9674
▁Rang	-10.9676
Weiterhin	-10.9678
▁verabschieden	-10.9678
▁Offenheit	-10.9679
wind	-10.9684
▁Felder	-10.9685
▁Zielsetzungen	-10.9687
▁Marokko	-10.9687
28	-10.9688
schluss	-10.9689
aut	-10.9693
▁Mittelmeerraum	-10.9693
hancengleichheit	-10.9694
▁Comp	-10.9694
▁Fra	-10.9696
▁Dir	-10.9697
▁Cookies	-10.9698
▁ve	-10.9699
sbericht	-10.9699
ı	-10.97
bot	-10.9703
▁planen	-10.9704
▁PS	-10.9704
▁umfangreichen	-10.9705
▁realistisch	-10.9706
behörden	-10.971
funktionen	-10.9713
▁1989	-10.9714
▁übermitteln	-10.9719
▁Einnahmen	-10.972
▁Möbel	-10.9723
Ar	-10.9724
▁gewünschte	-10.9724
▁arabischen	-10.9727
UM	-10.9729
▁exklusive	-10.9731
▁Tragödie	-10.9731
▁bearbeitet	-10.9732
▁gehe	-10.9733
▁Belastung	-10.9733
▁Che	-10.9733
verband	-10.9735
▁Festplatte	-10.9735
▁ru	-10.9735
▁beruhen	-10.9735
▁konstruktive	-10.9739
▁Laser	-10.974
▁Anreize	-10.9742
verarbeitung	-10.9743
Гј	-10.9744
▁Beschränkungen	-10.9746
68	-10.9746
prinzip	-10.9748
svertrag	-10.9749
ffen	-10.9751
▁Entschädigung	-10.9753
▁Ehe	-10.9755
MO	-10.9759
▁breit	-10.976
▁37	-10.976
projekt	-10.976
atur	-10.9761
zugeben	-10.9761
▁Heim	-10.9767
▁ständige	-10.9768
▁Wand	-10.9768
ée	-10.9769
träger	-10.9769
yl	-10.977
agentur	-10.977
▁Pat	-10.9772
▁Pop	-10.9772
▁hohes	-10.9773
▁Studium	-10.9775
angebote	-10.9778
▁Föderation	-10.9779
▁Formulierung	-10.9782
▁integrieren	-10.9782
▁auseinander	-10.9783
▁verwaltet	-10.9784
▁Verlängerung	-10.9788
▁flexibel	-10.9788
Sa	-10.9793
▁Klassen	-10.9794
▁Royal	-10.9794
▁Händen	-10.9795
▁29.	-10.9797
größe	-10.9798
▁26.	-10.98
▁Marina	-10.9801
▁Moskau	-10.9802
▁Werten	-10.9804
UNG	-10.9807
▁Fo	-10.9808
▁Alternativen	-10.9808
▁Weltwirtschaft	-10.9811
100	-10.9811
mus	-10.9812
▁Bas	-10.9813
▁Meister	-10.9815
ole	-10.9816
▁Home	-10.9816
▁Problematik	-10.9816
▁Bay	-10.9818
▁Miß	-10.9818
▁Alm	-10.9818
boden	-10.9819
▁vermutlich	-10.9819
waren	-10.9819
▁externe	-10.982
▁Hör	-10.9823
¶	-10.9824
▁Bel	-10.9826
▁geteilt	-10.9827
▁Ausgrenzung	-10.9828
▁aufgeführt	-10.9829
gung	-10.983
▁berichten	-10.983
/2001	-10.9834
gor	-10.9834
ständig	-10.9834
GA	-10.9834
▁Ausbeutung	-10.9837
▁zugestimmt	-10.9837
▁Pra	-10.9839
▁Ed	-10.9839
chten	-10.984
▁Anwesenheit	-10.9842
▁Lern	-10.9845
▁frisch	-10.9847
▁Orientierung	-10.9847
▁1991	-10.9851
▁günstigen	-10.9851
gewinn	-10.9854
▁Cam	-10.9855
▁Projekts	-10.9858
basis	-10.9858
ären	-10.986
▁langem	-10.9863
▁Statistiken	-10.9865
▁Blumen	-10.9868
▁beeinflusst	-10.9868
partner	-10.9868
▁Solar	-10.9868
pan	-10.9874
▁mobile	-10.9874
Ü	-10.9875
▁verzichten	-10.9877
▁Gewinne	-10.988
▁abgesehen	-10.988
▁europaweit	-10.9881
verbindungen	-10.9884
link	-10.9885
▁frische	-10.9887
gesetzt	-10.9888
▁Schiffs	-10.9889
▁Million	-10.9891
▁gemütlichen	-10.9895
▁Logik	-10.9898
▁empfängt	-10.9899
▁28.	-10.9901
▁maximale	-10.9903
▁Hostelsclub	-10.9904
hr	-10.9904
▁begangen	-10.9908
▁Arzt	-10.9914
OR	-10.9917
▁Tibet	-10.9918
schneiden	-10.9918
▁flexible	-10.9919
▁stärksten	-10.9922
DR	-10.9925
oc	-10.9927
▁Palästinenser	-10.9927
▁Beste	-10.9927
▁over	-10.9927
ated	-10.9928
volle	-10.9929
einheit	-10.9929
▁gesch	-10.9933
Gipfel	-10.9934
▁Thomas	-10.9935
▁erarbeiten	-10.9935
gli	-10.9937
34	-10.9942
▁kritisiert	-10.9944
▁erweisen	-10.9946
▁vielfältige	-10.9947
▁Main	-10.9948
wir	-10.9948
33	-10.9948
▁gehabt	-10.9949
▁Pfad	-10.9949
▁Zunahme	-10.995
öt	-10.9952
▁Ursprungs	-10.9952
▁Einer	-10.9954
▁anpassen	-10.9954
papier	-10.9954
к	-10.9956
artikel	-10.9956
▁Umstände	-10.9957
▁cu	-10.9958
zubringen	-10.996
▁Bestellungen	-10.9961
llen	-10.9963
cho	-10.9964
27	-10.9965
DS	-10.9967
▁steigt	-10.9967
▁Terroristen	-10.9967
union	-10.9971
▁Geschenk	-10.9971
▁unerlässlich	-10.9971
lock	-10.9972
▁Mond	-10.9972
ted	-10.9974
▁Konvergenz	-10.9976
▁schwieriger	-10.998
▁still	-10.998
▁Privatsphäre	-10.998
▁gefasst	-10.998
▁Russlands	-10.9981
▁ernste	-10.9984
hlen	-10.9985
▁Schlag	-10.9986
▁Ph	-10.9986
lie	-10.9986
▁afrikanischen	-10.9986
▁form	-10.9986
▁zugute	-10.9986
▁34	-10.9988
ora	-10.9989
▁eröffnen	-10.9989
▁russische	-10.9991
▁Voraus	-10.9991
▁verstärkte	-10.9994
▁wächst	-10.9995
▁Ordner	-10.9995
▁bereiten	-10.9996
▁einzig	-10.9996
▁Mengen	-10.9998
▁vorsichtig	-10.9998
▁vermieden	-11.0003
strich	-11.0003
▁Performance	-11.0003
▁gebunden	-11.0005
▁lieben	-11.0007
2)	-11.0007
geführt	-11.0008
ici	-11.0008
Bo	-11.0011
▁100%	-11.0014
39	-11.0014
▁Pferde	-11.0019
▁genießt	-11.0021
▁Zugangs	-11.0021
su	-11.0021
▁deutliche	-11.0023
nia	-11.0024
▁eleganten	-11.0025
▁Derzeit	-11.0026
▁area	-11.0027
▁beträchtliche	-11.0028
▁would	-11.0031
▁Taten	-11.0033
DI	-11.0036
sis	-11.0036
▁Ausnahmen	-11.0036
▁Gelände	-11.0042
EC	-11.0043
▁Unfall	-11.0046
▁real	-11.0048
sy	-11.005
▁Ya	-11.0052
▁niedrigen	-11.0053
▁eintreten	-11.0057
sprinzip	-11.0061
▁umso	-11.0061
▁Literatur	-11.0062
machen	-11.0063
zt	-11.0064
▁eigentliche	-11.0064
NRO	-11.0065
▁verschaffen	-11.0068
▁Va	-11.0069
▁Mc	-11.0069
▁nützliche	-11.0071
▁kostenfrei	-11.0075
▁Net	-11.0075
Vertrag	-11.0079
▁vorherige	-11.0079
▁erforderliche	-11.008
CC	-11.0084
▁verliehen	-11.0085
▁ältere	-11.0085
▁Tel	-11.0096
▁Einwanderer	-11.0097
vermögen	-11.0098
wein	-11.0098
▁Resolution	-11.01
risiko	-11.0103
▁Zusammensetzung	-11.0103
▁zukommen	-11.0104
dig	-11.0104
▁dieselben	-11.0105
nutzung	-11.0105
var	-11.0107
dis	-11.0109
▁eingeräumt	-11.0112
▁größter	-11.0112
▁Pack	-11.0112
▁gewöhnlich	-11.0115
▁Verabschiedung	-11.0121
▁üblichen	-11.0122
schritt	-11.0123
▁Merkmale	-11.0124
ction	-11.0125
й	-11.0125
▁Deutschlands	-11.0127
▁erneuerbare	-11.0128
phase	-11.0128
▁Fri	-11.0128
▁verwiesen	-11.013
▁Werkzeuge	-11.0132
gebühren	-11.0134
Politik	-11.0135
▁Binnen	-11.0136
▁Führungs	-11.0137
▁fern	-11.0137
▁Währungs	-11.0137
▁gen	-11.0143
▁zentraler	-11.0144
▁ur	-11.0145
smitglied	-11.0146
▁sterben	-11.0148
▁regionaler	-11.015
▁ST	-11.0151
▁klassische	-11.0153
▁Rezession	-11.0153
gegangen	-11.0154
▁Rennen	-11.0154
▁Zone	-11.0161
san	-11.0162
▁besagt	-11.0164
▁Salz	-11.0165
rä	-11.0165
▁Party	-11.0166
sphase	-11.0168
▁Event	-11.0171
▁Fortsetzung	-11.0176
▁Gipfeltreffen	-11.0176
▁durchzusetzen	-11.0178
Ö	-11.0182
▁eingeladen	-11.0184
▁Gentoo	-11.0185
▁Training	-11.0185
▁erheblichen	-11.0186
▁Fakten	-11.0188
▁wachsen	-11.0189
▁Ärzte	-11.0189
▁komplexen	-11.019
Ebene	-11.0191
▁komfortablen	-11.0192
▁excellent	-11.0194
verbindung	-11.0194
konzept	-11.0202
▁Kanal	-11.0206
▁Express	-11.0208
▁dieselbe	-11.021
▁rechnen	-11.0211
ats	-11.0214
weit	-11.0214
▁Log	-11.0216
mil	-11.0218
▁Optimierung	-11.0224
tain	-11.0224
isierte	-11.0226
jpg	-11.0227
▁dasselbe	-11.0227
▁aussehen	-11.0228
▁Besteuerung	-11.0228
▁Centre	-11.0229
▁Wartung	-11.0231
▁zwanzig	-11.0235
▁Anreise	-11.0242
▁Charme	-11.0242
▁Washington	-11.0249
▁Handlungen	-11.0252
▁Defizit	-11.0254
▁passt	-11.0254
lieb	-11.0259
oo	-11.026
küste	-11.026
▁Pin	-11.0262
▁Verluste	-11.0263
▁gegenseitigen	-11.0263
merk	-11.0272
bal	-11.0272
fahr	-11.0273
▁Legislativ	-11.0277
▁Rhein	-11.0278
▁vernünftige	-11.0284
nte	-11.0285
▁erwähnten	-11.0285
fel	-11.0286
▁Inhaber	-11.0287
▁erbaut	-11.0289
dos	-11.0292
▁irische	-11.03
gie	-11.0304
▁Kap	-11.0304
▁abgeben	-11.0304
▁beteiligten	-11.0305
▁fühlt	-11.0306
▁basieren	-11.0308
▁Gewinner	-11.0309
▁zurzeit	-11.0311
▁einführen	-11.0312
▁Baum	-11.0313
ello	-11.0313
▁markiert	-11.0315
▁Anbindung	-11.0316
▁wünscht	-11.0317
▁Mitgliedsländer	-11.0323
▁Wälder	-11.0323
▁heutzutage	-11.0324
isches	-11.0326
▁12.00	-11.0327
▁Abgeordneter	-11.033
SC	-11.0331
▁Casa	-11.0332
stehende	-11.0332
▁Ste	-11.0334
▁spielte	-11.0334
▁bo	-11.0336
▁gestiegen	-11.034
int	-11.0341
▁interessanten	-11.0341
▁Ausübung	-11.0342
▁1980	-11.0344
▁Maastricht	-11.0347
sebene	-11.0348
ple	-11.0352
▁Office	-11.0354
▁Men	-11.0355
unt	-11.0355
▁Forscher	-11.0357
▁erläutert	-11.0361
sprozeß	-11.0361
▁gültig	-11.0365
▁Mallorca	-11.037
▁gebilligt	-11.037
▁comfortable	-11.0371
arbeiter	-11.0371
▁bekräftigt	-11.0375
▁tatsächlichen	-11.0378
dom	-11.0378
▁gründlich	-11.0381
ea	-11.0382
▁retten	-11.0382
▁other	-11.0383
▁unge	-11.0383
▁Genuss	-11.0385
▁gemeinsamer	-11.0385
▁angenommenen	-11.0388
▁Handlung	-11.0388
leiste	-11.0392
▁about	-11.0393
в	-11.0393
verschmutzung	-11.0394
▁place	-11.0394
OP	-11.0395
ckel	-11.0398
defizit	-11.0399
TS	-11.04
▁passieren	-11.0401
▁Camp	-11.0403
IL	-11.0404
af	-11.0405
▁Erbe	-11.0409
▁Drittstaaten	-11.0412
▁Mobiltelefon	-11.0413
emissionen	-11.0414
▁Osteuropa	-11.0416
▁Flächen	-11.0416
therapie	-11.0417
▁überarbeitet	-11.0417
▁löschen	-11.0418
NS	-11.0418
▁bisschen	-11.0418
analyse	-11.0419
NA	-11.0419
55	-11.0423
sprogramme	-11.0426
▁Budapest	-11.0427
▁Ä	-11.0427
▁Angabe	-11.0429
▁nachhaltig	-11.043
▁Fast	-11.043
▁niedrig	-11.0435
sicher	-11.0435
▁religiösen	-11.0436
Rat	-11.0441
hä	-11.0445
▁unterscheidet	-11.0446
▁kom	-11.0447
▁beinahe	-11.045
▁ka	-11.0451
▁reine	-11.0451
isation	-11.0454
▁RE	-11.0456
ähr	-11.0458
listen	-11.0458
▁Nu	-11.0463
▁Anhörung	-11.0465
▁funktionierende	-11.0466
ose	-11.0467
▁beschleunigen	-11.0469
▁Pflichten	-11.047
▁schlechter	-11.0471
zy	-11.0471
▁Minibar	-11.0471
▁fehlen	-11.0472
▁belegt	-11.0473
▁auswärtige	-11.0475
▁gr	-11.0475
orientierte	-11.0476
▁luxuriöse	-11.0481
▁Brücke	-11.0486
zeug	-11.0487
▁respektiert	-11.0488
▁ausgelöst	-11.0489
▁Herzlich	-11.049
▁gehandelt	-11.0493
OL	-11.0497
Da	-11.0498
zz	-11.0499
alle	-11.0501
▁einstellen	-11.0502
teilung	-11.0511
einheiten	-11.0511
▁Kr	-11.0511
▁Private	-11.0512
▁Kloster	-11.0512
filter	-11.0521
▁Heiligen	-11.0526
▁Anhänger	-11.0528
▁Bühne	-11.0528
▁Bewerber	-11.0531
▁Taiwan	-11.0531
▁Sel	-11.0532
▁Stufe	-11.0532
▁angelegt	-11.0532
▁Kühl	-11.0533
▁demokratischer	-11.0534
▁Tempo	-11.0537
Bar	-11.0537
▁derart	-11.0539
fertig	-11.0543
stellt	-11.0543
set	-11.0546
▁gezielt	-11.0546
▁Distribution	-11.0547
▁),	-11.0548
▁Versuche	-11.0548
▁endgültigen	-11.0548
▁beschreibt	-11.055
▁Lärm	-11.055
▁ausgehend	-11.0551
▁2.0	-11.0551
▁beschließen	-11.0556
anforderungen	-11.0558
▁Chat	-11.0559
▁gegenseitig	-11.0559
▁füllen	-11.0565
€	-11.0569
▁empfiehlt	-11.0569
▁Berichten	-11.057
▁qui	-11.0571
▁Ag	-11.0577
▁University	-11.0579
▁unver	-11.0582
▁Klick	-11.0592
▁ju	-11.0594
formen	-11.0594
spieler	-11.0597
▁2012	-11.0597
vert	-11.0598
▁versch	-11.06
bor	-11.0601
cz	-11.0601
ade	-11.0602
▁some	-11.0607
▁höchster	-11.0608
▁einmalige	-11.0609
▁beider	-11.0612
ult	-11.0613
stra	-11.0614
▁pas	-11.0614
▁bekam	-11.0615
▁Adria	-11.0617
▁Türen	-11.0617
Mar	-11.0617
▁Platten	-11.0621
tte	-11.0621
▁Stra	-11.0621
liches	-11.0622
▁tolle	-11.0622
▁Mund	-11.0624
▁Aktivität	-11.0629
AP	-11.063
48	-11.0631
▁ruhiger	-11.0631
▁Beobachtung	-11.0632
▁Befehl	-11.0632
BSE	-11.0633
▁Pla	-11.0634
AG	-11.0639
▁DER	-11.0639
▁detaillierte	-11.0639
status	-11.064
▁Großen	-11.0642
pper	-11.0642
▁Solche	-11.0643
▁USD	-11.0646
nes	-11.0646
Ko	-11.0647
▁Cre	-11.0647
regierung	-11.0649
▁Klimawandels	-11.0649
▁Auslegung	-11.065
▁gelassen	-11.0651
Lo	-11.0652
▁Abteilung	-11.0652
fl	-11.0653
▁verpflichten	-11.0655
▁kurzfristig	-11.0655
▁Rücken	-11.0661
▁Sony	-11.0665
▁negativ	-11.0669
tions	-11.0671
yn	-11.0675
▁erstes	-11.0676
▁kleineren	-11.0679
▁{{	-11.068
▁gelingen	-11.0681
▁nehme	-11.0683
▁Energiequellen	-11.0687
wärts	-11.0689
▁EC	-11.0695
▁gelegene	-11.0699
schläge	-11.07
ärmsten	-11.0702
▁Inc	-11.0703
▁zielt	-11.0705
▁vergleichen	-11.0708
ire	-11.0709
▁ausführlich	-11.0711
durchschnittlich	-11.0712
Seite	-11.0712
▁Abschluß	-11.0715
▁Wal	-11.0716
▁vernünftig	-11.0717
ichtraucherzonen	-11.0719
steuern	-11.0719
▁übergeben	-11.0721
36	-11.0722
ox	-11.0727
▁(1	-11.073
▁Tar	-11.0731
aff	-11.0731
ves	-11.0732
▁Aufforderung	-11.0733
▁geeigneten	-11.0733
▁night	-11.0734
▁Cas	-11.0735
▁like	-11.0737
▁automatische	-11.0739
Dollar	-11.074
▁Spannungen	-11.074
So	-11.074
▁38	-11.0741
card	-11.0743
cent	-11.0743
▁Metro	-11.0746
▁komfortabel	-11.0747
▁erschienen	-11.075
holen	-11.0751
▁Hektar	-11.0752
felder	-11.0756
lett	-11.0763
Sie	-11.0765
29	-11.0771
▁27.	-11.0771
▁derjenigen	-11.0773
▁liegenden	-11.0774
sto	-11.0774
▁Autoren	-11.0775
▁Heimatland	-11.0779
▁Sar	-11.0779
▁einnehmen	-11.0781
▁klarer	-11.0784
43	-11.0785
sbehörden	-11.0786
por	-11.0788
rik	-11.0789
Daten	-11.0791
▁getötet	-11.0791
▁Besteller	-11.0792
än	-11.0793
stieg	-11.0794
▁verzeichnen	-11.0798
▁Börse	-11.0799
▁Übergangs	-11.08
▁Inhalten	-11.08
stätte	-11.0806
▁Porto	-11.0806
stunden	-11.0808
▁Desktop	-11.0809
▁vorübergehend	-11.0811
▁organisierten	-11.0812
▁technischer	-11.0812
▁Mauer	-11.0815
▁allmählich	-11.0816
pool	-11.0818
▁2013	-11.082
▁überlegen	-11.0823
▁vergleichbar	-11.0824
▁Swiss	-11.0826
▁they	-11.0826
sing	-11.0826
Bürger	-11.0827
▁Beschwerden	-11.0828
▁verwirklichen	-11.083
▁stattdessen	-11.0831
▁Para	-11.0832
▁Schutzes	-11.0834
▁gewinnt	-11.0835
wirkung	-11.0835
▁HD	-11.084
legt	-11.0841
rain	-11.0843
▁übersetzt	-11.0843
▁Ehren	-11.0845
▁Litauen	-11.085
gezogen	-11.0853
▁Entdeckung	-11.0853
▁fanden	-11.0854
▁regeln	-11.0854
media	-11.0857
▁sicherer	-11.0858
▁Grab	-11.0858
▁wartet	-11.0858
▁Stern	-11.0859
▁englischen	-11.0859
▁nutzbar	-11.086
tragen	-11.0862
szusammenarbeit	-11.0862
▁Allein	-11.0863
▁Spe	-11.0863
off	-11.0863
ais	-11.0863
▁herrliche	-11.0864
▁vorbehalten	-11.0865
▁teilzunehmen	-11.0865
cal	-11.0867
ENT	-11.0868
▁Fund	-11.0878
▁Alltag	-11.0878
reiche	-11.0878
▁geplanten	-11.0878
▁Gre	-11.0879
ando	-11.0879
▁Grafik	-11.0879
mie	-11.0879
▁Game	-11.0879
tiert	-11.088
▁Kalender	-11.088
Rezeption	-11.0882
mitteln	-11.0884
▁gelernt	-11.0884
▁Stabilisierung	-11.0885
▁Max	-11.0885
▁eingerichtete	-11.0886
▁bewiesen	-11.0887
kr	-11.0891
▁Trainings	-11.0892
Artikel	-11.0892
keiten	-11.0894
▁angebotenen	-11.0895
▁vereinbarten	-11.0896
PS	-11.0897
▁grüne	-11.0897
wunder	-11.0897
▁gekauft	-11.0897
▁ausführen	-11.0897
▁Konfiguration	-11.0898
ute	-11.0898
у	-11.0899
▁insofern	-11.0899
▁Board	-11.09
▁Malta	-11.0901
assi	-11.0903
▁optimiert	-11.0903
▁Territorium	-11.0904
▁verknüpft	-11.0905
▁Einkommens	-11.0907
▁Einschränkungen	-11.0908
▁vorgehen	-11.0909
▁Freihandel	-11.0909
▁aufgerufen	-11.0909
▁95	-11.091
▁sonstigen	-11.0913
▁65	-11.0916
▁Ankündigung	-11.0919
▁Direktor	-11.092
▁Lokal	-11.0922
▁ausgearbeitet	-11.0922
▁inneren	-11.0927
uri	-11.0929
▁nu	-11.093
▁Beratungen	-11.0933
Serie	-11.0933
▁Amerikas	-11.0942
▁Verletzungen	-11.0942
ppen	-11.0946
▁Char	-11.0948
▁Aufruf	-11.0951
▁ausgebaut	-11.0951
▁original	-11.0952
▁medizinischen	-11.0953
▁gefährden	-11.0954
▁verbesserte	-11.0955
sammlung	-11.0955
stock	-11.0959
CI	-11.0959
schlüssel	-11.096
▁DIE	-11.096
▁geistigen	-11.0962
▁unterwegs	-11.0964
suchen	-11.0966
wachsen	-11.0967
TO	-11.0968
▁Rassismus	-11.0969
▁Gegenwart	-11.0969
br	-11.097
ios	-11.097
▁endgültig	-11.0972
▁(„	-11.0973
ition	-11.0975
ão	-11.0975
▁polnischen	-11.0975
hang	-11.0976
▁Jahresbericht	-11.0978
via	-11.098
ull	-11.0981
▁finnische	-11.0982
▁industriellen	-11.0983
bb	-11.0984
▁Ce	-11.0987
▁Bur	-11.0988
▁spätestens	-11.0988
▁wirksamer	-11.0992
▁lokaler	-11.0992
AM	-11.0996
▁Haushalte	-11.0996
ics	-11.0997
▁Segel	-11.0998
66	-11.0999
ias	-11.0999
▁gesammelt	-11.1
▁Petition	-11.1003
▁Präsidium	-11.1003
▁berufliche	-11.1004
▁eigenem	-11.1006
▁Unterdrückung	-11.1008
▁ratifiziert	-11.1009
BA	-11.1009
▁Aufträge	-11.101
▁inakzeptabel	-11.1014
bestimmungen	-11.1015
bedarf	-11.1015
sverhandlungen	-11.1016
▁Produzenten	-11.1017
▁Tabelle	-11.1017
▁tausend	-11.1018
kin	-11.1019
▁jährlichen	-11.1019
▁beruflichen	-11.102
mengen	-11.1021
▁wirklichen	-11.1023
▁zeit	-11.1025
▁j	-11.1028
38	-11.1028
▁Beschäftigten	-11.1028
time	-11.1028
▁Kurse	-11.1028
änder	-11.1028
▁späteren	-11.1029
nik	-11.103
▁Em	-11.1032
prüfung	-11.1033
MI	-11.1035
▁55	-11.1035
▁Leid	-11.1036
lot	-11.1038
▁Kraftstoff	-11.1039
bestand	-11.104
▁faire	-11.1041
▁Flüchtlings	-11.1044
tive	-11.1048
kra	-11.1052
▁dauern	-11.1052
▁Kreativität	-11.1054
not	-11.1054
▁Gebäuden	-11.1054
▁ré	-11.1055
▁Reichtum	-11.1056
▁behinderten	-11.1056
▁bewirken	-11.1056
effekt	-11.1057
vel	-11.1057
▁jemals	-11.1059
▁Herberge	-11.1059
▁ti	-11.106
ér	-11.1062
▁Grundsätzen	-11.1064
▁gra	-11.1064
▁42	-11.1065
▁besetzt	-11.1065
▁Bri	-11.1066
▁Europol	-11.1066
nähe	-11.1066
▁Clubs	-11.1067
▁türkische	-11.1067
▁angestrebt	-11.1068
▁Gärten	-11.1069
▁Mari	-11.1069
▁OS	-11.1071
ky	-11.1071
▁friedliche	-11.1074
sinstrument	-11.1078
▁Wille	-11.1079
ierungen	-11.1081
▁oberen	-11.1081
losigkeit	-11.1084
geschwindigkeit	-11.1086
Regierung	-11.1089
▁Demo	-11.1092
▁Menschenrechten	-11.1092
▁folglich	-11.1094
▁Verordnungen	-11.1095
▁§	-11.1096
▁Schwimmbad	-11.1099
▁bezogen	-11.1099
▁Unterzeichnung	-11.1105
icht	-11.1105
Länder	-11.1105
▁beizutragen	-11.1108
ration	-11.1109
kurse	-11.1109
▁wunderbare	-11.111
▁ähnlichen	-11.1111
▁dauerhafte	-11.1111
▁Entstehung	-11.1114
istisch	-11.1116
▁Anhang	-11.1117
farben	-11.1119
▁IV	-11.112
standards	-11.1121
▁Verbrauch	-11.1123
▁unterbreiten	-11.1124
▁Jugoslawien	-11.1125
lei	-11.1126
}}	-11.1128
▁Geben	-11.1129
tech	-11.1132
▁Kommentar	-11.1136
▁Ausbildungs	-11.1138
▁Tennis	-11.1139
▁Medikamente	-11.114
▁erneuerbaren	-11.114
TC	-11.1141
fällen	-11.1143
▁Gebühr	-11.1146
▁Vulkan	-11.1146
р	-11.1147
▁bedauer	-11.1147
▁hielt	-11.1151
▁Therapie	-11.1155
▁Apple	-11.1156
▁Spannung	-11.1161
▁Info	-11.1163
▁schenken	-11.1164
basierte	-11.1166
▁baut	-11.1168
artigen	-11.117
rio	-11.1172
iven	-11.1173
ali	-11.1173
▁Eigenschaft	-11.1174
▁br	-11.1176
▁Einblick	-11.1178
▁Kenn	-11.1178
▁Emissions	-11.118
ь	-11.1183
austausch	-11.1184
▁beliebigen	-11.1184
▁Freuen	-11.1185
▁Einkauf	-11.1185
▁Leuten	-11.1186
0,00	-11.1186
▁Konzepte	-11.1189
▁terroristische	-11.119
▁Hel	-11.1196
▁Stamm	-11.1197
▁Swimmingpool	-11.12
▁Unterlagen	-11.1202
но	-11.1207
▁Protest	-11.1208
▁weitaus	-11.121
▁ökologische	-11.1211
▁stetig	-11.1212
▁Abänderung	-11.1213
▁umgekehrt	-11.1215
lung	-11.122
▁Innerhalb	-11.122
▁Finanzen	-11.1221
▁European	-11.1223
▁non	-11.1223
▁Busse	-11.1228
stimm	-11.123
▁versteckt	-11.1231
▁koordiniert	-11.1233
2010	-11.1233
▁großartige	-11.1236
lla	-11.1239
▁transparent	-11.124
▁schrieb	-11.124
ě	-11.1241
▁privat	-11.1241
▁erstens	-11.1242
quelle	-11.1242
air	-11.1246
fehler	-11.1246
▁Null	-11.1247
misch	-11.1248
USS	-11.1249
▁Fans	-11.1251
str	-11.1253
▁Bergen	-11.1255
▁alternative	-11.1257
▁Mat	-11.1259
▁Beitritts	-11.126
▁Adobe	-11.1261
▁Armen	-11.1263
▁Jahrzehnt	-11.1265
▁Aluminium	-11.1266
ktor	-11.1269
▁Fehlen	-11.1269
▁angewiesen	-11.127
▁Set	-11.127
muster	-11.1271
▁gefährliche	-11.1272
▁nord	-11.1272
vision	-11.1273
▁Sach	-11.1274
els	-11.1274
usch	-11.1275
tun	-11.1281
▁Vertrauens	-11.1282
schutzes	-11.1282
viertel	-11.1282
▁Ursprung	-11.1283
▁Vorbild	-11.1283
▁Kompromisse	-11.1284
anteil	-11.1284
▁Slowenien	-11.1287
AU	-11.1292
▁Mel	-11.1292
▁Sun	-11.1294
▁Formel	-11.1294
mont	-11.1297
▁Palästina	-11.1297
kreuz	-11.1297
▁5-	-11.1297
▁Schaf	-11.1304
▁Äußerungen	-11.1306
herr	-11.1306
▁Geschäften	-11.1306
▁Bewältigung	-11.1307
nbsp	-11.1307
▁Motto	-11.1309
▁Sex	-11.1311
raucherzimmer	-11.1312
▁Ausschüsse	-11.1314
yo	-11.1316
▁israelischen	-11.1316
tiv	-11.1318
▁Hunger	-11.1318
▁Reserve	-11.1319
▁Bezahlung	-11.1324
▁demokratisch	-11.1324
▁UND	-11.1325
ward	-11.1327
▁werfen	-11.1327
▁entworfen	-11.1328
ité	-11.1328
▁Kol	-11.1329
bilder	-11.133
▁Realisierung	-11.133
▁Universal	-11.133
▁live	-11.1331
▁Breakfast	-11.1333
▁Fokus	-11.1333
zweck	-11.1336
pt	-11.1336
▁Internetzugang	-11.1336
kräfte	-11.1338
PE	-11.1339
ausstattung	-11.1339
▁You	-11.1341
kapazität	-11.1343
iff	-11.1348
▁Hin	-11.1348
▁Events	-11.1348
▁Kräften	-11.1348
sur	-11.135
glas	-11.1353
▁Gemeinsam	-11.1356
▁Griff	-11.1356
kampf	-11.1356
geräten	-11.1357
ments	-11.1359
▁Kirk	-11.1359
smitglieder	-11.1359
steuerung	-11.1365
▁eigentlichen	-11.1367
back	-11.1368
speriode	-11.1369
figur	-11.1369
▁beschreiben	-11.1369
▁spiegelt	-11.137
tem	-11.137
▁engen	-11.137
▁Zahn	-11.1374
71	-11.1375
▁Sehen	-11.1377
85	-11.1377
▁Vergnügen	-11.138
unk	-11.1381
▁gelegenen	-11.1382
▁nachdenken	-11.1385
▁stabile	-11.1385
iß	-11.1387
▁Besatzung	-11.1389
▁Vorfeld	-11.139
▁Palace	-11.139
▁inbegriffen	-11.1391
stehenden	-11.1391
▁ohnehin	-11.1392
▁Touren	-11.1394
ont	-11.1395
▁Ausfuhr	-11.1396
pflege	-11.1396
▁Dor	-11.1396
▁Juden	-11.1397
▁ausgewählten	-11.1398
itt	-11.1399
abend	-11.1401
▁в	-11.1403
▁Angriffe	-11.1403
Con	-11.1403
ð	-11.1406
▁ignoriert	-11.1406
▁interessieren	-11.1411
stag	-11.1411
▁stützen	-11.1411
▁mu	-11.1412
▁Lehren	-11.1415
▁Bezirk	-11.1416
▁zeitgenössische	-11.1416
▁geschafft	-11.1417
▁Weißbuch	-11.1417
▁Arbeitsgruppe	-11.1417
▁Stabilitäts	-11.1417
tis	-11.1418
▁Halb	-11.1419
liegen	-11.142
▁mitgeteilt	-11.142
▁gewünscht	-11.1422
aria	-11.1423
▁Av	-11.1425
ois	-11.1425
pläne	-11.1426
bilanz	-11.1426
▁EP	-11.1427
▁industrielle	-11.1428
▁Mer	-11.1429
▁Trek	-11.143
sektors	-11.1431
▁Treibhausgas	-11.1432
netze	-11.1433
▁Index	-11.1435
NE	-11.1435
▁verwalten	-11.1437
▁Vermarktung	-11.1437
▁Kranken	-11.1437
▁Lieblings	-11.1439
▁person	-11.1439
lam	-11.1442
▁rechtfertigen	-11.1442
▁einander	-11.1443
▁sagten	-11.1444
▁Tief	-11.1445
▁kritischen	-11.1448
glich	-11.1449
platten	-11.1449
▁Updates	-11.145
α	-11.1452
▁erzählt	-11.1453
▁ter	-11.1454
verlust	-11.1459
▁Cra	-11.1462
hel	-11.1462
ström	-11.1463
bli	-11.1463
▁Pf	-11.1464
▁use	-11.1468
▁if	-11.147
▁Schau	-11.147
echt	-11.1473
▁globaler	-11.1473
▁Scheitern	-11.1473
▁Überarbeitung	-11.1474
▁strenge	-11.1475
Richtlinie	-11.1477
▁Folter	-11.1479
▁MO	-11.1479
▁Room	-11.1483
dauer	-11.1483
▁Foundation	-11.1484
▁droht	-11.1489
gesch	-11.149
▁Brot	-11.149
▁einzugehen	-11.1492
▁bilateralen	-11.1492
▁Fabrik	-11.1496
uf	-11.1497
cas	-11.1499
verbrauch	-11.1499
ule	-11.1499
wohn	-11.1502
▁voneinander	-11.1503
▁Han	-11.1503
▁Canon	-11.1503
sprachen	-11.1506
▁erlangen	-11.1507
▁Festung	-11.1507
ds	-11.1509
▁Rio	-11.1509
gleichen	-11.1512
rd	-11.1514
▁erweiterten	-11.1515
▁Bananen	-11.1515
▁kommerzielle	-11.1517
eben	-11.1519
▁erörtern	-11.152
▁geschmackvoll	-11.152
▁Funk	-11.1525
bri	-11.1525
▁melden	-11.1526
▁wirtschafts	-11.1529
aktion	-11.1529
pon	-11.1529
▁Eigentums	-11.153
▁Kindes	-11.153
▁day	-11.153
▁grundlegender	-11.1531
▁enttäuscht	-11.1531
▁neueste	-11.1532
motor	-11.1535
▁gewisser	-11.1538
konto	-11.1539
kontroll	-11.1539
▁manuell	-11.1539
▁aktualisieren	-11.1541
selbe	-11.1544
▁fairen	-11.1544
▁Erziehung	-11.1545
schalter	-11.1546
▁erfolgte	-11.1547
▁diverse	-11.155
▁Koordination	-11.1552
mitglieder	-11.1553
▁zog	-11.1555
▁Seen	-11.1556
gabe	-11.1557
geschrieben	-11.1558
▁Abstand	-11.1559
cor	-11.156
▁beiträgt	-11.1561
tle	-11.1562
▁erläutern	-11.1563
▁ernannt	-11.1563
▁Amts	-11.1565
▁è	-11.1569
▁Fr	-11.1569
▁gebucht	-11.157
spar	-11.1571
▁Leidenschaft	-11.1577
▁EN	-11.1578
MP	-11.1579
▁potenziell	-11.1579
ions	-11.158
▁natur	-11.158
Demokratisierung	-11.158
▁fährt	-11.1581
haushalts	-11.1582
▁rasche	-11.1583
▁col	-11.1587
▁Pol	-11.1587
▁zukünftig	-11.1588
hor	-11.1588
▁Fertigung	-11.1589
86	-11.1589
▁Hamas	-11.159
bon	-11.1591
▁Doppelbett	-11.1591
thema	-11.1592
▁erstklassige	-11.1596
▁Zivilisation	-11.16
▁SP	-11.1601
ßt	-11.1602
spflicht	-11.1602
stern	-11.1603
▁Rahmenbedingung	-11.1604
▁Strasse	-11.1605
nischen	-11.1606
▁Brenn	-11.1607
▁erinnere	-11.1609
▁Vorgaben	-11.1609
▁ermutigen	-11.1611
▁Aufenthalts	-11.1612
hal	-11.1614
▁erwähnte	-11.1614
▁Getreide	-11.1615
▁dr	-11.1616
▁qualifizierte	-11.1617
▁Energiepolitik	-11.1618
▁art	-11.1621
▁Berechnung	-11.1622
ym	-11.1625
gue	-11.1626
-20	-11.1629
▁Mas	-11.1631
▁Dritter	-11.1631
▁alter	-11.1632
▁‚	-11.1633
▁örtlichen	-11.1633
änderung	-11.1634
▁Gerichten	-11.1639
materialien	-11.1644
2.	-11.1645
▁SO	-11.1645
▁Experiment	-11.1647
▁Puerto	-11.1647
instrumente	-11.1648
sgruppen	-11.1648
▁Neues	-11.1649
▁Attraktionen	-11.165
▁alleine	-11.1653
▁beurteilen	-11.1653
▁schützt	-11.1653
▁Schluß	-11.1653
▁eingebunden	-11.1653
▁Jazz	-11.1659
▁Prof	-11.1663
▁Zubehör	-11.1663
▁Bruder	-11.1665
sniveau	-11.1668
europäische	-11.1668
▁Mazedonien	-11.1669
▁niedriger	-11.1672
Commerce	-11.1674
▁Piazza	-11.1674
ui	-11.1675
▁vorhin	-11.1677
▁Implementierung	-11.1679
▁Zufriedenheit	-11.1679
▁realisieren	-11.168
TH	-11.1682
▁messen	-11.1683
▁Rahmenprogramm	-11.1683
▁Kit	-11.1684
▁Betroffenen	-11.1685
▁Br	-11.1685
greifen	-11.1689
sz	-11.1691
▁realen	-11.1696
▁Darin	-11.1696
і	-11.1696
▁Aufwand	-11.1701
Im	-11.1701
▁Anreiz	-11.1705
CA	-11.1706
spezifische	-11.1706
▁Entspannen	-11.1706
▁kommerziellen	-11.1707
jenige	-11.1708
geb	-11.1709
▁Fundament	-11.1709
▁HTML	-11.171
▁unberührt	-11.1711
probleme	-11.1713
touren	-11.1718
ock	-11.172
verkauf	-11.1721
ulation	-11.1722
▁Ausgang	-11.1724
▁erkennbar	-11.1727
▁located	-11.1727
▁vertrauen	-11.173
▁Tools	-11.173
row	-11.1731
▁bedingt	-11.1733
▁wünschenswert	-11.1733
▁einhalten	-11.1733
▁Amtszeit	-11.1736
▁Einfach	-11.1737
▁Zuständigkeiten	-11.1737
▁vertraulich	-11.1738
65	-11.174
lern	-11.174
▁Donau	-11.174
▁BE	-11.1747
▁Bestell	-11.1749
▁Stockholm	-11.1749
67	-11.175
▁Fehl	-11.1751
88	-11.1753
marquis	-11.1754
▁drücken	-11.1756
▁Früchte	-11.176
▁Content	-11.176
▁Einladung	-11.1763
▁Stimmung	-11.1765
▁ausgelegt	-11.1765
▁Verstärkung	-11.1765
onne	-11.1765
▁Pfeiler	-11.1768
▁jeweilige	-11.1768
▁vereinfachen	-11.177
▁gewann	-11.1771
▁Aktiv	-11.1774
▁harte	-11.1776
messung	-11.1777
weil	-11.1777
▁begab	-11.1779
▁Renn	-11.1784
weite	-11.1785
upp	-11.1786
▁angefangen	-11.1786
▁Kom	-11.1788
pli	-11.1789
▁any	-11.179
▁Zertifizierung	-11.1791
firmen	-11.1791
Modell	-11.1794
▁Veranstaltungs	-11.1795
gemäß	-11.1797
eo	-11.1797
infrastruktur	-11.1797
▁May	-11.1801
41	-11.1801
▁Atlantik	-11.1803
▁Kapazitäten	-11.1805
SK	-11.1805
stätten	-11.1809
▁ci	-11.181
37	-11.1811
▁Hauptziel	-11.1811
gericht	-11.1812
▁beschleunigt	-11.1814
lic	-11.1814
UN	-11.1816
▁Life	-11.1816
▁bedauern	-11.1819
▁Elektronik	-11.1819
▁kritische	-11.1821
▁Oberflächen	-11.1821
atoren	-11.1822
olo	-11.1823
▁Libanon	-11.1824
▁schreibt	-11.1825
mu	-11.1825
igung	-11.1825
▁Manche	-11.1826
▁technologischen	-11.1828
▁Spezialisten	-11.1829
denken	-11.183
▁della	-11.1834
▁einzuhalten	-11.1835
▁Weltbank	-11.1838
▁Argentinien	-11.1841
▁Strecken	-11.1842
schlüsse	-11.1844
▁aufrichtig	-11.1845
asi	-11.1845
44	-11.1847
▁App	-11.1848
▁drängen	-11.1848
ziele	-11.185
▁Mühe	-11.1851
▁längere	-11.1854
▁Box	-11.1855
Code	-11.1857
▁Eines	-11.186
ctor	-11.1861
▁Diktatur	-11.1863
Schlussfolgerung	-11.1863
▁nett	-11.1867
▁its	-11.1868
▁Cla	-11.1869
▁Gestatt	-11.1874
▁endet	-11.1875
▁Kompromiß	-11.1879
stücke	-11.1879
▁Büros	-11.1879
chel	-11.1882
ami	-11.1883
blich	-11.1883
▁Meinungen	-11.1884
▁Galerie	-11.1885
▁Raums	-11.1892
▁Hall	-11.1894
▁Breite	-11.1894
▁1,5	-11.1895
▁Pr	-11.1895
▁Moderne	-11.1896
▁grob	-11.1898
ih	-11.1899
ý	-11.1901
▁Stuttgart	-11.1901
pat	-11.1901
▁Entdecken	-11.1902
bezogene	-11.1903
sarbeit	-11.1903
▁gutem	-11.1904
▁nötigen	-11.1905
▁tiefer	-11.1908
▁Jahreszeit	-11.1909
▁Soweit	-11.1909
▁Lehre	-11.191
ziehung	-11.1911
▁zufällig	-11.1913
▁Stabilitätspakt	-11.1915
▁größerer	-11.1916
▁bevorstehenden	-11.1916
put	-11.1917
▁Instrumenten	-11.1921
▁exklusiven	-11.1922
dichte	-11.1922
▁MB	-11.1923
▁klären	-11.1924
stände	-11.1925
isierten	-11.1928
sä	-11.1928
▁Einschränkung	-11.1929
▁Marktwirtschaft	-11.193
▁Ernährung	-11.193
▁namens	-11.1931
TR	-11.1932
▁site	-11.1933
▁Auftraggeber	-11.1934
▁angehören	-11.1934
▁Interpretation	-11.1935
▁ce	-11.1936
▁kritisch	-11.1937
▁übrig	-11.1937
▁zeigte	-11.1938
▁üblich	-11.1938
▁Assoziierung	-11.1939
▁Aufklärung	-11.1939
▁ansonsten	-11.1939
OM	-11.1939
▁Kamin	-11.1942
▁Ticket	-11.1945
▁agieren	-11.1946
win	-11.1949
bringt	-11.1951
▁Subventionen	-11.1952
▁View	-11.1954
▁zuverlässig	-11.1956
▁Qui	-11.196
-2	-11.1961
space	-11.1963
saison	-11.1963
▁Musiker	-11.1969
beihilfe	-11.197
gebracht	-11.1971
LI	-11.1974
▁halbe	-11.1977
▁unglaublich	-11.1977
▁werte	-11.1979
▁Versorgungs	-11.198
mä	-11.1981
▁Anwendungs	-11.1982
▁Gepäckraum	-11.1984
▁gewachsen	-11.1985
▁Bug	-11.1986
▁Gründer	-11.1988
▁unterhalten	-11.1988
▁gefällt	-11.199
ы	-11.1991
▁abzielen	-11.1994
▁analysieren	-11.1999
eva	-11.2
▁teilgenommen	-11.2
▁Job	-11.2002
▁testen	-11.2002
sprozesse	-11.2003
▁Black	-11.2004
nor	-11.2006
▁Zell	-11.2007
49	-11.2012
lip	-11.2014
▁Bor	-11.2015
ela	-11.2017
▁th	-11.2018
rät	-11.2018
▁Hunde	-11.2019
▁Rechenschaft	-11.202
▁entscheidet	-11.2021
lö	-11.2022
kühl	-11.2024
sicherung	-11.2026
▁problematisch	-11.2027
▁griechische	-11.2028
zellen	-11.2028
▁Arbeitskräfte	-11.2029
3-	-11.203
Or	-11.2034
▁Lebensqualität	-11.2034
▁basierend	-11.2035
▁Vorsitzender	-11.2036
▁Gemäß	-11.2037
▁zurückkehren	-11.2044
sko	-11.2044
я	-11.2044
▁Ansätze	-11.2048
▁mündlichen	-11.2049
▁Patt	-11.205
▁Kreditkarten	-11.2051
▁700	-11.2051
▁64	-11.2052
▁Hor	-11.2053
▁dauerhaft	-11.2059
▁Key	-11.2059
elekommunikation	-11.206
▁BMW	-11.206
▁Module	-11.206
uit	-11.2065
▁Tschechischen	-11.2066
▁could	-11.2066
▁Spuren	-11.2066
▁don	-11.2067
▁Playa	-11.207
▁Mannschaft	-11.207
▁Gr	-11.207
vol	-11.207
werfen	-11.2071
▁gratis	-11.2071
▁ES	-11.2077
regelungen	-11.2078
gehalten	-11.2078
▁·	-11.2079
▁enorm	-11.2081
▁schlimmer	-11.2082
menü	-11.2083
ALE	-11.2084
▁Auftrags	-11.2084
Design	-11.2084
iva	-11.2085
▁herstellen	-11.2086
▁vielfältigen	-11.2086
CH	-11.2086
▁Turm	-11.2086
▁Albanien	-11.2088
▁verwöhnen	-11.2088
▁Gestalt	-11.209
Preis	-11.2092
part	-11.2093
▁Einzelnen	-11.2096
würdig	-11.2096
▁PRO	-11.2097
Prozess	-11.21
lli	-11.21
té	-11.2103
▁Metern	-11.2104
▁Dich	-11.2105
▁oberste	-11.2106
day	-11.2106
▁Bewegungen	-11.2108
SCH	-11.2109
ove	-11.2109
bert	-11.2109
▁unverzichtbar	-11.211
▁Hotelsafe	-11.2113
ergebnis	-11.2114
▁ausgestellt	-11.2114
▁schließe	-11.2115
▁Konferenzen	-11.2116
Welt	-11.2117
▁erstaunlich	-11.2117
check	-11.2117
▁irgendeine	-11.2118
▁nördlich	-11.2119
▁Bon	-11.212
▁keinesfalls	-11.2121
▁Ernennung	-11.2122
gehalt	-11.2126
▁Vorgänger	-11.2127
verein	-11.2127
länge	-11.213
eller	-11.213
betrag	-11.213
▁exzellente	-11.2133
▁systematisch	-11.2137
▁versetzt	-11.2137
▁Anregungen	-11.2139
▁Skript	-11.214
▁Mitbürger	-11.2142
▁Gewerkschaften	-11.2142
▁Echtzeit	-11.2144
▁mi	-11.2145
▁gesucht	-11.2146
ating	-11.2147
▁vers	-11.2151
mor	-11.2151
nov	-11.2154
inger	-11.2155
▁{	-11.2155
▁Grundstück	-11.2158
▁Simbabwe	-11.2161
beratung	-11.2161
83	-11.2162
▁registrieren	-11.2166
▁spüren	-11.2167
hafte	-11.2169
▁Plus	-11.217
▁Kathedrale	-11.2171
baum	-11.2171
▁abzielt	-11.2172
▁heftig	-11.2172
▁offenkundig	-11.2172
sträger	-11.2174
▁bedenken	-11.2175
tests	-11.2176
▁zwingen	-11.2177
brücke	-11.2177
}})	-11.2178
▁zügig	-11.2179
▁global	-11.218
▁Flugzeuge	-11.218
!!	-11.2182
▁Vel	-11.2184
▁Rande	-11.2187
▁Arbeitslosen	-11.2189
steck	-11.2192
▁gelang	-11.2193
katastrophen	-11.2193
rich	-11.2195
▁Höhepunkt	-11.2196
Distribution	-11.2197
EA	-11.2199
GO	-11.22
▁Sitzungen	-11.2202
▁Felsen	-11.2203
▁starb	-11.2203
▁Account	-11.2203
▁Nov	-11.2205
▁Statistik	-11.2207
▁Dienstag	-11.2208
▁Frank	-11.2208
▁Erkenntnisse	-11.221
▁Wahrnehmung	-11.2211
▁beeinträchtigt	-11.2211
▁Leder	-11.2213
sbe	-11.2213
▁iPhone	-11.2217
▁analysiert	-11.2217
urs	-11.2217
ohn	-11.2218
EP	-11.2219
▁anzeigen	-11.2221
drin	-11.2226
manager	-11.2226
AD	-11.2227
▁hiermit	-11.2228
▁angeben	-11.2229
ving	-11.2232
▁Verträgen	-11.2233
▁fin	-11.2233
▁Niemand	-11.2233
char	-11.2235
▁gestellten	-11.2235
▁Techniken	-11.2235
▁Os	-11.2236
▁Wiener	-11.2236
▁Ecke	-11.2236
▁SAP	-11.2238
▁beantragt	-11.2239
▁Verlag	-11.224
tat	-11.224
schreibung	-11.2241
▁Israels	-11.2242
ehn	-11.2243
▁({{	-11.2245
tags	-11.2245
▁Fernseher	-11.2246
▁Besuchern	-11.2247
$	-11.2248
▁Verzögerung	-11.225
aufenthalt	-11.2251
▁setzte	-11.2252
▁tätigen	-11.2254
zustellen	-11.2255
EWG	-11.2256
LO	-11.2257
▁EL	-11.2257
▁einsetzt	-11.2258
umping	-11.2259
▁gesetzlich	-11.2259
▁verfasst	-11.2262
▁Kohärenz	-11.2262
▁Var	-11.2264
▁Arbeitsweise	-11.2265
erfolg	-11.2265
▁schlechten	-11.2267
▁relevanten	-11.2271
Ländern	-11.2272
▁Ernährungs	-11.2276
ò	-11.2279
▁falschen	-11.228
senden	-11.2281
▁gemessen	-11.2281
▁offer	-11.2283
▁Wohlbefinden	-11.2284
▁Halle	-11.2285
tzen	-11.2286
▁stehende	-11.2287
▁AN	-11.2288
▁Gerichts	-11.2288
▁Far	-11.2289
▁gro	-11.2289
information	-11.229
tim	-11.2295
▁reiche	-11.2298
▁Vorsicht	-11.2299
▁Erste	-11.2301
▁bu	-11.2301
▁small	-11.2301
▁nennt	-11.2307
volumen	-11.2307
▁Gene	-11.2308
NET	-11.231
▁Warnung	-11.231
▁Erscheinung	-11.231
▁Ak	-11.2314
verhältnis	-11.2315
vier	-11.2318
▁aufeinander	-11.2322
▁Reaktionen	-11.2322
rede	-11.2322
▁Weihnachts	-11.2324
▁tiefe	-11.2325
tagen	-11.2325
▁ungeachtet	-11.2325
til	-11.2326
51	-11.2326
▁modernes	-11.2327
ario	-11.2328
▁geltend	-11.2329
wähl	-11.2331
▁za	-11.2332
▁Silber	-11.2333
▁Zimmerservice	-11.2333
▁Brüder	-11.2334
▁high	-11.2335
▁Gerichtshofs	-11.2335
▁scharf	-11.2336
etrifft	-11.2338
▁Initiativ	-11.2338
▁nah	-11.234
▁Vietnam	-11.2341
aj	-11.2342
▁Christen	-11.2343
▁standen	-11.2343
▁Tempel	-11.2343
zähl	-11.2344
yp	-11.2345
ship	-11.2345
▁Roh	-11.2346
betriebe	-11.2348
rischen	-11.2351
Protokoll	-11.2351
Mails	-11.2351
▁vorrangig	-11.2355
▁Standpunkte	-11.2356
verteilung	-11.2357
▁ausgerüstet	-11.2357
▁ausgeübt	-11.2358
▁Abfahrt	-11.2358
▁getestet	-11.2364
▁Network	-11.2366
interessen	-11.2367
EM	-11.2369
gro	-11.2371
▁Jahrzehnte	-11.2372
▁Mobile	-11.2372
SL	-11.2373
▁met	-11.2373
Paket	-11.2373
▁Tan	-11.2375
mü	-11.2375
▁abgehalten	-11.2377
feuer	-11.2378
▁Erwerb	-11.2378
roll	-11.2378
reformen	-11.2379
ös	-11.2381
▁einzelner	-11.2381
▁Whirlpool	-11.2381
▁James	-11.2384
▁rot	-11.2385
▁verlängert	-11.2387
▁when	-11.2388
▁verehrten	-11.2388
▁Finanzmittel	-11.2388
▁Rein	-11.2389
▁einzigartig	-11.239
nehmbar	-11.2391
▁bestens	-11.2392
▁Oliven	-11.2393
arischen	-11.2393
▁verschiedensten	-11.2394
▁gefährlichen	-11.2397
▁Eisen	-11.24
ación	-11.2401
▁Vizepräsident	-11.2403
▁Central	-11.2404
ism	-11.2405
77	-11.2405
▁erzielten	-11.2407
▁Rezept	-11.2409
beitrag	-11.241
sstandards	-11.2411
▁arbeitete	-11.2412
▁Fünf	-11.2414
▁erreichte	-11.242
straßen	-11.2421
ierende	-11.2422
▁VER	-11.2425
▁dein	-11.2425
▁Libyen	-11.2427
▁ethnischen	-11.2428
▁schwedische	-11.2428
gesehen	-11.243
inen	-11.2432
▁Quartal	-11.2435
ors	-11.2437
▁Palma	-11.2437
eugen	-11.2438
▁zwingend	-11.2438
▁Lebensmitteln	-11.2439
gestaltung	-11.2444
▁trennen	-11.2446
▁Trennung	-11.2448
▁lohnt	-11.245
▁Thailand	-11.2451
▁Track	-11.2452
▁Einwohnern	-11.2453
profil	-11.2453
▁aufweisen	-11.2454
▁Aufnahmen	-11.246
▁Schlußfolgerung	-11.2462
sorten	-11.2464
▁star	-11.2465
▁Leser	-11.2467
▁than	-11.2467
▁wenigstens	-11.2472
kat	-11.2472
▁Rindfleisch	-11.2473
rechtlichen	-11.2475
▁geistige	-11.2476
▁Monats	-11.2477
eb	-11.2477
▁Ausfahrt	-11.2478
tec	-11.248
▁grundlegend	-11.2483
▁verhalten	-11.2484
ologische	-11.2485
▁Kal	-11.2485
▁Übersetzer	-11.2485
▁Geburtstag	-11.2485
▁gesunden	-11.2488
▁Gummi	-11.2491
▁Café	-11.2496
ssystems	-11.2497
▁denselben	-11.2497
▁Begriffe	-11.2497
▁Control	-11.2501
▁wöchentlich	-11.2502
▁Ungleichgewicht	-11.2503
▁verhandeln	-11.2504
▁Bedingung	-11.2504
wohl	-11.2507
▁Pakt	-11.2509
▁attraktive	-11.2513
▁schien	-11.2513
▁startet	-11.2514
komplex	-11.2514
▁populär	-11.2514
stufen	-11.2517
▁Kino	-11.2524
▁Korea	-11.2524
szentrum	-11.2524
club	-11.2527
sverfahrens	-11.253
▁Trends	-11.253
tos	-11.2535
▁Käse	-11.2537
▁steckt	-11.2538
▁Bisher	-11.254
Leistungs	-11.254
sweise	-11.2541
zunehmen	-11.2542
▁freundlichen	-11.2547
srichtlinie	-11.2552
▁vorherigen	-11.2554
▁beseitigt	-11.256
▁verstoßen	-11.256
▁Sowjetunion	-11.256
Emissionen	-11.2561
▁mündliche	-11.2562
▁Indem	-11.2565
gua	-11.2566
sson	-11.2567
IM	-11.2567
▁Effekte	-11.257
grün	-11.257
▁Höhen	-11.257
▁greifen	-11.2571
▁Mitglieds	-11.2574
▁deutscher	-11.2579
ritt	-11.2581
▁Corporate	-11.2584
▁Träger	-11.2584
stru	-11.2584
▁Protokolls	-11.2585
anischen	-11.2587
TER	-11.2588
▁moralische	-11.2588
smethoden	-11.2589
▁(3	-11.2589
▁Gefangenen	-11.2589
rit	-11.259
▁zahlreicher	-11.2591
▁Architekten	-11.2591
▁gleicher	-11.2593
energie	-11.2593
▁aufgehoben	-11.2593
iges	-11.2595
freien	-11.2595
ize	-11.2596
▁Plugin	-11.2604
▁Hongkong	-11.2607
▁veranstaltet	-11.2607
light	-11.2607
▁top	-11.2608
▁auto	-11.2608
▁angehen	-11.2612
▁Transaktionen	-11.2612
att	-11.2614
▁indirekt	-11.2617
disziplin	-11.2619
▁einzubeziehen	-11.2619
zustand	-11.2626
▁bewirkt	-11.2627
kern	-11.263
▁Wolf	-11.263
▁Erdbeben	-11.2631
▁Zusammenbruch	-11.2631
och	-11.2638
▁passen	-11.2638
zin	-11.2641
▁Finanzmärkte	-11.2641
eng	-11.2642
ül	-11.2642
▁einzurichten	-11.2642
▁Vorsorge	-11.2644
▁Ei	-11.2645
sky	-11.2646
▁gefangen	-11.2647
tom	-11.2647
▁löst	-11.2649
▁intensive	-11.265
elli	-11.2652
▁errichten	-11.2654
verhältnisse	-11.2654
meisterschaft	-11.2656
▁Ausstellungen	-11.2656
▁Dia	-11.2658
▁France	-11.266
94	-11.266
93	-11.2662
▁befürworte	-11.2667
eau	-11.2668
▁gewählte	-11.267
▁beobachtet	-11.2672
▁Norwegen	-11.2672
▁Verstöße	-11.2673
▁Fracht	-11.2673
▁Met	-11.2673
▁USS	-11.2676
▁Masse	-11.2678
▁dynamische	-11.2678
vollen	-11.2678
sinn	-11.2678
▁bekanntesten	-11.2679
▁Roth	-11.2682
С	-11.2683
▁Schalt	-11.2685
▁sämtlichen	-11.2686
ologischen	-11.2686
▁anstelle	-11.2686
▁Danke	-11.2687
▁Verfassungs	-11.2689
▁Gesprächen	-11.2689
▁portugiesischen	-11.2689
▁strikt	-11.2689
▁zerstören	-11.2689
▁39	-11.269
bestände	-11.2691
92	-11.2693
ear	-11.2694
47	-11.2695
▁zahlt	-11.2696
▁IC	-11.2697
▁Lob	-11.2698
▁Abs	-11.2699
▁Tendenz	-11.2699
▁GE	-11.27
▁Ozean	-11.2701
▁finanziell	-11.2703
▁Mitwirkung	-11.2707
▁verschärft	-11.2707
▁durchsetzen	-11.2709
▁Stress	-11.2709
versuch	-11.271
kammer	-11.271
▁unsicher	-11.2711
isse	-11.2712
▁Auslieferung	-11.2717
▁bewundern	-11.2719
▁Tarif	-11.272
dt	-11.272
▁Shi	-11.2721
Abkommen	-11.2721
pin	-11.2728
stärke	-11.2728
▁zeichnen	-11.273
▁schwerer	-11.273
▁auszuüben	-11.2731
alia	-11.2731
▁ältesten	-11.2733
▁jahrelang	-11.2737
▁Maus	-11.2741
software	-11.2743
▁Luc	-11.2743
▁zunehmenden	-11.2744
▁akzeptabel	-11.2746
▁Übersetzungen	-11.2747
▁fair	-11.2748
▁gäbe	-11.2749
cle	-11.2749
▁plant	-11.275
pflanzen	-11.275
geschaltet	-11.2751
house	-11.2752
▁Ausgangs	-11.2753
kommission	-11.2757
▁abend	-11.2758
▁Music	-11.276
▁fehlende	-11.2765
▁Zuschauer	-11.2767
▁wofür	-11.2769
periode	-11.2769
tta	-11.2771
grenze	-11.2772
kanal	-11.2773
▁Terminal	-11.2773
▁gingen	-11.2775
▁vielfach	-11.2775
▁Bewertungen	-11.2776
▁irgendeiner	-11.2777
▁lebenden	-11.2777
▁Plenar	-11.2778
▁Rechtsrahmen	-11.2779
▁Frucht	-11.278
ausstellung	-11.2781
▁Nachteil	-11.2781
▁43	-11.2784
▁web	-11.2785
Gleichbehandlung	-11.2785
▁Besonderheiten	-11.2786
▁schlage	-11.2789
▁unnötig	-11.2789
▁Louis	-11.279
▁sc	-11.2793
▁eingebaut	-11.2793
▁Ausflug	-11.2795
▁Beratungs	-11.2795
Rechtsvorschrift	-11.2797
▁Anweisungen	-11.2797
veranstaltungen	-11.2798
heben	-11.2799
▁Rollen	-11.2799
▁hört	-11.2799
kle	-11.28
schluß	-11.2802
▁Buffet	-11.2802
▁verwirklicht	-11.2802
▁beitreten	-11.2803
▁befand	-11.2804
▁bescheiden	-11.2804
▁Weit	-11.2806
▁doppelt	-11.2806
▁Ram	-11.2806
fällt	-11.2807
▁Beendigung	-11.2808
tung	-11.281
▁reale	-11.2811
▁King	-11.2812
▁beach	-11.2815
zelstaatlichen	-11.2815
ffe	-11.2819
ROM	-11.282
▁Hard	-11.2822
▁AL	-11.2825
▁gerufen	-11.2826
▁vierten	-11.2827
bewertung	-11.2828
leid	-11.2829
▁Annäherung	-11.2832
spannung	-11.2832
▁Absichten	-11.2834
▁Einfluß	-11.2834
▁geräumige	-11.2834
▁unterliegt	-11.2841
69	-11.2841
währung	-11.2842
stall	-11.2842
▁44	-11.2844
▁Große	-11.2844
kov	-11.2844
wieweit	-11.2846
ppe	-11.2849
▁Bol	-11.2852
▁Stimm	-11.2853
tourismus	-11.2855
▁Finger	-11.2855
anwendungen	-11.2855
▁Mailand	-11.2855
▁bist	-11.2857
300	-11.286
▁untergraben	-11.286
bol	-11.286
lé	-11.2861
▁Frequenz	-11.2861
▁strukturiert	-11.2863
shaushalt	-11.2863
▁nette	-11.2866
▁VI	-11.2867
▁Wikitravel	-11.2868
▁Community	-11.2868
▁Grill	-11.2869
▁Vorsitzende	-11.2869
nar	-11.2872
anda	-11.2873
ray	-11.2874
▁Parallel	-11.2874
▁fügt	-11.2875
▁Miss	-11.2876
▁idealer	-11.2876
▁Szene	-11.2877
wissenschaften	-11.2877
▁Dan	-11.288
▁deinen	-11.288
aufrechterhalten	-11.288
▁idealen	-11.2882
▁japanischen	-11.2883
▁Perspektiven	-11.2883
▁Ass	-11.2884
ador	-11.2884
▁korrekte	-11.289
▁Genf	-11.2892
märkten	-11.2892
▁Stattdessen	-11.2892
▁Salzburg	-11.2894
heilig	-11.2895
forum	-11.2896
▁LateRooms	-11.2898
▁Single	-11.2898
mangel	-11.2899
89	-11.29
▁dé	-11.2903
instrument	-11.2903
zonen	-11.2904
▁fliegen	-11.2905
statt	-11.2905
▁Sortiment	-11.2905
▁Netto	-11.2909
▁Schnitt	-11.2909
▁Befreiung	-11.291
bindung	-11.2911
▁friedlichen	-11.2912
werke	-11.2912
▁gewaltige	-11.2915
▁Legitimität	-11.2916
▁verleiht	-11.2916
▁1970	-11.2918
hafen	-11.2919
▁MA	-11.292
▁mon	-11.2922
▁korrigieren	-11.2922
▁kreative	-11.2924
▁renovierte	-11.2928
▁Komplettpreise	-11.2929
▁Michel	-11.2929
▁Akt	-11.2929
▁het	-11.2931
Raum	-11.2933
▁Zahlreiche	-11.2934
▁Nachfolger	-11.2935
▁einiges	-11.2937
▁EVP	-11.2937
▁deutlicher	-11.2938
old	-11.2938
▁erfreulich	-11.2939
rö	-11.2939
▁Governance	-11.2941
▁günstiger	-11.2941
▁bereitzustellen	-11.2942
▁Siedlung	-11.2942
▁Sky	-11.2944
▁bus	-11.2946
▁Indonesien	-11.2947
▁definitiv	-11.2947
▁Haushaltsjahr	-11.2947
▁breiter	-11.295
▁niedrige	-11.295
▁Beitrittsländer	-11.2951
▁Kanäle	-11.2951
▁restaurant	-11.2952
▁eingereichten	-11.2952
erzeugnisse	-11.2954
ful	-11.2955
hle	-11.2957
skraft	-11.2957
lect	-11.2958
▁freier	-11.2959
▁access	-11.2959
▁Erwachsenen	-11.2963
▁Premium	-11.2965
▁kompletten	-11.2966
▁Beweise	-11.2967
▁ueber	-11.2969
▁Release	-11.2969
aktionen	-11.297
nehmer	-11.2971
▁wirksamen	-11.2972
▁Anleitung	-11.2975
▁Gegenstände	-11.2976
tätig	-11.2977
▁gelöscht	-11.2977
▁Internetseite	-11.2978
▁Ap	-11.298
haupt	-11.2982
▁Inneres	-11.2983
▁Integrität	-11.2983
II	-11.2984
▁Erdöl	-11.299
\	-11.2991
▁American	-11.2993
speicher	-11.2994
agon	-11.2995
▁müsse	-11.2995
▁Richard	-11.2995
▁gesetzliche	-11.2996
▁diesmal	-11.2997
sammenzuarbeiten	-11.3
▁Temperaturen	-11.3
▁Auftritt	-11.3002
▁eingerichteten	-11.3005
▁Tunesien	-11.3007
HR	-11.3008
rel	-11.301
akte	-11.301
▁Arena	-11.3011
lies	-11.3012
gon	-11.3013
▁EURO	-11.3015
▁saubere	-11.3019
▁Halbinsel	-11.302
TA	-11.3021
▁malerischen	-11.3021
▁their	-11.3022
▁Instruments	-11.3023
▁Call	-11.3023
stoß	-11.3025
42	-11.3025
▁widmet	-11.3026
▁meint	-11.3026
▁ehrgeizige	-11.3027
meter	-11.3027
▁starkes	-11.3029
▁verschoben	-11.3032
▁bi	-11.3032
▁Nichtregierungs	-11.3032
gesandt	-11.3033
▁Ereignissen	-11.3035
▁vorhandene	-11.3035
steigerung	-11.3036
▁Schottland	-11.3038
▁Abwicklung	-11.3038
▁Sorgfalt	-11.3043
tter	-11.3043
▁Effektivität	-11.3044
▁MS	-11.3044
▁breites	-11.3046
59	-11.3047
▁Haft	-11.3048
▁berühmt	-11.3048
▁Blau	-11.305
`	-11.305
WE	-11.3051
▁Lust	-11.3052
▁Copyright	-11.3056
▁Museums	-11.3057
gio	-11.3059
▁durchgesetzt	-11.3059
teg	-11.3059
▁Vorwand	-11.3061
▁jährliche	-11.3062
esten	-11.3063
▁Anleger	-11.3064
ierenden	-11.3064
46	-11.3066
▁Nuklear	-11.3069
nah	-11.3069
dler	-11.307
prüf	-11.3072
▁anbietet	-11.3075
geist	-11.3076
▁Ker	-11.3076
▁Analysen	-11.3077
▁geholfen	-11.3078
▁Appell	-11.3079
sand	-11.3081
Com	-11.3081
▁Verzögerungen	-11.3082
gipfel	-11.3083
▁verschieben	-11.3084
ñ	-11.3086
▁langjährige	-11.309
▁most	-11.3092
Zimmer	-11.3092
▁Evaluierung	-11.3093
▁Reihenfolge	-11.3093
▁Bedien	-11.3094
▁Abstimmungen	-11.3097
▁Jahrestag	-11.3099
▁Erneuerung	-11.3099
▁erschien	-11.31
haltige	-11.3101
▁hell	-11.3101
tica	-11.3102
rates	-11.3102
▁Früh	-11.3104
▁massive	-11.3104
▁ausgewogenen	-11.3108
▁Einen	-11.3108
▁Gall	-11.3109
▁schwarz	-11.311
/2000	-11.311
▁Darlehen	-11.3112
▁erweiterte	-11.3112
ente	-11.3112
ра	-11.3112
▁vorgeschrieben	-11.3116
▁traditionell	-11.3122
▁umfassender	-11.3124
▁Opfern	-11.3125
Gesundheitswesen	-11.3126
▁religiöse	-11.3127
▁main	-11.3129
▁genügt	-11.313
▁ermittelt	-11.3131
lem	-11.3132
cca	-11.3132
▁gemütlich	-11.3132
▁Spielraum	-11.3133
messen	-11.3133
▁behindert	-11.3139
▁Statt	-11.3139
5%	-11.3142
▁Friedensprozess	-11.3144
▁vorne	-11.3145
▁Chor	-11.3145
gemacht	-11.3145
▁Flüge	-11.3147
übergreifende	-11.3148
▁UNESCO	-11.3149
▁Überraschung	-11.3149
▁geklärt	-11.3149
zentr	-11.315
▁nördlichen	-11.3151
▁wenigsten	-11.3152
▁begreifen	-11.3153
▁Geräten	-11.3153
zahlung	-11.3154
▁Korrektur	-11.3158
▁Ky	-11.316
97)	-11.3161
ufer	-11.3163
▁junger	-11.3165
auer	-11.3167
▁verliert	-11.3167
institutionen	-11.3169
▁angeführt	-11.317
▁ser	-11.3171
▁Vol	-11.3171
sser	-11.3172
▁Schwer	-11.3173
saustausch	-11.3173
wer	-11.3173
ę	-11.3173
▁Grundfreiheiten	-11.3173
▁koordinieren	-11.3174
zusetzen	-11.3175
▁geladen	-11.3178
▁besticht	-11.318
Do	-11.318
▁zertifiziert	-11.3183
protokoll	-11.3186
▁Ali	-11.3191
Über	-11.3191
▁müßte	-11.3191
Dienstleistungen	-11.3192
Christdemokraten	-11.3192
▁Aufsichtsrat	-11.3192
▁Chemie	-11.3194
▁einziges	-11.3197
▁Song	-11.3197
▁dachte	-11.32
▁Segment	-11.3201
▁fi	-11.3202
▁Alexander	-11.3204
▁verschwinden	-11.3204
▁versprochen	-11.3204
sar	-11.3206
▁Golden	-11.3207
▁Erleben	-11.3209
ieß	-11.321
Man	-11.321
▁worauf	-11.3211
adresse	-11.3211
▁Konsumenten	-11.3211
▁Hunderte	-11.3211
▁ermitteln	-11.3213
wettbewerb	-11.3214
lieferung	-11.3214
▁Königs	-11.3215
rock	-11.3215
▁Vermeidung	-11.3217
▁namentlich	-11.3217
▁Geschäftsreisen	-11.3219
▁XP	-11.3219
▁pr	-11.322
splan	-11.322
▁Rohr	-11.3222
▁Kara	-11.3223
▁ignorieren	-11.3223
▁Sea	-11.3224
78	-11.3224
sum	-11.3224
bie	-11.3225
breite	-11.3226
▁Demokratische	-11.3226
kam	-11.3227
titel	-11.3227
▁Defizite	-11.3229
▁Seeverkehr	-11.3231
▁belgischen	-11.3234
ströme	-11.3235
▁zwangsläufig	-11.3235
▁durchgeführten	-11.3238
▁unterstreicht	-11.3242
iro	-11.3242
sformen	-11.3243
76	-11.3245
▁Nordkorea	-11.3246
labor	-11.3247
▁Multimedia	-11.3248
▁Gleichheit	-11.3249
▁Frühling	-11.3251
ín	-11.3252
▁milde	-11.3253
▁Treiber	-11.3255
▁Animation	-11.3257
▁Eintrag	-11.3257
▁Tabellen	-11.3257
-19	-11.3258
kl	-11.3258
HU	-11.3261
melde	-11.3261
omb	-11.3262
▁Kluft	-11.3265
▁Vista	-11.3266
▁ausgedrückt	-11.3267
Klasse	-11.3269
Gastfreundschaft	-11.3273
▁zutiefst	-11.3273
▁habt	-11.3276
▁Day	-11.3277
▁multi	-11.3278
▁Folglich	-11.3279
ace	-11.3281
▁Hierzu	-11.3284
▁häufiger	-11.3286
▁Erreichen	-11.3288
▁deutsch	-11.3288
fr	-11.3289
häusern	-11.3289
▁make	-11.3291
▁port	-11.3291
▁Beihilfe	-11.3292
▁Cri	-11.3296
auswahl	-11.3297
▁fiel	-11.3298
▁Jagd	-11.3298
▁Textes	-11.3298
▁kompliziert	-11.3298
▁Streitkräfte	-11.3299
vid	-11.33
▁zuverlässige	-11.3301
▁Kam	-11.3302
spiegel	-11.3303
▁zugeschnitten	-11.3305
▁Roll	-11.3306
flüge	-11.3306
▁Gay	-11.3306
bearbeitung	-11.3308
▁beeindruckende	-11.3309
rk	-11.331
familie	-11.3311
▁Joseph	-11.3311
▁Rabatt	-11.3311
Unternehmen	-11.3311
▁Gaza	-11.3312
app	-11.3313
▁ga	-11.3313
▁sozusagen	-11.3316
▁bot	-11.3319
tragbar	-11.332
▁Tickets	-11.332
▁Golfplatz	-11.332
SS	-11.3322
▁Komplex	-11.3322
PO	-11.3324
▁Km	-11.3324
▁bereitstellen	-11.3324
▁strengen	-11.3325
transatlantische	-11.3325
treten	-11.3326
becken	-11.3327
▁Wörter	-11.3329
▁mehrerer	-11.333
▁Fusion	-11.333
▁Autorität	-11.3334
ecke	-11.3334
Liste	-11.3335
▁who	-11.3337
▁и	-11.3337
ping	-11.334
▁chambres	-11.334
▁Verpackung	-11.334
messe	-11.334
▁Nor	-11.3341
▁betreut	-11.3342
▁Peking	-11.3343
▁Mix	-11.3346
tagung	-11.3346
▁rechtlich	-11.3347
▁Zugleich	-11.3347
Systeme	-11.3351
▁schöner	-11.3351
▁Passagiere	-11.3353
▁gefertigt	-11.3355
▁Luftverkehrs	-11.3359
esse	-11.336
▁untereinander	-11.3362
▁Beachten	-11.3362
▁Print	-11.3363
itäten	-11.3364
▁Transit	-11.3364
▁Sl	-11.3364
▁Poly	-11.3365
▁Ros	-11.3366
▁Lind	-11.3367
▁feiern	-11.3368
▁beliebten	-11.337
▁zurückzu	-11.3371
▁Campingplatz	-11.3374
Ra	-11.3376
▁weitergegeben	-11.3376
▁kg	-11.3378
▁Qu	-11.3378
▁Sir	-11.3379
▁gescheitert	-11.338
▁motiviert	-11.338
▁mehrmals	-11.3381
▁Logo	-11.3383
▁Erfolgs	-11.3383
▁Kredite	-11.3384
▁Resultat	-11.3385
▁Gesichtspunkt	-11.3387
dauerlicherweise	-11.3388
steig	-11.3389
▁Tatsachen	-11.339
▁Fett	-11.3392
▁elegant	-11.3392
erie	-11.3393
äl	-11.3394
▁Marine	-11.3395
▁Vermögens	-11.3395
▁Privatisierung	-11.3395
▁konstruktiven	-11.3396
alisierung	-11.3396
kos	-11.3397
IX	-11.3397
überwachung	-11.3399
hrt	-11.3399
▁pu	-11.34
▁photo	-11.3401
▁Regimes	-11.3402
▁Basel	-11.3403
schreib	-11.3406
▁veröffentlichte	-11.3406
well	-11.3408
▁Anzeigen	-11.3409
chef	-11.3409
▁Lar	-11.341
▁ungarischen	-11.3411
▁Mad	-11.3413
▁beliebt	-11.3414
▁Register	-11.3415
▁Gültigkeit	-11.3415
▁Wechselkurs	-11.3415
▁Wellen	-11.3416
rieren	-11.3416
ville	-11.3418
▁biologischen	-11.342
sanlagen	-11.3421
▁Viren	-11.3425
▁hinzuweisen	-11.3425
▁Dol	-11.3425
anta	-11.3426
▁finanzieller	-11.3427
una	-11.3429
aß	-11.3431
▁Schwester	-11.3431
▁exakt	-11.3437
▁ausgeglichen	-11.3437
sc	-11.3438
berichte	-11.344
ander	-11.344
▁treiben	-11.344
▁bedeutendsten	-11.3441
▁sta	-11.3443
▁inhaltlich	-11.3448
▁Verkehrsmittel	-11.345
ière	-11.3451
▁Level	-11.3453
▁Kin	-11.3453
▁profitiert	-11.3456
begriff	-11.3457
▁Erhebung	-11.3457
▁85	-11.3458
rau	-11.3458
can	-11.346
▁überraschend	-11.3461
▁Toleranz	-11.3463
▁Nächte	-11.3463
▁Micro	-11.3463
▁Durchschnitt	-11.3464
▁Hinsichtlich	-11.3464
hören	-11.3466
▁separate	-11.3467
kirche	-11.3467
▁schwach	-11.3467
fahrzeuge	-11.3468
uhr	-11.3469
▁bemerken	-11.3469
▁School	-11.347
▁Gri	-11.3472
fügen	-11.3472
netzwerk	-11.3474
▁spürbar	-11.3475
▁herausragende	-11.3476
▁Kopie	-11.3476
ima	-11.3478
▁Partnerschaften	-11.3478
”,	-11.3481
▁White	-11.3482
▁minutes	-11.3482
▁Krankenhaus	-11.3483
▁Fein	-11.3483
▁orientiert	-11.3484
WU	-11.3485
Gr	-11.3486
▁ac	-11.3486
▁Nachweis	-11.3487
haut	-11.3488
▁leistungsstarke	-11.3488
schied	-11.349
vertreter	-11.349
▁Tun	-11.3493
▁unvergesslichen	-11.3494
▁Charles	-11.3495
swerte	-11.3496
▁Stellenwert	-11.3497
ore	-11.3499
▁DA	-11.35
He	-11.35
▁Generalsekretär	-11.35
ergebnisse	-11.3505
▁Impulse	-11.3506
▁Label	-11.3507
▁Aktionsprogramm	-11.3507
ë	-11.3507
▁Franz	-11.351
▁Zielsetzung	-11.351
▁Son	-11.3511
▁internet	-11.3511
▁vorgebracht	-11.3511
gründe	-11.3511
▁umstritten	-11.3512
anti	-11.3512
▁IM	-11.3513
gin	-11.3513
▁wozu	-11.3516
▁Verhandlung	-11.3516
scht	-11.3517
kündigt	-11.352
▁Düsseldorf	-11.352
▁Pie	-11.3521
serie	-11.3524
tradition	-11.3526
▁Potential	-11.3527
▁größtenteils	-11.3527
▁Vorbereitungen	-11.3527
Ru	-11.3529
mond	-11.3529
field	-11.3529
▁Manchmal	-11.3533
▁hilfsbereit	-11.3533
zio	-11.3537
▁unmittelbaren	-11.3538
▁allgemeiner	-11.3539
▁gefolgt	-11.3539
▁Rekord	-11.3539
▁internationales	-11.354
▁Hinzu	-11.354
▁fünfzehn	-11.354
▁flach	-11.3541
▁Auslands	-11.3542
▁Nieder	-11.3543
▁Abfälle	-11.3545
▁Begrenzung	-11.3546
▁vorangegangenen	-11.355
▁Zellen	-11.3551
Haushalt	-11.3551
kop	-11.3551
schreiten	-11.3552
▁Freien	-11.3553
Test	-11.3556
▁stärkeren	-11.3557
fähig	-11.3557
nas	-11.3557
▁ausführliche	-11.3558
▁Pharma	-11.3558
wan	-11.3559
▁welt	-11.3561
▁Aufstellung	-11.3562
beginn	-11.3563
▁Errungenschaft	-11.3565
▁sofortige	-11.3566
▁beachtet	-11.3568
▁unabdingbar	-11.3572
rá	-11.3575
▁Vorgang	-11.3577
▁price	-11.3582
▁gewiss	-11.3582
▁gewohnt	-11.3582
gal	-11.3583
▁verschieden	-11.3583
▁Diplom	-11.3585
bereichen	-11.3586
Website	-11.3587
91	-11.3588
sucht	-11.3588
vorhaben	-11.3588
▁Wagen	-11.3589
▁Vert	-11.359
vil	-11.359
▁Award	-11.3591
▁Tur	-11.3593
lier	-11.3594
reinigung	-11.3594
▁biologische	-11.3596
▁Sechs	-11.3596
▁Ly	-11.3597
präsidenten	-11.3597
▁Ganzes	-11.3598
▁CA	-11.3598
▁ap	-11.3599
▁englische	-11.36
▁Bill	-11.36
▁Gross	-11.3601
mix	-11.3601
gefühl	-11.3602
▁vorschlägt	-11.3603
▁app	-11.3604
▁bloß	-11.3605
▁begrenzte	-11.3607
▁hängen	-11.3608
▁flexibler	-11.361
▁bemerkt	-11.3613
gegeben	-11.3617
▁erlangt	-11.3617
▁verbindlich	-11.3618
▁Konzerte	-11.362
▁primär	-11.3621
▁PR	-11.3624
prozesse	-11.3627
▁AC	-11.3634
erfahrung	-11.3634
fleisch	-11.3635
▁Palast	-11.3635
▁back	-11.3636
▁Unterricht	-11.3636
bereitschaft	-11.3636
rc	-11.3637
NO	-11.3637
ele	-11.364
prä	-11.3642
▁blockiert	-11.3643
▁Beträge	-11.3644
▁Drucker	-11.3645
dies	-11.3648
▁schnelles	-11.3649
▁Tschetschenien	-11.3649
▁wahrnehmen	-11.365
DER	-11.3653
▁Flotte	-11.3655
▁Chemikalien	-11.3656
wahr	-11.3657
▁verbieten	-11.3657
▁hinterlassen	-11.3657
▁formell	-11.366
lis	-11.366
smethode	-11.3663
öse	-11.3665
▁warmen	-11.3669
▁Ir	-11.367
▁decken	-11.3671
▁Aufstieg	-11.3671
▁hinausgehen	-11.3671
▁schönes	-11.3672
imo	-11.3673
▁befreien	-11.3673
▁scheinbar	-11.3675
▁vertraglich	-11.3677
wei	-11.3678
Neu	-11.3679
Besitzstand	-11.3681
▁tägliche	-11.3686
GB	-11.3687
ufrechterhaltung	-11.3688
▁Kernenergie	-11.3689
fabrik	-11.3691
▁01	-11.3692
investitionen	-11.3692
▁zumal	-11.3693
▁Vergabe	-11.3694
▁gesorgt	-11.3695
▁gemeldet	-11.3695
wenden	-11.3697
▁South	-11.3697
üß	-11.3698
▁lu	-11.3699
▁Einwände	-11.37
heizt	-11.3702
▁his	-11.3704
firma	-11.3708
▁einzustellen	-11.3708
▁lehnt	-11.371
▁Wurzeln	-11.3711
▁Zwecken	-11.3711
▁Parlamentarier	-11.3715
▁Serien	-11.3716
▁fo	-11.3718
reit	-11.3719
▁effektiven	-11.372
▁Sy	-11.3723
▁Dörfer	-11.3724
Mitglieder	-11.3726
▁Nero	-11.3726
streit	-11.3728
klär	-11.3729
▁Feder	-11.3731
▁zugewiesen	-11.3732
oi	-11.3733
▁Leipzig	-11.3734
Mit	-11.3735
FA	-11.3736
gewalt	-11.3737
▁anspruchsvolle	-11.3739
▁Source	-11.3739
▁beauftragt	-11.374
▁verteidigt	-11.3741
▁belegen	-11.3741
72	-11.3743
inter	-11.3744
▁harmonisiert	-11.3747
▁verbreiten	-11.3747
▁Buchstaben	-11.3747
▁Grafiken	-11.3748
▁Bewerbung	-11.3749
▁Nationalpark	-11.3751
lick	-11.3751
roman	-11.3757
▁station	-11.3757
▁Bike	-11.3759
▁Ansprechpartner	-11.376
tausch	-11.3761
iano	-11.3763
▁ste	-11.3763
▁Layout	-11.3766
▁beeinträchtigen	-11.3767
mis	-11.3767
▁Organen	-11.3768
formation	-11.3769
▁neutral	-11.3771
led	-11.3771
▁frischen	-11.3772
▁Diagnose	-11.3773
▁absurd	-11.3774
▁Verband	-11.3774
▁Neuigkeiten	-11.3774
finden	-11.3775
▁anstreben	-11.3777
kopf	-11.3778
rische	-11.3779
ographie	-11.378
bet	-11.3783
▁Übereinkommens	-11.3784
lösen	-11.3791
▁Aussichten	-11.3794
▁ehe	-11.3796
rak	-11.3796
▁beantragen	-11.3797
nur	-11.3797
methoden	-11.3799
▁Sämtliche	-11.38
▁Siehe	-11.3802
▁schw	-11.3804
▁intelligente	-11.3804
▁Vorbehalte	-11.3804
▁Daniel	-11.3805
amerikanische	-11.3806
marken	-11.3808
▁selbständig	-11.3808
institut	-11.3808
▁galt	-11.3809
▁Qualifikation	-11.3811
Ta	-11.3811
ucht	-11.3815
▁Marco	-11.3816
ange	-11.3816
less	-11.3816
▁Meta	-11.3818
▁pur	-11.3819
fahrten	-11.382
▁Mah	-11.382
programmen	-11.3821
▁getreten	-11.3821
▁zweimal	-11.3822
▁potenzielle	-11.3825
einsatz	-11.3828
▁effizienten	-11.3832
cre	-11.3832
▁national	-11.3832
▁Zuerst	-11.3833
▁NO	-11.3835
▁Cala	-11.3839
▁kompatibel	-11.384
▁anmelden	-11.384
▁beliebige	-11.3845
▁verwandelt	-11.3846
▁vorbereiten	-11.3846
73	-11.3848
▁Zufall	-11.3848
zieren	-11.3848
▁Vortrag	-11.3848
▁Haltestelle	-11.3849
▁isoliert	-11.3853
▁Immunität	-11.3853
▁Foren	-11.3853
▁09	-11.3854
▁logisch	-11.3854
▁Prä	-11.3855
osa	-11.3855
▁Kraftfahrzeug	-11.3857
▁gelegentlich	-11.386
▁bewahrt	-11.3866
▁verglichen	-11.3867
regeln	-11.3868
▁geachtet	-11.3868
stitution	-11.3868
▁Ac	-11.3871
▁Möchten	-11.3871
▁drastisch	-11.3871
▁ausgewogene	-11.3872
/98	-11.3873
▁bedeutsam	-11.3874
▁unterhalb	-11.3874
▁anlässlich	-11.3874
▁Features	-11.3875
lack	-11.3875
zuführen	-11.3876
faktor	-11.3878
ogen	-11.3878
sunternehmen	-11.3878
frist	-11.388
▁Gelegenheiten	-11.388
sräume	-11.3881
▁Oper	-11.3881
▁Kommando	-11.3882
▁Zer	-11.3883
kriterien	-11.3886
sein	-11.3886
gegen	-11.3887
▁Hotelzimmer	-11.3887
▁Zinssätze	-11.3889
schlagen	-11.3889
uell	-11.3889
▁außenpolitische	-11.3893
▁Stränden	-11.3893
iker	-11.3897
▁heruntergeladen	-11.39
lav	-11.3901
▁Migrations	-11.3901
54	-11.3902
▁Res	-11.3904
▁Schauspieler	-11.3904
nutz	-11.3906
▁Fin	-11.3906
▁mieten	-11.3907
▁Chile	-11.3907
▁Doha	-11.3909
inhaber	-11.3912
▁meistens	-11.3912
▁William	-11.3914
ät	-11.3914
▁Bürgerkrieg	-11.3914
CR	-11.3915
▁Schild	-11.3918
▁Außer	-11.3919
▁pla	-11.3919
▁Mehrere	-11.392
▁Anzeichen	-11.392
makroökonomische	-11.392
point	-11.3922
▁Portfolio	-11.3924
▁fur	-11.3925
Ba	-11.3926
▁Besetzung	-11.3926
chte	-11.3928
▁japanische	-11.3929
archiv	-11.393
beiträge	-11.3931
▁Gewissen	-11.3931
gne	-11.3932
▁с	-11.3933
HA	-11.3934
▁Kat	-11.3935
▁Stoff	-11.3935
dreh	-11.3937
▁süd	-11.3938
▁Estland	-11.394
▁anfangen	-11.394
98	-11.3941
▁einseitig	-11.3941
5.000	-11.3941
▁Später	-11.3941
▁Institute	-11.3942
▁Behinderungen	-11.3943
▁vorkommen	-11.3944
▁Kleidung	-11.3946
▁Ant	-11.3947
sstelle	-11.3947
info	-11.3948
leute	-11.3951
rohr	-11.3951
bewerber	-11.3952
▁Einheiten	-11.3952
▁Residenz	-11.3953
este	-11.3953
Auto	-11.3953
▁Tipps	-11.3953
BC	-11.3953
aya	-11.3954
nier	-11.3955
▁Feind	-11.3955
▁North	-11.3959
▁virtuelle	-11.3962
▁verbindliche	-11.3962
▁stieg	-11.3963
büro	-11.3963
eis	-11.3963
jan	-11.3963
▁elf	-11.3965
ARE	-11.3965
▁Display	-11.3967
zar	-11.3967
▁bedient	-11.3968
▁berührt	-11.3973
▁Allah	-11.3973
▁Ford	-11.3973
▁Fristen	-11.3974
landes	-11.3976
▁Umstellung	-11.3978
▁Industrieländer	-11.398
▁Paradies	-11.398
▁Reden	-11.3981
▁design	-11.3981
▁klug	-11.3982
strukturen	-11.3984
▁Gesamtheit	-11.3986
▁Valencia	-11.3987
▁anderswo	-11.3988
▁Spam	-11.3988
58	-11.3992
Fluggesellschaft	-11.3992
▁Geo	-11.3993
▁belastet	-11.3993
Mi	-11.3995
▁Spenden	-11.3995
▁dicht	-11.3996
reihe	-11.3997
▁Brutto	-11.4
fertigung	-11.4001
▁exklusiv	-11.4002
▁antiken	-11.4002
▁legte	-11.4004
▁Sim	-11.4004
ident	-11.4004
mmen	-11.4004
▁Inanspruchnahme	-11.4007
▁Saddam	-11.4007
▁betreibt	-11.4007
400	-11.4015
▁Sozialpolitik	-11.4016
▁Laufzeit	-11.4019
▁Strassen	-11.402
▁islamischen	-11.402
▁Denk	-11.4021
ester	-11.4022
national	-11.4022
▁großzügig	-11.4024
▁polnische	-11.4024
▁Periode	-11.4027
▁Finanzierungs	-11.4028
▁Auskunft	-11.4029
▁HIV	-11.4029
plattform	-11.403
lum	-11.4031
Un	-11.4031
ct	-11.4031
▁Line	-11.4033
▁verhandelt	-11.4034
▁stattfand	-11.4034
))	-11.4035
RS	-11.4035
orientierten	-11.4037
▁Perl	-11.4038
besser	-11.4038
▁Substanzen	-11.4039
▁pass	-11.4039
Player	-11.404
BI	-11.404
▁bekräftigen	-11.404
▁sexuellen	-11.4041
▁Löhne	-11.4041
lit	-11.4047
▁Cho	-11.4047
▁euro	-11.4047
rig	-11.4052
▁beliebte	-11.4052
opp	-11.4052
▁Investment	-11.4054
▁Begegnung	-11.4054
▁frühere	-11.4055
▁damaligen	-11.4057
▁verb	-11.4058
▁Dolomiten	-11.4061
▁Schokolade	-11.4061
▁Kühlschrank	-11.4061
▁heikle	-11.4061
▁visit	-11.4064
▁warme	-11.4065
aka	-11.4067
▁Etagen	-11.4067
▁nachzudenken	-11.4067
wirken	-11.4067
▁Schriftsteller	-11.4068
▁CE	-11.407
▁optimalen	-11.4072
▁Brok	-11.4072
▁Säule	-11.4072
▁Blue	-11.4073
zuziehen	-11.4077
▁Solange	-11.4077
▁Egal	-11.4079
▁ausgeliefert	-11.408
▁san	-11.4083
▁illegal	-11.4084
▁two	-11.4084
trat	-11.4085
▁Nigeria	-11.4088
▁bathroom	-11.4088
▁stoppen	-11.4088
▁Augenmerk	-11.4089
▁Phasen	-11.4089
aro	-11.4089
geber	-11.409
▁Börsen	-11.409
▁Raumfahrt	-11.4092
insel	-11.4092
sprüfung	-11.4094
▁TA	-11.4095
▁Square	-11.4095
PP	-11.4095
▁Cer	-11.4096
▁Sierra	-11.4096
▁versichert	-11.4096
▁Sicher	-11.4097
▁Captain	-11.4097
▁ließen	-11.4097
▁ME	-11.4099
▁Schließung	-11.4099
▁Schnittstelle	-11.41
6-0	-11.4101
▁first	-11.4101
▁dei	-11.4101
flu	-11.4102
iten	-11.4102
▁46	-11.4103
▁Stau	-11.4108
▁Pixel	-11.4108
▁vorausgesetzt	-11.4109
▁Anmerkung	-11.4109
▁Yacht	-11.4109
strahl	-11.4109
▁übernahm	-11.4109
suite	-11.411
post	-11.4111
pra	-11.4112
▁befreit	-11.4115
▁warm	-11.4116
▁regelmäßige	-11.4116
▁IS	-11.4116
EF	-11.4116
▁ökonomischen	-11.4117
uz	-11.412
▁Ter	-11.412
gier	-11.4122
▁Trocken	-11.4122
▁Tin	-11.4124
halter	-11.4124
▁permanent	-11.4125
einkommen	-11.4126
▁Eleganz	-11.4129
▁Vielmehr	-11.4129
fund	-11.4129
▁festgehalten	-11.413
▁va	-11.4132
▁Verh	-11.4135
▁importiert	-11.4136
▁monatlich	-11.4136
▁Todes	-11.4141
gend	-11.4142
▁beweist	-11.4143
fon	-11.4146
▁Bürgerrechte	-11.4147
ringen	-11.4147
▁gründen	-11.4151
▁Sin	-11.4151
▁Garden	-11.4152
▁Sicherheitsrat	-11.4152
Programme	-11.4153
Center	-11.4153
▁innen	-11.4155
kampagne	-11.4155
▁Ebenfalls	-11.4156
▁telefonisch	-11.4156
▁bekämpft	-11.4157
▁been	-11.416
besuch	-11.4161
▁dahingehend	-11.4163
stift	-11.4167
▁Zinsen	-11.4168
▁Transaktion	-11.4171
kö	-11.4172
▁Interview	-11.4174
Produkte	-11.4175
▁Christian	-11.4176
aufnahme	-11.4176
▁Zwangs	-11.4176
б	-11.4176
▁rec	-11.4176
▁Shopping	-11.4177
▁max	-11.4177
▁tatsächliche	-11.4178
▁see	-11.4179
▁Extrem	-11.4182
nos	-11.4183
▁beliebtesten	-11.4185
▁umfassendes	-11.4187
bil	-11.4189
▁Rechtsetzung	-11.4189
▁Intel	-11.419
▁beherbergt	-11.419
Bit	-11.4191
sgrundlage	-11.4192
▁Tru	-11.4194
beauftragte	-11.4194
höfe	-11.4196
▁Norm	-11.4196
schirm	-11.4196
automat	-11.4196
▁win	-11.4198
▁identifizieren	-11.4204
▁gezahlt	-11.4204
-4	-11.4204
▁Lin	-11.4205
▁Passagier	-11.4206
Markt	-11.4207
▁späten	-11.4208
kol	-11.4208
▁Executive	-11.4211
▁konstant	-11.4211
stat	-11.4212
▁gest	-11.4213
▁legal	-11.4214
LU	-11.4214
UT	-11.4215
▁Is	-11.4216
▁Beta	-11.4216
▁übereinstimmen	-11.4217
▁transparente	-11.4217
▁personal	-11.4217
▁anwendbar	-11.4218
book	-11.4224
normen	-11.4224
▁haftet	-11.4225
▁Probe	-11.4225
▁Pub	-11.4226
▁Merc	-11.4228
▁gedruckt	-11.4228
▁Elementen	-11.4228
▁Paar	-11.423
▁Ltd	-11.4232
▁Gerne	-11.4233
▁Südtirol	-11.4237
▁dänischen	-11.4238
▁Konflikts	-11.4238
▁veranlasst	-11.4238
stoffen	-11.4238
▁Comm	-11.4239
▁Rücktritt	-11.4239
▁einleiten	-11.4241
kasse	-11.4245
scha	-11.4245
▁Monopol	-11.4245
▁optimieren	-11.4245
▁Erdgas	-11.4246
▁Airlines	-11.4246
llah	-11.4246
▁Einreise	-11.4247
jahres	-11.4251
▁persönlicher	-11.4251
▁eingetragen	-11.4251
▁vierte	-11.4251
▁Jh	-11.4255
▁Nutz	-11.4256
fort	-11.4257
▁steigenden	-11.4257
Ho	-11.4258
▁Geschichten	-11.4258
▁CHF	-11.426
sfindung	-11.426
▁sozialistische	-11.4261
▁Geschäftsführer	-11.4261
▁Wach	-11.4262
▁Carl	-11.4262
▁Professional	-11.4271
▁Einbindung	-11.4272
smodell	-11.4273
fried	-11.4273
Land	-11.4274
modul	-11.4275
klick	-11.4275
hut	-11.4277
▁Erkenntnis	-11.4279
standort	-11.4279
▁touristischen	-11.428
zauber	-11.4281
▁Athen	-11.4281
▁regelmäßigen	-11.4281
▁Größen	-11.4282
▁Telefonnummer	-11.4282
agen	-11.4283
▁Diensten	-11.4286
▁stützt	-11.4287
▁wirkungsvoll	-11.4287
▁Komplexität	-11.4288
störung	-11.4288
fla	-11.4288
IR	-11.4289
Spiel	-11.4292
wis	-11.4293
▁Erfassung	-11.4293
uren	-11.4296
▁Keller	-11.4297
▁Fre	-11.4297
▁ausgewählte	-11.4298
auftrag	-11.4299
▁frühzeitig	-11.4301
▁Point	-11.4301
▁eingeben	-11.4301
/2002	-11.4303
mütig	-11.4305
▁Bestände	-11.4306
pert	-11.4306
▁vorzubereiten	-11.4307
▁vorzuschlagen	-11.4307
▁besichtigen	-11.4308
▁Ernst	-11.4309
▁Begleit	-11.431
▁Finanzminister	-11.4312
abel	-11.4312
▁Übermittlung	-11.4314
▁Ul	-11.4317
▁wiederhole	-11.4317
▁Mega	-11.4318
▁wa	-11.4319
▁Räumen	-11.432
▁erneuert	-11.4321
▁Völkern	-11.4326
▁Futtermittel	-11.4326
head	-11.4327
β	-11.4328
▁energisch	-11.4328
▁engagieren	-11.4328
▁fortgeschritten	-11.4328
▁Mittag	-11.433
▁führten	-11.4332
▁LE	-11.4332
index	-11.4333
▁Sofern	-11.4333
né	-11.4335
▁Tank	-11.4335
willig	-11.4339
▁pos	-11.4342
zusehen	-11.4343
etti	-11.4343
▁Angebots	-11.4343
▁Vierten	-11.4344
handlung	-11.4345
▁walk	-11.4346
▁Konflikten	-11.4347
Jahr	-11.4348
▁Stich	-11.4348
lange	-11.4348
hôtel	-11.4349
▁Beifall	-11.4351
haben	-11.4351
▁eigen	-11.4351
▁weitem	-11.4353
▁östlichen	-11.4356
yan	-11.4356
▁abends	-11.4356
▁hinzuzufügen	-11.4356
▁Bewirtschaftung	-11.4356
▁angehört	-11.4357
▁Indikatoren	-11.4358
miet	-11.4359
▁Verstoß	-11.4359
▁intern	-11.436
▁Place	-11.4362
▁einbringen	-11.4363
Star	-11.4363
▁fortzusetzen	-11.4364
apparat	-11.4365
▁Elite	-11.4365
aufwand	-11.4366
▁Konsolidierung	-11.437
▁beschädigt	-11.437
▁gemischt	-11.4372
▁erbracht	-11.4376
Card	-11.4377
▁Vergütung	-11.4377
▁Volumen	-11.4377
nahm	-11.4378
Zeit	-11.438
▁Euroraum	-11.4383
▁Bit	-11.4385
▁52	-11.4385
Systems	-11.4386
eth	-11.439
▁Künstlern	-11.439
▁qualifizierten	-11.4391
▁westliche	-11.4393
themen	-11.4394
▁Nikon	-11.4395
einrichtung	-11.4395
▁Schiffen	-11.4396
ald	-11.4397
ities	-11.4397
word	-11.4397
▁erfassen	-11.4398
▁much	-11.4398
abteilung	-11.4399
▁besseres	-11.4399
sti	-11.4399
temp	-11.4401
gebunden	-11.4401
rez	-11.4402
brand	-11.4402
▁schwarzen	-11.4404
н	-11.4405
▁Rücksicht	-11.4407
▁immerhin	-11.4407
▁passenden	-11.4408
ric	-11.4411
▁Palm	-11.4411
▁Komponente	-11.4412
▁Erleichterung	-11.4412
▁auferlegt	-11.4412
▁wählt	-11.4414
cur	-11.4415
▁Rechtsstaat	-11.4415
▁vernünftigen	-11.4415
▁intensiver	-11.4415
▁Listen	-11.4416
▁Insofern	-11.4419
meldung	-11.4419
▁ausgedehnt	-11.4421
▁Landschaften	-11.4424
▁Variante	-11.4426
Meinungsäußerung	-11.4426
▁Gesetzgeber	-11.4427
erklärung	-11.4427
Shop	-11.4432
▁Verurteilung	-11.4433
▁Linken	-11.4434
▁Folgendes	-11.4435
quoten	-11.4436
Angebot	-11.4437
▁Kämpfe	-11.4437
▁68	-11.4437
sichtig	-11.444
▁Helsinki	-11.444
▁beherrscht	-11.444
▁Ideologie	-11.444
▁Warcraft	-11.444
▁check	-11.444
▁vertrieben	-11.4441
▁Gor	-11.4443
▁verlaufen	-11.4443
lands	-11.4447
signal	-11.4448
▁Geber	-11.4449
▁Diesen	-11.445
▁vereinbaren	-11.445
▁Signale	-11.4454
▁view	-11.4454
deckung	-11.4454
х	-11.4454
▁Gastronomie	-11.4454
▁Verknüpfung	-11.4454
▁eignen	-11.4454
▁steuern	-11.4455
▁gültigen	-11.4456
▁Ganze	-11.4457
Präsident	-11.4458
cul	-11.4459
▁facilities	-11.4461
▁abzulehnen	-11.4461
▁Rettungs	-11.4464
▁gründet	-11.4465
reden	-11.4465
▁Emp	-11.4466
Lösungen	-11.4467
vest	-11.4467
▁Kriterium	-11.4468
▁Alarm	-11.4469
sia	-11.4469
▁Auswertung	-11.4471
▁Zeitalter	-11.4473
▁dauerhaften	-11.4473
▁Termine	-11.4473
▁Begeisterung	-11.4475
▁Minimum	-11.4475
▁Upgrade	-11.4475
▁Koalition	-11.4477
sraum	-11.4481
▁Leiden	-11.4483
▁AS	-11.4483
▁konkreter	-11.4485
▁Konvents	-11.4486
▁Zwischenzeit	-11.4489
▁Präzision	-11.449
▁Nokia	-11.449
uni	-11.449
▁miss	-11.4491
▁Zeitungen	-11.4492
▁Profit	-11.4492
▁weißen	-11.4492
▁festhalten	-11.4495
schäden	-11.4495
Di	-11.4495
viel	-11.4495
▁rechtmäßig	-11.4496
▁aufgeworfen	-11.4496
MT	-11.4496
motiv	-11.4497
▁Atomwaffen	-11.4497
bahnen	-11.4497
▁unmittelbare	-11.45
kenntnisse	-11.4501
▁Christ	-11.4501
pla	-11.4503
▁Kolonial	-11.4504
▁Werde	-11.4506
▁direct	-11.4506
vereinbarung	-11.4507
▁aufweist	-11.4509
initiative	-11.4509
▁transparenter	-11.451
▁Netzes	-11.4514
▁ausmachen	-11.4516
▁unterstrichen	-11.4518
gau	-11.4518
UL	-11.4518
▁Übersetzungs	-11.452
srechts	-11.452
wall	-11.4521
▁Ferienhaus	-11.4524
56	-11.4525
ç	-11.4528
spakt	-11.4528
▁osteuropäische	-11.4531
▁Jahrhunderte	-11.4532
mod	-11.4532
▁juristische	-11.4532
▁Gewährung	-11.4532
▁URL	-11.4533
▁Moldau	-11.4533
▁One	-11.4534
ged	-11.4535
▁Unserer	-11.4539
▁bedürfen	-11.4539
2009	-11.454
med	-11.4541
leiten	-11.4542
read	-11.4547
▁entlassen	-11.4548
▁Blo	-11.455
▁Nichtraucher	-11.4553
▁Migranten	-11.4553
▁unverändert	-11.4553
▁identisch	-11.4554
▁trug	-11.4555
▁benötigten	-11.4556
▁Besichtigung	-11.4557
▁israelische	-11.4558
hnen	-11.456
▁Lettland	-11.4561
▁Mord	-11.4561
güter	-11.4561
▁Zusammenfassung	-11.4561
▁Kongo	-11.4563
▁Netzwerke	-11.4563
geschlossen	-11.4564
MB	-11.4565
Linux	-11.4565
▁Maßstab	-11.4568
▁berufen	-11.4568
rungen	-11.4573
▁voraussichtlich	-11.4575
festival	-11.4575
▁Sevilla	-11.4575
Tag	-11.4576
▁Birma	-11.4578
▁50%	-11.4579
aux	-11.4579
gelassen	-11.458
GUE	-11.4581
▁Gegebenheiten	-11.4582
▁nahmen	-11.4583
▁Bru	-11.4586
lege	-11.4586
▁Italienisch	-11.4587
kompetenz	-11.4588
non	-11.4589
▁eigenständige	-11.4589
▁abzuschließen	-11.4589
ott	-11.4591
lement	-11.4591
▁ODER	-11.4591
handels	-11.4593
SD	-11.4594
▁seitdem	-11.4594
cl	-11.4597
wendung	-11.4598
▁ersuchen	-11.4602
▁Verschmutzung	-11.4603
▁fundamental	-11.4603
start	-11.4605
etz	-11.4605
El	-11.4606
▁Ökonomie	-11.4607
ι	-11.4611
▁Bundesrepublik	-11.4611
▁ausgestatteten	-11.4612
bogen	-11.4612
▁41	-11.4612
▁schwarze	-11.4615
▁Hindernis	-11.4617
Qua	-11.4618
▁abgeschafft	-11.4618
74	-11.462
serklärung	-11.4622
▁Auflagen	-11.4622
▁unvergessliche	-11.4626
bedürftig	-11.4626
izi	-11.4626
zusammengestellt	-11.4626
ua	-11.4628
▁Infrastrukturen	-11.4628
stürzt	-11.463
▁Wahlkreis	-11.463
orte	-11.463
▁Gegenwärtig	-11.4632
▁Plug	-11.4634
▁Alb	-11.4636
▁stilvolle	-11.4638
New	-11.4639
▁eventuelle	-11.4641
▁Vermögen	-11.4642
▁sichert	-11.4643
▁Politikbereiche	-11.4645
pfen	-11.4645
▁Internetseiten	-11.4646
ierbar	-11.4646
▁einzuleiten	-11.4647
▁wahrgenommen	-11.4647
▁Frankreichs	-11.4648
wärme	-11.4648
schaften	-11.4648
▁Stellungnahmen	-11.4649
work	-11.4649
▁Sudan	-11.465
▁anzugehen	-11.4651
leitungen	-11.4652
Nach	-11.4653
▁attraktiv	-11.4653
▁Explorer	-11.4653
▁überflüssig	-11.4658
phy	-11.4658
▁47	-11.4658
▁angemessener	-11.4658
programms	-11.4659
▁Taschen	-11.466
was	-11.4664
▁Lande	-11.4665
konflikt	-11.4666
▁Wei	-11.4666
▁Dossier	-11.4668
igkeiten	-11.4668
▁verteilen	-11.4668
richt	-11.4669
▁Camping	-11.4671
städte	-11.4673
bürger	-11.4673
▁votes	-11.4674
▁Residence	-11.4675
▁verweigert	-11.4675
▁unzählige	-11.4676
▁Zutaten	-11.4676
fle	-11.4678
spalt	-11.4678
▁Soft	-11.4679
▁Datenbanken	-11.4679
▁Good	-11.4679
turm	-11.4684
lay	-11.4687
▁schlimmsten	-11.4687
teilnehmer	-11.4687
▁Suchen	-11.4689
▁Bandbreite	-11.469
▁Beschaffung	-11.4691
▁Bü	-11.4692
▁GPS	-11.4694
flotte	-11.4697
skontrolle	-11.4698
tarif	-11.4699
arme	-11.4701
stan	-11.4702
▁inspiriert	-11.4704
Mitgliedsstaaten	-11.4706
▁künstlerische	-11.4706
▁verstärkten	-11.4707
▁Kapitalismus	-11.4708
▁diversen	-11.4709
LAF	-11.4709
▁Quark	-11.4711
▁architektonisch	-11.4711
▁Rundfunk	-11.4711
▁Wohnsitz	-11.4713
gerecht	-11.4716
tico	-11.4717
▁Innovations	-11.4717
▁Wu	-11.4718
▁ewig	-11.4719
▁Teilnehmern	-11.4719
dessen	-11.4721
▁Wertpapier	-11.4722
▁Alternativ	-11.4723
▁klares	-11.4729
▁Applikation	-11.473
center	-11.4731
üss	-11.4731
route	-11.4733
▁lehnen	-11.4733
▁katastrophal	-11.4733
▁Seg	-11.4734
▁(5	-11.4735
▁Europarat	-11.4738
61	-11.4738
Film	-11.4738
"-	-11.474
▁maßgeschneidert	-11.474
▁Add	-11.4741
▁gemeint	-11.4743
jet	-11.4745
übertragung	-11.4746
▁zivilen	-11.4748
▁SQL	-11.475
game	-11.4751
▁Schienen	-11.4751
wood	-11.4755
▁souverän	-11.4755
▁verweist	-11.4756
▁kontinuierliche	-11.4756
▁Zeile	-11.4757
sregeln	-11.4758
▁Installations	-11.4759
▁Kammer	-11.4759
▁49	-11.4759
▁wertvollen	-11.4759
technische	-11.476
▁Nachteile	-11.4762
▁Akzeptanz	-11.4762
▁unweit	-11.4762
▁bestanden	-11.4762
▁Freundschaft	-11.4763
Partner	-11.4763
nica	-11.4764
▁Gal	-11.4764
show	-11.4765
ütt	-11.4765
▁feiert	-11.4766
▁ökonomische	-11.4766
▁Erstellen	-11.4767
sieg	-11.4767
▁Eur	-11.4769
▁easy	-11.4769
▁Zuwanderung	-11.4771
Mon	-11.4773
▁cor	-11.4773
max	-11.4777
haushalt	-11.478
lehr	-11.4781
▁Schreib	-11.4781
Dr	-11.4783
τ	-11.4784
▁Kosmetik	-11.4784
▁feste	-11.4784
▁Dü	-11.4784
alis	-11.4784
▁fein	-11.4785
▁read	-11.4785
spur	-11.4787
▁Borg	-11.4788
blatt	-11.4789
▁direkter	-11.4789
▁Virus	-11.479
▁markt	-11.4792
▁Host	-11.4793
▁information	-11.4794
▁gezielte	-11.4797
▁Letztere	-11.4798
host	-11.4798
▁Az	-11.4799
zahlungen	-11.48
woche	-11.4801
▁iPod	-11.4806
▁Rinder	-11.4807
▁unterrichtet	-11.4812
uth	-11.4813
▁Sur	-11.4814
▁Adressen	-11.4814
▁Parks	-11.4815
▁Cat	-11.4816
halb	-11.4816
▁abschließen	-11.4817
ни	-11.482
ffer	-11.482
▁benachrichtigt	-11.482
iki	-11.482
▁Sender	-11.4823
Modul	-11.4827
Verfahren	-11.4828
iana	-11.4829
▁Ingenieur	-11.4829
▁erhöhte	-11.4829
▁AB	-11.4836
FO	-11.4837
▁Ungleichheit	-11.4837
▁Zurück	-11.4839
ко	-11.4839
ministerium	-11.484
groß	-11.4842
▁bestraft	-11.4842
▁em	-11.4842
▁leichten	-11.4843
▁lebenslange	-11.4843
öhn	-11.4843
gol	-11.4845
iden	-11.4846
▁Stu	-11.4847
▁Nordirland	-11.485
▁voranzutreiben	-11.485
▁English	-11.485
rien	-11.485
▁pflegen	-11.4851
▁Einleitung	-11.4852
▁komplexer	-11.4854
▁modernsten	-11.4855
hne	-11.4857
partei	-11.4858
krank	-11.486
п	-11.4861
▁(4	-11.4861
litz	-11.4861
sgruppe	-11.4862
decken	-11.4863
▁Dein	-11.4865
nock	-11.4866
Fa	-11.4867
rist	-11.4868
▁untergebracht	-11.4868
▁leitet	-11.4868
▁dorthin	-11.4868
▁Mittelalter	-11.4869
▁Button	-11.4869
▁Luftraum	-11.487
kä	-11.487
kabel	-11.4874
▁Dresden	-11.4875
farbig	-11.4876
▁restauriert	-11.4879
▁aufrecht	-11.4879
horn	-11.488
▁zuständige	-11.4881
▁Garage	-11.4881
▁Nar	-11.4881
quote	-11.4884
▁EM	-11.4884
▁chemischen	-11.4885
▁Friedrich	-11.4886
▁korrigiert	-11.4886
▁bilaterale	-11.4888
▁Sozialisten	-11.4892
rank	-11.4892
▁Sav	-11.4893
Management	-11.4893
ε	-11.4894
For	-11.4895
▁Störungen	-11.4898
▁Head	-11.4899
▁Eu	-11.4899
▁gestrichen	-11.4901
Kom	-11.4902
▁Loch	-11.4902
▁asiatischen	-11.4903
▁Beibehalt	-11.4905
baut	-11.4906
auto	-11.4906
▁glaubwürdig	-11.4906
▁wirft	-11.4907
▁geschenkt	-11.4908
modus	-11.4909
▁Games	-11.4909
▁Gesetzen	-11.4912
▁denkt	-11.4912
▁Ganzen	-11.4912
▁steil	-11.4914
freundlichkeit	-11.4915
mobil	-11.4915
▁kopieren	-11.4916
Netzwerk	-11.4917
▁Hot	-11.492
▁gründete	-11.492
▁Schwerpunkte	-11.4921
▁tschechischen	-11.4922
▁air	-11.4922
▁Verhinderung	-11.4923
▁angemeldet	-11.4923
▁willkürlich	-11.4923
▁Schneid	-11.4923
▁Richtigkeit	-11.4924
▁Genauigkeit	-11.4924
▁Verpackungs	-11.4925
▁Kan	-11.4927
friedenstellend	-11.4928
trauen	-11.493
▁Gate	-11.493
▁fortschrittlich	-11.4931
▁Gedanke	-11.4933
▁Play	-11.4935
AI	-11.4936
▁Gewebe	-11.4938
▁Route	-11.4939
▁350	-11.494
▁VIP	-11.4941
▁gemein	-11.4941
▁Schach	-11.4945
▁sämtlicher	-11.4945
▁Algerien	-11.4945
RC	-11.4947
sfragen	-11.4947
▁Fülle	-11.4948
▁Road	-11.4948
▁Chaos	-11.4949
▁Schulung	-11.495
schieben	-11.4951
▁Villen	-11.4951
sozial	-11.4952
▁East	-11.4953
81	-11.4953
vorgang	-11.4953
nic	-11.4954
spunkt	-11.4955
▁Naturpark	-11.4957
sführung	-11.4958
▁explizit	-11.496
▁Betrugs	-11.4961
▁Aussteller	-11.4962
abschluss	-11.4963
▁Albert	-11.4964
▁kommunizieren	-11.4967
ally	-11.4969
War	-11.4972
▁Yu	-11.4973
▁Beamte	-11.4974
▁bekanntlich	-11.4975
▁anzusehen	-11.4977
cer	-11.4978
▁Very	-11.4978
ketten	-11.4979
▁Olympischen	-11.4982
▁mittelfristig	-11.4982
▁zugreifen	-11.4983
komponenten	-11.4983
▁dürften	-11.4985
▁Funktionsweise	-11.4985
▁Hass	-11.4985
kredit	-11.4987
▁Schulz	-11.4991
▁Atem	-11.4991
▁Blair	-11.4991
▁Benutzern	-11.4992
▁verfahren	-11.4992
town	-11.4994
—	-11.4998
▁wunderbaren	-11.4999
▁KDE	-11.5
▁Gehäuse	-11.5
schließ	-11.5001
▁State	-11.5002
▁Eco	-11.5004
modelle	-11.5004
gerechte	-11.5004
▁vergangen	-11.5005
▁Bonn	-11.5005
praxis	-11.5007
schaffen	-11.5009
▁Weltmarkt	-11.5009
▁Impuls	-11.501
▁Mitarbeit	-11.5014
enburg	-11.5014
ifizierung	-11.5014
ail	-11.5016
tina	-11.5016
▁fähig	-11.5016
Tra	-11.5017
▁Schöne	-11.5018
▁Gipfels	-11.5019
▁Orchester	-11.5019
▁votre	-11.502
fte	-11.502
schuss	-11.5021
▁kommende	-11.5022
bücher	-11.5022
▁gratuliere	-11.5023
sabkommens	-11.5025
▁Zeilen	-11.5027
▁Spielern	-11.5029
▁Haag	-11.5035
▁Fels	-11.5036
▁open	-11.5036
▁harten	-11.5037
▁diplomatische	-11.5038
▁Rohstoff	-11.5038
▁class	-11.5039
kul	-11.504
stufe	-11.5041
Ch	-11.5041
pä	-11.5042
lizenz	-11.5043
dach	-11.5046
▁stabil	-11.5046
▁Königreichs	-11.5047
▁römischen	-11.5048
▁180	-11.5049
▁verhängt	-11.5049
▁geräumigen	-11.5051
▁abzugeben	-11.5052
▁sexuelle	-11.5052
aja	-11.5053
▁Kreatur	-11.5054
▁abhängen	-11.5054
▁rest	-11.5054
▁begrenzen	-11.5054
▁Songs	-11.5057
scher	-11.5058
▁Reichweite	-11.5059
▁Lieder	-11.506
▁Leucht	-11.5061
▁Lied	-11.5062
owski	-11.5064
▁Träume	-11.5065
▁Heiz	-11.5066
effizient	-11.5067
sorge	-11.5067
▁mache	-11.5068
▁Hill	-11.507
▁Schwellenländer	-11.5072
▁©	-11.5073
DO	-11.5073
▁Fla	-11.5074
▁gehörte	-11.5074
▁Belange	-11.5075
Region	-11.5075
ssektor	-11.5078
▁versorgt	-11.5079
▁Beispielsweise	-11.5082
▁med	-11.5083
▁städtischen	-11.5084
▁Staatsangehörig	-11.5085
▁Müll	-11.5088
▁dynamischen	-11.509
ionen	-11.509
cus	-11.5093
ARD	-11.5095
polit	-11.5096
▁Landwirten	-11.5096
▁ungewöhnlich	-11.5096
FP	-11.5097
ô	-11.5098
▁(1)	-11.51
▁140	-11.5103
▁Einstieg	-11.5103
▁Beleg	-11.5109
medien	-11.511
▁Fair	-11.5111
▁streben	-11.5116
▁Kolumbien	-11.5117
▁begünstigt	-11.5117
personen	-11.5121
klima	-11.5122
sbereiche	-11.5125
srechte	-11.5125
▁Klavier	-11.5125
geschäfte	-11.5125
adi	-11.5126
▁mat	-11.5126
▁erholen	-11.5127
kapazitäten	-11.5128
▁ausreichen	-11.5128
▁eingehend	-11.5132
▁eingebettet	-11.5132
▁Gleichwohl	-11.5132
▁Diejenigen	-11.5132
▁Sh	-11.5133
▁Cab	-11.5133
▁dünn	-11.5133
▁Siemens	-11.5135
▁Demokratien	-11.5136
▁Hilfen	-11.5136
82	-11.5137
▁Mol	-11.5138
Th	-11.5139
bes	-11.5139
▁people	-11.5139
▁verdanken	-11.5139
▁widerspiegelt	-11.5139
RM	-11.5141
▁Dienststellen	-11.5143
unterricht	-11.5144
▁Hoffnungen	-11.5144
▁Wett	-11.5144
▁Operationen	-11.5146
▁Gletscher	-11.5147
▁übertrieben	-11.5147
▁fundierte	-11.5147
wände	-11.5148
▁Adam	-11.5149
▁erwarte	-11.515
▁old	-11.515
▁Wandern	-11.5151
Ent	-11.5152
Car	-11.5154
▁Sau	-11.5156
ermaßen	-11.5156
▁vereinbar	-11.5157
▁führender	-11.5157
FT	-11.5158
▁legislativen	-11.5159
▁Workshops	-11.5161
eira	-11.5162
▁Tierschutz	-11.5164
96	-11.5164
erkennung	-11.5168
dri	-11.5168
▁Wohlergehen	-11.517
▁Sammel	-11.517
▁fantastische	-11.517
nimmt	-11.5172
▁Wanderungen	-11.5175
▁Att	-11.5176
▁zeitlich	-11.5177
bewusst	-11.5179
▁Komp	-11.5179
▁Rückzug	-11.518
▁rück	-11.5181
▁strengere	-11.5184
▁First	-11.5185
52	-11.5185
wal	-11.5186
▁stecken	-11.5187
▁stabilen	-11.5188
87	-11.5189
pot	-11.5189
▁Sozialpartner	-11.519
betreiber	-11.5194
▁zurückkommen	-11.5194
▁erbringen	-11.5194
▁There	-11.5196
spr	-11.5196
VA	-11.52
sbestimmungen	-11.52
▁dokumentiert	-11.52
▁anhaltende	-11.5201
hren	-11.5203
▁Cro	-11.5204
rennen	-11.5205
rid	-11.5206
▁Modern	-11.5207
▁abgedeckt	-11.5208
artig	-11.5208
zentrale	-11.5209
▁aufhören	-11.5209
buchung	-11.5209
▁Rechtsprechung	-11.521
▁Spin	-11.5211
enberg	-11.5213
▁Fertigungs	-11.5213
iel	-11.5215
▁zubereitet	-11.5215
▁Anfänger	-11.5216
▁leidet	-11.5217
▁steigende	-11.5218
▁aufrufen	-11.5218
marktes	-11.522
ase	-11.522
▁Bestehen	-11.5221
pause	-11.5222
▁Zustellbetten	-11.5223
▁Komplett	-11.5223
Anwendungen	-11.5223
srate	-11.5223
▁XML	-11.5223
oy	-11.5224
idi	-11.5224
▁Handlungs	-11.5225
Abstimmung	-11.5225
▁geehrt	-11.5225
▁diesbezüglichen	-11.5226
63	-11.5228
▁Weich	-11.5229
▁stärkt	-11.523
▁Obergrenze	-11.5231
füllt	-11.5231
bewegungen	-11.5233
▁Nachtleben	-11.5233
▁Salon	-11.5233
▁klarstellen	-11.5234
OC	-11.5235
▁Studios	-11.5235
▁anzuerkennen	-11.5236
ASP	-11.5238
▁gesenkt	-11.5238
▁Reit	-11.5238
marsch	-11.5242
eingang	-11.5242
vorschläge	-11.5244
ober	-11.5244
▁Vogel	-11.5247
schnellstmöglich	-11.5248
▁überleben	-11.5248
▁Genfer	-11.5251
▁Ungleichheiten	-11.5252
verpflichtung	-11.5253
reißen	-11.5256
▁Gehör	-11.5256
▁Klinik	-11.5257
▁really	-11.5257
▁Gedenk	-11.5258
offen	-11.5259
regulierung	-11.526
▁far	-11.526
yer	-11.5261
▁konstitutionell	-11.5261
KE	-11.5263
lehrer	-11.5264
ierter	-11.5265
▁Container	-11.5265
ansprüche	-11.5268
▁Überschwemmung	-11.5269
▁Engineering	-11.5269
uc	-11.527
Aussprache	-11.5272
▁präsent	-11.5273
iche	-11.5273
▁versetzen	-11.5273
cm	-11.5275
▁aktiver	-11.5275
▁Nachbar	-11.5275
law	-11.5277
▁Tiefe	-11.5278
opfer	-11.5278
▁Report	-11.528
2008	-11.5281
▁pri	-11.5281
Verschlechterung	-11.5284
▁Technology	-11.5284
ausbildung	-11.5286
▁ausgeprägt	-11.5287
▁wunderbar	-11.5287
geboren	-11.5289
Datenbank	-11.5289
▁Ausbruch	-11.5289
▁gesamt	-11.5289
▁Bestrebungen	-11.5292
▁kürzer	-11.5292
bezogenen	-11.5293
meldungen	-11.5294
ipp	-11.5296
▁Schuh	-11.5298
▁Daraus	-11.53
▁Meilen	-11.5301
öß	-11.5302
▁Besser	-11.5302
▁letztes	-11.5303
▁diplomatischen	-11.5303
▁Haiti	-11.5305
▁Berichtigung	-11.5306
ï	-11.5307
▁kr	-11.531
▁offener	-11.5311
NGL	-11.5312
▁Inhalts	-11.5313
▁Gedächtnis	-11.5313
▁Bemühen	-11.5315
▁Modus	-11.5316
schütz	-11.5317
wegen	-11.5318
▁Lade	-11.5319
▁Ansprüchen	-11.532
▁Zentren	-11.5321
▁apartment	-11.5321
portal	-11.5322
▁seltsam	-11.5322
▁Sternen	-11.5322
▁irgendwo	-11.5322
sprung	-11.5323
▁halben	-11.5324
▁bit	-11.5325
VE	-11.5328
▁freiwillig	-11.533
▁Darauf	-11.533
cat	-11.5335
▁2-	-11.5335
▁Davon	-11.5336
gest	-11.5337
kontakt	-11.5337
ific	-11.5337
▁Flagge	-11.5338
SH	-11.5338
▁Gewähr	-11.5338
▁Spekulation	-11.5338
▁Soll	-11.5339
▁Space	-11.534
▁Italiens	-11.534
▁Anna	-11.534
▁Tim	-11.5341
erzeugung	-11.5341
▁Sk	-11.5342
brüche	-11.5342
spolitiken	-11.5342
smechanismus	-11.5345
▁verwandeln	-11.5345
zukommen	-11.535
▁Inzwischen	-11.535
▁älteste	-11.5351
▁51	-11.5351
▁Öko	-11.5351
57	-11.5352
web	-11.5353
▁Ansehen	-11.5353
▁Security	-11.5353
▁Trinkwasser	-11.5353
▁reichlich	-11.5354
▁anonym	-11.5355
uel	-11.5357
▁erhebt	-11.5358
▁file	-11.5358
▁Mos	-11.5358
▁massiven	-11.5358
▁untersagt	-11.536
möglich	-11.536
angriff	-11.536
▁Sports	-11.5361
▁Ausstellungs	-11.5362
▁Tasten	-11.5362
▁need	-11.5363
spritz	-11.5365
▁Harmonie	-11.5368
▁Begleitung	-11.5369
oxid	-11.5369
cro	-11.537
▁Hochschul	-11.5371
▁Skigebiet	-11.5371
▁Anpassungen	-11.5371
▁ausgeben	-11.5371
zeichnung	-11.5372
▁1960	-11.5373
▁Rod	-11.5374
liz	-11.5375
▁Jar	-11.5376
▁Firefox	-11.5376
▁Toten	-11.5379
HE	-11.5381
▁Motoren	-11.5381
▁Hochschulen	-11.5382
▁benachteiligt	-11.5382
▁empfindlich	-11.5382
▁Reis	-11.5383
▁Aufpreis	-11.5383
▁Brücken	-11.5383
▁Monti	-11.5384
▁leistungsfähige	-11.5384
▁Fluggäste	-11.5384
▁großzügige	-11.5385
charakter	-11.5385
▁übermäßig	-11.5385
▁ggf	-11.5392
▁einhergehen	-11.5392
ción	-11.5393
▁verzeichnet	-11.5393
preisen	-11.5393
Rechtssicherheit	-11.5394
▁2,5	-11.5394
wirtschaftliche	-11.5395
▁Allgemein	-11.5397
▁bürgerliche	-11.5398
▁Streben	-11.54
eta	-11.54
Programms	-11.5401
rag	-11.5401
▁Dampf	-11.5401
▁130	-11.5402
▁Letzte	-11.5404
MC	-11.5405
▁Flüchtlingen	-11.5405
ausrüstung	-11.5405
▁Dienstes	-11.5406
▁Versicherung	-11.5406
▁bedeutender	-11.5406
▁aufhalten	-11.5407
▁mobilen	-11.5407
▁Speziell	-11.5407
▁Mittagessen	-11.5407
▁Sichtweise	-11.5409
rüber	-11.541
▁Klausel	-11.5411
▁08	-11.5412
register	-11.5414
▁Enttäuschung	-11.5415
▁Renaissance	-11.5415
▁versorgen	-11.5415
bucht	-11.5417
▁Public	-11.5418
room	-11.5418
▁Mich	-11.5419
wich	-11.542
Po	-11.542
▁Seminare	-11.542
▁Edinburgh	-11.5423
Tour	-11.5425
▁Junior	-11.5427
▁künstlerischen	-11.5428
▁Crew	-11.5428
wanderung	-11.5429
▁ausgebildet	-11.543
▁Keramik	-11.543
▁Bou	-11.5432
▁doppelte	-11.5433
г	-11.5436
▁pool	-11.5437
▁tiefen	-11.5438
reib	-11.5438
▁Verhaltenskodex	-11.5438
▁Wäscheservice	-11.5438
PM	-11.544
79	-11.5441
▁Schadens	-11.5442
Video	-11.5442
▁Bos	-11.5443
oma	-11.5446
▁Aussehen	-11.5446
▁find	-11.5452
AND	-11.5452
ect	-11.5453
TRA	-11.5453
DC	-11.5453
▁Friendly	-11.5454
▁Montenegro	-11.5454
▁reservieren	-11.5454
▁signifikant	-11.5454
▁vermieten	-11.5454
hit	-11.5456
wart	-11.5456
kro	-11.5457
macher	-11.5457
▁elektrische	-11.5457
tiere	-11.546
▁RSS	-11.546
▁pragmatisch	-11.5461
▁kritisieren	-11.5461
▁salle	-11.5462
▁park	-11.5465
zucht	-11.5467
▁betragen	-11.5469
▁gesendet	-11.5469
▁Räumlichkeiten	-11.5469
▁rumänische	-11.5469
▁schweigen	-11.547
Seiten	-11.547
▁Tau	-11.5471
▁Müller	-11.5471
▁feine	-11.5472
62	-11.5473
▁Zelt	-11.5474
fre	-11.5476
sgrad	-11.5478
stechnik	-11.5478
▁gi	-11.5478
Ad	-11.548
▁user	-11.5481
technischen	-11.5483
▁Feiertag	-11.5484
HO	-11.5484
▁Kommen	-11.5485
hat	-11.5485
treiben	-11.5485
▁Pal	-11.5485
küche	-11.5485
▁umwelt	-11.5485
hard	-11.5486
▁off	-11.5486
▁Instabilität	-11.5486
▁Leicht	-11.5487
▁versprechen	-11.5489
▁schwerwiegende	-11.549
einstellungen	-11.5491
▁Züge	-11.5491
▁Muss	-11.5492
Um	-11.5493
▁Handhabung	-11.5493
▁Vormittag	-11.5493
▁Magazin	-11.5493
▁irgendwie	-11.5493
▁WE	-11.5494
osi	-11.5494
▁Mus	-11.5495
asse	-11.5495
quer	-11.5496
▁weiss	-11.5497
▁99	-11.5499
-3	-11.55
▁hervorzuheben	-11.5501
GH	-11.5502
▁Brems	-11.5502
▁Scho	-11.5503
▁greift	-11.5506
▁Afrikas	-11.5506
▁prinzipiell	-11.5508
▁Note	-11.5508
shi	-11.551
▁Hyper	-11.551
▁qm	-11.5513
mente	-11.5514
EX	-11.5515
▁Veranstalter	-11.5516
blend	-11.5519
▁Bot	-11.5523
▁Währungen	-11.5523
▁bestehend	-11.5524
▁aufgezeigt	-11.5524
▁gänzlich	-11.5524
▁Sicherstellung	-11.5525
▁historisch	-11.5527
▁Verweis	-11.553
▁Etage	-11.553
▁Gegenden	-11.5531
ickt	-11.5532
its	-11.5533
▁Ermittlung	-11.5534
▁Rohstoffe	-11.5535
▁Franzosen	-11.5538
-5	-11.5538
bul	-11.5539
▁Unterscheidung	-11.554
▁Will	-11.554
▁Gutes	-11.5542
▁aufgetreten	-11.5543
▁Pause	-11.5543
feier	-11.5547
▁Anschließend	-11.5548
▁Gehirn	-11.5548
strand	-11.5548
▁Spielzeug	-11.555
spezifischen	-11.555
▁Hochzeit	-11.5551
diensten	-11.5552
Ga	-11.5555
zip	-11.5555
▁einrichten	-11.5556
▁Guide	-11.5558
▁Nav	-11.5558
▁fragt	-11.5559
waffen	-11.5559
gs	-11.5563
▁beunruhigt	-11.5563
▁hei	-11.5565
▁Torre	-11.5568
▁geringere	-11.5569
DVD	-11.5569
▁behindern	-11.5571
▁Überwindung	-11.5571
anbau	-11.5571
▁Jerusalem	-11.5571
▁erfahrenen	-11.5572
tausend	-11.5572
Tech	-11.5573
▁Pad	-11.5573
▁ausgenommen	-11.5574
Fr	-11.5574
▁Ausländer	-11.5575
▁Publikationen	-11.5575
▁made	-11.5579
ulator	-11.5579
▁verkündet	-11.5579
Funktion	-11.5579
▁Unterhaltungs	-11.558
fache	-11.5581
▁Herstellern	-11.5581
▁Ah	-11.5584
BS	-11.5584
▁Hannover	-11.5587
▁10%	-11.5589
▁schlug	-11.559
No	-11.5591
▁Pilot	-11.5591
▁Verdienst	-11.5593
▁realistische	-11.5593
▁nos	-11.5593
▁eingenommen	-11.5594
digen	-11.5595
seinrichtungen	-11.5595
▁Sachverständige	-11.5595
▁veraltet	-11.5595
▁str	-11.5597
OW	-11.5598
▁Umstand	-11.5599
tend	-11.5599
ej	-11.56
lek	-11.56
▁Wasch	-11.5601
▁attraktiven	-11.5601
vie	-11.5603
cri	-11.5604
ales	-11.5607
gesellschaftlich	-11.5609
rechtzuerhalten	-11.5611
▁Zweig	-11.5611
▁demselben	-11.5611
▁Wortlaut	-11.5612
84	-11.5614
▁begeben	-11.5614
kolleg	-11.5614
rolle	-11.5616
Verhältnis	-11.5616
▁Aktionäre	-11.5618
▁nachfolgenden	-11.5618
▁irgendwann	-11.5619
zwecken	-11.5619
▁Sandstrand	-11.5619
▁schuldig	-11.5619
▁Run	-11.5619
▁analog	-11.562
▁kan	-11.562
trieb	-11.5625
▁Mass	-11.5625
▁Häusern	-11.5626
metall	-11.5627
▁iranischen	-11.5627
▁ordnungsgemäße	-11.5629
▁vorzugehen	-11.563
gri	-11.563
sätzen	-11.5631
▁geschah	-11.5635
szeitraum	-11.5636
▁NA	-11.5636
▁Fotografie	-11.5638
nau	-11.564
▁dramatisch	-11.5641
▁gerichtlich	-11.5644
▁food	-11.5648
▁Vorgänge	-11.5648
▁Jack	-11.5648
Mittel	-11.5649
▁06	-11.565
▁Öffentliche	-11.565
▁Maßstäbe	-11.565
▁Erb	-11.5652
▁vorgesehene	-11.5653
diskriminierung	-11.5653
▁geschlossenen	-11.5654
▁Fahrzeugen	-11.5657
▁cl	-11.5657
▁echter	-11.5657
▁Zeitschrift	-11.5658
html	-11.5658
▁Holiday	-11.5658
▁unternehmerisch	-11.5659
▁wertvoll	-11.5661
fähigen	-11.5663
förder	-11.5668
▁gepflegt	-11.5668
plätzen	-11.5669
▁kommunistischen	-11.5673
▁weitreichende	-11.5678
▁Planet	-11.5678
▁Uni	-11.568
▁erzählen	-11.5682
▁mer	-11.5684
▁after	-11.5684
▁large	-11.5686
ре	-11.5686
▁†	-11.5688
getragen	-11.5689
▁tre	-11.569
fal	-11.5693
▁Kletter	-11.5693
▁Konzeption	-11.5693
▁Infos	-11.5693
▁Orts	-11.5694
▁grau	-11.5695
▁near	-11.5696
▁wi	-11.5698
gearbeitet	-11.5698
▁Nichts	-11.5698
blo	-11.5699
zurufen	-11.57
▁sea	-11.57
aspekt	-11.5701
▁folgte	-11.5701
▁Baden	-11.5701
▁54	-11.5701
▁Auftreten	-11.5702
ño	-11.5703
▁Reifen	-11.5704
▁Auszahlung	-11.5705
▁versuchte	-11.5707
▁automatischen	-11.5708
spect	-11.5709
▁Surf	-11.571
▁Zertifikat	-11.5711
▁roten	-11.5712
▁seinerzeit	-11.5713
▁Engel	-11.5714
▁geeinigt	-11.5715
bewusstsein	-11.5716
schrank	-11.5719
▁Aqua	-11.572
▁Aufteilung	-11.572
▁einladen	-11.572
IO	-11.5721
▁Klaren	-11.5721
▁Autovermietung	-11.5722
▁bevorzugt	-11.5722
▁72	-11.5723
▁virtuellen	-11.5724
▁Unrecht	-11.5724
achtet	-11.5726
▁höherer	-11.5726
▁geheim	-11.5727
▁massiv	-11.5727
▁Reisende	-11.5728
Dokument	-11.5729
issen	-11.5729
▁vo	-11.5729
▁Automatisierung	-11.573
▁Drink	-11.5731
eisen	-11.5734
weiß	-11.5736
lia	-11.5737
▁Staatsbürger	-11.5737
▁aufgegeben	-11.5737
dio	-11.5738
▁Liter	-11.5738
▁Funktions	-11.5739
teams	-11.5741
▁como	-11.5742
▁Act	-11.5742
ject	-11.5744
▁Angestellten	-11.5745
▁verlängern	-11.5746
▁Übereinkunft	-11.5746
▁Vollständigkeit	-11.5746
richtlinien	-11.5748
▁LAN	-11.5749
lade	-11.5751
▁Time	-11.5752
regel	-11.5752
▁komplizierte	-11.5753
haften	-11.5754
ets	-11.5756
▁Matt	-11.5756
▁Werken	-11.5759
▁Tagungen	-11.5759
bio	-11.576
ifi	-11.5762
▁Klärung	-11.5762
▁umgewandelt	-11.5762
▁charmante	-11.5762
▁Balance	-11.5763
tzt	-11.5763
▁gesteuert	-11.5763
▁bedau	-11.5766
▁formal	-11.5767
▁Zentralbanken	-11.5767
fänge	-11.5768
▁Geh	-11.5768
▁aufgegriffen	-11.577
▁Verschiebung	-11.577
▁restriktiv	-11.577
▁widerspiegeln	-11.577
mauer	-11.5771
▁1988	-11.5771
▁River	-11.5771
▁begrenzten	-11.5774
▁ermutigt	-11.5778
▁Stadium	-11.5778
anische	-11.5779
mehr	-11.5779
▁hieß	-11.5779
▁Magnet	-11.578
▁verläuft	-11.5781
staatliche	-11.5784
Krise	-11.5786
▁positiver	-11.5786
banken	-11.5787
fordert	-11.5788
nus	-11.5788
greif	-11.5788
▁Schwierigkeit	-11.5789
tä	-11.5792
▁Interface	-11.5793
▁möge	-11.5794
▁mittelständisch	-11.5794
Einstimmigkeit	-11.5794
▁Doktor	-11.5795
träglich	-11.5795
GEN	-11.5796
▁entnehmen	-11.5797
▁drittens	-11.5798
▁beunruhigend	-11.5798
▁aufgeführten	-11.5798
leb	-11.58
▁anschauen	-11.5801
▁Informatik	-11.5802
▁Aufschwung	-11.5802
folgen	-11.5803
core	-11.5804
platte	-11.5805
▁Bogen	-11.5805
▁av	-11.5806
▁Skandal	-11.5807
rea	-11.5807
▁Vorzüge	-11.5807
▁Angehörigen	-11.5809
те	-11.581
▁elementar	-11.581
▁Biotechnologie	-11.5811
▁erreichten	-11.5811
▁Aufstockung	-11.5811
hauses	-11.5812
mund	-11.5816
▁Tragen	-11.5817
takt	-11.5817
Internet	-11.5818
▁einbeziehen	-11.5818
▁Freilassung	-11.5819
▁Freiwilligen	-11.5819
▁110	-11.5819
▁problem	-11.5821
▁Pferd	-11.5822
▁Arbeitsprogramm	-11.5823
▁Nik	-11.5827
kommunikation	-11.5829
▁entziehen	-11.583
▁Toskana	-11.5835
▁dringlich	-11.5835
rem	-11.5835
EIB	-11.5835
hütte	-11.5836
▁Court	-11.5836
▁heiße	-11.5837
▁Scan	-11.5837
▁ermordet	-11.5843
▁verhaftet	-11.5843
dialog	-11.5843
▁Tunnel	-11.5845
▁erzielte	-11.5845
▁By	-11.5846
▁Science	-11.5846
tribu	-11.5848
▁juristischen	-11.5849
▁Ausschüssen	-11.585
▁Jesus	-11.585
ň	-11.5851
▁Übel	-11.5851
▁portugiesische	-11.5851
▁Travel	-11.5853
▁Lektion	-11.5854
▁Off	-11.5855
▁Reb	-11.5856
▁Beschränkung	-11.5856
▁‘	-11.5859
▁zusammengefasst	-11.586
▁traf	-11.5863
▁Schätzungen	-11.5863
▁privater	-11.5865
▁beträchtlich	-11.5865
▁Unabhängig	-11.5867
▁Wäre	-11.5868
▁Tauchen	-11.5871
key	-11.5872
▁Flucht	-11.5872
▁Sieger	-11.5872
PI	-11.5874
▁Hab	-11.5875
▁stellvertretend	-11.5875
gesetzgebung	-11.5875
▁Bundesstaat	-11.5875
▁sal	-11.5876
▁DI	-11.588
Enterprise	-11.5883
▁double	-11.5883
▁Anschein	-11.5883
kk	-11.5885
leuchten	-11.5885
▁schl	-11.5886
▁intensiven	-11.5887
▁starker	-11.5887
▁Lau	-11.5887
dé	-11.5888
▁Map	-11.589
Art	-11.5893
▁too	-11.5893
bat	-11.5895
▁Bedrohungen	-11.5898
▁alternativen	-11.5899
zie	-11.59
▁Bud	-11.5902
verzeichnis	-11.5903
sdaten	-11.5904
▁Ferr	-11.5905
▁tu	-11.5906
▁kümmert	-11.5907
▁weise	-11.5907
▁Standorten	-11.5907
▁anscheinend	-11.5908
Kamera	-11.5908
Entwicklung	-11.5908
iver	-11.5908
▁Energieversorg	-11.5908
▁dreht	-11.5909
KA	-11.5909
▁genauen	-11.5911
▁Küchen	-11.5912
hau	-11.5917
▁Aero	-11.5918
itter	-11.5918
▁Inneren	-11.5919
▁Gewässer	-11.592
▁tot	-11.592
tory	-11.592
▁Full	-11.5922
▁gewahrt	-11.5924
pr	-11.5925
▁Akademie	-11.5926
sgebiet	-11.5927
▁demnächst	-11.5928
▁Dra	-11.593
▁Reisenden	-11.593
▁grundsätzliche	-11.5931
▁Einsparungen	-11.5932
▁kräftig	-11.5938
▁holen	-11.594
▁Beleuchtung	-11.594
▁Wollen	-11.5942
bevölkerung	-11.5943
▁kohärente	-11.5945
rechtliche	-11.5947
ohne	-11.5947
kant	-11.5948
▁Singapur	-11.5948
▁Gremien	-11.5948
▁Könnte	-11.5948
[...]
