<unk>	0
<s>	0
</s>	0
▁the	-2.96066
,	-3.19747
.	-3.32829
▁of	-3.60832
▁and	-3.71663
▁to	-3.77313
▁in	-4.08119
▁a	-4.18651
s	-4.36866
▁is	-4.41722
▁that	-4.67104
▁for	-4.734
▁on	-5.00492
-	-5.04271
▁with	-5.11821
▁be	-5.15764
▁The	-5.17575
▁are	-5.18165
▁I	-5.24733
▁this	-5.32349
▁as	-5.35274
▁it	-5.43202
▁we	-5.45481
▁by	-5.49115
▁have	-5.49872
▁not	-5.52576
▁you	-5.56554
▁which	-5.64082
▁will	-5.64597
'	-5.69853
▁from	-5.70628
▁at	-5.79047
▁or	-5.81034
▁has	-5.81592
▁an	-5.84798
▁(	-5.90313
▁can	-5.96803
▁European	-6.02254
▁our	-6.02432
▁was	-6.02728
▁all	-6.0283
▁	-6.09129
▁also	-6.14318
▁-	-6.19865
:	-6.22406
▁your	-6.2756
ing	-6.30178
)	-6.31561
▁We	-6.3275
▁but	-6.35569
▁In	-6.37066
▁its	-6.37414
▁would	-6.38862
▁their	-6.40541
▁more	-6.4059
▁been	-6.43855
▁one	-6.48426
▁It	-6.49168
▁Mr	-6.49211
▁This	-6.49653
’	-6.50538
▁should	-6.52315
▁Commission	-6.60337
▁must	-6.62891
▁other	-6.68
▁very	-6.68205
▁new	-6.68441
▁there	-6.68803
▁they	-6.69179
▁do	-6.69473
ed	-6.72006
▁President	-6.72308
▁only	-6.7263
▁like	-6.72934
▁time	-6.73762
▁about	-6.75282
▁so	-6.81027
▁these	-6.84076
▁A	-6.84497
▁"	-6.8464
▁who	-6.85362
?	-6.85693
▁up	-6.90083
▁Union	-6.91274
▁if	-6.91797
▁us	-6.91957
e	-6.91975
▁no	-6.94188
▁any	-6.95235
▁Parliament	-6.96641
▁people	-6.97038
▁Europe	-6.98172
▁into	-6.98557
▁out	-6.99658
t	-6.99738
▁were	-7.02197
▁such	-7.03773
▁well	-7.03853
▁report	-7.04573
▁States	-7.04603
▁what	-7.04605
▁Member	-7.05938
▁need	-7.07269
▁countries	-7.0731
;	-7.07379
d	-7.07798
▁than	-7.08634
▁his	-7.0976
▁when	-7.10822
▁my	-7.11823
▁use	-7.12061
▁Council	-7.12473
▁–	-7.1282
▁first	-7.1334
▁most	-7.13604
▁some	-7.13607
▁.	-7.14636
▁make	-7.14673
▁work	-7.16265
▁now	-7.16602
▁important	-7.17358
▁many	-7.17588
▁EU	-7.17846
▁between	-7.18323
▁them	-7.1927
/	-7.19541
▁because	-7.21326
▁take	-7.21806
ly	-7.22332
▁,	-7.23683
!	-7.26809
▁over	-7.28534
er	-7.28913
▁information	-7.29057
"	-7.29626
▁hotel	-7.30052
▁two	-7.30408
▁he	-7.3056
▁support	-7.30845
▁made	-7.32079
▁years	-7.32159
▁way	-7.32695
▁world	-7.33689
▁those	-7.3404
▁just	-7.34178
▁If	-7.34401
▁had	-7.34509
▁where	-7.37817
▁policy	-7.3845
▁being	-7.41504
▁may	-7.43179
▁system	-7.43623
a	-7.43635
▁even	-7.44902
▁de	-7.46272
▁am	-7.46384
▁right	-7.47343
▁part	-7.4906
▁order	-7.49385
▁area	-7.50489
▁good	-7.50761
▁year	-7.52189
y	-7.52394
▁here	-7.54239
▁market	-7.54393
▁through	-7.55489
▁place	-7.55511
▁possible	-7.56099
▁As	-7.56303
▁same	-7.56484
▁You	-7.56614
▁after	-7.57672
▁own	-7.57724
▁political	-7.58444
▁For	-7.58732
▁development	-7.5974
▁want	-7.60103
▁under	-7.60726
▁economic	-7.60807
▁There	-7.6147
▁could	-7.61504
▁see	-7.62117
▁within	-7.62491
n	-7.6326
▁rights	-7.6332
▁against	-7.63406
▁both	-7.63704
▁“	-7.63896
).	-7.63981
▁find	-7.64092
▁therefore	-7.64927
▁much	-7.65383
m	-7.65631
▁used	-7.66
▁how	-7.66086
▁'	-7.66536
▁then	-7.66654
▁does	-7.67878
▁country	-7.68303
▁high	-7.68517
▁public	-7.68889
▁number	-7.704
in	-7.70454
▁without	-7.7115
▁me	-7.72017
▁international	-7.72333
▁point	-7.72691
▁fact	-7.73787
▁social	-7.74984
▁services	-7.75047
▁still	-7.75193
▁know	-7.75531
▁long	-7.75673
▁great	-7.75675
▁say	-7.75955
th	-7.76608
▁available	-7.77095
▁different	-7.77413
▁believe	-7.78562
▁future	-7.79121
▁Hotel	-7.79164
▁view	-7.79682
o	-7.7978
▁already	-7.79869
▁free	-7.80335
▁last	-7.80458
▁before	-7.81657
▁course	-7.81894
▁2	-7.82595
▁today	-7.82778
▁That	-7.83683
▁able	-7.84677
▁think	-7.84806
▁products	-7.85081
▁process	-7.85216
▁data	-7.85628
▁cannot	-7.86188
▁service	-7.8657
▁human	-7.86578
▁case	-7.86605
i	-7.87034
▁too	-7.873
▁But	-7.88226
▁set	-7.88526
▁s	-7.88618
▁Commissioner	-7.8892
en	-7.88988
▁get	-7.89744
▁level	-7.90574
▁S	-7.91136
▁end	-7.91164
es	-7.91378
▁offers	-7.91838
▁3	-7.92192
▁issue	-7.9232
▁financial	-7.92625
▁national	-7.92756
▁room	-7.92921
▁during	-7.93161
▁example	-7.93346
▁proposal	-7.93393
▁question	-7.93519
▁best	-7.93557
▁said	-7.9369
▁means	-7.94812
▁debate	-7.95425
▁1	-7.95596
▁small	-7.95817
▁help	-7.95833
▁situation	-7.95997
▁city	-7.9619
▁every	-7.96637
▁day	-7.96712
▁since	-7.96851
▁quality	-7.97182
),	-7.97551
▁However	-7.97783
▁particular	-7.99386
▁clear	-8.00238
▁each	-8.00358
▁Our	-8.00541
▁business	-8.00813
▁Committee	-8.00916
▁To	-8.00938
▁including	-8.00978
▁offer	-8.01107
r	-8.0118
”	-8.01246
▁access	-8.01339
▁three	-8.03262
▁give	-8.03329
▁measures	-8.03465
▁common	-8.03521
▁provide	-8.04736
▁All	-8.04813
▁next	-8.05324
▁agreement	-8.05326
...	-8.05441
S	-8.05506
▁energy	-8.05583
▁few	-8.05685
▁citizens	-8.06139
▁rooms	-8.06206
▁areas	-8.06234
▁large	-8.0624
▁problem	-8.06343
▁taken	-8.06639
▁far	-8.0693
▁put	-8.07457
re	-8.0766
▁ensure	-8.0794
▁On	-8.0838
▁come	-8.08736
al	-8.08947
▁further	-8.09808
▁again	-8.10018
▁back	-8.10528
▁necessary	-8.12173
▁change	-8.12408
▁At	-8.12496
▁company	-8.12788
▁problems	-8.1288
▁shall	-8.13394
▁given	-8.13401
▁security	-8.13401
▁e	-8.13749
▁go	-8.13787
▁why	-8.14164
▁however	-8.1437
▁cooperation	-8.14653
▁while	-8.15169
▁And	-8.15274
▁real	-8.16279
▁position	-8.16373
▁group	-8.16642
▁hope	-8.16985
▁life	-8.17088
▁her	-8.17267
▁vote	-8.17698
▁law	-8.17787
▁always	-8.18412
▁With	-8.18629
▁action	-8.19805
▁...	-8.19808
▁C	-8.20159
▁Group	-8.20429
▁stay	-8.20464
▁form	-8.20723
▁located	-8.20836
A	-8.21035
▁They	-8.21043
▁United	-8.21234
▁better	-8.21295
▁needs	-8.21797
▁protection	-8.21898
▁re	-8.21926
▁4	-8.21939
g	-8.22018
▁main	-8.22059
▁special	-8.22291
▁present	-8.2233
▁full	-8.22894
▁current	-8.23786
▁using	-8.23795
▁based	-8.24152
▁become	-8.24286
▁B	-8.24298
▁5	-8.24678
▁production	-8.24705
▁working	-8.24958
▁power	-8.25112
▁What	-8.25264
▁state	-8.25373
▁open	-8.25539
▁He	-8.25542
or	-8.25589
▁legal	-8.25695
▁trade	-8.2586
▁around	-8.2587
▁terms	-8.25882
▁whether	-8.25888
▁House	-8.26134
▁result	-8.26136
▁E	-8.26426
▁down	-8.26471
▁particularly	-8.26633
▁did	-8.26677
▁Community	-8.27041
▁together	-8.27193
▁another	-8.28121
to	-8.28289
▁second	-8.28749
▁rapporteur	-8.28772
▁These	-8.28837
▁children	-8.29507
▁respect	-8.29727
▁When	-8.30039
▁role	-8.30933
▁centre	-8.31262
▁per	-8.31549
▁conditions	-8.31566
▁issues	-8.31752
▁certain	-8.31951
▁local	-8.32216
▁Mrs	-8.32366
▁women	-8.33179
▁whole	-8.33245
▁various	-8.3329
▁experience	-8.33462
▁companies	-8.33563
▁industry	-8.34289
▁control	-8.34359
▁basis	-8.34452
▁matter	-8.34591
▁health	-8.35007
▁No	-8.35333
▁sector	-8.35424
▁budget	-8.35552
▁account	-8.35615
▁research	-8.35804
▁systems	-8.36017
▁water	-8.36953
▁government	-8.37002
▁especially	-8.3749
▁non	-8.37616
▁done	-8.37681
▁So	-8.3771
▁third	-8.38236
▁create	-8.38293
▁region	-8.38706
▁10	-8.39503
▁really	-8.39525
▁look	-8.39698
▁hand	-8.40181
▁close	-8.40202
▁million	-8.40382
▁decision	-8.4082
▁project	-8.41364
com	-8.41396
ers	-8.41515
▁single	-8.41553
▁specific	-8.4166
▁programme	-8.42427
▁itself	-8.42518
▁continue	-8.42699
▁major	-8.42704
▁site	-8.42803
▁German	-8.4305
▁something	-8.43134
▁several	-8.43286
▁thank	-8.43312
▁resolution	-8.43402
▁modern	-8.43798
▁general	-8.44338
▁less	-8.44457
2	-8.44527
▁page	-8.44733
▁regard	-8.44837
c	-8.44993
▁gentlemen	-8.45365
▁wish	-8.45374
▁making	-8.45615
▁subject	-8.45802
▁directive	-8.45925
▁least	-8.4614
▁transport	-8.46213
▁following	-8.46419
▁global	-8.46601
▁Germany	-8.46679
▁crisis	-8.46879
▁name	-8.47107
▁often	-8.47132
▁old	-8.47219
▁going	-8.47502
▁rules	-8.47801
▁start	-8.47936
▁management	-8.4797
▁environment	-8.47998
▁ask	-8.48641
▁range	-8.49346
▁individual	-8.49407
▁away	-8.49689
▁towards	-8.49689
▁family	-8.49862
▁welcome	-8.49922
▁once	-8.50043
D	-8.50195
▁institutions	-8.50683
▁product	-8.51018
B	-8.51057
▁Madam	-8.51079
▁price	-8.5113
▁found	-8.51161
▁increase	-8.51763
▁money	-8.51804
▁US	-8.52157
▁things	-8.52166
▁until	-8.52187
▁excellent	-8.52228
▁growth	-8.52254
▁software	-8.52348
▁short	-8.52349
▁forward	-8.52452
▁food	-8.52785
▁Treaty	-8.52928
l	-8.52937
C	-8.53139
▁location	-8.53177
▁him	-8.53225
▁personal	-8.53528
▁little	-8.53579
▁customers	-8.54047
▁call	-8.5425
▁&	-8.54347
▁opportunity	-8.54354
▁un	-8.54437
▁rather	-8.55001
▁aid	-8.5508
▁staff	-8.55266
▁activities	-8.55432
▁line	-8.55495
▁air	-8.55855
▁agree	-8.55968
▁private	-8.56296
▁period	-8.56399
▁home	-8.56439
▁approach	-8.56511
▁days	-8.56555
▁resources	-8.56748
k	-8.56897
▁interest	-8.57541
▁framework	-8.58031
▁provided	-8.58211
▁quite	-8.58247
▁behalf	-8.58333
▁20	-8.58438
▁include	-8.58571
▁fully	-8.58795
▁list	-8.59106
ll	-8.59201
▁progress	-8.59397
▁field	-8.5982
▁yet	-8.5982
▁might	-8.59861
▁ladies	-8.59985
▁off	-8.60282
▁State	-8.60413
▁technology	-8.60589
▁la	-8.60623
▁having	-8.60648
▁economy	-8.60741
de	-8.6082
▁solution	-8.60994
▁among	-8.61229
▁amendments	-8.61306
▁T	-8.61447
▁value	-8.61679
▁favour	-8.61719
▁15	-8.61745
▁reason	-8.61781
▁18	-8.62099
▁members	-8.62224
▁allow	-8.62417
▁safety	-8.62451
▁G	-8.62462
▁play	-8.62523
▁left	-8.62632
▁above	-8.62837
▁D	-8.62909
▁adopted	-8.62935
▁proposals	-8.6294
▁en	-8.63221
▁costs	-8.63419
▁China	-8.63425
▁opinion	-8.6355
▁town	-8.63677
▁taking	-8.63678
▁After	-8.63925
on	-8.64036
▁Members	-8.64435
▁6	-8.64514
able	-8.64528
▁enjoy	-8.64671
▁legislation	-8.64688
▁key	-8.64924
▁design	-8.65229
▁addition	-8.6562
▁sea	-8.65721
▁application	-8.65853
▁[[	-8.66015
▁called	-8.66244
▁policies	-8.66633
ा	-8.66687
▁difficult	-8.66728
▁content	-8.66869
the	-8.67218
▁website	-8.67415
▁attention	-8.67551
▁due	-8.67578
▁M	-8.67601
▁show	-8.67756
▁contact	-8.67784
h	-8.67869
▁concerned	-8.67901
▁responsibility	-8.68208
▁easy	-8.68232
▁simply	-8.68709
▁projects	-8.68883
▁results	-8.68976
▁P	-8.6913
▁building	-8.69163
▁minutes	-8.69237
▁importance	-8.69526
▁effective	-8.70239
▁text	-8.70359
▁provides	-8.70407
▁she	-8.70419
▁society	-8.70435
▁points	-8.70767
▁principle	-8.70772
▁complete	-8.70787
▁makes	-8.70856
▁greater	-8.71072
▁One	-8.71198
▁strategy	-8.71198
▁car	-8.71516
▁environmental	-8.71536
▁known	-8.717
▁groups	-8.72027
▁beautiful	-8.7273
▁questions	-8.72776
▁O	-8.7288
▁others	-8.73044
▁training	-8.73285
u	-8.73312
▁version	-8.73376
▁heart	-8.73657
▁natural	-8.73733
▁achieve	-8.74016
▁standards	-8.74046
क	-8.74149
▁times	-8.74381
▁World	-8.74871
▁along	-8.74881
▁past	-8.7489
▁words	-8.75021
st	-8.75115
▁kind	-8.75173
▁required	-8.75194
▁meeting	-8.75278
▁authorities	-8.75382
▁12	-8.7551
▁recent	-8.75555
▁clearly	-8.75654
▁deal	-8.75789
▁Internet	-8.76313
▁step	-8.76341
▁8	-8.76594
▁essential	-8.76994
▁risk	-8.77046
▁light	-8.77063
▁m	-8.77115
z	-8.77526
▁bring	-8.77664
an	-8.77754
▁side	-8.77826
▁technical	-8.77936
▁address	-8.78166
▁7	-8.78303
▁serious	-8.78708
▁internal	-8.78769
▁longer	-8.78856
▁employment	-8.79022
▁feel	-8.79094
▁four	-8.79191
▁proposed	-8.79349
▁|	-8.79592
▁directly	-8.79599
▁responsible	-8.7962
▁months	-8.79795
▁cost	-8.79975
▁nature	-8.80167
▁person	-8.80326
▁visit	-8.80398
▁user	-8.80533
▁/	-8.80607
▁K	-8.80703
▁F	-8.80743
▁An	-8.8087
le	-8.80897
▁currently	-8.8097
▁cultural	-8.81085
▁history	-8.81105
▁requirements	-8.81314
▁interests	-8.81369
▁pages	-8.81539
▁enough	-8.81613
▁central	-8.81692
▁themselves	-8.81701
▁solutions	-8.81721
▁competition	-8.81829
▁involved	-8.81973
▁peace	-8.82009
▁implementation	-8.82097
▁parties	-8.82251
▁freedom	-8.82459
▁New	-8.82505
▁network	-8.82687
▁young	-8.82689
x	-8.8308
▁war	-8.83145
▁democracy	-8.83161
▁voted	-8.83333
▁regions	-8.83349
▁events	-8.83503
▁sure	-8.83584
▁ago	-8.83937
▁guests	-8.84075
▁near	-8.84108
▁V	-8.8414
▁efforts	-8.84394
▁needed	-8.84473
▁century	-8.84475
▁let	-8.84501
▁pay	-8.84694
▁never	-8.84791
▁regulation	-8.84873
▁Please	-8.84946
▁event	-8.84963
▁upon	-8.84963
▁EUR	-8.85063
▁Russia	-8.85122
▁online	-8.85344
▁please	-8.85556
ation	-8.85557
▁keep	-8.85575
b	-8.85808
▁extremely	-8.85855
▁positive	-8.85861
▁developed	-8.86101
▁From	-8.862
The	-8.86308
▁facilities	-8.86398
▁force	-8.86445
▁30	-8.86555
▁fundamental	-8.86886
▁total	-8.87083
▁language	-8.87124
▁negotiations	-8.87171
no	-8.8739
▁top	-8.87447
▁La	-8.87632
▁i	-8.8769
▁capital	-8.8786
▁changes	-8.87989
us	-8.88008
▁live	-8.88175
p	-8.88192
र	-8.88577
▁foreign	-8.88608
▁request	-8.88642
te	-8.88845
▁developing	-8.88868
▁team	-8.89048
▁consider	-8.89072
▁either	-8.89078
▁strong	-8.89129
▁improve	-8.89179
▁effect	-8.89223
▁International	-8.89258
▁education	-8.89788
▁share	-8.90241
▁Presidency	-8.90283
▁created	-8.90331
▁though	-8.90356
▁meet	-8.90521
ch	-8.90599
▁co	-8.90715
▁regional	-8.90786
▁music	-8.90804
▁cases	-8.90863
▁success	-8.90884
▁comes	-8.90978
▁lot	-8.90979
▁climate	-8.90979
▁additional	-8.90995
▁via	-8.91073
▁according	-8.91274
▁accept	-8.91352
▁breakfast	-8.91468
▁true	-8.9151
▁house	-8.91543
▁views	-8.91621
▁democratic	-8.91638
▁thus	-8.91694
▁markets	-8.91737
▁idea	-8.91912
▁etc	-8.91981
▁states	-8.92008
▁appropriate	-8.92243
▁receive	-8.92269
▁care	-8.92292
▁situated	-8.92346
▁almost	-8.92398
F	-8.92478
▁unique	-8.92544
▁final	-8.92592
▁everything	-8.92663
▁actually	-8.93028
▁prices	-8.93096
▁wide	-8.93117
▁direct	-8.93217
▁French	-8.93255
▁understand	-8.93342
▁lead	-8.93344
▁standard	-8.93431
▁seen	-8.93551
▁living	-8.93586
▁type	-8.93644
▁procedure	-8.93771
up	-8.93783
▁soon	-8.93904
▁later	-8.94005
▁plan	-8.94133
G	-8.94329
]]	-8.94517
▁reform	-8.94582
▁funds	-8.94607
▁program	-8.94686
▁included	-8.94711
3	-8.94723
▁held	-8.94782
▁France	-8.94961
▁night	-8.95049
E	-8.954
▁beach	-8.95755
▁restaurant	-8.95781
ar	-8.95852
▁workers	-8.95903
▁outside	-8.96011
▁file	-8.96016
▁L	-8.96092
▁thing	-8.9612
▁majority	-8.96287
▁d	-8.96318
▁knowledge	-8.96349
f	-8.96438
▁add	-8.9644
▁bar	-8.96521
▁art	-8.96554
▁rate	-8.96685
▁guarantee	-8.96781
▁sub	-8.96786
▁communication	-8.9701
▁road	-8.97078
ity	-8.97134
▁turn	-8.97318
▁investment	-8.97584
ve	-8.97659
▁reach	-8.97665
▁context	-8.97686
▁ideal	-8.97715
▁customer	-8.97753
▁station	-8.97957
▁tax	-8.98014
▁space	-8.98176
▁throughout	-8.98204
▁run	-8.98234
▁designed	-8.98326
P	-8.98467
▁‘	-8.98548
▁five	-8.9857
▁famous	-8.98579
▁Re	-8.98597
▁By	-8.98649
▁low	-8.98968
े	-8.98992
▁comfortable	-8.99234
▁certainly	-8.99379
▁features	-8.99461
▁week	-8.99468
▁early	-8.99738
▁hard	-8.99825
▁My	-9.00294
▁across	-9.00322
▁date	-9.00346
▁doing	-9.00716
man	-9.0072
▁impact	-9.0085
▁moment	-9.00856
▁looking	-9.0087
▁model	-9.00951
▁check	-9.01285
▁relations	-9.01293
▁existing	-9.01398
▁Turkey	-9.01427
▁writing	-9.01528
▁traditional	-9.0169
ness	-9.01725
▁hours	-9.01863
▁ever	-9.0211
▁concerns	-9.02139
▁connection	-9.02305
▁significant	-9.02526
▁took	-9.02617
▁America	-9.02664
▁Government	-9.02905
▁mentioned	-9.03065
▁concerning	-9.03068
▁users	-9.03136
ist	-9.03154
▁apply	-9.03332
▁big	-9.03426
▁basic	-9.03439
▁How	-9.03446
▁web	-9.03657
▁2009	-9.03842
T	-9.03885
▁population	-9.03923
▁member	-9.03949
▁programmes	-9.04092
▁committee	-9.04108
▁try	-9.04118
▁media	-9.0418
▁professional	-9.04186
▁km	-9.04215
▁remain	-9.04294
▁aware	-9.04556
▁military	-9.04609
▁leading	-9.04699
▁amount	-9.04729
▁completely	-9.04775
it	-9.04879
▁develop	-9.04879
K	-9.04997
▁American	-9.05015
ic	-9.05087
▁although	-9.05092
term	-9.05102
▁benefit	-9.0511
▁p	-9.05156
▁related	-9.05169
▁practice	-9.05346
▁reasons	-9.05378
▁community	-9.05389
▁U	-9.05448
_	-9.05498
▁nothing	-9.05533
▁perfect	-9.05564
▁read	-9.05614
▁material	-9.05621
▁built	-9.05642
▁game	-9.0572
▁culture	-9.05834
▁decisions	-9.05903
▁Court	-9.06086
▁di	-9.06142
na	-9.06152
▁parts	-9.06185
▁May	-9.06443
I	-9.06623
▁original	-9.06849
▁takes	-9.06859
ne	-9.06901
▁walk	-9.07
▁holiday	-9.07015
▁9	-9.07057
▁term	-9.07165
▁Since	-9.07502
▁fight	-9.07693
▁send	-9.07816
▁16	-9.07908
▁body	-9.07936
▁move	-9.08027
▁equipment	-9.08028
▁pool	-9.08276
▁objectives	-9.08313
▁euro	-9.08424
▁concern	-9.08464
▁demand	-9.08536
▁established	-9.08729
▁Let	-9.08787
▁choice	-9.08962
▁received	-9.09032
▁jobs	-9.09076
▁agreements	-9.09219
▁works	-9.0924
▁package	-9.09254
▁objective	-9.09259
▁17	-9.09422
▁performance	-9.09431
▁aim	-9.09443
▁allows	-9.09448
▁book	-9.09496
▁Do	-9.09538
▁sense	-9.09596
▁includes	-9.09647
▁partners	-9.09869
▁values	-9.09936
▁entire	-9.09994
▁Lisbon	-9.10097
1	-9.10277
▁agricultural	-9.10292
▁regarding	-9.10389
▁R	-9.10477
▁pre	-9.10512
▁N	-9.10721
▁face	-9.10869
▁mind	-9.10884
▁image	-9.11219
▁Here	-9.1122
▁quickly	-9.11293
▁South	-9.11374
4	-9.11407
as	-9.11568
▁half	-9.11633
▁TV	-9.1172
▁prevent	-9.11772
▁act	-9.11929
▁potential	-9.12034
▁dialogue	-9.12071
▁beginning	-9.12087
▁initiative	-9.12283
▁Affairs	-9.12363
▁self	-9.1238
▁treatment	-9.12433
▁return	-9.12467
▁simple	-9.12611
▁applications	-9.12819
▁party	-9.12947
▁function	-9.13023
▁achieved	-9.13074
▁mean	-9.13213
▁focus	-9.13292
▁W	-9.13367
(	-9.13377
▁below	-9.13437
▁computer	-9.13478
▁indeed	-9.13575
▁English	-9.13616
and	-9.13664
O	-9.1386
▁guest	-9.13993
▁seems	-9.14073
▁job	-9.14491
▁center	-9.14765
▁answer	-9.14878
▁recently	-9.14894
▁contains	-9.14906
▁Finally	-9.14991
▁St	-9.15023
at	-9.15174
▁choose	-9.1522
्	-9.15323
▁lack	-9.15504
ism	-9.15532
▁successful	-9.15719
ia	-9.15762
▁follow	-9.15795
▁11	-9.15974
▁stop	-9.16132
▁integration	-9.16184
▁14	-9.16255
is	-9.16347
▁card	-9.16394
▁highly	-9.16439
▁keyword	-9.16455
▁internet	-9.1649
▁fair	-9.16736
▁increased	-9.1675
▁everyone	-9.16933
M	-9.1696
▁front	-9.17039
▁presented	-9.17069
▁series	-9.17118
▁whose	-9.17175
▁stage	-9.17218
▁huge	-9.17237
▁carried	-9.1734
▁amendment	-9.17424
▁June	-9.17495
▁goods	-9.1752
▁governments	-9.17544
▁joint	-9.17612
▁H	-9.17614
▁higher	-9.17861
▁commitment	-9.17961
▁promote	-9.18027
▁files	-9.1819
▁active	-9.1824
▁Some	-9.18247
▁agreed	-9.18332
▁consumers	-9.18411
▁creation	-9.18435
H	-9.18446
▁und	-9.18451
▁complex	-9.18689
▁sound	-9.18695
▁equipped	-9.18705
▁man	-9.18932
▁double	-9.19168
▁office	-9.19212
▁exchange	-9.19337
▁25	-9.1967
▁perhaps	-9.19814
▁principles	-9.19829
▁direction	-9.20099
▁:	-9.20112
▁Therefore	-9.20214
▁nuclear	-9.20227
▁enable	-9.20293
▁levels	-9.20338
▁Article	-9.20393
▁reviews	-9.20498
▁East	-9.20609
▁men	-9.20682
▁oil	-9.2091
▁asked	-9.21042
▁travel	-9.21063
▁shown	-9.21102
ion	-9.21111
▁came	-9.21454
▁Berlin	-9.21554
▁50	-9.21693
▁aspects	-9.21721
▁rest	-9.21754
▁reports	-9.21836
▁reduce	-9.21945
▁opportunities	-9.21976
ra	-9.22274
▁rates	-9.22287
▁possibility	-9.22315
▁pressure	-9.22413
ि	-9.22489
▁response	-9.22606
▁friendly	-9.22658
▁Now	-9.2274
▁speak	-9.22757
▁shows	-9.22793
▁De	-9.23063
▁matters	-9.2307
▁latest	-9.23108
▁behind	-9.23133
W	-9.23295
▁considered	-9.23351
▁external	-9.23381
▁previous	-9.23438
▁reached	-9.23493
▁added	-9.23524
▁setting	-9.23737
ta	-9.23742
▁effects	-9.23809
▁enlargement	-9.24125
▁providing	-9.24261
▁test	-9.24293
▁floor	-9.24338
▁industrial	-9.24493
▁prepared	-9.24547
▁land	-9.24621
▁combat	-9.24689
▁Spain	-9.24727
▁thanks	-9.24734
▁sustainable	-9.2475
N	-9.25008
▁protect	-9.25017
▁popular	-9.25049
▁commercial	-9.25126
▁capacity	-9.25234
▁decided	-9.25273
▁civil	-9.25326
▁)	-9.25349
▁summer	-9.25374
▁easily	-9.25427
▁materials	-9.25529
▁note	-9.25565
▁billion	-9.25568
▁increasing	-9.25624
▁Bank	-9.25669
▁cause	-9.25686
▁search	-9.25777
▁balance	-9.25791
▁atmosphere	-9.25909
▁post	-9.25916
▁submitted	-9.25927
▁Central	-9.26217
▁table	-9.2622
v	-9.26286
▁video	-9.26349
▁Convention	-9.26525
▁Le	-9.26525
▁Of	-9.26575
▁coming	-9.26586
▁supply	-9.26636
▁don	-9.26651
▁accommodation	-9.26675
▁leave	-9.26827
▁consumer	-9.27006
▁priority	-9.27177
▁remains	-9.27252
▁Italy	-9.27417
▁style	-9.27656
▁movement	-9.2766
®	-9.2781
ro	-9.27815
▁funding	-9.28
▁24	-9.28046
स	-9.28269
▁details	-9.2844
▁December	-9.2855
▁100	-9.28612
▁rule	-9.28635
▁property	-9.28644
▁island	-9.28763
".	-9.28868
ment	-9.28936
▁Africa	-9.29027
▁September	-9.29031
▁similar	-9.29048
▁assistance	-9.29105
▁closed	-9.29204
▁Dur	-9.29326
▁age	-9.29327
▁actions	-9.29451
▁UN	-9.29548
▁March	-9.29561
▁Bar	-9.29605
▁limited	-9.29639
co	-9.2965
el	-9.29695
▁former	-9.29812
▁purpose	-9.29952
▁independent	-9.30192
w	-9.30249
▁brought	-9.30285
▁code	-9.30413
▁cross	-9.3044
▁charge	-9.30648
▁document	-9.30665
▁size	-9.30734
▁supported	-9.30781
▁Italian	-9.30986
▁creating	-9.31029
▁credit	-9.31185
▁construction	-9.31196
▁discussion	-9.31321
▁gives	-9.3137
▁Republic	-9.3205
▁First	-9.32101
▁b	-9.32113
▁relevant	-9.32145
▁regulations	-9.32154
▁message	-9.3216
▁pleased	-9.32177
▁clean	-9.32288
▁became	-9.32595
|	-9.32663
▁13	-9.32745
▁produced	-9.32884
ca	-9.32987
▁stability	-9.33051
▁largest	-9.33091
▁sites	-9.33104
▁bus	-9.33252
▁January	-9.33336
▁forms	-9.33389
▁conference	-9.334
▁nice	-9.33474
▁six	-9.33528
▁instead	-9.3353
▁item	-9.33533
▁variety	-9.33597
▁produce	-9.33854
▁relation	-9.33891
▁draft	-9.33894
▁anti	-9.34025
▁con	-9.34255
▁school	-9.34406
▁compromise	-9.34449
▁concept	-9.34451
▁effort	-9.34513
▁source	-9.34534
▁task	-9.34552
▁tell	-9.34554
▁contribution	-9.34751
▁Euro	-9.34844
ary	-9.35037
5	-9.35108
▁damage	-9.35123
▁activity	-9.35178
▁fishing	-9.35233
न	-9.35264
▁allowed	-9.35278
▁Minister	-9.35348
▁interesting	-9.35365
▁der	-9.35378
▁British	-9.35394
▁medium	-9.35546
▁ten	-9.35579
▁safe	-9.3558
▁partner	-9.35596
▁started	-9.35706
▁October	-9.35729
V	-9.35732
▁study	-9.35797
▁Today	-9.35907
▁press	-9.35997
▁places	-9.36085
▁National	-9.36131
▁status	-9.36164
▁avoid	-9.36234
▁2010	-9.36316
▁labour	-9.36405
▁distribution	-9.36488
▁San	-9.36604
la	-9.36637
▁procedures	-9.36786
▁tool	-9.36846
▁North	-9.37004
▁regards	-9.37006
land	-9.37018
▁wine	-9.37054
▁hotels	-9.3709
▁provisions	-9.37121
▁statement	-9.37133
R	-9.37278
▁equal	-9.37362
DE	-9.37525
▁agenda	-9.37593
▁criteria	-9.37611
▁2008	-9.37695
▁ourselves	-9.37777
▁word	-9.38006
▁steps	-9.38037
▁violence	-9.3804
▁express	-9.38054
▁c	-9.38077
▁click	-9.38113
▁instruments	-9.38132
▁giving	-9.38137
▁require	-9.38389
▁extra	-9.38444
▁structure	-9.38536
▁Service	-9.38581
▁nor	-9.38607
▁option	-9.3874
▁written	-9.38784
▁19	-9.38785
▁J	-9.38948
▁apartment	-9.39004
▁village	-9.39284
▁finally	-9.39351
▁reading	-9.39395
▁link	-9.39588
▁ground	-9.39697
▁airport	-9.39879
▁Spanish	-9.40066
▁historical	-9.40126
▁draw	-9.40272
os	-9.404
▁benefits	-9.40434
▁documents	-9.40451
▁del	-9.40459
L	-9.40598
▁stand	-9.40601
▁Rights	-9.40611
ं	-9.40628
▁[	-9.40803
▁transparency	-9.40847
▁efficient	-9.41051
▁die	-9.41052
▁build	-9.41055
▁Many	-9.41264
▁restaurants	-9.41331
▁immediately	-9.41349
▁July	-9.41469
j	-9.41494
▁highest	-9.41617
▁distance	-9.4164
▁base	-9.41641
▁section	-9.41754
X	-9.41868
▁death	-9.41917
da	-9.41961
▁employees	-9.41979
mail	-9.42012
▁conflict	-9.42072
▁integrated	-9.42223
▁gas	-9.42224
▁elements	-9.42287
▁Be	-9.42377
▁numerous	-9.42457
▁Although	-9.42496
▁applied	-9.42563
▁operation	-9.42594
▁reality	-9.42639
▁review	-9.42665
▁Furthermore	-9.42786
▁elections	-9.42827
▁drive	-9.42922
▁payment	-9.42923
▁consequences	-9.43095
▁challenges	-9.43127
▁poverty	-9.43203
▁types	-9.43343
▁processes	-9.43437
▁Directive	-9.43438
▁solidarity	-9.43458
ce	-9.43499
▁led	-9.43503
▁digital	-9.43656
▁talk	-9.43726
▁saying	-9.43737
▁download	-9.43798
▁quiet	-9.43826
▁legislative	-9.43872
▁Party	-9.4398
▁film	-9.44087
do	-9.44155
▁beyond	-9.4423
▁transfer	-9.44302
▁November	-9.44422
▁21	-9.44424
▁waste	-9.44512
▁board	-9.44537
▁analysis	-9.44639
me	-9.4469
▁daily	-9.44783
▁enter	-9.44784
▁ways	-9.44862
▁official	-9.44987
▁carry	-9.4542
▁colleagues	-9.45559
▁reference	-9.45692
▁offering	-9.45703
▁practical	-9.45734
▁useful	-9.45822
▁congratulate	-9.45904
त	-9.45946
▁expect	-9.46087
▁tools	-9.46096
▁Development	-9.46098
▁goes	-9.4629
▁mountain	-9.46295
▁bed	-9.46438
▁Mediterranean	-9.46519
▁friends	-9.46522
▁paid	-9.46565
▁late	-9.46661
▁X	-9.46875
rs	-9.47025
ry	-9.47071
▁Your	-9.47099
▁mobile	-9.47104
▁speed	-9.47281
▁requires	-9.47311
▁crucial	-9.47355
▁tomorrow	-9.47488
▁park	-9.47519
▁offered	-9.47591
▁Park	-9.47724
▁instrument	-9.47786
▁implement	-9.47903
▁implemented	-9.47926
▁learn	-9.48005
▁happy	-9.48018
▁000	-9.48039
▁Amendment	-9.48072
▁Windows	-9.48132
▁Even	-9.48169
▁organisations	-9.48231
▁forces	-9.48266
▁persons	-9.48285
▁reduction	-9.48377
▁begin	-9.48387
▁relating	-9.48417
▁minimum	-9.48431
▁apartments	-9.48475
ten	-9.48597
▁ideas	-9.48754
based	-9.48759
ka	-9.48768
ant	-9.48886
▁machine	-9.48891
▁April	-9.48896
▁sent	-9.48972
▁growing	-9.48975
ma	-9.49015
ी	-9.49024
▁head	-9.49109
▁monitoring	-9.49264
▁comprehensive	-9.49375
▁caused	-9.494
▁challenge	-9.49601
be	-9.49602
▁efficiency	-9.49605
▁adopt	-9.49671
▁method	-9.49725
▁published	-9.49736
▁starting	-9.4982
▁establish	-9.4986
▁operating	-9.49931
▁historic	-9.49964
▁thought	-9.49975
▁Web	-9.49985
▁accordance	-9.50134
▁train	-9.50191
ir	-9.50257
▁weeks	-9.50276
ge	-9.50317
am	-9.50366
▁links	-9.50551
Office	-9.50552
▁While	-9.50572
▁mention	-9.50655
▁Israel	-9.50752
▁extent	-9.50785
▁sales	-9.50816
per	-9.50946
▁pass	-9.51048
]	-9.51255
▁poor	-9.51308
▁lower	-9.51342
▁maximum	-9.51365
▁rich	-9.5144
é	-9.51561
▁lives	-9.51631
▁morning	-9.51668
▁child	-9.51685
▁technologies	-9.5169
▁sometimes	-9.51696
▁terrorism	-9.51716
▁server	-9.51799
▁selection	-9.51919
▁clients	-9.51921
ह	-9.5205
▁Fund	-9.52097
▁secure	-9.52189
▁farmers	-9.52223
▁doubt	-9.52314
▁ready	-9.52316
▁anything	-9.52328
",	-9.52443
▁voting	-9.52485
▁Western	-9.52574
▁lines	-9.52714
▁worldwide	-9.52747
▁probably	-9.52936
▁advantage	-9.52995
▁chance	-9.53072
Y	-9.5331
▁influence	-9.53469
▁vital	-9.53549
▁scientific	-9.5356
▁innovative	-9.53625
▁options	-9.53755
▁parking	-9.53777
▁Z	-9.53893
▁interested	-9.53926
▁2007	-9.53947
ner	-9.53973
▁cut	-9.53979
▁garden	-9.54002
▁round	-9.54007
▁players	-9.541
▁fine	-9.54116
▁methods	-9.542
▁businesses	-9.54376
▁got	-9.54377
▁Thank	-9.54408
▁multi	-9.54538
▁release	-9.54615
et	-9.5466
▁War	-9.54696
▁y	-9.54765
&	-9.5478
▁despite	-9.55028
▁accepted	-9.55232
▁green	-9.55356
▁%	-9.55361
▁Co	-9.55409
▁hold	-9.55496
▁contract	-9.55642
▁leaders	-9.55798
▁bathroom	-9.55814
▁raised	-9.55847
age	-9.55917
7	-9.55947
▁o	-9.55961
▁fast	-9.56015
▁bit	-9.56142
▁Moreover	-9.56166
▁shopping	-9.5618
▁photo	-9.56205
▁Chinese	-9.56235
▁join	-9.56337
▁2005	-9.56364
▁sectors	-9.56492
▁Austria	-9.56502
▁sports	-9.56553
▁languages	-9.56555
▁West	-9.56576
▁innovation	-9.56613
▁street	-9.56621
▁Paris	-9.56623
▁swimming	-9.56688
ke	-9.5671
▁genuine	-9.5673
▁lost	-9.56777
▁trying	-9.57039
ling	-9.57044
▁Ireland	-9.57065
▁2000	-9.57117
▁visitors	-9.57129
▁Conference	-9.57199
▁wanted	-9.57213
▁absolutely	-9.57288
un	-9.57332
▁comfort	-9.57362
▁strategic	-9.57382
▁maintain	-9.57396
▁border	-9.57484
▁Secondly	-9.57511
▁namely	-9.57551
▁She	-9.57622
▁correct	-9.57779
▁relationship	-9.57987
▁email	-9.58208
▁borders	-9.58214
▁annual	-9.58352
▁0	-9.58366
▁accession	-9.58442
▁overall	-9.58638
▁demands	-9.58745
▁alternative	-9.58808
▁powers	-9.58934
▁40	-9.58952
▁illegal	-9.59048
ni	-9.59051
▁Russian	-9.59096
less	-9.59275
▁representatives	-9.59307
▁banks	-9.59338
▁class	-9.59439
star	-9.59485
8	-9.59553
▁se	-9.5967
time	-9.59684
▁regime	-9.59731
▁changed	-9.59745
▁More	-9.59816
▁expressed	-9.59863
li	-9.59928
▁intended	-9.6001
▁target	-9.60196
▁goal	-9.60287
▁opening	-9.60392
▁images	-9.60438
▁committed	-9.60442
▁cover	-9.60608
▁City	-9.60612
▁yourself	-9.60808
▁games	-9.60872
▁heard	-9.6091
▁initiatives	-9.6091
▁met	-9.61057
▁El	-9.61109
▁month	-9.61169
▁stress	-9.6118
▁processing	-9.61182
▁proper	-9.61212
ur	-9.61252
▁Centre	-9.61297
▁Al	-9.61335
▁structural	-9.61364
▁Sea	-9.61367
▁cities	-9.61399
▁menu	-9.61414
der	-9.61537
▁23	-9.61547
▁fields	-9.61582
▁ability	-9.61601
▁Public	-9.61631
ter	-9.61646
▁l	-9.61858
▁worked	-9.61969
▁alone	-9.62024
▁terrace	-9.62056
▁conclusion	-9.6206
▁increasingly	-9.62095
▁talking	-9.62245
▁cohesion	-9.62263
▁fun	-9.6227
▁decide	-9.62415
▁separate	-9.62451
▁player	-9.6262
▁currency	-9.62655
▁mainly	-9.62674
▁rise	-9.62677
▁fish	-9.62683
▁calls	-9.6278
▁traffic	-9.62784
▁justice	-9.62827
▁path	-9.6292
▁Only	-9.63026
▁love	-9.6303
▁Room	-9.63033
▁approved	-9.63186
▁tourist	-9.63192
▁Or	-9.63212
▁plans	-9.6329
▁infrastructure	-9.63299
▁People	-9.63307
▁improved	-9.63311
▁reforms	-9.63351
▁whom	-9.63473
▁families	-9.63541
▁planning	-9.6356
▁feature	-9.63569
▁running	-9.63579
▁Can	-9.63633
▁circumstances	-9.63671
▁sign	-9.63731
▁administration	-9.63752
▁affected	-9.63776
▁University	-9.63869
▁contribute	-9.63891
▁London	-9.63903
▁phone	-9.64012
▁placed	-9.64076
▁evening	-9.64225
ian	-9.64283
▁II	-9.64327
▁unemployment	-9.6444
▁Iraq	-9.64539
▁Indeed	-9.64549
out	-9.6456
▁fall	-9.64583
▁police	-9.64633
▁reduced	-9.64651
▁priorities	-9.64672
▁confidence	-9.64737
▁began	-9.64759
▁walking	-9.64764
▁Pro	-9.64936
▁des	-9.64942
▁encourage	-9.64981
▁GmbH	-9.65252
▁manner	-9.65297
▁scope	-9.65308
▁automatically	-9.65325
▁ski	-9.6533
▁south	-9.6545
▁collection	-9.65482
▁comments	-9.65508
▁exist	-9.65583
▁powerful	-9.65654
▁suitable	-9.65656
▁sitting	-9.65689
lo	-9.65695
▁participation	-9.65823
▁delivery	-9.65847
▁ensuring	-9.65859
ty	-9.65868
▁crime	-9.65891
of	-9.65893
▁Nations	-9.65934
se	-9.66033
▁emissions	-9.66059
▁electronic	-9.66136
▁fellow	-9.66271
▁General	-9.66353
▁August	-9.6638
▁que	-9.66621
▁students	-9.6668
▁victims	-9.66752
▁wrong	-9.66791
6	-9.66938
▁specifically	-9.67104
▁white	-9.67156
▁broad	-9.67185
ized	-9.67272
▁appear	-9.67301
▁extensive	-9.67323
ive	-9.67419
▁competitive	-9.67533
est	-9.67544
▁tabled	-9.67634
▁Japan	-9.67673
▁limit	-9.67674
▁sun	-9.67787
▁agriculture	-9.67817
▁played	-9.67972
▁else	-9.68023
▁God	-9.68028
ization	-9.68188
▁introduced	-9.68309
▁UK	-9.68385
▁effectively	-9.68447
म	-9.68492
called	-9.68522
▁aimed	-9.68559
▁discuss	-9.68591
ो	-9.68605
▁port	-9.6861
▁motion	-9.68684
▁His	-9.68733
▁Free	-9.68763
▁helpful	-9.68843
▁larger	-9.68857
▁spend	-9.68881
▁22	-9.68946
▁record	-9.69065
▁partnership	-9.69221
▁bank	-9.69246
▁detailed	-9.69251
▁serve	-9.69256
▁referred	-9.69266
one	-9.6932
▁installation	-9.69345
▁news	-9.69473
▁plant	-9.69562
line	-9.69655
▁usually	-9.69697
▁Security	-9.6972
▁precisely	-9.69831
▁Each	-9.69906
▁becoming	-9.70108
▁represent	-9.70111
▁Just	-9.70123
nd	-9.70304
▁purposes	-9.70342
▁animals	-9.70475
▁Not	-9.70504
▁budgetary	-9.70591
▁Agreement	-9.70629
▁India	-9.70683
▁rural	-9.70684
isation	-9.70829
▁exactly	-9.70866
▁measure	-9.7092
▁served	-9.70922
▁sources	-9.70924
▁protected	-9.70925
il	-9.7099
▁telephone	-9.71005
▁kitchen	-9.71072
▁stated	-9.71093
▁regular	-9.71117
▁discussed	-9.71127
▁likely	-9.7117
▁getting	-9.71267
▁assessment	-9.71343
▁won	-9.71468
▁camera	-9.71638
▁du	-9.71759
▁client	-9.71774
▁represents	-9.71803
▁risks	-9.71817
▁otherwise	-9.71866
▁Also	-9.71953
▁lies	-9.71991
▁select	-9.72024
▁€	-9.72099
▁strengthen	-9.72242
▁introduction	-9.7242
ise	-9.72463
▁Asia	-9.72562
▁administrative	-9.726
▁hear	-9.72625
▁critical	-9.72641
categories	-9.72716
▁functions	-9.72757
▁managed	-9.72819
▁introduce	-9.72831
▁thousands	-9.72883
▁refer	-9.72887
▁loss	-9.72965
▁buy	-9.73082
▁earlier	-9.73095
▁Middle	-9.73109
▁Mar	-9.73133
▁laws	-9.73143
▁medical	-9.73161
▁remember	-9.73165
▁followed	-9.73175
▁happen	-9.73177
▁save	-9.73264
▁Dr	-9.733
▁guidelines	-9.73317
▁closely	-9.73395
▁covered	-9.73597
▁discussions	-9.73601
▁warm	-9.73654
▁provision	-9.73664
▁AG	-9.73722
▁worth	-9.73725
▁fresh	-9.73732
ad	-9.73736
di	-9.73903
▁February	-9.7397
▁entry	-9.74032
▁character	-9.74066
▁wonderful	-9.74093
go	-9.74116
▁enterprises	-9.7423
▁says	-9.74232
▁winter	-9.74345
▁selected	-9.74383
▁season	-9.74399
▁pro	-9.74401
▁debt	-9.74495
▁Policy	-9.74789
▁Con	-9.74807
▁immigration	-9.74856
▁spirit	-9.74921
▁listed	-9.74941
▁improving	-9.74963
▁al	-9.74995
▁degree	-9.75049
▁expected	-9.75176
▁understanding	-9.7521
▁linked	-9.75414
▁speech	-9.75488
▁metres	-9.75492
▁bad	-9.75502
▁actual	-9.7551
▁track	-9.75511
▁institutional	-9.75523
ine	-9.75532
U	-9.75538
▁considerable	-9.75689
▁Why	-9.75738
▁prior	-9.76118
▁Czech	-9.76124
▁programs	-9.76188
▁Economic	-9.76197
▁Greece	-9.76228
▁sufficient	-9.76275
▁2006	-9.76349
▁High	-9.76449
sa	-9.76459
▁Iran	-9.76567
▁inside	-9.76583
▁trust	-9.76591
▁seem	-9.76705
▁el	-9.76847
▁presence	-9.76866
▁27	-9.76868
▁Social	-9.76978
um	-9.76979
▁tour	-9.77025
▁exclusive	-9.77199
▁supporting	-9.77239
▁paper	-9.77281
य	-9.77289
▁Then	-9.77293
▁operations	-9.77316
▁opened	-9.77368
▁Most	-9.77376
▁networks	-9.77401
▁criminal	-9.77433
▁tourism	-9.77439
ak	-9.77439
▁suggest	-9.77452
▁purchase	-9.77543
▁Human	-9.77597
▁normal	-9.77654
▁average	-9.77694
ri	-9.77811
▁inform	-9.77812
▁animal	-9.77857
▁fisheries	-9.77921
▁summit	-9.78246
▁competitiveness	-9.78307
▁domestic	-9.78376
▁coordination	-9.78419
im	-9.78485
ies	-9.78495
▁authority	-9.78524
Z	-9.7857
▁properly	-9.78587
▁components	-9.78603
▁entirely	-9.78603
▁hot	-9.78816
▁presidency	-9.78862
▁dealing	-9.78884
▁200	-9.78898
▁relate	-9.78956
▁gave	-9.78999
▁map	-9.79031
▁duty	-9.79057
▁origin	-9.79134
▁experts	-9.79135
▁founded	-9.79156
▁Barcelona	-9.79187
▁buildings	-9.79258
▁campaign	-9.79336
ton	-9.79416
▁difficulties	-9.79437
▁Switzerland	-9.79473
▁income	-9.79518
▁brand	-9.79716
▁organisation	-9.79846
▁le	-9.79889
▁red	-9.7993
ie	-9.80058
▁typical	-9.80153
▁generally	-9.80163
▁went	-9.80241
▁supports	-9.80276
▁Poland	-9.80412
▁Click	-9.80433
▁consideration	-9.80507
▁north	-9.8062
▁playing	-9.80653
▁marketing	-9.80807
ti	-9.80855
▁Because	-9.80941
ga	-9.81181
den	-9.81217
▁attempt	-9.81302
▁plants	-9.81386
▁Swiss	-9.81446
▁facing	-9.81483
▁Unfortunately	-9.8151
▁detail	-9.81565
▁defence	-9.81581
▁estate	-9.81587
▁picture	-9.81602
▁applies	-9.81624
▁stock	-9.81634
▁developments	-9.81702
▁wants	-9.81754
▁Brussels	-9.81842
▁pleasant	-9.81852
▁items	-9.8196
▁resort	-9.82295
▁vehicles	-9.82347
▁tradition	-9.82384
▁spacious	-9.82428
▁display	-9.82455
▁firm	-9.82501
30	-9.82573
▁thinking	-9.82634
▁modified	-9.82724
mo	-9.82773
▁aspect	-9.82774
▁flexibility	-9.82803
▁forget	-9.8287
▁dis	-9.82897
▁peaceful	-9.82902
▁establishment	-9.82941
▁fund	-9.82953
ci	-9.83095
▁voice	-9.83097
▁evidence	-9.83107
▁failure	-9.83175
▁bodies	-9.8318
▁Airport	-9.83269
▁Car	-9.83271
▁speaking	-9.83434
▁com	-9.83462
▁fixed	-9.83476
▁Po	-9.83563
▁machines	-9.83603
▁district	-9.83613
men	-9.8371
▁politics	-9.83825
▁himself	-9.83867
▁threat	-9.83944
▁́	-9.83996
▁Rooms	-9.84033
▁flexible	-9.84055
▁According	-9.84066
making	-9.84068
▁60	-9.84115
▁advanced	-9.84152
by	-9.84206
▁reception	-9.84261
▁sport	-9.84317
▁financing	-9.84349
▁defined	-9.84387
10	-9.84532
▁black	-9.84543
sized	-9.84603
▁promoting	-9.84657
▁parliamentary	-9.84747
▁adoption	-9.84751
gen	-9.84881
▁easier	-9.84892
▁opposition	-9.84937
▁participate	-9.85017
▁cuisine	-9.8504
▁hour	-9.85165
▁myself	-9.85184
▁Once	-9.85343
▁dangerous	-9.854
▁break	-9.85418
▁seriously	-9.85443
▁signed	-9.85515
▁Amsterdam	-9.85517
▁star	-9.85631
▁instance	-9.85749
▁database	-9.85779
▁respond	-9.858
▁informed	-9.8584
▁difference	-9.85863
▁color	-9.85908
▁concrete	-9.85946
▁meetings	-9.85956
▁Kingdom	-9.86007
▁et	-9.86013
▁propose	-9.86082
ated	-9.86092
▁aims	-9.86153
▁obtain	-9.86184
ate	-9.8631
▁practices	-9.86348
▁middle	-9.86381
▁ancient	-9.8639
▁experienced	-9.86419
▁told	-9.86465
▁translation	-9.86538
▁associated	-9.86616
day	-9.86627
va	-9.86669
▁inter	-9.86717
▁York	-9.86845
▁humanitarian	-9.86906
▁monetary	-9.87031
▁combination	-9.87055
▁shops	-9.87065
ung	-9.87069
▁beds	-9.87099
▁hands	-9.87183
▁differences	-9.87203
▁implementing	-9.87207
▁connected	-9.8729
▁television	-9.87299
▁happened	-9.87345
▁element	-9.87427
▁comment	-9.87495
▁reducing	-9.87541
▁Sa	-9.87556
▁relax	-9.87573
▁African	-9.87684
▁fear	-9.87707
year	-9.87713
▁exhibition	-9.8774
▁leader	-9.87761
▁spa	-9.878
▁Firstly	-9.87819
free	-9.87846
▁trip	-9.87891
▁anyone	-9.87917
ver	-9.87978
▁appears	-9.87979
▁carefully	-9.87984
▁studies	-9.88043
▁becomes	-9.88045
▁agencies	-9.88088
▁screen	-9.88091
▁initial	-9.88107
▁Green	-9.88122
he	-9.88154
ally	-9.88247
▁Ver	-9.8825
ex	-9.88255
▁structures	-9.88259
▁attractive	-9.88307
ल	-9.88347
▁arrival	-9.88393
for	-9.88416
▁Go	-9.88447
▁scale	-9.88475
▁article	-9.88519
▁seek	-9.88522
▁producers	-9.88522
▁recognition	-9.88595
▁bear	-9.88765
▁impossible	-9.88792
▁immediate	-9.88827
▁negative	-9.88987
IT	-9.89022
▁economies	-9.89022
00	-9.89129
▁stable	-9.89154
▁improvement	-9.89237
▁remind	-9.89306
▁discrimination	-9.89309
▁Board	-9.89317
▁shower	-9.89338
▁Debian	-9.89394
9	-9.89418
▁Museum	-9.89432
net	-9.89454
▁truly	-9.89473
▁consumption	-9.89563
▁format	-9.89594
▁CD	-9.8968
▁calling	-9.89682
▁described	-9.89709
▁announced	-9.89713
▁spent	-9.89801
í	-9.89838
▁coffee	-9.89857
▁territory	-9.89857
▁statements	-9.89884
▁coast	-9.89918
▁Justice	-9.89937
▁beaches	-9.8994
▁advance	-9.89957
▁desire	-9.90085
▁architecture	-9.90243
▁Research	-9.90262
▁ban	-9.90266
▁membership	-9.9027
▁USA	-9.90279
प	-9.90323
▁Man	-9.90341
▁models	-9.90387
pa	-9.90434
▁raise	-9.90483
▁*	-9.90529
▁shared	-9.90597
▁ahead	-9.90633
▁possibilities	-9.90792
▁wishes	-9.90799
व	-9.9087
▁generation	-9.90887
▁Due	-9.90923
▁unacceptable	-9.9114
▁houses	-9.91349
▁''	-9.91358
European	-9.9139
▁continued	-9.91401
▁availability	-9.91426
▁released	-9.91465
▁Greek	-9.91485
▁Services	-9.91583
J	-9.91635
▁guarantees	-9.91696
▁reasonable	-9.91832
▁weight	-9.91938
▁sort	-9.92229
▁greatest	-9.92283
▁Democrats	-9.92287
▁box	-9.92377
▁IT	-9.92401
▁Every	-9.92446
▁Booking	-9.92496
▁contain	-9.92579
▁deep	-9.92589
▁trading	-9.92602
▁combined	-9.92621
▁elegant	-9.92633
▁figures	-9.9264
▁unfortunately	-9.92744
▁insurance	-9.92749
io	-9.92778
ha	-9.92807
▁strongly	-9.92814
▁religious	-9.92874
▁river	-9.92912
▁surrounding	-9.92984
▁surface	-9.93009
ul	-9.93011
▁charged	-9.93036
▁entitled	-9.93047
▁manage	-9.9312
▁mass	-9.93137
▁allowing	-9.93202
▁positions	-9.93237
▁exercise	-9.93356
▁skills	-9.93493
▁court	-9.93587
▁Ukraine	-9.93594
▁recommend	-9.93595
▁numbers	-9.93635
▁completed	-9.93662
▁unless	-9.9368
▁500	-9.93784
▁Prime	-9.93889
▁recognise	-9.93908
▁Irish	-9.9391
▁perspective	-9.94057
▁signal	-9.94078
art	-9.94139
▁closer	-9.94196
▁mission	-9.94246
0	-9.94256
▁export	-9.9426
▁tasks	-9.94325
▁Turkish	-9.94483
▁counter	-9.94552
▁devices	-9.946
end	-9.94613
con	-9.94653
▁asylum	-9.94656
▁enormous	-9.94845
▁square	-9.94861
▁pictures	-9.94918
▁foot	-9.94933
▁expenditure	-9.9495
▁g	-9.95008
▁beauty	-9.95097
▁born	-9.95127
▁permanent	-9.95143
á	-9.95301
▁gain	-9.95367
▁booking	-9.95567
▁sale	-9.95575
▁1999	-9.95604
▁Regulation	-9.95649
▁button	-9.95728
▁Its	-9.9575
▁registered	-9.95785
▁nearby	-9.95802
▁dedicated	-9.95845
▁enables	-9.95852
▁forced	-9.95879
▁Trade	-9.95909
▁Such	-9.95992
▁spending	-9.96009
In	-9.96029
▁establishing	-9.96075
▁cards	-9.96111
▁unto	-9.96135
▁shop	-9.96298
see	-9.96321
▁Are	-9.96333
rd	-9.96448
▁convinced	-9.9646
▁urgent	-9.96497
▁reliable	-9.96513
▁race	-9.96545
▁failed	-9.96575
▁fire	-9.96586
▁meters	-9.96627
▁Kosovo	-9.96679
▁Nevertheless	-9.96679
▁platform	-9.96706
▁finance	-9.96747
▁Guest	-9.96761
▁advertising	-9.96796
▁object	-9.96837
ous	-9.96843
▁da	-9.96872
▁disease	-9.9688
▁uses	-9.96899
▁union	-9.96905
▁core	-9.9691
▁door	-9.96956
ja	-9.96963
▁Red	-9.96973
▁claims	-9.96982
▁packages	-9.97057
▁railway	-9.97126
▁Business	-9.97142
▁continues	-9.97177
▁totally	-9.97217
▁relaxing	-9.97246
▁granted	-9.97254
▁WTO	-9.97257
▁advice	-9.97279
▁condition	-9.97328
▁institution	-9.97339
▁valid	-9.97367
▁installed	-9.97377
▁Another	-9.97381
▁unit	-9.97384
▁device	-9.97393
▁storage	-9.97396
▁ones	-9.97413
▁fiscal	-9.9752
▁Health	-9.97536
▁deliver	-9.97638
▁discover	-9.97671
▁names	-9.97742
▁Na	-9.97773
▁2004	-9.97775
▁compared	-9.97799
▁attack	-9.97824
▁contrary	-9.97833
▁claim	-9.97844
ek	-9.97861
▁corporate	-9.97866
▁session	-9.97869
ting	-9.97978
▁kept	-9.97999
▁extended	-9.98064
20	-9.98067
▁cars	-9.98084
▁Great	-9.98115
▁PC	-9.98177
▁Art	-9.98183
▁passed	-9.98208
▁science	-9.98226
bar	-9.98248
▁reservation	-9.98249
▁biggest	-9.98288
we	-9.98303
▁unable	-9.98429
▁!	-9.98473
▁candidate	-9.98496
▁outcome	-9.98502
▁bath	-9.98563
▁learning	-9.98623
▁weapons	-9.98841
▁story	-9.98871
▁Lake	-9.989
▁expression	-9.99017
▁conclusions	-9.99034
▁saw	-9.9904
▁drawn	-9.99045
▁Foreign	-9.99066
▁n	-9.99158
▁intervention	-9.99169
▁moving	-9.9917
▁window	-9.99228
▁www	-9.99253
▁election	-9.9928
▁factors	-9.99299
▁Netherlands	-9.99322
▁memory	-9.99361
so	-9.99444
▁stands	-9.99551
▁attractions	-9.99641
▁church	-9.99732
▁neither	-9.99921
▁laid	-9.99974
▁holidays	-10.0004
▁honourable	-10.0009
▁wood	-10.0011
▁Yet	-10.0017
▁tried	-10.002
▁courses	-10.0023
po	-10.0024
▁maintenance	-10.0028
les	-10.003
▁Villa	-10.0031
▁THE	-10.0036
▁Star	-10.0036
▁background	-10.0038
▁definition	-10.0038
▁Constitution	-10.0039
▁chosen	-10.0042
▁300	-10.0043
▁colleague	-10.0043
▁promotion	-10.005
▁achieving	-10.0053
▁ambitious	-10.0056
▁rightly	-10.0064
▁paragraph	-10.0068
▁von	-10.0072
▁Thus	-10.0075
▁Austrian	-10.0079
▁Portugal	-10.0087
▁interface	-10.0094
▁guide	-10.0096
▁transparent	-10.0098
▁sensitive	-10.0101
▁individuals	-10.0103
▁Eastern	-10.0103
▁radio	-10.011
ina	-10.0113
▁pleasure	-10.0113
▁sides	-10.0113
▁votes	-10.0119
▁Vienna	-10.0122
▁perfectly	-10.0127
▁te	-10.0139
▁obligations	-10.0143
▁install	-10.0143
▁Information	-10.0154
▁golf	-10.0155
▁Association	-10.0155
▁route	-10.0156
▁remove	-10.0157
▁elected	-10.016
▁artists	-10.0166
▁vehicle	-10.017
▁f	-10.0178
▁agency	-10.0181
▁obviously	-10.0181
▁continuing	-10.0189
▁constantly	-10.0198
▁t	-10.02
tra	-10.0208
ko	-10.0212
▁buffet	-10.0222
▁commitments	-10.0223
▁System	-10.023
▁equality	-10.0235
▁28	-10.024
▁organised	-10.0246
▁mountains	-10.0249
em	-10.0252
▁extend	-10.0256
▁yesterday	-10.0258
▁organization	-10.0259
▁luxury	-10.026
▁Restaurant	-10.0261
▁Palestinian	-10.0264
▁host	-10.0265
50	-10.027
ba	-10.0282
▁Center	-10.0283
▁outstanding	-10.0287
▁independence	-10.029
▁aircraft	-10.029
▁update	-10.0294
▁Management	-10.0312
▁conduct	-10.0313
▁+	-10.0328
▁fruit	-10.0331
▁engine	-10.0337
▁successfully	-10.034
▁Q	-10.0342
▁meaning	-10.0353
▁limits	-10.0354
▁flight	-10.036
▁monitor	-10.0365
▁rapid	-10.0368
▁registration	-10.037
▁dimension	-10.0374
je	-10.0375
▁author	-10.0395
▁merely	-10.0396
▁Rome	-10.0401
▁Wi	-10.0405
▁Grand	-10.0405
▁factor	-10.0408
▁mechanism	-10.042
▁balanced	-10.0424
▁payments	-10.0425
▁physical	-10.0434
▁urge	-10.0436
▁Any	-10.0438
vo	-10.044
▁asking	-10.0441
▁ship	-10.0441
▁26	-10.0443
▁controls	-10.0446
▁landscape	-10.0449
▁title	-10.0451
▁prepare	-10.0455
▁touch	-10.0455
▁surrounded	-10.0455
▁fuel	-10.0462
ised	-10.0463
▁dynamic	-10.0475
▁Latin	-10.048
▁seven	-10.0481
▁someone	-10.0482
▁Lo	-10.0484
▁obvious	-10.0484
▁species	-10.0485
▁recommendations	-10.0495
▁Club	-10.0497
▁disposal	-10.051
▁goals	-10.0512
▁lake	-10.0523
▁31	-10.0524
ES	-10.0527
▁communities	-10.0528
▁regret	-10.054
▁glass	-10.0546
▁Summit	-10.0555
▁Office	-10.0555
▁targets	-10.0556
▁operate	-10.0557
▁contained	-10.0559
▁prevention	-10.056
▁changing	-10.0562
▁vision	-10.0577
▁conclude	-10.0579
▁skin	-10.0582
▁rail	-10.0585
▁category	-10.0588
▁putting	-10.059
▁emphasis	-10.0593
▁accessible	-10.0594
nt	-10.0604
ance	-10.0606
▁consists	-10.0609
▁approximately	-10.0615
▁spread	-10.0624
ating	-10.0627
▁participants	-10.0632
▁Those	-10.0633
responsibilities	-10.0637
▁Open	-10.064
▁Both	-10.0652
▁substantial	-10.0652
▁explain	-10.0653
▁bringing	-10.0655
▁phase	-10.068
▁Federal	-10.0681
▁planned	-10.0686
bo	-10.069
▁strengthening	-10.0692
ent	-10.0695
▁steel	-10.0698
▁guaranteed	-10.0699
TM	-10.0706
▁decades	-10.0709
▁waiting	-10.0715
▁mid	-10.0716
▁capable	-10.0721
▁pointed	-10.0722
▁Me	-10.0731
▁resulting	-10.0731
▁2003	-10.0734
▁smaller	-10.0737
quality	-10.0745
ck	-10.075
ze	-10.0758
▁representative	-10.0758
▁Agency	-10.076
..."	-10.0768
▁seeking	-10.077
ut	-10.0777
▁minute	-10.0785
▁acts	-10.0787
EC	-10.079
▁acceptable	-10.0794
▁manufacturing	-10.0794
▁association	-10.0805
▁club	-10.0815
▁command	-10.0818
▁write	-10.0826
▁letter	-10.0835
▁recovery	-10.0837
▁identity	-10.0839
FR	-10.0839
▁80	-10.0843
▁contemporary	-10.0855
▁Other	-10.0864
▁contents	-10.0869
▁multiple	-10.087
▁Rules	-10.0877
▁satellite	-10.088
▁delay	-10.0885
▁consensus	-10.0887
▁thereby	-10.0902
▁affect	-10.0907
▁notice	-10.0909
▁nearly	-10.0914
▁Linux	-10.0917
▁Sweden	-10.0921
▁store	-10.0947
▁furnished	-10.0949
▁causes	-10.0951
▁"...	-10.0955
▁zone	-10.0958
▁grounds	-10.0961
▁southern	-10.0967
ster	-10.0968
her	-10.0971
▁Home	-10.0975
▁governance	-10.0976
▁den	-10.0986
led	-10.0997
▁industries	-10.1002
▁truth	-10.1006
▁photos	-10.1009
▁primary	-10.1016
ts	-10.1017
▁liability	-10.102
▁leads	-10.102
▁im	-10.1025
▁discussing	-10.1034
▁addressed	-10.1043
▁sold	-10.1049
''	-10.105
▁adequate	-10.105
▁Located	-10.1056
▁driving	-10.106
▁patients	-10.1062
▁Enjoy	-10.1063
▁Environment	-10.1065
▁primarily	-10.1088
▁attacks	-10.1091
▁nations	-10.1093
border	-10.1096
▁previously	-10.1096
▁Romania	-10.1114
ino	-10.1116
▁burden	-10.1116
▁evaluation	-10.1117
ful	-10.1122
▁van	-10.1127
▁net	-10.1134
▁blue	-10.1137
▁para	-10.1152
sh	-10.1155
▁Over	-10.1161
▁wait	-10.1171
▁win	-10.118
▁eye	-10.1185
▁mutual	-10.1191
▁determined	-10.1208
▁forest	-10.1212
▁urban	-10.1216
ber	-10.1218
▁Chamber	-10.1233
▁brings	-10.124
▁requested	-10.1241
▁shape	-10.1263
▁—	-10.1268
▁renewable	-10.1269
▁dealt	-10.1279
▁mandate	-10.128
▁copy	-10.1284
▁Air	-10.1287
▁x	-10.1289
▁opposite	-10.1289
▁consultation	-10.1291
▁default	-10.1298
▁testing	-10.13
id	-10.1308
▁highlight	-10.1309
▁reply	-10.1324
▁defend	-10.1327
▁leadership	-10.1335
▁diversity	-10.1337
▁situations	-10.1341
▁amongst	-10.1344
▁delivered	-10.1344
▁turned	-10.1347
wa	-10.1356
▁discharge	-10.1364
▁technological	-10.1364
▁plus	-10.1372
▁talks	-10.1383
▁Despite	-10.1388
▁appreciate	-10.1392
▁stone	-10.1393
▁watch	-10.1394
▁29	-10.1394
▁reflect	-10.14
▁named	-10.1407
ities	-10.1412
▁length	-10.1418
▁qualified	-10.1419
▁mechanisms	-10.1426
▁taste	-10.143
▁resolve	-10.1433
▁schools	-10.144
▁binding	-10.1445
son	-10.1447
tic	-10.146
▁attitude	-10.147
▁Dutch	-10.1473
ana	-10.1475
▁existence	-10.1479
mann	-10.1492
▁bars	-10.1495
▁Minutes	-10.1501
▁Thanks	-10.1506
▁Programme	-10.1511
▁competence	-10.1514
▁En	-10.1519
que	-10.1523
▁manufacturers	-10.1527
▁audio	-10.1527
mm	-10.153
▁Take	-10.1539
▁approval	-10.1543
▁Microsoft	-10.1545
▁feeling	-10.1545
▁register	-10.1547
▁obligation	-10.1555
▁Un	-10.1556
▁Market	-10.1557
▁significantly	-10.1559
▁constant	-10.1565
▁strength	-10.1571
▁spaces	-10.1577
▁appeal	-10.1584
▁CO	-10.1585
▁kinds	-10.1587
▁perform	-10.1598
▁sanctions	-10.1606
au	-10.1612
▁intention	-10.162
▁fill	-10.1622
▁k	-10.1623
▁eight	-10.1624
▁Two	-10.1626
▁compensation	-10.1629
▁launched	-10.1638
▁compliance	-10.164
▁rejected	-10.1653
▁flat	-10.1655
▁noise	-10.1662
▁moved	-10.1662
▁presentation	-10.1671
▁Company	-10.1672
▁Under	-10.1674
▁heavy	-10.1676
house	-10.1677
▁consistent	-10.1681
use	-10.1684
▁investments	-10.1686
▁solve	-10.1688
▁residence	-10.1692
▁expertise	-10.1701
▁repeat	-10.1711
▁Before	-10.1716
▁mode	-10.172
▁onto	-10.1725
40	-10.1728
▁improvements	-10.1733
▁Spa	-10.174
▁Software	-10.174
▁Breakfast	-10.1742
mar	-10.1754
▁versions	-10.1755
▁assist	-10.1756
▁treated	-10.1756
ising	-10.1768
+	-10.1769
▁books	-10.1769
ger	-10.1772
▁helping	-10.1775
▁expectations	-10.1778
▁piece	-10.1784
▁expensive	-10.1796
▁print	-10.1797
pe	-10.1798
▁contrast	-10.1799
▁destination	-10.1799
▁valuable	-10.1802
ho	-10.1805
za	-10.1813
▁output	-10.1826
▁extension	-10.1827
▁suffering	-10.1829
tu	-10.1834
▁comply	-10.1834
▁emphasise	-10.1836
▁represented	-10.1839
▁speakers	-10.1844
om	-10.1851
▁wealth	-10.1861
▁drugs	-10.1864
▁relatively	-10.1867
▁Mo	-10.1876
▁quick	-10.1877
▁dishes	-10.1894
▁Use	-10.1895
▁delegation	-10.19
▁wind	-10.1903
▁na	-10.1908
▁refugees	-10.1908
▁prefer	-10.1915
▁latter	-10.1915
ac	-10.1916
▁examples	-10.192
mer	-10.1923
▁convenient	-10.1927
▁figure	-10.1935
▁danger	-10.1939
▁applicable	-10.1947
▁fail	-10.1948
▁Note	-10.1954
▁privacy	-10.1958
▁taxes	-10.1967
▁arms	-10.1967
▁Roman	-10.1967
▁lose	-10.1977
▁charming	-10.1984
▁browser	-10.1987
ize	-10.1996
▁recommended	-10.1996
▁affairs	-10.2001
tro	-10.2002
▁substances	-10.2003
▁furniture	-10.2004
▁Control	-10.2005
▁Lord	-10.201
▁units	-10.2012
▁creative	-10.2013
▁disaster	-10.2014
▁politicians	-10.2016
▁v	-10.2025
▁Paper	-10.2027
off	-10.203
▁entered	-10.2038
▁Very	-10.2042
si	-10.2048
▁operators	-10.2054
▁respective	-10.2056
▁nation	-10.2056
▁older	-10.2059
▁runs	-10.2066
▁keeping	-10.2068
▁streets	-10.2076
▁error	-10.208
▁whatever	-10.2086
▁involving	-10.2088
way	-10.2099
PL	-10.2111
▁Ja	-10.2114
▁See	-10.2119
▁exists	-10.2132
“	-10.2133
▁fraud	-10.2136
▁John	-10.2138
▁Energy	-10.2138
▁intend	-10.2139
▁entertainment	-10.2144
che	-10.2145
▁felt	-10.2146
▁trees	-10.2158
▁whilst	-10.2163
▁arrangements	-10.2166
▁journey	-10.2173
▁personally	-10.2174
▁requests	-10.2174
▁exclusively	-10.218
▁impressive	-10.2182
▁temperature	-10.2182
▁boat	-10.2182
▁accounts	-10.2187
▁sell	-10.2188
ley	-10.2193
▁launch	-10.2198
▁engineering	-10.2199
▁naturally	-10.2201
▁opposed	-10.2208
▁=	-10.2215
▁mail	-10.2226
▁recognised	-10.2227
▁sets	-10.2229
▁advantages	-10.2238
▁objects	-10.2246
ig	-10.2247
▁award	-10.2252
pro	-10.2252
▁determine	-10.2256
▁blood	-10.2268
▁1990	-10.227
▁marked	-10.2274
if	-10.2288
▁happening	-10.2293
▁hit	-10.2298
▁band	-10.2302
▁mobility	-10.2304
▁helped	-10.2316
▁cheap	-10.232
.”	-10.2321
▁cold	-10.2321
▁spring	-10.2322
▁diseases	-10.2326
▁micro	-10.2327
▁happens	-10.2328
▁Afghanistan	-10.2328
▁confirmed	-10.2337
▁Institute	-10.2343
▁meat	-10.2344
▁articles	-10.2344
▁Charter	-10.2346
▁involvement	-10.2349
▁largely	-10.2353
▁firstly	-10.2354
ists	-10.2355
▁Britain	-10.2361
▁classic	-10.2365
▁finding	-10.2366
▁museum	-10.2369
sch	-10.2373
fi	-10.2375
ol	-10.2382
▁Munich	-10.2385
▁rent	-10.2388
▁colour	-10.2393
▁GDP	-10.24
▁faced	-10.2404
known	-10.2404
▁volume	-10.2409
▁experiences	-10.2415
▁sauna	-10.2417
▁Christian	-10.242
▁hair	-10.2425
▁chain	-10.2426
▁obtained	-10.2428
▁tests	-10.2435
▁listen	-10.2436
▁criticism	-10.2441
▁president	-10.2457
▁websites	-10.2464
▁treaty	-10.2465
▁Her	-10.2471
▁Instead	-10.2472
▁discovered	-10.2479
▁DVD	-10.248
▁hostels	-10.249
▁Google	-10.2491
▁soft	-10.2492
▁constructive	-10.2494
▁collective	-10.2498
▁Swedish	-10.2499
▁passengers	-10.25
▁bedrooms	-10.2504
▁protecting	-10.2504
▁flow	-10.2504
▁covers	-10.2511
▁reserve	-10.2512
▁Private	-10.2513
▁exceptional	-10.2525
▁2002	-10.2526
▁extreme	-10.2527
tal	-10.2536
▁familiar	-10.2541
▁occasion	-10.2547
▁outdoor	-10.2552
▁weather	-10.2557
▁equally	-10.2558
▁Frankfurt	-10.2559
ft	-10.2566
▁temporary	-10.2568
▁liberalisation	-10.2574
▁automatic	-10.2582
▁leisure	-10.2587
▁strategies	-10.2587
▁requirement	-10.2589
▁River	-10.259
▁fantastic	-10.2594
Fi	-10.2599
▁„	-10.26
▁Strategy	-10.2603
▁removed	-10.2609
▁mini	-10.261
▁leaving	-10.2612
▁preparation	-10.263
▁Foundation	-10.2631
▁Special	-10.2633
▁Last	-10.2634
▁stations	-10.2636
▁Safety	-10.2656
old	-10.2658
▁vast	-10.2658
ence	-10.2661
▁2001	-10.2665
▁mark	-10.267
▁Will	-10.2671
mp	-10.2672
izing	-10.2674
▁dinner	-10.2674
▁Procedure	-10.2677
▁prove	-10.2678
▁officials	-10.268
▁license	-10.2683
▁restrictions	-10.269
▁mo	-10.2691
ny	-10.2693
▁profit	-10.2715
vi	-10.2719
▁Saint	-10.2723
▁couple	-10.2724
▁serves	-10.273
▁1997	-10.2732
▁w	-10.2732
istic	-10.2736
▁wall	-10.2741
▁awareness	-10.2741
▁except	-10.2742
▁remaining	-10.2743
▁handling	-10.2744
sen	-10.2747
▁fighting	-10.275
▁massive	-10.2756
▁eyes	-10.2757
ज	-10.2758
dy	-10.276
द	-10.2767
▁glad	-10.2767
▁drink	-10.2771
▁Ministers	-10.2774
▁$	-10.2779
▁Welcome	-10.2783
▁submit	-10.2787
ä	-10.28
ite	-10.2804
ship	-10.2807
▁impression	-10.2811
ard	-10.2811
▁healthy	-10.2812
▁Costa	-10.2817
▁recommendation	-10.2817
ler	-10.2819
▁Financial	-10.2822
ted	-10.2823
▁block	-10.2824
▁tours	-10.2825
▁fit	-10.2826
▁organizations	-10.283
▁issued	-10.2832
▁replace	-10.2832
▁password	-10.2834
ó	-10.2837
▁involve	-10.2842
▁offices	-10.2843
▁Where	-10.2855
▁abroad	-10.2856
▁Croatia	-10.2862
▁characteristics	-10.2862
▁Pre	-10.2863
EL	-10.2872
▁Pa	-10.2872
▁identify	-10.2874
25	-10.2876
▁earth	-10.2877
▁patent	-10.288
▁facilitate	-10.2886
▁strict	-10.2889
op	-10.2892
▁dream	-10.2893
▁Bo	-10.2895
▁grow	-10.2896
▁Japanese	-10.2898
▁contributions	-10.2902
▁bedroom	-10.2902
▁Alliance	-10.2909
▁precise	-10.291
▁amounts	-10.2915
▁son	-10.2917
▁Du	-10.2919
▁).	-10.2922
▁contracts	-10.2924
▁motor	-10.2927
▁master	-10.2927
▁Street	-10.2928
▁Ma	-10.2937
▁Li	-10.2945
▁Roma	-10.2947
▁operational	-10.2953
▁depends	-10.2965
▁copyright	-10.2973
▁70	-10.2974
▁Their	-10.2975
▁texts	-10.2976
▁fee	-10.2976
▁solid	-10.2978
▁returned	-10.2979
▁centres	-10.2981
ible	-10.2982
▁Bulgaria	-10.2989
▁Report	-10.2997
▁planet	-10.2998
▁brief	-10.3003
▁Old	-10.3003
▁Ar	-10.3004
▁NATO	-10.3006
▁define	-10.3021
▁confirm	-10.3025
▁Monetary	-10.3026
▁trans	-10.3031
▁maintained	-10.3033
▁waters	-10.3033
▁knows	-10.3036
ial	-10.3037
▁fashion	-10.3037
▁Data	-10.3045
▁doesn	-10.3047
▁Well	-10.3047
▁drawing	-10.3047
▁Book	-10.3056
▁Ta	-10.3063
▁Ladies	-10.3066
▁90	-10.3066
▁worse	-10.3067
▁MEPs	-10.3069
▁Ka	-10.3071
▁Best	-10.3076
▁gender	-10.3082
▁Nice	-10.3088
ven	-10.3105
▁millions	-10.3106
▁metal	-10.3108
▁transition	-10.311
▁orders	-10.3111
▁transportation	-10.3123
▁communications	-10.3133
▁directives	-10.3134
▁holding	-10.3135
▁heat	-10.3135
▁universal	-10.3137
▁Val	-10.3138
qui	-10.314
▁regularly	-10.3142
▁ex	-10.3143
▁reserves	-10.3144
▁White	-10.3145
”.	-10.3146
▁career	-10.3147
80	-10.3148
▁newly	-10.3149
▁intellectual	-10.3156
▁depend	-10.3159
▁proud	-10.316
▁par	-10.316
▁Time	-10.3162
▁conducted	-10.3163
▁continent	-10.3165
▁regulatory	-10.3165
▁gone	-10.317
▁customs	-10.3183
▁charges	-10.319
▁visa	-10.3194
▁Get	-10.3194
▁lounge	-10.3198
port	-10.3198
▁migration	-10.3203
▁parliaments	-10.3203
▁album	-10.3209
ning	-10.3209
▁father	-10.3213
car	-10.3219
▁Polish	-10.3224
▁performed	-10.323
▁ultimately	-10.3235
fer	-10.3237
org	-10.3244
▁ticket	-10.3244
▁increases	-10.3245
▁topic	-10.3247
▁vacation	-10.3249
▁rock	-10.3253
▁northern	-10.3254
▁Luxembourg	-10.3257
▁Arab	-10.326
▁Cyprus	-10.3261
▁friend	-10.3262
▁collaboration	-10.3271
▁hundreds	-10.3274
side	-10.3274
▁Ro	-10.3275
▁parents	-10.3275
▁expansion	-10.3278
▁conflicts	-10.3281
▁entrance	-10.3292
▁properties	-10.3295
▁minority	-10.3295
▁helps	-10.3296
▁afternoon	-10.3304
▁somewhat	-10.3315
▁dining	-10.3315
▁farm	-10.3315
▁hardware	-10.3322
▁ought	-10.3327
▁Korea	-10.333
://	-10.3331
▁exit	-10.3332
▁displayed	-10.3333
▁explore	-10.3338
▁35	-10.3341
▁faster	-10.3345
ns	-10.3356
▁occur	-10.3356
▁grateful	-10.3357
▁surroundings	-10.3364
▁joined	-10.3366
▁frequently	-10.3366
▁absolute	-10.337
▁Day	-10.3377
▁Don	-10.3386
ik	-10.3387
▁Se	-10.3387
▁2009.	-10.3393
class	-10.3394
▁electricity	-10.3396
▁battle	-10.3406
▁seat	-10.3421
▁expert	-10.3423
▁demanding	-10.3423
▁emergency	-10.3424
”,	-10.3427
▁Y	-10.3429
▁apart	-10.3433
▁walls	-10.3436
%	-10.3437
PT	-10.3442
▁messages	-10.3443
▁investors	-10.3448
▁balcony	-10.3453
▁opinions	-10.346
▁renovated	-10.3461
▁pension	-10.3465
▁succeed	-10.3471
▁constitution	-10.348
hr	-10.3481
▁zu	-10.3481
▁secret	-10.3486
▁looks	-10.3486
▁divided	-10.3487
▁pollution	-10.3487
▁Ko	-10.3492
▁invite	-10.3499
ach	-10.35
▁declaration	-10.3502
▁Ra	-10.3503
▁Friday	-10.3507
▁organized	-10.3508
▁es	-10.3512
▁Square	-10.3514
▁;	-10.3517
▁Act	-10.3517
▁welfare	-10.3526
Q	-10.3538
▁remote	-10.3541
▁subsidies	-10.3544
▁heritage	-10.3546
▁tackle	-10.3553
▁owner	-10.3553
▁bilateral	-10.3553
board	-10.3555
▁delighted	-10.3559
ker	-10.3561
▁producing	-10.3562
▁driver	-10.3563
24	-10.3565
▁artist	-10.3567
ou	-10.3569
▁trial	-10.357
▁hall	-10.3571
▁Su	-10.3572
▁meant	-10.3573
▁ethnic	-10.3575
▁valley	-10.3577
▁Vice	-10.3583
▁Enterprise	-10.3583
ron	-10.3592
▁demonstrate	-10.3593
ier	-10.3593
▁cutting	-10.3594
▁updated	-10.3594
▁widely	-10.3596
▁reject	-10.3597
▁resolutions	-10.3599
▁ver	-10.3601
▁castle	-10.3605
▁arrive	-10.3612
ish	-10.3612
▁statistics	-10.3619
▁Check	-10.362
▁bottom	-10.3624
▁techniques	-10.3625
▁cash	-10.3633
tre	-10.3649
▁symbol	-10.3653
▁Station	-10.3655
▁snow	-10.3655
▁sexual	-10.3656
over	-10.3658
▁follows	-10.3662
▁visible	-10.3665
▁inhabitants	-10.3672
▁Whether	-10.3674
▁drug	-10.3678
▁interior	-10.3679
▁maintaining	-10.3683
Re	-10.3704
▁relaxation	-10.3706
▁percent	-10.3709
▁careful	-10.371
▁cable	-10.3718
▁demonstrated	-10.372
▁blog	-10.372
@	-10.3721
▁creates	-10.3723
▁involves	-10.3728
▁understood	-10.3741
▁straight	-10.3744
▁2020	-10.3744
▁Canada	-10.3746
ability	-10.3771
▁indicated	-10.3773
zi	-10.3774
▁decorated	-10.3775
▁invest	-10.3775
▁seeing	-10.3782
▁deposit	-10.3783
▁era	-10.3784
▁focused	-10.3787
▁corresponding	-10.3795
min	-10.3796
▁Site	-10.3798
▁feed	-10.3802
▁corner	-10.3802
▁formal	-10.3802
▁proved	-10.3804
▁settlement	-10.3808
▁Portuguese	-10.3809
▁competent	-10.3809
▁Non	-10.3811
ov	-10.3812
▁Per	-10.3817
▁library	-10.3817
▁2010.	-10.3827
▁showing	-10.3831
▁inflation	-10.3833
▁answers	-10.3833
▁Pact	-10.3838
RO	-10.3838
▁foundation	-10.384
▁assure	-10.384
▁stored	-10.3843
▁Israeli	-10.3843
▁islands	-10.3848
▁ge	-10.3853
▁provider	-10.3854
▁slow	-10.3855
▁accompanied	-10.3856
▁resistance	-10.3867
room	-10.3868
▁Law	-10.3873
▁exciting	-10.3874
▁Real	-10.388
▁depending	-10.3884
▁concluded	-10.3886
▁Palace	-10.3887
▁»	-10.3887
▁department	-10.389
▁overcome	-10.3895
▁connections	-10.3902
▁sugar	-10.3903
▁Church	-10.3911
▁behaviour	-10.3915
▁visited	-10.3917
▁adapt	-10.3919
▁settings	-10.3924
▁cycle	-10.3925
▁150	-10.3926
▁effectiveness	-10.3928
We	-10.3933
▁Baltic	-10.3934
▁documentation	-10.3948
▁citizen	-10.395
▁examine	-10.3956
▁hostel	-10.3958
▁ongoing	-10.3969
▁super	-10.397
▁Belarus	-10.3971
▁wines	-10.3976
▁channels	-10.3981
▁carbon	-10.3982
▁à	-10.3984
ff	-10.3985
▁1996	-10.3985
▁stylish	-10.3986
▁SMEs	-10.3987
▁deals	-10.3987
▁assume	-10.399
▁Question	-10.3993
▁Brazil	-10.3999
▁categories	-10.4
▁corruption	-10.4001
▁Soviet	-10.4003
▁proof	-10.4003
▁spoken	-10.401
▁Ca	-10.4016
▁passenger	-10.4017
ology	-10.4018
▁minorities	-10.4023
▁Protection	-10.4025
▁flights	-10.4026
▁Second	-10.4026
▁tourists	-10.4028
▁terrorist	-10.4032
ki	-10.4034
▁Perhaps	-10.404
▁controlled	-10.4045
▁spot	-10.4047
▁debates	-10.4048
▁constitutional	-10.4049
▁consent	-10.4051
▁match	-10.4055
▁youth	-10.4057
▁trafficking	-10.4057
▁drivers	-10.4058
let	-10.4059
▁finished	-10.406
▁immigrants	-10.4062
▁mostly	-10.4063
▁raw	-10.4063
▁Given	-10.407
▁rapidly	-10.4084
mi	-10.4085
▁emerging	-10.4089
▁printing	-10.4092
▁signs	-10.4092
▁bound	-10.4094
▁firms	-10.4101
▁Front	-10.4105
▁scheme	-10.4107
▁assets	-10.4108
▁moral	-10.411
▁Action	-10.4112
ring	-10.4118
▁speaker	-10.4119
▁Ne	-10.4121
▁King	-10.4121
▁Copenhagen	-10.4126
▁profile	-10.4128
▁educational	-10.4129
▁gold	-10.413
▁east	-10.4134
▁imposed	-10.4136
▁replaced	-10.4145
▁lovely	-10.4149
▁Design	-10.4162
▁pursue	-10.4164
▁visiting	-10.417
▁Hungarian	-10.4179
▁configuration	-10.418
ure	-10.4187
▁Schengen	-10.4191
▁manufacturer	-10.4195
▁recorded	-10.4197
Applause	-10.4198
▁meaningful	-10.4208
▁spectacular	-10.4212
▁chemical	-10.4213
▁awarded	-10.4213
15	-10.4214
▁destruction	-10.4225
▁owners	-10.4228
related	-10.4233
▁fitness	-10.4234
▁mother	-10.4235
▁adopting	-10.4237
▁credibility	-10.424
▁Nor	-10.4241
▁Prague	-10.4243
▁Media	-10.4251
▁facility	-10.4254
▁dates	-10.426
▁Mac	-10.4262
▁subsidiarity	-10.4283
▁occasions	-10.4283
▁heating	-10.4283
▁stronger	-10.4285
▁respected	-10.429
▁Good	-10.4291
▁cosy	-10.4291
▁desired	-10.4291
with	-10.4297
▁compatible	-10.4298
▁centuries	-10.4301
]],	-10.4314
▁suite	-10.4316
▁judicial	-10.4318
▁Amendments	-10.4327
▁milk	-10.4328
▁argument	-10.433
▁crimes	-10.433
▁Pe	-10.4343
▁transactions	-10.4345
▁Black	-10.4345
▁oral	-10.4349
▁grant	-10.4354
▁possibly	-10.4355
▁woman	-10.4359
▁sand	-10.436
▁OF	-10.4363
▁Funds	-10.4367
▁Santa	-10.4373
scale	-10.4374
▁declared	-10.438
▁su	-10.4382
▁departure	-10.4386
▁functioning	-10.4388
▁Description	-10.4389
▁quarter	-10.439
▁Bush	-10.4397
▁contacts	-10.4403
▁containing	-10.4403
▁suites	-10.4411
▁correctly	-10.4411
▁personnel	-10.4411
▁reported	-10.4411
);	-10.4412
▁Structural	-10.4412
rate	-10.4414
▁wonder	-10.4417
▁lo	-10.4418
▁partly	-10.4422
▁School	-10.4423
▁sending	-10.4423
▁Following	-10.4434
11	-10.4435
US	-10.444
▁revision	-10.444
era	-10.4441
▁taxation	-10.4443
▁magnificent	-10.445
▁plenty	-10.445
▁Hall	-10.4456
▁usual	-10.4459
▁hundred	-10.446
▁encouraging	-10.4466
▁mm	-10.4467
▁decisive	-10.447
▁committees	-10.4479
▁Di	-10.4484
site	-10.4486
ors	-10.4491
▁division	-10.4492
▁Hungary	-10.4494
bit	-10.4494
res	-10.4502
19	-10.4502
minute	-10.4506
▁gardens	-10.4506
▁satisfied	-10.4507
▁cooperate	-10.4512
▁inclusion	-10.4512
▁exception	-10.4524
▁enhance	-10.4527
ries	-10.4527
▁tickets	-10.4529
▁Belgium	-10.4531
▁eastern	-10.4535
▁dance	-10.454
▁routes	-10.4545
▁cast	-10.4547
▁suffer	-10.4555
▁identified	-10.456
▁treat	-10.4563
▁narrow	-10.4563
▁preparing	-10.4566
▁windows	-10.4569
▁si	-10.4582
▁gets	-10.4588
▁died	-10.4589
60	-10.4592
▁appointed	-10.4593
▁addresses	-10.4594
▁globalisation	-10.4595
chi	-10.4603
▁plenary	-10.4604
▁Yes	-10.4605
▁films	-10.4606
▁artistic	-10.4608
▁spoke	-10.461
▁starts	-10.4612
▁abuse	-10.4613
▁thousand	-10.4618
▁army	-10.4623
▁Mexico	-10.4624
▁endorse	-10.4627
▁Within	-10.4628
▁substance	-10.4629
▁4-	-10.4629
▁Congress	-10.4637
berg	-10.4641
ins	-10.4645
▁deficit	-10.4646
▁trend	-10.4647
▁locations	-10.466
▁extraordinary	-10.4661
▁pick	-10.4664
▁Town	-10.4674
▁ISO	-10.468
▁resolved	-10.468
▁rental	-10.468
▁Plan	-10.4683
▁definitely	-10.4685
▁suppliers	-10.4687
▁Madrid	-10.4689
▁Thirdly	-10.469
how	-10.4694
▁IN	-10.4697
12	-10.4697
▁pieces	-10.4702
▁housing	-10.4705
▁component	-10.4714
▁absence	-10.4716
▁legitimate	-10.4717
ative	-10.4723
▁http	-10.4727
▁elsewhere	-10.4727
▁courts	-10.473
▁log	-10.4731
▁slightly	-10.4738
▁Ho	-10.4742
▁Pakistan	-10.4744
▁duties	-10.4752
▁considering	-10.4752
▁«	-10.4753
▁eventually	-10.4756
▁virtual	-10.4757
▁für	-10.476
▁proceed	-10.4763
▁distributed	-10.4764
▁tobacco	-10.4766
▁proven	-10.4766
▁actively	-10.4773
▁Vi	-10.4776
▁dark	-10.478
▁32	-10.4787
▁Thursday	-10.4796
▁impose	-10.4797
▁willing	-10.4801
▁weekend	-10.4802
▁vulnerable	-10.4804
▁interpretation	-10.4806
▁proposes	-10.4808
ical	-10.4808
lin	-10.4809
▁Da	-10.481
ब	-10.481
▁proposing	-10.481
▁appeared	-10.4812
bi	-10.4814
▁diverse	-10.4816
▁providers	-10.4817
▁towns	-10.482
▁channel	-10.4827
gi	-10.483
▁Van	-10.4831
like	-10.4835
▁Northern	-10.4836
▁?	-10.4837
▁domain	-10.4843
▁solely	-10.4847
▁formed	-10.4847
ang	-10.4855
▁los	-10.4858
▁Bay	-10.486
▁maritime	-10.486
▁drop	-10.4865
▁excessive	-10.4873
▁lie	-10.4875
ud	-10.4877
▁Transport	-10.4881
▁Am	-10.4885
▁Without	-10.4889
▁nevertheless	-10.4891
▁miles	-10.4892
▁noted	-10.4896
▁Paul	-10.4907
▁adults	-10.4914
▁presents	-10.4923
▁supplies	-10.4925
▁Legal	-10.4933
▁packaging	-10.4939
▁everyday	-10.494
▁fourth	-10.4946
date	-10.4947
▁applying	-10.495
▁forum	-10.4955
ran	-10.4956
ado	-10.4962
▁western	-10.4963
▁musical	-10.4967
▁carrying	-10.4968
▁representation	-10.4968
▁scene	-10.4971
▁ye	-10.4974
q	-10.4976
▁professionals	-10.498
▁label	-10.4981
▁Code	-10.4992
▁Assembly	-10.4992
▁voluntary	-10.4993
▁shares	-10.4994
▁Festival	-10.5002
▁VAT	-10.5006
wide	-10.5007
▁bio	-10.5011
▁Rule	-10.5013
▁ice	-10.5014
▁1998	-10.5026
▁2009,	-10.5028
▁Island	-10.5029
▁luxurious	-10.5038
▁Tip	-10.5041
▁England	-10.5043
▁Hotels	-10.5044
▁gained	-10.5047
▁shadow	-10.5052
▁Monday	-10.5052
▁university	-10.5058
▁conditioning	-10.5063
▁exports	-10.5068
▁400	-10.5077
▁Framework	-10.5077
▁Technology	-10.508
▁Global	-10.5084
▁wrote	-10.5084
ator	-10.5085
ING	-10.5088
▁supplier	-10.5096
▁west	-10.5104
▁count	-10.5106
ER	-10.5107
▁generated	-10.5112
▁tea	-10.5113
▁arrived	-10.5117
▁bridge	-10.5117
—	-10.5121
▁rising	-10.5127
▁shipping	-10.5129
▁comparison	-10.5131
▁2008.	-10.5133
▁edge	-10.5134
▁countryside	-10.5135
▁24-	-10.5143
▁lessons	-10.5144
level	-10.5152
▁Beach	-10.5154
▁philosophy	-10.5163
▁satisfaction	-10.5163
▁mit	-10.5166
▁upper	-10.5166
▁suggestions	-10.517
▁traditions	-10.5174
▁Peter	-10.5179
▁Besides	-10.5182
▁receiving	-10.5184
▁description	-10.519
▁prime	-10.5191
):	-10.5191
▁greatly	-10.5191
▁suggested	-10.5197
▁Nos	-10.5198
▁ships	-10.5201
▁Like	-10.5203
▁regarded	-10.5203
▁theory	-10.5205
▁roads	-10.5208
▁Te	-10.5209
▁difficulty	-10.5215
▁Egypt	-10.5216
jo	-10.5221
▁updates	-10.5221
▁EADS	-10.5221
▁resource	-10.5225
▁banking	-10.5226
▁Agriculture	-10.5227
▁constitute	-10.5236
°	-10.5239
▁Women	-10.5239
tor	-10.5242
▁Page	-10.5246
▁realise	-10.5246
▁Royal	-10.5246
▁concepts	-10.5249
▁Hamburg	-10.5254
▁invited	-10.5254
▁EC	-10.5258
▁sum	-10.5259
▁Sunday	-10.5269
run	-10.5271
▁savings	-10.5271
▁Jo	-10.5275
▁input	-10.5284
▁lunch	-10.5287
▁transmission	-10.5291
▁standing	-10.5294
▁enabling	-10.5297
▁dependent	-10.5306
▁finish	-10.5313
▁religion	-10.5324
▁import	-10.5325
▁Desk	-10.5325
▁permitted	-10.5329
▁confirmation	-10.5331
▁acting	-10.534
▁Having	-10.5341
ations	-10.5343
style	-10.5346
▁specified	-10.5346
▁sought	-10.5347
▁Saturday	-10.5349
▁destroyed	-10.5356
▁cancer	-10.5358
▁female	-10.5358
▁realistic	-10.5361
zo	-10.5362
▁45	-10.5367
▁PHP	-10.5384
▁ACP	-10.5394
▁),	-10.5403
▁disabled	-10.5404
70	-10.5404
▁twenty	-10.5411
▁obliged	-10.5413
▁Earth	-10.5416
▁topics	-10.5417
▁handle	-10.5422
▁fulfil	-10.5423
▁patient	-10.5424
▁1,	-10.5426
▁•	-10.5431
▁prosperity	-10.5438
▁Inn	-10.5441
▁Trek	-10.5443
IS	-10.5449
▁significance	-10.545
▁crew	-10.545
▁societies	-10.5453
▁cool	-10.5459
▁module	-10.5462
▁farming	-10.5462
ile	-10.5465
▁attempts	-10.5472
▁referendum	-10.5474
▁killed	-10.5474
▁exclusion	-10.5476
▁arguments	-10.548
▁boost	-10.5487
▁rare	-10.5492
▁Cor	-10.5495
▁chair	-10.5497
▁drinks	-10.5497
▁plays	-10.5498
▁enjoyed	-10.5505
▁bright	-10.5506
▁forests	-10.5507
▁radical	-10.5508
▁(19	-10.5513
▁harmonisation	-10.5515
▁overview	-10.5518
▁cell	-10.5519
▁Year	-10.5536
tion	-10.5538
▁Who	-10.5542
▁electric	-10.5545
▁pure	-10.5547
▁colours	-10.5554
▁villages	-10.5559
wing	-10.5562
▁lift	-10.5565
all	-10.557
▁delicious	-10.5572
▁specialist	-10.5573
▁portfolio	-10.5575
▁publication	-10.5577
▁Guests	-10.5578
▁negotiating	-10.5578
▁approve	-10.5578
▁justified	-10.5581
▁nine	-10.5585
▁reservations	-10.5592
▁roof	-10.5599
▁MP	-10.56
▁Socialist	-10.5601
▁politically	-10.5602
▁imports	-10.5607
▁appearance	-10.5608
▁Ha	-10.5612
ping	-10.5616
▁suffered	-10.5621
▁remained	-10.5626
▁lots	-10.5637
▁football	-10.5638
▁fleet	-10.5638
▁disk	-10.5639
▁olive	-10.5641
www	-10.5641
–	-10.5643
ez	-10.5644
▁wild	-10.5646
▁continuous	-10.5646
▁Auditors	-10.565
km	-10.5651
▁renowned	-10.5653
▁unforgettable	-10.5653
▁calm	-10.5655
▁proceedings	-10.566
▁faith	-10.5661
▁sleep	-10.5665
▁Die	-10.5666
▁theme	-10.5667
▁safeguard	-10.5668
▁decline	-10.5672
▁revolution	-10.5674
▁Food	-10.5677
▁Finland	-10.5683
▁Wall	-10.5684
▁legally	-10.5684
vis	-10.5685
▁supervision	-10.5686
▁refers	-10.569
▁preventing	-10.5691
▁po	-10.5692
90	-10.5692
▁Martin	-10.5696
▁paying	-10.5703
▁skiing	-10.5705
▁desk	-10.5706
▁contributed	-10.5707
hotel	-10.5708
▁Hu	-10.571
▁welcomed	-10.5713
▁cent	-10.5719
▁romantic	-10.5721
▁festival	-10.5725
▁parallel	-10.5726
▁ports	-10.5726
▁Music	-10.5728
▁auto	-10.5729
▁enterprise	-10.5732
▁Secretary	-10.5735
not	-10.5736
▁complicated	-10.5742
▁Tour	-10.5746
▁Barroso	-10.575
▁Port	-10.5752
▁allocated	-10.5753
▁mix	-10.5753
▁directory	-10.5756
▁Power	-10.5759
▁surely	-10.5761
▁Asian	-10.5761
AS	-10.5764
▁honour	-10.577
▁lay	-10.5772
▁Strasbourg	-10.5772
▁forthcoming	-10.5775
▁supposed	-10.5775
▁instructions	-10.5777
▁nights	-10.5778
▁doors	-10.5779
▁director	-10.5788
▁indicate	-10.5792
tz	-10.58
▁everybody	-10.5803
ya	-10.5805
ants	-10.5806
▁subjects	-10.5808
air	-10.5816
▁firmly	-10.5821
▁parliament	-10.5821
▁enabled	-10.5822
▁covering	-10.5823
fe	-10.5824
▁wider	-10.5831
▁hardly	-10.5831
▁directed	-10.5834
▁didn	-10.5834
▁Golf	-10.5839
ding	-10.5844
IN	-10.5844
▁teams	-10.5845
ah	-10.5853
▁peoples	-10.5857
▁tennis	-10.5858
▁productivity	-10.5862
▁Ri	-10.587
▁imagine	-10.5874
ens	-10.5877
van	-10.5882
▁introducing	-10.5882
▁collect	-10.5891
▁struggle	-10.5892
▁ordinary	-10.5893
▁weak	-10.5894
▁Tourism	-10.5894
friendly	-10.5898
▁tree	-10.5901
▁Stability	-10.5902
▁barriers	-10.5903
à	-10.5906
▁combine	-10.5907
▁restore	-10.5913
ix	-10.5914
▁Islamic	-10.5919
45	-10.5927
▁ha	-10.5933
▁push	-10.5933
▁recognized	-10.5946
▁Lu	-10.595
▁investigation	-10.595
▁ho	-10.5951
▁parameters	-10.5952
▁eat	-10.5956
ju	-10.5956
▁leaves	-10.596
▁missing	-10.596
▁generate	-10.5961
▁gap	-10.5963
▁programming	-10.597
▁Express	-10.5973
▁Through	-10.5975
▁vessels	-10.5977
▁hearing	-10.5979
▁explained	-10.598
▁Organisation	-10.5985
▁custom	-10.5987
▁originally	-10.5988
▁obstacles	-10.5988
tel	-10.599
▁functional	-10.599
▁decade	-10.599
▁movie	-10.5995
▁Should	-10.5997
EN	-10.6001
hi	-10.6006
▁cleaning	-10.601
▁whereas	-10.6012
▁characters	-10.6013
▁manager	-10.6017
▁Ben	-10.6018
▁u	-10.602
▁ECU	-10.6024
▁expand	-10.6034
▁sustainability	-10.6035
▁remarks	-10.6037
▁organic	-10.6041
▁Serbia	-10.6042
▁smooth	-10.6047
▁Federation	-10.6063
▁Ex	-10.6064
▁Situat	-10.6065
▁collected	-10.6066
▁Atlantic	-10.6072
log	-10.6074
▁restructuring	-10.6079
▁universities	-10.6079
▁reflected	-10.6079
▁Si	-10.6082
▁considerably	-10.609
▁sharing	-10.609
▁birth	-10.6094
ria	-10.6097
▁trips	-10.6104
▁Inter	-10.6105
▁fan	-10.6108
▁dignity	-10.6114
▁saved	-10.6115
▁freedoms	-10.6117
▁compact	-10.6118
▁stake	-10.6119
▁cuts	-10.612
ware	-10.612
▁hospitality	-10.6121
▁showed	-10.6127
▁sight	-10.6127
card	-10.6127
▁severe	-10.6129
▁{{	-10.6129
ab	-10.613
▁camp	-10.6132
▁turning	-10.6132
▁una	-10.6132
▁gallery	-10.6134
form	-10.614
President	-10.6142
▁wellness	-10.6144
▁accurate	-10.6148
▁enhanced	-10.6149
PPE	-10.6151
▁none	-10.6153
ow	-10.6155
▁fans	-10.6157
▁ensures	-10.6162
▁Does	-10.6163
▁accident	-10.6164
▁song	-10.6168
▁welcoming	-10.6174
▁functionality	-10.6176
▁cells	-10.618
▁Michael	-10.6182
▁regardless	-10.619
smoking	-10.619
▁undoubtedly	-10.619
ru	-10.6191
▁periods	-10.6191
▁bike	-10.6193
fa	-10.6202
▁protocol	-10.6203
▁lists	-10.6207
▁ministers	-10.6212
▁Mon	-10.6215
▁Regional	-10.6216
▁concert	-10.6217
▁acceptance	-10.6218
▁clubs	-10.6222
▁internationally	-10.6222
▁classes	-10.6223
▁2007.	-10.6223
▁equivalent	-10.6235
▁exploitation	-10.6237
red	-10.6241
▁penalty	-10.6241
▁amazing	-10.6248
state	-10.6249
▁labelling	-10.6253
▁sit	-10.6256
▁reaction	-10.6259
made	-10.6259
▁looked	-10.6262
▁modules	-10.6263
del	-10.6263
▁united	-10.6263
▁ne	-10.6265
▁IP	-10.6271
▁errors	-10.6277
▁frame	-10.6277
▁reaching	-10.628
ada	-10.628
▁adapted	-10.6282
▁movements	-10.6288
▁clause	-10.6291
▁connect	-10.6296
▁disasters	-10.6297
▁Geneva	-10.6306
▁excluded	-10.6306
*	-10.631
▁violations	-10.6311
▁2008,	-10.6311
▁fees	-10.6312
▁Culture	-10.6313
▁studio	-10.6321
▁Valley	-10.6337
▁horse	-10.634
▁charm	-10.6343
ot	-10.6344
▁exact	-10.6345
▁facts	-10.6345
▁concentrate	-10.6348
▁Tri	-10.6349
21	-10.6353
▁Casino	-10.6355
▁managing	-10.6358
▁sovereignty	-10.6358
▁subsequent	-10.6363
▁reconstruction	-10.6364
▁transferred	-10.6374
▁uniform	-10.6375
▁layer	-10.6379
ica	-10.6379
▁museums	-10.6381
▁permission	-10.6382
▁ride	-10.6384
ped	-10.6386
du	-10.6391
▁min	-10.6392
▁Online	-10.6393
cu	-10.6394
▁losses	-10.6396
▁wireless	-10.6398
▁Pi	-10.6399
}}	-10.64
▁Americans	-10.6402
▁User	-10.6403
und	-10.6405
05	-10.6407
▁songs	-10.641
▁Deutsche	-10.6411
▁Er	-10.6412
ku	-10.6415
▁worst	-10.6416
▁reflects	-10.6429
▁Ga	-10.6434
▁stocks	-10.6436
▁repair	-10.6437
▁arise	-10.644
▁satisfy	-10.6447
▁dead	-10.6448
▁TO	-10.645
ey	-10.6451
can	-10.6451
▁Balkans	-10.6452
▁undertaken	-10.6452
set	-10.6464
▁switch	-10.6471
▁USB	-10.6472
▁filled	-10.6475
▁Australia	-10.6477
La	-10.6478
▁courage	-10.6479
▁labor	-10.6483
▁tested	-10.6484
▁travelling	-10.6484
ken	-10.6487
▁100%	-10.6487
▁dry	-10.6488
▁generations	-10.649
back	-10.6494
▁sounds	-10.6497
▁Obama	-10.6498
▁soil	-10.6499
▁50%	-10.6501
▁vi	-10.6514
▁trends	-10.6515
▁assess	-10.6515
▁Indian	-10.6521
▁Ge	-10.6523
▁belong	-10.6526
▁restored	-10.6526
▁alcohol	-10.6533
▁consulting	-10.6533
▁OR	-10.6534
▁eliminate	-10.6536
▁strengthened	-10.6545
▁restrict	-10.6547
▁Venice	-10.6554
▁ECB	-10.6557
▁Among	-10.6562
▁fishermen	-10.6564
▁Resort	-10.6567
▁reliability	-10.6574
ini	-10.6576
▁amenities	-10.6577
▁acknowledge	-10.6578
▁freely	-10.658
▁plastic	-10.6581
▁Bi	-10.6584
▁coordinated	-10.6584
,”	-10.6585
▁proportion	-10.6586
▁Ti	-10.6588
▁commit	-10.659
▁selling	-10.6592
▁thermal	-10.6597
ski	-10.6603
5-0	-10.6606
▁supplied	-10.6607
▁Castle	-10.6608
▁reputation	-10.6614
▁learned	-10.6616
▁20%	-10.6616
▁script	-10.6618
▁massage	-10.6624
▁sections	-10.6626
▁Set	-10.6628
▁edition	-10.664
▁mis	-10.6642
▁Agenda	-10.6644
16	-10.6645
▁recall	-10.6653
▁Christmas	-10.666
▁panel	-10.6663
▁Next	-10.6665
▁saving	-10.668
▁deeply	-10.6682
▁necessarily	-10.669
COM	-10.6693
▁est	-10.6694
▁Anti	-10.6696
▁root	-10.6707
ium	-10.6709
▁minister	-10.6713
▁percentage	-10.6716
▁Life	-10.6717
▁protest	-10.672
▁homes	-10.6721
▁Civil	-10.6727
▁briefly	-10.6728
▁attend	-10.673
▁Post	-10.6731
▁neighbouring	-10.6731
▁anywhere	-10.6734
val	-10.6739
ö	-10.674
▁sole	-10.674
▁toward	-10.6743
ther	-10.6746
▁catch	-10.6746
▁engage	-10.675
▁1980	-10.6752
▁tables	-10.6753
▁unfair	-10.6755
lu	-10.6759
▁index	-10.6759
▁Education	-10.6765
▁Via	-10.6765
▁Belgian	-10.6768
▁province	-10.6768
ita	-10.677
nes	-10.6772
▁Support	-10.6775
▁determination	-10.6779
▁Islands	-10.6788
▁Executive	-10.6791
tin	-10.6796
▁Men	-10.6798
ु	-10.6798
▁Water	-10.6808
▁insist	-10.6808
▁trouble	-10.681
▁picturesque	-10.6813
ben	-10.6816
▁h	-10.6817
▁lived	-10.6818
▁PDF	-10.6819
ification	-10.6821
▁assembly	-10.6822
▁Consumer	-10.6823
▁Director	-10.6828
lan	-10.683
]].	-10.6839
▁View	-10.6843
▁panoramic	-10.6846
▁targeted	-10.6847
▁CAP	-10.6849
▁anniversary	-10.6859
▁les	-10.6866
▁condemn	-10.6867
▁Maria	-10.6868
▁visual	-10.687
▁1.	-10.6871
ip	-10.6872
▁varied	-10.6872
▁Hi	-10.6872
ü	-10.6879
▁Card	-10.6888
▁sensible	-10.689
eg	-10.6891
▁je	-10.6895
▁engaged	-10.6895
▁promise	-10.6897
▁manufacture	-10.6901
ON	-10.6901
▁checks	-10.691
▁appropriations	-10.6911
▁prize	-10.6912
▁Consequently	-10.6914
▁diplomatic	-10.6914
▁hiking	-10.6914
▁listings	-10.6915
ice	-10.6919
▁arising	-10.6928
▁metro	-10.693
▁ad	-10.6932
▁Georgia	-10.6933
▁liberal	-10.6935
▁lobby	-10.6937
ap	-10.6939
▁student	-10.6942
▁welcomes	-10.6946
▁everywhere	-10.6953
▁pretty	-10.6962
▁Tu	-10.6967
▁teaching	-10.6968
▁phenomenon	-10.6973
▁Denmark	-10.6976
ute	-10.6977
light	-10.6991
are	-10.6993
0,000	-10.6995
▁pain	-10.6996
ren	-10.6997
▁profits	-10.7001
ions	-10.7002
DA	-10.7003
▁AND	-10.7004
▁organise	-10.7007
▁ca	-10.7009
▁2007,	-10.701
▁sex	-10.701
01	-10.7011
▁NI	-10.7012
country	-10.7012
▁afford	-10.7014
▁executive	-10.7015
▁pilot	-10.7016
▁Protocol	-10.7021
▁kernel	-10.7023
▁referring	-10.7025
▁individually	-10.7038
▁jurisdiction	-10.7038
▁relative	-10.7039
▁stars	-10.7042
▁native	-10.7043
▁execution	-10.7053
▁mistake	-10.7055
▁stages	-10.7056
▁processed	-10.7057
▁liked	-10.7058
▁prospects	-10.7059
▁por	-10.7061
▁consequence	-10.7067
▁factory	-10.707
ps	-10.7071
()	-10.7085
▁damages	-10.7085
▁computers	-10.7086
▁usage	-10.7093
=	-10.7094
▁videos	-10.7095
▁urgently	-10.7099
▁sights	-10.71
▁holds	-10.7101
▁occurred	-10.7105
▁3-	-10.7109
95	-10.7114
▁Ad	-10.7116
▁shift	-10.7118
▁NGOs	-10.7118
uk	-10.712
▁entering	-10.712
▁fairly	-10.7124
ph	-10.7131
▁promised	-10.7134
hand	-10.7134
▁presenting	-10.7135
▁communicate	-10.7142
▁indoor	-10.7142
▁10%	-10.7144
▁load	-10.7155
ified	-10.7157
ola	-10.7161
▁liable	-10.7162
▁stuff	-10.7164
▁Ombudsman	-10.7164
▁III	-10.7175
▁geographical	-10.7175
▁normally	-10.7176
अ	-10.7178
▁underground	-10.718
▁till	-10.7181
ano	-10.7185
▁threats	-10.7186
▁Apart	-10.7188
▁recording	-10.7188
▁cancellation	-10.7189
TA	-10.7193
▁Lastly	-10.7197
▁intends	-10.7198
▁territorial	-10.7199
▁twice	-10.7199
18	-10.7204
▁euros	-10.7205
▁Budgets	-10.7209
▁succeeded	-10.721
▁efficiently	-10.7212
phrase	-10.7216
General	-10.7226
▁ordered	-10.7226
▁belief	-10.723
▁scientists	-10.7231
▁Exchange	-10.7231
▁villa	-10.7233
▁medicine	-10.7237
▁strictly	-10.7239
▁magazine	-10.7239
▁Family	-10.7239
▁essentially	-10.724
▁superior	-10.7248
▁Sun	-10.7248
▁sphere	-10.7256
▁highlighted	-10.7256
▁cultures	-10.7258
▁Manager	-10.7258
▁stunning	-10.7259
▁exploit	-10.726
av	-10.726
▁Have	-10.7266
è	-10.7266
▁coherent	-10.7267
ide	-10.7268
▁ID	-10.7268
▁highlights	-10.7269
▁ecological	-10.7271
▁Would	-10.7274
ep	-10.7275
▁Award	-10.7276
▁George	-10.7281
▁overlooking	-10.7286
▁Customer	-10.7286
")	-10.7287
▁RE	-10.7289
▁destroy	-10.729
ological	-10.729
▁incorporated	-10.7293
RA	-10.7294
▁intelligent	-10.7299
ero	-10.73
▁gradually	-10.7302
cho	-10.7306
▁surprise	-10.7309
▁Chi	-10.7311
▁acquired	-10.7312
▁causing	-10.7313
▁lasting	-10.7315
▁kilometres	-10.7317
▁resulted	-10.7318
▁printed	-10.7319
▁reserved	-10.7323
▁Gold	-10.7326
SP	-10.733
▁newsletter	-10.7331
▁#	-10.7332
▁permit	-10.7332
▁revenue	-10.7342
ue	-10.7342
▁boot	-10.7349
Le	-10.7352
▁widespread	-10.7352
▁r	-10.7356
▁heading	-10.7359
▁adventure	-10.7359
▁2006,	-10.7361
▁oldest	-10.7362
▁tracks	-10.7375
▁troops	-10.7376
▁explanation	-10.7378
ato	-10.7382
▁ended	-10.7384
▁feet	-10.7388
ves	-10.7401
▁formats	-10.7402
▁recognize	-10.7403
▁layout	-10.7408
▁operator	-10.7412
▁winning	-10.7413
ED	-10.7414
▁pillar	-10.7414
▁prisoners	-10.7423
▁sophisticated	-10.7428
▁virtually	-10.743
▁treatments	-10.7434
▁preserve	-10.7441
▁relates	-10.7444
▁Rotary	-10.7446
▁producer	-10.7448
▁blind	-10.7457
▁00	-10.7458
▁encouraged	-10.746
▁Industry	-10.746
▁engines	-10.7461
▁meal	-10.7463
▁achievement	-10.7465
▁mouse	-10.7468
▁conventional	-10.7473
▁suit	-10.7474
▁adult	-10.7477
▁Holiday	-10.7478
war	-10.7481
▁Fundamental	-10.7482
which	-10.7485
▁occupation	-10.7487
▁combines	-10.749
ari	-10.749
▁Systems	-10.7495
▁seats	-10.7496
▁Further	-10.7496
▁begins	-10.7502
▁Treaties	-10.7504
▁environmentally	-10.751
lt	-10.751
▁floors	-10.7512
▁ease	-10.7514
▁shuttle	-10.7516
▁warning	-10.7516
mon	-10.7518
22	-10.7518
Find	-10.7522
▁participating	-10.7522
▁thorough	-10.7522
▁candidates	-10.7524
09	-10.753
▁Meeting	-10.7532
med	-10.7533
▁Forum	-10.7535
par	-10.7538
right	-10.754
▁clarify	-10.754
ons	-10.7542
▁Com	-10.7542
▁manual	-10.7545
▁Constitutional	-10.7547
▁specialists	-10.7547
▁compete	-10.755
▁aviation	-10.7551
▁observe	-10.7561
▁alongside	-10.7561
▁mu	-10.7562
▁affects	-10.7563
ev	-10.7564
▁Cooperation	-10.7566
table	-10.7567
▁dispute	-10.7572
decision	-10.7572
▁sample	-10.7573
▁quote	-10.7577
▁armed	-10.7578
▁intensive	-10.758
▁prison	-10.7583
▁calendar	-10.7588
lic	-10.7588
▁agents	-10.7588
▁il	-10.7596
▁retain	-10.76
▁restricted	-10.7601
▁solar	-10.7601
▁Using	-10.7602
▁harmful	-10.7602
tech	-10.7609
▁convergence	-10.761
▁miss	-10.7613
od	-10.7614
35	-10.7616
▁superb	-10.7618
ong	-10.762
hu	-10.7622
▁utmost	-10.7625
▁attached	-10.7633
▁observed	-10.7633
▁JavaScript	-10.7647
▁fax	-10.7647
▁contextual	-10.7651
▁notes	-10.7653
▁purely	-10.7656
▁er	-10.7656
ME	-10.7658
▁adds	-10.7659
▁designs	-10.7661
ble	-10.7668
▁associations	-10.7669
ET	-10.7671
▁spite	-10.7673
▁principal	-10.7674
▁grown	-10.7676
▁produces	-10.7677
»	-10.7683
▁convention	-10.7688
iz	-10.7689
tte	-10.7693
▁surprised	-10.77
iv	-10.7702
▁Danish	-10.7706
▁accidents	-10.7707
bed	-10.7707
AL	-10.7707
▁teachers	-10.7713
▁Ni	-10.7724
▁survey	-10.7726
zen	-10.7728
▁Fa	-10.7731
▁quotas	-10.7737
▁stick	-10.774
▁integrate	-10.7745
▁composition	-10.7746
▁serving	-10.7751
ray	-10.7754
▁secondly	-10.7759
De	-10.776
▁seeks	-10.7764
▁Jean	-10.7764
▁king	-10.7765
▁Dublin	-10.7765
▁capabilities	-10.7765
▁ball	-10.7773
SE	-10.7773
▁raising	-10.7778
kin	-10.778
▁rely	-10.7781
▁auf	-10.7783
▁height	-10.7785
▁hidden	-10.7795
▁Server	-10.7796
▁specialized	-10.7797
▁casino	-10.7802
▁dollar	-10.7803
▁Prodi	-10.7806
▁flows	-10.781
our	-10.7817
▁estimated	-10.7818
▁2006.	-10.7821
▁Robert	-10.7822
▁Budget	-10.7825
▁adding	-10.7825
▁expense	-10.7828
▁wooden	-10.783
▁Garden	-10.7834
▁upgrade	-10.7836
▁Up	-10.7845
▁z	-10.7853
▁oppose	-10.7855
▁harm	-10.7855
▁thumbnail	-10.7855
▁pa	-10.7857
des	-10.7857
▁records	-10.7858
-1	-10.7864
ón	-10.7866
▁Slovakia	-10.7868
17	-10.7869
▁Common	-10.7871
▁Team	-10.7875
down	-10.7876
▁airports	-10.7878
▁Notes	-10.7879
▁victory	-10.7882
▁passing	-10.7883
▁tend	-10.7884
000	-10.7884
sis	-10.7886
▁graphics	-10.789
▁implications	-10.7896
tes	-10.7896
▁electrical	-10.7898
▁inadequate	-10.7901
▁marks	-10.7904
▁crises	-10.7908
▁stories	-10.7908
ris	-10.791
▁minor	-10.7915
king	-10.7917
oriented	-10.7921
MA	-10.7924
▁audience	-10.7924
▁federal	-10.7925
▁extending	-10.7929
▁inspired	-10.7936
▁Mi	-10.7943
▁Based	-10.7943
ros	-10.7947
▁Video	-10.7949
▁undermine	-10.7951
▁Sch	-10.7955
▁initially	-10.7957
▁David	-10.7957
▁Java	-10.7957
▁sufficiently	-10.7963
cha	-10.7963
▁multilateral	-10.7964
▁airlines	-10.798
▁violation	-10.7982
ette	-10.7983
▁meals	-10.7985
▁wear	-10.7987
▁discount	-10.799
▁Ba	-10.7991
▁ratification	-10.7992
▁filter	-10.7992
▁hills	-10.7998
▁negotiation	-10.8005
gar	-10.801
mal	-10.8012
ji	-10.8015
tri	-10.8015
ement	-10.8019
64	-10.8021
▁Cup	-10.8022
▁describe	-10.8025
▁dialog	-10.8026
▁Place	-10.8035
▁Ru	-10.8038
▁Terms	-10.8038
▁IMF	-10.8041
▁48	-10.8046
▁Subject	-10.8046
▁medieval	-10.8053
▁classical	-10.8054
▁bathrooms	-10.8056
▁withdraw	-10.806
▁assigned	-10.8061
▁bonus	-10.8065
▁sweet	-10.8066
▁promises	-10.8066
ara	-10.8068
market	-10.8074
▁Network	-10.8075
▁Land	-10.8075
▁approaches	-10.8078
han	-10.808
▁ob	-10.808
ella	-10.8085
▁Project	-10.8086
▁colors	-10.8088
▁pan	-10.8088
▁servers	-10.8096
▁meets	-10.8105
▁soul	-10.8109
▁advise	-10.8109
▁escape	-10.8111
▁blocks	-10.8113
▁heads	-10.8117
▁studied	-10.8119
▁informal	-10.8119
श	-10.8123
▁1993	-10.8125
▁yes	-10.8128
▁shortly	-10.8128
▁reflection	-10.8131
▁Christ	-10.8141
▁considers	-10.8145
▁("	-10.8149
▁amended	-10.8149
SA	-10.8152
▁Super	-10.8153
▁developers	-10.8156
▁believed	-10.8158
▁gift	-10.8159
▁th	-10.8164
▁Hong	-10.8165
▁academic	-10.8169
▁whereby	-10.817
▁governing	-10.8172
▁guided	-10.8172
▁chapter	-10.8173
▁Ltd	-10.8177
▁empty	-10.8181
▁schemes	-10.8181
ese	-10.8187
▁Make	-10.8192
▁navigation	-10.8193
ura	-10.8195
▁repeated	-10.82
▁splendid	-10.8204
▁Fisheries	-10.8204
▁iron	-10.8209
▁Sol	-10.8211
▁choices	-10.8211
▁concentration	-10.8213
▁Inc	-10.8214
▁Internal	-10.8219
▁Employment	-10.822
▁2010,	-10.822
▁enforcement	-10.822
▁semi	-10.8223
ably	-10.8227
14	-10.8237
▁Download	-10.8237
▁admit	-10.8243
gy	-10.8246
AR	-10.8249
š	-10.825
▁edited	-10.8253
▁poorest	-10.8253
▁timetable	-10.8257
▁appointment	-10.8264
ious	-10.8265
▁Mu	-10.8265
pi	-10.8266
NL	-10.827
dis	-10.8271
▁characteristic	-10.8271
ok	-10.8271
▁Cuba	-10.8271
▁ratio	-10.8277
▁taxi	-10.8277
▁Show	-10.8284
▁wave	-10.8284
▁ingredients	-10.8285
▁info	-10.8285
▁satisfactory	-10.829
▁constitutes	-10.829
07	-10.829
▁Far	-10.8292
▁Mor	-10.8297
▁medicines	-10.8299
▁operates	-10.8301
▁steam	-10.8307
▁>	-10.8308
▁addressing	-10.831
▁behavior	-10.8314
▁remarkable	-10.8315
▁Bre	-10.8316
▁plug	-10.832
▁scheduled	-10.8325
▁Main	-10.8329
▁urgency	-10.833
▁neighbours	-10.8332
▁Kong	-10.8333
▁ein	-10.8337
▁bought	-10.8342
▁employed	-10.8345
▁logic	-10.8346
▁strike	-10.8348
▁contextually	-10.8349
▁gra	-10.835
ien	-10.8353
▁legitimacy	-10.8354
▁Box	-10.8355
▁incentives	-10.8355
▁rubber	-10.8362
▁bug	-10.8364
lar	-10.8369
sk	-10.8369
▁compulsory	-10.8375
▁cancel	-10.8375
▁conferences	-10.8377
▁Children	-10.8379
▁Authority	-10.8382
▁distinction	-10.8383
tter	-10.8387
▁Pan	-10.8387
▁collapse	-10.8393
02	-10.8397
▁chairman	-10.841
▁joining	-10.8411
▁budgets	-10.8414
▁ultimate	-10.8419
▁moreover	-10.8428
▁certification	-10.8429
▁1994	-10.8433
▁relationships	-10.8434
▁Three	-10.8438
DS	-10.8438
▁conciliation	-10.8441
▁Commissioners	-10.8442
▁Games	-10.8443
gel	-10.8444
▁technique	-10.8452
grammatically	-10.8456
▁sheet	-10.8457
▁das	-10.8457
▁mere	-10.8463
▁alarm	-10.8468
▁Gra	-10.8469
▁desktop	-10.8469
▁reporting	-10.8474
е	-10.8474
▁stores	-10.8477
▁bearing	-10.8483
tt	-10.8487
FI	-10.849
▁completion	-10.8493
▁Wednesday	-10.8497
▁Find	-10.8498
hl	-10.8505
▁falls	-10.8506
32	-10.8514
▁marine	-10.8514
nic	-10.8515
č	-10.8516
▁las	-10.8518
▁asset	-10.852
▁eurozone	-10.8522
▁Part	-10.8524
cy	-10.853
▁pop	-10.8537
ward	-10.8539
▁che	-10.854
▁debating	-10.8541
▁underlying	-10.8542
▁array	-10.8546
▁translated	-10.8547
ST	-10.8551
▁Ku	-10.8552
hour	-10.8554
▁begun	-10.8556
▁pe	-10.8557
ell	-10.8557
▁campaigns	-10.8565
water	-10.8568
▁seemed	-10.8574
▁girls	-10.8576
▁repeatedly	-10.8577
▁Kyoto	-10.8579
▁sovereign	-10.8581
▁theatre	-10.8581
▁accounting	-10.8585
▁fewer	-10.8588
▁favourable	-10.859
▁250	-10.8592
▁DE	-10.8592
▁roll	-10.8593
▁fascinating	-10.8594
▁foremost	-10.8598
▁preferred	-10.8599
▁Mark	-10.8599
▁believes	-10.86
▁portal	-10.8604
including	-10.8604
▁Area	-10.861
▁Fair	-10.861
▁Auto	-10.8614
sp	-10.8615
ska	-10.8618
▁Ab	-10.8618
▁Florence	-10.8618
▁Quality	-10.862
IP	-10.862
500	-10.8624
▁deserves	-10.8625
▁ethical	-10.8627
Star	-10.8627
▁actors	-10.8628
▁broken	-10.8629
▁exposed	-10.8629
75	-10.8629
▁foundations	-10.8631
pre	-10.8638
▁Department	-10.8639
▁Jewish	-10.864
▁dramatic	-10.8643
▁Visit	-10.8644
▁coastal	-10.8647
▁journalists	-10.8657
▁pace	-10.866
▁subsequently	-10.866
▁Select	-10.8663
▁Skype	-10.8664
▁branch	-10.8665
▁transaction	-10.8665
▁allocation	-10.8667
▁Section	-10.8668
▁maybe	-10.867
▁unnecessary	-10.8676
▁freight	-10.8676
▁enjoying	-10.868
▁--	-10.868
▁baby	-10.8684
chen	-10.8687
▁autumn	-10.8688
▁mine	-10.8688
mark	-10.869
▁guaranteeing	-10.8691
▁passion	-10.8699
▁hence	-10.8702
▁Muslim	-10.8709
▁secondary	-10.8712
EU	-10.8718
▁Jan	-10.872
▁mixed	-10.872
▁refused	-10.872
ces	-10.872
▁economically	-10.8721
▁800	-10.8723
▁speeches	-10.8724
▁Product	-10.8726
bra	-10.8729
▁conversion	-10.8729
▁cap	-10.8734
▁clock	-10.8737
▁productive	-10.874
▁bi	-10.8741
▁boasts	-10.8743
▁aside	-10.875
▁frequent	-10.876
▁Academy	-10.8762
▁pour	-10.8769
▁wife	-10.8772
▁Monte	-10.8776
▁External	-10.8778
oc	-10.8781
▁Bosnia	-10.8781
ee	-10.8782
▁bill	-10.8785
▁willingness	-10.8789
▁Poker	-10.8789
▁neighbourhood	-10.8795
▁examination	-10.8796
▁Putin	-10.8801
CS	-10.8802
▁Ministry	-10.8803
cing	-10.8809
▁Together	-10.882
lecommunications	-10.883
box	-10.8831
▁busy	-10.8832
▁twin	-10.8834
▁considerations	-10.8835
▁owned	-10.8837
▁Los	-10.8837
▁boats	-10.8838
▁expanded	-10.884
▁openness	-10.8845
▁reiterate	-10.8846
illa	-10.8851
▁residential	-10.8853
▁tragic	-10.8857
▁EN	-10.8868
▁prospect	-10.8873
▁favourite	-10.8874
▁instantly	-10.8874
▁vocational	-10.8874
▁ba	-10.8876
▁representing	-10.8879
▁Syria	-10.888
▁apparent	-10.8887
▁sorry	-10.8888
▁mechanical	-10.8896
▁Blue	-10.8897
▁folder	-10.8897
▁logo	-10.8898
▁Tor	-10.89
▁imp	-10.8901
▁removal	-10.8911
tergovernmental	-10.8914
▁textile	-10.8915
ast	-10.8926
▁checked	-10.8931
IA	-10.8932
avi	-10.8933
13	-10.8934
▁operated	-10.8939
▁arrange	-10.894
▁2000,	-10.8941
31	-10.8942
▁Plaza	-10.8945
▁amending	-10.8946
ane	-10.8952
ai	-10.8954
▁expenses	-10.8958
▁managers	-10.8959
terinstitutional	-10.896
▁Heads	-10.896
▁Alps	-10.8962
▁fell	-10.8963
▁ma	-10.8967
▁jointly	-10.8968
cal	-10.8969
▁Modern	-10.8971
AT	-10.8973
economic	-10.8977
▁Left	-10.898
my	-10.8982
▁Ke	-10.8982
▁salt	-10.8982
▁optimal	-10.8984
▁clarity	-10.8987
}})	-10.8987
AM	-10.8988
▁ownership	-10.8989
▁slopes	-10.8991
▁Morocco	-10.8991
▁simultaneously	-10.8994
session	-10.8999
▁Travel	-10.9001
▁listening	-10.9002
▁intentions	-10.9003
▁Standard	-10.9004
▁devoted	-10.9006
▁suggests	-10.9007
▁inspection	-10.9011
▁references	-10.9014
ments	-10.902
▁tragedy	-10.9021
▁1995	-10.9023
▁lively	-10.9024
▁terrible	-10.9025
▁Chairman	-10.9027
▁string	-10.903
▁Space	-10.9032
▁Pen	-10.9034
▁sky	-10.9034
▁accordingly	-10.9036
▁measurement	-10.9039
▁({{	-10.9041
▁travellers	-10.9047
long	-10.9049
▁realize	-10.9055
▁Moscow	-10.9055
▁Salzburg	-10.9055
▁Read	-10.9058
▁complaints	-10.906
eu	-10.9064
▁sp	-10.9068
bel	-10.9071
▁purchased	-10.9072
▁crystal	-10.9075
▁featuring	-10.9076
▁justify	-10.9078
▁Gu	-10.9081
▁bigger	-10.9087
cher	-10.9089
▁Single	-10.9089
wi	-10.909
▁arranged	-10.9093
▁USD	-10.9095
▁Sie	-10.9095
ving	-10.9096
▁1970	-10.9098
Mo	-10.9101
▁importantly	-10.9106
▁Live	-10.9111
▁Small	-10.9111
▁2004,	-10.9114
▁Sal	-10.9116
▁Gaza	-10.9121
▁hill	-10.9122
▁sake	-10.9125
▁revised	-10.9129
▁spectrum	-10.9131
▁ill	-10.9131
ID	-10.9138
26	-10.9141
top	-10.9161
▁accessories	-10.9161
▁affecting	-10.9164
▁excursions	-10.9166
point	-10.9168
▁fifth	-10.9168
▁harbour	-10.9179
▁clicking	-10.9182
04	-10.9182
▁vary	-10.9182
▁refuse	-10.9183
▁Mer	-10.9185
speed	-10.9187
▁Airbus	-10.9188
▁transformation	-10.919
▁2.0	-10.919
▁publish	-10.919
▁composed	-10.9193
▁MySQL	-10.9196
▁Investment	-10.9196
▁grand	-10.9201
▁Bad	-10.9204
▁whatsoever	-10.9205
▁afraid	-10.9209
▁electoral	-10.9209
▁favorite	-10.921
▁continuously	-10.921
▁expressly	-10.9212
▁forth	-10.9213
▁driven	-10.9217
▁false	-10.9219
▁certified	-10.922
pp	-10.9222
08	-10.9229
▁5-	-10.9229
▁tab	-10.9229
rk	-10.9231
▁transit	-10.9234
▁promoted	-10.9235
▁Player	-10.9236
▁deadline	-10.9241
▁beings	-10.9243
▁catalogue	-10.9245
▁Website	-10.9253
▁120	-10.9256
▁unity	-10.9256
▁sunny	-10.9258
MS	-10.9261
▁manufactured	-10.9262
▁convenience	-10.9266
▁arrangement	-10.9267
▁motorway	-10.9267
▁archive	-10.9268
▁Vo	-10.9276
▁cheese	-10.9278
▁Flash	-10.9279
06	-10.9282
ng	-10.9286
▁2004.	-10.9287
▁declare	-10.9289
▁withdrawal	-10.9291
▁falling	-10.9296
▁depth	-10.9297
▁observation	-10.9297
▁react	-10.9297
▁Trans	-10.9298
▁regulate	-10.93
▁Prize	-10.93
▁chat	-10.9302
▁Palestinians	-10.9303
Christian	-10.9303
▁forgotten	-10.9305
▁diving	-10.9307
▁greenhouse	-10.931
ene	-10.9316
▁faces	-10.9316
100	-10.9321
▁earn	-10.9324
▁modify	-10.9325
▁ring	-10.9328
▁Apartments	-10.9329
▁Partnership	-10.933
▁Personal	-10.9331
▁examined	-10.9331
▁violent	-10.9333
▁Greens	-10.9334
▁st	-10.9336
ory	-10.9339
rt	-10.9339
▁Gran	-10.9342
▁broader	-10.9346
▁authentic	-10.9346
▁honest	-10.9353
▁Order	-10.9355
▁600	-10.9355
▁staying	-10.9356
▁OS	-10.9359
▁Har	-10.9359
ste	-10.936
▁basically	-10.936
▁36	-10.9362
­	-10.9365
▁replacement	-10.937
▁Otherwise	-10.937
▁breach	-10.9371
ath	-10.9372
▁interaction	-10.9373
▁Finnish	-10.9374
▁letters	-10.9375
▁deserve	-10.9377
▁losing	-10.9377
▁Growth	-10.9378
▁Light	-10.9379
28	-10.938
▁sizes	-10.9382
▁orientation	-10.9383
▁pharmaceutical	-10.9388
▁stopped	-10.9389
▁destinations	-10.9394
▁granting	-10.9396
▁knew	-10.9396
▁transitional	-10.9398
▁delete	-10.9406
▁Representative	-10.9408
▁Iraqi	-10.9411
▁integrity	-10.9414
▁Par	-10.9416
▁Las	-10.942
▁Bio	-10.9421
ida	-10.9423
ches	-10.9425
▁é	-10.9426
▁GNU	-10.9427
▁riding	-10.9428
▁smart	-10.943
▁pattern	-10.943
▁certificate	-10.943
▁tower	-10.9431
It	-10.9431
▁cm	-10.9431
▁frequency	-10.9434
▁Staff	-10.9434
▁ri	-10.9434
▁split	-10.9435
▁senior	-10.9436
▁focuses	-10.9437
▁undertake	-10.9437
▁nobody	-10.9439
Pro	-10.9439
els	-10.9442
▁sur	-10.9445
Ma	-10.9447
sta	-10.9447
▁dem	-10.9451
mb	-10.9452
▁Mag	-10.9453
▁recession	-10.9454
27	-10.9457
▁beef	-10.946
ani	-10.9465
▁duration	-10.9467
34	-10.9468
PC	-10.9469
▁accommodate	-10.9471
▁enjoys	-10.9473
▁renewed	-10.9475
▁puts	-10.9475
ct	-10.9483
▁ro	-10.9485
▁Marina	-10.949
▁loans	-10.9492
▁ceiling	-10.9493
▁quantity	-10.9493
ale	-10.9495
▁territories	-10.9498
▁interactive	-10.9498
▁formula	-10.9499
▁evaluate	-10.9499
▁Suite	-10.95
▁Ce	-10.9502
bre	-10.9502
▁retail	-10.9503
field	-10.9506
▁contractual	-10.9507
▁specially	-10.951
haus	-10.9513
▁residents	-10.9515
▁opens	-10.9516
▁stressed	-10.9516
▁painting	-10.9518
cent	-10.9521
▁Head	-10.9523
▁soldiers	-10.9524
▁Liberal	-10.9529
▁Add	-10.9529
▁accuracy	-10.9534
▁Hostel	-10.9535
▁Ci	-10.9538
ius	-10.9539
▁acquire	-10.9543
▁schedule	-10.9543
▁healthcare	-10.9552
▁logical	-10.9558
▁Va	-10.9559
▁seconds	-10.9562
▁belongs	-10.9564
▁SA	-10.9566
ili	-10.9566
ned	-10.9572
/2001	-10.9573
elle	-10.9575
▁researchers	-10.9582
▁relief	-10.9582
▁reinforce	-10.9584
▁buying	-10.9586
▁flash	-10.9587
ub	-10.959
Con	-10.9591
▁gross	-10.9591
▁booked	-10.9592
being	-10.9593
las	-10.9596
▁Opera	-10.9596
cc	-10.9597
▁buses	-10.9597
well	-10.96
▁newspaper	-10.9601
▁mouth	-10.9605
▁regulated	-10.9609
gan	-10.9612
▁moments	-10.9616
▁beneficial	-10.9618
▁ideally	-10.9622
▁intervene	-10.9623
▁authors	-10.9625
▁negotiate	-10.9628
▁pools	-10.9629
▁brain	-10.9631
▁hesitate	-10.9632
▁sa	-10.9633
▁Full	-10.9641
ham	-10.9641
▁explicitly	-10.9642
▁Gentoo	-10.9645
▁Location	-10.9645
▁beer	-10.9649
work	-10.965
▁Bel	-10.965
▁inner	-10.9653
▁identification	-10.9659
bus	-10.966
▁sailing	-10.966
33	-10.9662
▁whenever	-10.9662
▁adjustment	-10.9662
.1	-10.9663
▁capture	-10.9665
▁Top	-10.9665
▁delays	-10.9665
▁variable	-10.9665
▁tough	-10.9666
bb	-10.967
▁Fi	-10.9672
▁surveillance	-10.9672
▁civilian	-10.9673
▁arrest	-10.9676
ks	-10.9676
▁Storage	-10.9677
▁airline	-10.9681
qu	-10.9684
▁coal	-10.9686
screen	-10.9686
▁Ve	-10.9687
▁fi	-10.9689
▁ignore	-10.9689
▁judge	-10.969
▁hopes	-10.969
▁ruling	-10.9693
mat	-10.9698
ena	-10.9699
▁poker	-10.9704
▁Iranian	-10.9706
▁silence	-10.9708
▁architectural	-10.9708
▁pressing	-10.9709
▁therapy	-10.9713
▁Sha	-10.9716
▁spare	-10.9716
▁necessity	-10.9718
▁postal	-10.972
▁monuments	-10.9723
▁prestigious	-10.9727
▁op	-10.9728
▁evident	-10.9729
▁male	-10.9733
▁Society	-10.9736
▁suited	-10.9738
vel	-10.9738
▁constructed	-10.974
▁zero	-10.9741
▁Washington	-10.9741
▁doubts	-10.9743
▁achievements	-10.9744
▁automotive	-10.9745
▁machinery	-10.9748
▁uncertainty	-10.975
▁cancelled	-10.975
vin	-10.9752
▁Casa	-10.9754
▁mental	-10.9757
OR	-10.9759
▁Studio	-10.9764
For	-10.9764
▁ab	-10.9766
▁Budapest	-10.9768
▁pensions	-10.9774
▁revealed	-10.9776
▁dimensions	-10.9776
च	-10.9777
▁Experience	-10.9777
å	-10.9777
from	-10.9778
af	-10.9782
▁Road	-10.9782
▁mirror	-10.9785
▁Charles	-10.9786
▁transfers	-10.9787
▁paths	-10.9789
▁presidential	-10.9796
▁focusing	-10.9796
CH	-10.9796
▁segment	-10.9798
new	-10.9801
▁publishing	-10.9805
▁officially	-10.9805
sion	-10.9806
23	-10.9808
▁bay	-10.9815
▁fat	-10.9831
▁affordable	-10.9834
▁suspended	-10.9834
▁prevented	-10.9835
amp	-10.9837
ec	-10.9838
▁Yugoslavia	-10.9842
▁Empire	-10.9845
▁employers	-10.9847
▁Third	-10.9849
▁chose	-10.985
▁precious	-10.985
▁worrying	-10.9853
▁Contact	-10.9856
SC	-10.9857
az	-10.986
▁ends	-10.986
cor	-10.9861
▁negotiated	-10.9863
▁Milan	-10.9864
act	-10.9865
▁Four	-10.9867
▁noon	-10.9868
serv	-10.9872
▁adjust	-10.9872
▁rain	-10.9875
nce	-10.9876
▁2005.	-10.9877
▁unusual	-10.988
▁threatened	-10.988
▁compare	-10.9884
▁Communist	-10.9884
55	-10.9884
▁Bu	-10.9887
▁installations	-10.989
ever	-10.989
▁Maastricht	-10.9891
▁preparations	-10.9895
án	-10.9897
▁novel	-10.9898
▁indicators	-10.9902
▁Joint	-10.9905
gra	-10.9907
▁Deposit	-10.9912
▁exhibitions	-10.9914
▁ratified	-10.9919
▁Multi	-10.992
▁taxpayers	-10.9925
▁Sport	-10.9927
▁preserved	-10.9927
▁conservation	-10.9928
▁Olympic	-10.9929
▁differ	-10.9941
ert	-10.9941
▁laser	-10.9944
▁Program	-10.9951
ple	-10.9952
▁fly	-10.9954
▁tape	-10.9955
IL	-10.9955
▁doctor	-10.9956
ser	-10.9963
▁argue	-10.9968
29	-10.9968
IC	-10.997
▁premium	-10.9974
mit	-10.9975
dic	-10.9978
▁magic	-10.9979
▁2003,	-10.9981
br	-10.9983
▁Rural	-10.9989
▁debated	-10.999
▁organize	-10.9992
▁certainty	-10.9994
▁strive	-10.9994
▁1000	-10.9994
▁relaxed	-10.9998
▁trained	-11.0001
▁33	-11.0002
▁stance	-11.0003
gli	-11.0006
OS	-11.001
▁pen	-11.0012
▁pot	-11.0015
▁Until	-11.0022
▁citizenship	-11.0023
▁parks	-11.0023
▁Thomas	-11.0026
Smoking	-11.0027
▁rear	-11.0035
▁throw	-11.0036
eo	-11.0037
▁Master	-11.0038
lle	-11.004
▁concerts	-11.004
▁literature	-11.004
▁notion	-11.0041
▁alternatives	-11.0042
▁James	-11.0045
▁Hostelsclub	-11.0045
▁Search	-11.0045
qua	-11.0045
▁tra	-11.0046
▁acquisition	-11.0047
fo	-11.0049
ras	-11.0049
▁exposure	-11.005
▁insufficient	-11.0054
▁cookies	-11.0057
▁emerged	-11.0057
▁sandy	-11.0059
▁grave	-11.0063
▁Access	-11.0064
SV	-11.0065
▁Dis	-11.0066
▁attended	-11.0066
▁supplementary	-11.0069
▁convince	-11.007
▁charter	-11.0084
CO	-11.0088
▁convert	-11.0089
▁ultra	-11.0092
▁Europol	-11.0092
▁winner	-11.0093
▁wage	-11.0094
▁Tra	-11.0096
lor	-11.0097
ona	-11.0098
▁37	-11.0099
▁Work	-11.0105
dra	-11.0105
▁judgment	-11.0109
▁brands	-11.011
▁purchasing	-11.0111
▁Zurich	-11.0111
rum	-11.0113
born	-11.0116
▁roots	-11.0116
▁photographs	-11.0117
▁unknown	-11.012
PA	-11.012
▁bureaucracy	-11.012
€	-11.0121
▁hospital	-11.0122
▁Za	-11.0133
▁logistics	-11.0136
▁cameras	-11.0136
▁announce	-11.0137
▁30%	-11.0139
▁claimed	-11.014
▁blame	-11.014
▁heavily	-11.0144
▁comprises	-11.0146
AC	-11.0146
ag	-11.0147
▁1992	-11.0156
▁coordinate	-11.0158
▁Bed	-11.016
ido	-11.016
▁Cologne	-11.0163
▁Bureau	-11.0163
68	-11.0165
36	-11.0169
▁consistently	-11.017
▁Game	-11.0172
200	-11.0173
▁Southern	-11.0174
▁ranging	-11.0176
▁Sony	-11.0176
▁Taiwan	-11.0182
▁silver	-11.0187
-2	-11.0187
ique	-11.0189
▁End	-11.0189
▁strange	-11.0192
service	-11.0193
▁wheel	-11.0194
▁imported	-11.0197
▁applicant	-11.02
▁typically	-11.0202
▁venture	-11.0212
▁flag	-11.0224
▁signing	-11.0226
▁belonging	-11.0237
▁BSE	-11.0239
▁deficits	-11.0242
▁privileged	-11.0245
▁credible	-11.0258
burg	-11.026
▁feedback	-11.0264
tta	-11.027
▁signals	-11.0272
▁dual	-11.0274
▁moderate	-11.0275
▁contributing	-11.0277
▁mistakes	-11.0282
ual	-11.0282
▁mandatory	-11.0282
▁opt	-11.0283
▁consult	-11.0284
▁genetic	-11.0286
▁Gar	-11.0296
▁creature	-11.0297
▁Ski	-11.0298
list	-11.0299
▁placing	-11.0302
▁victim	-11.0302
operation	-11.0306
Hour	-11.0309
▁Conditions	-11.0314
rie	-11.0322
▁generous	-11.0328
▁rational	-11.033
▁Play	-11.033
▁fails	-11.0333
▁turns	-11.0335
PS	-11.0337
ney	-11.0339
▁systematic	-11.0339
▁tonnes	-11.034
▁notably	-11.0341
39	-11.0344
▁unanimously	-11.0346
▁Bra	-11.0347
MO	-11.0353
▁farms	-11.0356
▁publications	-11.0356
lon	-11.036
▁Sta	-11.0362
▁closing	-11.0364
▁notified	-11.0366
▁keen	-11.0366
▁essence	-11.0369
▁alike	-11.0372
▁demonstrates	-11.0372
▁biological	-11.0374
▁Gi	-11.0377
▁stayed	-11.0377
▁wherever	-11.0379
▁specify	-11.0385
To	-11.0385
▁clothing	-11.0386
▁pursuan	-11.0388
▁chief	-11.039
▁churches	-11.039
66	-11.0391
▁apparently	-11.0392
▁patterns	-11.0395
▁elderly	-11.0395
▁Pu	-11.0399
▁indicates	-11.0401
▁tu	-11.0405
▁Press	-11.0408
Lo	-11.041
▁Digital	-11.0419
▁broadcast	-11.0422
▁intelligence	-11.0422
▁Lithuania	-11.0424
▁Che	-11.0425
▁imposing	-11.0427
ata	-11.0431
▁Which	-11.0432
▁financed	-11.0433
book	-11.0441
▁occurs	-11.0442
▁experiencing	-11.0442
▁Democratic	-11.0445
▁slowly	-11.0456
▁Es	-11.0457
▁Youth	-11.0458
▁fate	-11.0458
▁procurement	-11.0462
▁formation	-11.0464
▁qualifications	-11.0469
▁robust	-11.0471
▁contest	-11.0475
▁flying	-11.0476
▁sentence	-11.0477
▁precision	-11.0479
sel	-11.048
▁respects	-11.0485
▁measuring	-11.0486
▁proximity	-11.0486
ern	-11.0489
▁Film	-11.0493
▁trains	-11.05
▁initiated	-11.0501
gu	-11.0502
▁opera	-11.0503
▁conventions	-11.0504
▁discipline	-11.0506
▁potentially	-11.0506
99	-11.0507
▁assurance	-11.0509
▁za	-11.0512
▁leather	-11.0515
▁Wa	-11.0517
▁sensor	-11.0521
▁hide	-11.0522
specific	-11.0524
▁Burma	-11.0525
▁endeavour	-11.0529
▁Islam	-11.053
▁Malta	-11.0531
stein	-11.0531
▁icon	-11.0532
var	-11.0536
▁statistical	-11.0538
▁populations	-11.0538
▁column	-11.054
▁sofa	-11.0541
▁downloaded	-11.0541
▁75	-11.0543
▁chemicals	-11.0543
▁Slovenia	-11.0544
▁edit	-11.0544
▁Scotland	-11.0545
▁patents	-11.0546
▁(2	-11.0546
▁intense	-11.0548
▁pursued	-11.0551
▁humanity	-11.0551
▁Canon	-11.0551
tag	-11.0554
xi	-11.0554
▁adaptation	-11.0554
▁caught	-11.0555
▁creativity	-11.056
▁tram	-11.0565
▁smoking	-11.057
▁Dan	-11.0571
▁Cross	-11.0577
▁(1	-11.0582
▁Ju	-11.0586
▁confident	-11.0586
▁Argentina	-11.0594
▁copies	-11.0595
▁drinking	-11.0595
▁visitor	-11.0598
▁toilet	-11.0599
▁arm	-11.0603
▁Win	-11.0604
ight	-11.0605
▁Start	-11.061
▁deaths	-11.0611
▁murder	-11.0613
ford	-11.0613
▁rose	-11.0615
▁disputes	-11.0619
▁integral	-11.0621
▁quest	-11.0622
▁releases	-11.0629
ming	-11.0629
▁competences	-11.0636
▁converted	-11.0637
▁receipt	-11.0639
LE	-11.0643
▁dog	-11.0643
dor	-11.0643
▁{	-11.0643
▁ambition	-11.0649
▁arbitrary	-11.0649
86	-11.065
ama	-11.0652
▁Pacific	-11.0653
▁demographic	-11.0654
▁rating	-11.0655
RE	-11.0658
▁Adobe	-11.0664
▁voters	-11.0664
▁divide	-11.0665
▁premises	-11.0668
85	-11.0671
▁34	-11.0671
eth	-11.0674
▁headquarters	-11.0679
▁unemployed	-11.068
▁suggestion	-11.0683
LA	-11.0683
▁thin	-11.0686
▁Facilities	-11.0688
▁eco	-11.0689
49	-11.069
▁drives	-11.0694
▁interview	-11.0698
▁progressive	-11.0704
▁College	-11.0704
▁horizontal	-11.0704
non	-11.0707
tle	-11.0707
▁failing	-11.0708
▁movies	-11.071
part	-11.0712
ala	-11.0712
▁comp	-11.0713
$	-11.0714
▁biodiversity	-11.0714
▁treaties	-11.0715
▁answered	-11.0715
▁cooking	-11.0718
▁centers	-11.0723
▁Fer	-11.0724
lie	-11.0725
▁Socialists	-11.0728
▁warmly	-11.0732
▁wake	-11.0732
▁Bus	-11.0736
MI	-11.0736
▁innovations	-11.0738
▁Process	-11.0738
▁Spring	-11.0739
▁fix	-11.0748
post	-11.075
▁amend	-11.0753
▁virus	-11.076
▁paradise	-11.0764
▁visits	-11.0765
▁respectively	-11.0766
▁row	-11.0767
▁garage	-11.077
▁handled	-11.0774
lich	-11.0775
TS	-11.0782
▁bread	-11.0786
TV	-11.079
▁ra	-11.0791
don	-11.0804
▁exert	-11.0805
▁Similarly	-11.0807
▁Come	-11.0807
▁kill	-11.0808
▁threshold	-11.0812
▁partial	-11.0815
▁Out	-11.0816
▁arts	-11.0817
▁viable	-11.0819
▁spiritual	-11.0824
▁occupied	-11.0826
▁worry	-11.0827
▁Edition	-11.0827
▁notification	-11.0829
▁Bol	-11.0829
ध	-11.083
▁cinema	-11.0834
▁dollars	-11.0837
via	-11.0839
67	-11.084
park	-11.0847
▁Science	-11.0849
▁designer	-11.0857
▁phones	-11.0858
▁FOR	-11.0862
▁specialities	-11.0862
▁decent	-11.0867
▁lowest	-11.0871
▁displays	-11.0872
▁Cap	-11.0873
▁Sp	-11.0875
▁Ten	-11.0877
▁shot	-11.0878
cia	-11.088
▁employ	-11.0882
▁Tuesday	-11.0886
▁stops	-11.0886
▁practically	-11.0887
▁gear	-11.0887
▁posts	-11.089
▁Defence	-11.0896
▁Has	-11.09
▁expanding	-11.09
▁tribute	-11.0901
▁authorisation	-11.0904
tis	-11.091
▁Choose	-11.0911
▁Lebanon	-11.0911
ball	-11.0912
▁angle	-11.0912
▁Bal	-11.0915
▁Mobile	-11.0918
▁stimulate	-11.0919
len	-11.0919
▁sharp	-11.0921
▁crossing	-11.0923
aries	-11.0923
▁specifications	-11.0929
low	-11.0929
▁fitted	-11.093
▁desirable	-11.0932
▁defining	-11.0932
▁workshop	-11.0932
▁Reform	-11.0934
▁Obviously	-11.0937
▁controversial	-11.0938
▁licence	-11.0941
▁Apple	-11.0943
▁delicate	-11.0943
▁torture	-11.0944
row	-11.0948
▁Kirk	-11.0949
IM	-11.0949
▁survive	-11.0949
▁va	-11.0952
▁editor	-11.0955
▁tolerance	-11.0958
▁Peace	-11.0958
44	-11.0961
ere	-11.0965
▁audit	-11.0967
▁solved	-11.0968
▁assured	-11.097
▁terminal	-11.0972
▁Stockholm	-11.0973
88	-11.0976
▁coverage	-11.0976
▁workshops	-11.098
▁enlarged	-11.0987
▁Hans	-11.0988
▁terrorists	-11.0991
▁wording	-11.0992
▁tropical	-11.0994
▁Organization	-11.0994
heim	-11.0997
some	-11.0997
▁sessions	-11.0999
▁heated	-11.1002
lit	-11.1003
▁findings	-11.1008
ante	-11.1011
▁artificial	-11.1012
Ro	-11.1013
▁graphic	-11.1015
oli	-11.1017
▁Right	-11.102
\	-11.102
win	-11.1021
ENT	-11.1022
▁peak	-11.1031
▁Series	-11.1034
▁piano	-11.1036
tern	-11.1036
uff	-11.1038
▁zones	-11.104
▁Kar	-11.1042
kt	-11.1046
ava	-11.1046
▁lighting	-11.1047
▁lovers	-11.1048
GA	-11.105
▁substantially	-11.105
▁meantime	-11.1056
ties	-11.1059
▁avoided	-11.1062
▁plain	-11.1067
uch	-11.1067
pm	-11.1068
▁comparable	-11.1071
▁moves	-11.1072
▁crops	-11.1075
▁38	-11.1076
▁timely	-11.1078
zer	-11.1081
▁nonetheless	-11.1082
▁consequently	-11.1083
▁funded	-11.1084
▁perspectives	-11.1086
▁fault	-11.1088
▁liquid	-11.1089
▁eine	-11.109
▁choosing	-11.1097
▁harmony	-11.1097
▁stroll	-11.1099
ric	-11.1101
lay	-11.1104
▁describes	-11.1105
ose	-11.1113
ob	-11.1115
press	-11.1116
uck	-11.1118
get	-11.1122
bu	-11.1124
▁settled	-11.1124
▁viewed	-11.1126
▁Mel	-11.1128
-19	-11.1132
▁Pass	-11.1136
▁PRO	-11.1136
ei	-11.1137
sol	-11.1141
▁recover	-11.1141
ula	-11.1144
▁talked	-11.1145
▁wages	-11.1147
▁emphasised	-11.1147
▁Cathedral	-11.115
▁ce	-11.115
▁Professional	-11.1155
▁ta	-11.1162
ello	-11.1165
▁paint	-11.1165
▁temperatures	-11.1167
▁Mont	-11.1167
▁Wo	-11.1169
▁preliminary	-11.1171
38	-11.1171
▁Content	-11.1171
▁returns	-11.1171
▁dating	-11.1175
▁Additionally	-11.1175
▁thoroughly	-11.1176
▁plot	-11.1188
test	-11.1188
ß	-11.1189
▁emerge	-11.1196
▁degrees	-11.1196
▁Elevator	-11.1197
▁signature	-11.1199
Parliament	-11.1201
▁confusion	-11.1202
▁explains	-11.1207
ional	-11.1208
▁Allow	-11.1209
▁controlling	-11.1213
▁Citizens	-11.1218
▁worthy	-11.1218
▁tri	-11.122
cker	-11.1221
ture	-11.1224
▁Hamas	-11.1224
▁evil	-11.1225
▁breathtaking	-11.1228
▁Photo	-11.123
▁teacher	-11.1231
▁entries	-11.1234
pl	-11.1234
▁lesson	-11.1236
▁1.5	-11.1238
uri	-11.1238
▁celebrate	-11.1238
▁lets	-11.1245
▁scenery	-11.1246
▁appreciated	-11.1247
zu	-11.1249
▁bureaucratic	-11.1251
▁undertakings	-11.1258
▁rejection	-11.1258
ians	-11.126
▁platforms	-11.1265
ú	-11.1267
key	-11.1271
▁detect	-11.1271
▁disappointed	-11.1272
▁li	-11.1273
nie	-11.1275
marquis	-11.1277
▁Bill	-11.1281
▁marriage	-11.1281
CA	-11.1282
▁BMW	-11.1287
▁Puerto	-11.1287
LT	-11.1288
65	-11.1288
`	-11.1291
roll	-11.1299
▁incentive	-11.13
▁expressing	-11.1301
▁emission	-11.1303
▁Gulf	-11.1303
world	-11.1307
▁lifestyle	-11.1308
▁cre	-11.1308
▁encounter	-11.131
▁Close	-11.1312
48	-11.1312
tar	-11.1312
mission	-11.1315
▁pact	-11.132
▁performing	-11.1321
▁unions	-11.1326
▁photography	-11.1327
▁executed	-11.133
▁Radio	-11.1332
▁Rio	-11.1335
▁drafting	-11.1338
ž	-11.1345
▁acknowledged	-11.1348
▁Tower	-11.1348
▁2011	-11.135
▁supplement	-11.1352
▁Th	-11.1353
▁linguistic	-11.1355
▁auction	-11.1361
▁investigate	-11.1364
▁fought	-11.1367
▁Hence	-11.1367
such	-11.1368
▁isolated	-11.1369
▁finest	-11.137
tan	-11.1379
▁qui	-11.1381
▁parameter	-11.1381
▁prohibited	-11.1382
▁fallen	-11.1382
▁characterized	-11.1382
▁Labour	-11.1383
▁ignored	-11.1387
BA	-11.1392
▁socio	-11.1392
▁incredible	-11.1393
▁exceed	-11.1394
ux	-11.1403
fin	-11.1405
▁downtown	-11.1406
41	-11.1411
▁indirect	-11.1413
▁keys	-11.1415
▁sad	-11.1422
▁1960	-11.1422
▁giant	-11.1424
▁Line	-11.1424
pan	-11.1425
▁Nonetheless	-11.1426
▁cal	-11.1426
SK	-11.1429
▁hat	-11.1433
matic	-11.1435
▁Beijing	-11.1436
▁Language	-11.1438
▁sporting	-11.1439
▁shortcomings	-11.1439
▁Cal	-11.1439
37	-11.144
▁defeat	-11.1441
▁equity	-11.1442
▁California	-11.1443
▁optical	-11.1444
MP	-11.1444
▁fulfilled	-11.1445
St	-11.1446
vert	-11.1447
▁Der	-11.1448
nu	-11.1449
▁measured	-11.1455
hn	-11.1456
▁posted	-11.1461
▁42	-11.1462
▁clarification	-11.1463
▁regrettable	-11.1464
▁tips	-11.1465
▁League	-11.1469
▁Luggage	-11.1469
▁damaged	-11.147
vers	-11.1471
▁Palestine	-11.148
▁automation	-11.148
▁warming	-11.148
Me	-11.1484
head	-11.1488
▁News	-11.149
▁Louis	-11.1491
▁tip	-11.1496
▁History	-11.1496
▁Heating	-11.1498
▁prompt	-11.1498
▁condemned	-11.1499
▁foster	-11.15
▁evolution	-11.1501
▁Industrial	-11.1505
▁modest	-11.1505
▁challenging	-11.1507
▁declarations	-11.1507
▁joy	-11.1508
▁neo	-11.1513
▁pm	-11.1514
▁Macedonia	-11.152
▁pine	-11.152
▁lakes	-11.1522
▁reverse	-11.1527
▁outset	-11.1528
▁Account	-11.153
▁birds	-11.1534
▁invitation	-11.1535
ral	-11.1536
▁incorporate	-11.1537
▁simplification	-11.154
▁adverse	-11.155
▁publicly	-11.1553
but	-11.1553
47	-11.1556
▁battery	-11.1556
gro	-11.1558
▁decrease	-11.1558
▁Ya	-11.1558
▁engineers	-11.1559
är	-11.1559
▁fifteen	-11.1561
▁autonomy	-11.1561
▁Discover	-11.1562
▁chocolate	-11.1572
▁Ocean	-11.1572
▁pull	-11.1573
▁agent	-11.1577
▁Declaration	-11.1578
▁raises	-11.1581
▁complexity	-11.1587
▁guidance	-11.1588
▁Golden	-11.1589
link	-11.1591
ira	-11.1598
▁inspiration	-11.1599
▁statute	-11.16
▁disagree	-11.1605
▁sail	-11.1607
▁governed	-11.1608
▁MS	-11.161
▁paintings	-11.1611
▁Mini	-11.1616
▁unlike	-11.1618
▁partnerships	-11.1619
▁cu	-11.1619
nn	-11.1621
ore	-11.1625
▁hoped	-11.1626
▁Cu	-11.1627
▁conjunction	-11.1627
▁Everyone	-11.1629
▁Ban	-11.1629
▁monitored	-11.1631
everal	-11.1632
▁fabric	-11.1633
▁ju	-11.1633
▁Sub	-11.1633
su	-11.1633
▁officer	-11.1636
▁prominent	-11.1636
▁Norway	-11.1639
ans	-11.1639
▁Adriatic	-11.1641
▁Moldova	-11.1643
▁Albania	-11.1644
EEC	-11.1646
▁pedestrian	-11.1649
▁inquiry	-11.1649
▁brother	-11.1651
▁Les	-11.1655
▁papers	-11.1657
▁em	-11.1657
▁closure	-11.1658
sha	-11.166
с	-11.166
mes	-11.1663
▁Test	-11.1666
▁unfortunate	-11.1669
▁finances	-11.167
▁attract	-11.1673
▁hire	-11.1674
▁organ	-11.1676
▁Apartment	-11.1681
▁circle	-11.1683
â	-11.1687
party	-11.169
▁ist	-11.169
▁undertaking	-11.1692
▁bag	-11.1695
▁Mal	-11.1697
▁Training	-11.1699
▁Technical	-11.1704
▁gym	-11.1704
▁um	-11.1705
▁Sky	-11.1706
▁characterised	-11.1708
▁branches	-11.1709
▁Easy	-11.171
▁wars	-11.1713
▁Clearly	-11.1713
▁multimedia	-11.1714
▁subsidiary	-11.1721
▁Supervisor	-11.1721
▁circuit	-11.1725
▁survival	-11.1726
▁subscription	-11.1727
▁realized	-11.1728
▁infringement	-11.173
▁abandoned	-11.1731
▁indication	-11.1735
ky	-11.174
▁resist	-11.1742
▁Je	-11.1748
fully	-11.1751
▁structured	-11.1751
▁surprising	-11.1758
▁2000.	-11.1759
▁Everything	-11.1762
▁simplify	-11.1764
▁setup	-11.1765
▁Sudan	-11.1766
-20	-11.1768
conditioned	-11.1769
43	-11.1769
▁transatlanti	-11.1773
▁downloading	-11.1775
▁Rock	-11.1776
▁dive	-11.1777
▁Indonesia	-11.1781
▁Cha	-11.1782
▁separately	-11.1783
▁tender	-11.1785
▁dust	-11.1794
/97	-11.1796
▁restoration	-11.1799
▁2001,	-11.18
ret	-11.1801
▁penalties	-11.1804
▁IV	-11.1807
▁iPhone	-11.181
ire	-11.1811
▁Zimbabwe	-11.1811
▁sustained	-11.1812
▁lacking	-11.1814
▁quota	-11.182
▁Gri	-11.1822
▁complement	-11.1823
▁2002,	-11.1827
▁kids	-11.1831
ष	-11.1832
51	-11.1835
▁founding	-11.1838
▁striking	-11.1843
300	-11.1844
▁login	-11.1846
▁tailored	-11.1847
▁dial	-11.1848
▁racism	-11.1849
▁derived	-11.1849
▁pride	-11.1852
▁Vietnam	-11.1854
space	-11.1855
▁shareholders	-11.1862
▁Long	-11.1865
ade	-11.1867
▁extract	-11.1873
▁Shop	-11.1878
▁01	-11.1878
▁excuse	-11.1878
▁watching	-11.1884
▁celebrated	-11.1886
▁accepting	-11.1891
▁camps	-11.1893
cut	-11.1893
▁defects	-11.1895
ati	-11.1897
▁gather	-11.1898
▁taught	-11.19
▁40%	-11.1913
▁flowers	-11.1916
▁identical	-11.1917
▁SAP	-11.1918
▁keeps	-11.1923
▁returning	-11.1925
▁64	-11.193
59	-11.1931
▁Il	-11.1932
unt	-11.1936
ntergovernmental	-11.1938
bro	-11.194
ction	-11.1944
▁Camp	-11.1951
▁tension	-11.1951
ige	-11.1954
▁vegetables	-11.1954
▁upcoming	-11.1954
▁Big	-11.1957
▁HD	-11.1959
ient	-11.1962
iti	-11.1964
century	-11.1968
▁minimal	-11.1968
▁sh	-11.1969
▁assumed	-11.1969
DI	-11.1972
▁alliance	-11.1974
▁Thailand	-11.1974
▁bond	-11.1974
▁drafted	-11.1976
name	-11.1977
▁performances	-11.1987
ign	-11.1989
▁denied	-11.1991
▁seminars	-11.1992
▁continually	-11.1993
cer	-11.1994
▁Change	-11.1998
▁participated	-11.2
2.	-11.2004
▁centrally	-11.2006
▁filling	-11.2008
wo	-11.2009
▁sheets	-11.201
▁chairs	-11.2011
▁underline	-11.2011
Co	-11.2011
▁directions	-11.2013
▁transformed	-11.2013
▁departments	-11.2014
▁mixture	-11.2015
▁defense	-11.2016
▁badly	-11.2021
He	-11.2024
▁exceptions	-11.2026
▁Tyrol	-11.203
▁stood	-11.203
▁fears	-11.2036
▁requiring	-11.2036
▁grants	-11.2036
▁reproduction	-11.2038
▁Libya	-11.2039
▁Ger	-11.204
▁officers	-11.204
bin	-11.2042
▁Sometimes	-11.2042
▁maps	-11.2044
▁partition	-11.2048
▁consistency	-11.2048
▁trail	-11.2053
▁Currently	-11.2056
▁exchanges	-11.2057
▁weapon	-11.2057
▁defending	-11.2061
▁neutral	-11.2062
▁automated	-11.2063
▁knowing	-11.2063
▁1991	-11.2064
▁Tom	-11.2067
▁65	-11.2067
▁implies	-11.2071
▁telling	-11.2073
▁attach	-11.2074
har	-11.2074
▁quantities	-11.2076
▁Bridge	-11.2077
▁homepage	-11.2078
▁HTML	-11.2079
nal	-11.2082
▁Tibet	-11.2083
▁perception	-11.2083
▁circulation	-11.2083
nia	-11.2086
HU	-11.2087
▁interim	-11.209
03	-11.2097
5%	-11.2097
ening	-11.21
▁develops	-11.2102
▁della	-11.2104
▁Naturally	-11.2106
TER	-11.2107
▁700	-11.2108
▁Metro	-11.2111
▁mailing	-11.2114
▁pursuing	-11.2117
bank	-11.2117
▁blow	-11.2121
TC	-11.2123
▁receives	-11.2125
▁commission	-11.2126
▁profound	-11.2127
▁trails	-11.213
▁·	-11.213
▁combining	-11.2134
т	-11.2138
”)	-11.2138
▁cha	-11.214
▁Nord	-11.214
int	-11.2142
▁distribute	-11.2149
▁guitar	-11.2151
▁List	-11.2151
▁Above	-11.2151
ér	-11.2153
▁episode	-11.2154
mel	-11.2155
▁nicht	-11.2157
▁searching	-11.2159
▁macro	-11.2164
▁Net	-11.2164
sten	-11.2164
▁spots	-11.2165
▁Neu	-11.2167
▁exploring	-11.2169
pping	-11.2171
tur	-11.2171
CE	-11.2175
▁accused	-11.2177
▁preferences	-11.2178
wn	-11.2179
▁modes	-11.2179
▁ensured	-11.218
ente	-11.218
46	-11.2181
annual	-11.2187
▁calculated	-11.2191
▁enemy	-11.2192
▁concentrated	-11.2195
▁listened	-11.2196
▁alter	-11.2197
थ	-11.2198
bach	-11.22
▁55	-11.2202
bs	-11.2202
▁Coast	-11.2203
cre	-11.2205
▁workplace	-11.2206
▁ocean	-11.2209
▁CE	-11.2211
▁editing	-11.2213
most	-11.2215
а	-11.2216
▁grass	-11.2217
▁pays	-11.2219
▁observers	-11.222
▁recycling	-11.2221
▁Catholic	-11.2222
▁migrants	-11.2226
▁consolidation	-11.2233
▁conveniently	-11.2235
▁Ch	-11.2237
▁enthusiasm	-11.2238
▁insert	-11.2239
▁demonstration	-11.2242
▁doctors	-11.2243
▁approx	-11.2243
▁banned	-11.2245
▁regimes	-11.2245
shop	-11.2248
NA	-11.2253
til	-11.2255
lia	-11.2255
▁tells	-11.2256
German	-11.2257
▁golden	-11.2259
▁suddenly	-11.226
▁symbolic	-11.2261
▁Meanwhile	-11.2262
ora	-11.2262
▁cope	-11.2263
▁daughter	-11.2266
open	-11.2267
▁cheaper	-11.2268
▁AS	-11.227
▁inclusive	-11.2273
▁unprecedented	-11.2274
▁Richard	-11.2274
▁stream	-11.2274
▁Ser	-11.2275
▁Guide	-11.2277
ika	-11.2282
ima	-11.2284
▁terror	-11.2286
▁fa	-11.2289
▁isolation	-11.2291
▁deleted	-11.2296
▁jump	-11.2297
▁coalition	-11.2297
▁agrees	-11.2298
▁rescue	-11.23
▁explicit	-11.2301
▁permanently	-11.2305
This	-11.2311
▁seminar	-11.2314
▁culinary	-11.2315
▁securities	-11.2315
▁consisting	-11.2315
▁thoughts	-11.2315
▁analyses	-11.2321
▁80%	-11.2322
▁width	-11.2323
▁cargo	-11.2328
89	-11.2329
▁Nordic	-11.2331
▁fuels	-11.2333
ib	-11.2335
▁vicinity	-11.2338
▁Prince	-11.2341
vent	-11.2346
even	-11.2346
▁transform	-11.235
ef	-11.235
rio	-11.235
▁Korean	-11.2351
77	-11.2352
▁Min	-11.2353
pol	-11.2356
▁tackling	-11.2356
sur	-11.236
dia	-11.236
No	-11.2362
yl	-11.2362
▁stem	-11.2364
▁newspapers	-11.2367
▁justification	-11.2367
▁Friendly	-11.2375
▁Playa	-11.2376
makers	-11.2377
▁Max	-11.238
▁grew	-11.238
▁boxes	-11.2382
OL	-11.2383
ery	-11.2385
▁Call	-11.2387
2)	-11.2388
CI	-11.2388
▁Frank	-11.2391
▁unlimited	-11.2398
ill	-11.2399
▁abolition	-11.2403
▁Pack	-11.2406
▁specialised	-11.2406
▁bonds	-11.2407
pu	-11.2408
▁endless	-11.241
igen	-11.2415
NET	-11.2416
▁optimum	-11.2421
▁ending	-11.2423
▁announcement	-11.2429
▁landscapes	-11.2429
more	-11.243
▁tangible	-11.2433
▁checking	-11.2436
78	-11.2436
▁discovery	-11.244
gate	-11.2443
ition	-11.2443
▁Reserve	-11.2446
dem	-11.245
▁j	-11.2451
▁Region	-11.2451
▁1989	-11.2454
▁District	-11.2457
▁unlikely	-11.2459
▁Palma	-11.2462
▁Joseph	-11.2463
▁clothes	-11.2465
▁refined	-11.2466
▁passes	-11.2467
▁Stuttgart	-11.2469
hor	-11.2469
▁demanded	-11.2471
▁$1	-11.2472
▁upload	-11.2473
▁mining	-11.2473
rich	-11.2474
▁earthquake	-11.2475
▁twelve	-11.2475
▁tele	-11.2478
▁furthermore	-11.2484
▁Class	-11.2485
▁Anonymous	-11.2487
▁aggressive	-11.2487
range	-11.2491
▁trademarks	-11.2491
▁wise	-11.2491
▁EP	-11.2493
▁arrested	-11.2497
▁skill	-11.2497
▁warranty	-11.2498
▁translations	-11.2498
ult	-11.2505
▁carrier	-11.2506
▁Sam	-11.2508
▁competitors	-11.2509
▁Decision	-11.2511
▁excess	-11.2512
hy	-11.2513
app	-11.2513
▁SE	-11.2514
▁cease	-11.2514
▁Natural	-11.2526
suite	-11.2528
olo	-11.2533
▁obtaining	-11.2536
▁dominant	-11.2541
▁separated	-11.2541
view	-11.2543
▁Rental	-11.2543
▁pi	-11.2545
▁missions	-11.2546
▁congratulations	-11.2547
▁Night	-11.2548
▁Nu	-11.2551
▁Client	-11.2551
▁Holy	-11.2556
▁engagement	-11.2558
▁actor	-11.256
▁CEO	-11.2561
▁yellow	-11.2562
▁connecting	-11.2563
!!	-11.2563
▁LateRooms	-11.2565
▁absurd	-11.2565
▁rivers	-11.2566
▁trademark	-11.2569
▁clearer	-11.2573
ify	-11.2577
▁deemed	-11.258
▁Danube	-11.2583
▁optional	-11.2586
▁disappear	-11.2588
▁distinguished	-11.2589
ban	-11.259
▁2003.	-11.2596
▁estimates	-11.2598
eva	-11.2598
▁booth	-11.26
ets	-11.2601
▁weekly	-11.2604
Al	-11.2605
type	-11.2605
▁unstable	-11.2607
▁consist	-11.2611
▁guides	-11.2612
▁reductions	-11.2614
▁Shi	-11.2617
▁Ki	-11.2617
▁loved	-11.262
▁influenced	-11.2624
▁adjusted	-11.2626
▁Tel	-11.2629
▁Professor	-11.2631
▁Alpine	-11.2632
▁alive	-11.2636
▁gathered	-11.2638
▁deny	-11.264
▁independently	-11.264
▁AC	-11.2646
▁License	-11.265
▁ambitions	-11.265
▁Could	-11.265
▁themes	-11.2651
ito	-11.2651
▁steep	-11.2662
▁Cat	-11.2666
▁Romanian	-11.2669
▁BE	-11.2673
▁ideological	-11.268
▁suspension	-11.268
▁95	-11.268
▁wire	-11.2681
▁employee	-11.2684
▁strip	-11.2686
depth	-11.2688
▁tight	-11.2689
▁preventive	-11.2698
▁noticed	-11.2702
▁vessel	-11.2702
▁Capital	-11.2705
Bo	-11.2709
albeit	-11.2711
▁codes	-11.2711
▁commonly	-11.2717
▁capability	-11.2717
dal	-11.2719
▁excellence	-11.2723
▁reduces	-11.2726
ulation	-11.2727
▁removing	-11.2729
ick	-11.2729
ges	-11.2732
▁translate	-11.2732
▁dominated	-11.2733
▁acquis	-11.2735
▁Residence	-11.2735
▁ambience	-11.2735
и	-11.2739
▁gains	-11.274
yn	-11.2741
pass	-11.2745
▁Au	-11.2747
ug	-11.2747
▁authorised	-11.2747
▁sightseeing	-11.2747
▁vice	-11.2748
▁transmitted	-11.2748
▁About	-11.2748
54	-11.2749
governmental	-11.275
▁subscribe	-11.275
▁verify	-11.2755
▁Ber	-11.2755
▁EMU	-11.2755
lam	-11.2756
▁invoice	-11.2757
▁score	-11.2758
ij	-11.2758
vy	-11.2759
▁UNESCO	-11.276
▁nowadays	-11.276
▁investigations	-11.276
▁venue	-11.2765
ré	-11.2765
▁imperative	-11.2766
AP	-11.277
▁Millennium	-11.2772
life	-11.2773
ways	-11.2773
yes	-11.2774
ivity	-11.2776
▁appreciation	-11.2778
▁Fo	-11.2779
ori	-11.2781
▁Tunisia	-11.2782
lock	-11.2783
▁Fourth	-11.2784
wood	-11.2786
▁IS	-11.2787
▁ran	-11.279
▁permits	-11.2796
▁stakeholders	-11.2797
▁stringent	-11.2798
▁monthly	-11.2798
72	-11.2798
▁emotional	-11.28
▁lock	-11.2802
▁Double	-11.2803
▁Ed	-11.2803
▁separation	-11.2809
▁bold	-11.2811
▁conviction	-11.2814
▁responses	-11.2818
ency	-11.2818
▁plate	-11.2825
▁boundaries	-11.2828
▁accepts	-11.2829
▁Michel	-11.2831
▁unanimous	-11.2833
▁mild	-11.2836
▁Karl	-11.2838
té	-11.2839
▁capacities	-11.284
▁laboratory	-11.2846
▁camping	-11.2851
▁supervisory	-11.2854
▁Communication	-11.2858
	-11.2859
tain	-11.2861
▁Chief	-11.2865
▁backing	-11.2867
▁acted	-11.287
▁Sir	-11.287
▁Forest	-11.2871
▁struck	-11.2871
▁hosts	-11.2872
▁kilometers	-11.2877
▁scenario	-11.2877
▁Ref	-11.2885
▁ni	-11.2886
New	-11.2888
▁Near	-11.2888
ax	-11.2889
▁differently	-11.289
▁indigenous	-11.289
pon	-11.289
56	-11.2894
▁invested	-11.2895
▁married	-11.2896
city	-11.2896
▁consulted	-11.2899
itz	-11.2899
▁plane	-11.29
▁keyboard	-11.29
▁sat	-11.2902
▁household	-11.2902
▁antique	-11.2903
▁Rather	-11.2903
▁missed	-11.2904
▁railways	-11.2905
AN	-11.2911
nik	-11.2912
ters	-11.2916
▁favor	-11.2919
▁witness	-11.292
▁tro	-11.2921
▁Ph	-11.2923
▁resorts	-11.2924
▁observations	-11.2925
▁embedded	-11.2927
media	-11.2928
▁presentations	-11.2929
▁abolish	-11.2934
▁Pra	-11.2937
▁Captain	-11.2939
wer	-11.2941
▁countless	-11.2941
▁Kra	-11.2949
▁lens	-11.295
uring	-11.2955
▁dangers	-11.2957
▁dictatorship	-11.296
▁disc	-11.2961
real	-11.2964
just	-11.2967
llen	-11.2969
nk	-11.2972
▁Working	-11.2972
42	-11.2972
▁constraints	-11.2975
▁globalization	-11.2975
▁demo	-11.2976
▁Regard	-11.2977
▁25%	-11.2978
▁Ol	-11.2979
og	-11.2979
▁districts	-11.2979
▁younger	-11.298
▁partially	-11.298
TE	-11.2981
▁roughly	-11.2983
PE	-11.2983
▁Caribbean	-11.2984
▁reconciliation	-11.2984
▁bases	-11.2992
▁afterwards	-11.2993
▁Later	-11.2995
▁COM	-11.2998
▁musicians	-11.3
▁Mountain	-11.3002
ici	-11.3003
ör	-11.3006
▁experiment	-11.301
▁fires	-11.3011
▁Hol	-11.3011
▁fe	-11.3013
▁Jerusalem	-11.3015
2,	-11.3015
▁finds	-11.3016
pin	-11.3019
▁honor	-11.3022
▁Jesus	-11.3022
▁automobile	-11.3022
▁Valencia	-11.3022
Or	-11.3023
▁Plus	-11.3025
mor	-11.3028
▁cycling	-11.3032
▁vineyards	-11.3034
▁Village	-11.3035
▁Cam	-11.3037
▁thick	-11.304
you	-11.304
▁Alexander	-11.3042
▁investing	-11.3042
▁Jews	-11.3046
ography	-11.3049
▁lend	-11.3051
▁ka	-11.3051
▁universe	-11.3053
ole	-11.3058
▁tranquil	-11.3058
▁dossier	-11.306
▁radiation	-11.306
▁Ac	-11.3061
oni	-11.3062
lot	-11.3065
▁sincerely	-11.3066
ы	-11.3067
ür	-11.3069
▁admission	-11.3073
▁labels	-11.3073
▁Queen	-11.3073
▁Ste	-11.3075
▁AD	-11.3076
ille	-11.3076
▁carte	-11.3077
▁insight	-11.3077
▁currencies	-11.3079
▁une	-11.3082
rc	-11.3082
▁Estonia	-11.3083
▁winners	-11.3083
▁5%	-11.3085
▁inequality	-11.3086
▁finishing	-11.3087
sid	-11.3088
▁nationals	-11.309
inter	-11.3091
▁reaches	-11.3092
ico	-11.3093
▁incident	-11.3096
▁Vista	-11.3097
▁tar	-11.3097
ave	-11.31
▁commend	-11.3102
rian	-11.3104
▁boards	-11.3104
kan	-11.3105
tec	-11.3106
▁ve	-11.3106
fish	-11.3108
▁revenues	-11.3109
▁warrant	-11.3109
76	-11.311
▁lu	-11.3111
▁profession	-11.3114
hof	-11.3114
ration	-11.3114
▁acid	-11.3115
▁damaging	-11.3117
▁advocate	-11.3118
PO	-11.3118
▁motivated	-11.3119
▁Mat	-11.3121
▁Nero	-11.3123
▁autonomous	-11.3123
▁safely	-11.3123
▁hectares	-11.3129
mas	-11.3129
tas	-11.313
▁bet	-11.3132
power	-11.3133
You	-11.3136
▁ties	-11.3137
▁genetically	-11.3137
▁44	-11.3137
▁Library	-11.3142
▁cup	-11.3144
▁contributes	-11.3147
▁grid	-11.3148
▁Excellent	-11.3149
▁silent	-11.3149
▁designers	-11.3152
▁palace	-11.3152
▁Arts	-11.3156
▁diet	-11.3157
▁attempted	-11.3157
▁Bon	-11.3158
▁offset	-11.3159
-4	-11.316
▁allies	-11.316
une	-11.3161
kov	-11.3162
tom	-11.3167
▁eligible	-11.3168
▁qualities	-11.3168
▁Roth	-11.3173
▁summary	-11.3174
[	-11.3176
▁catering	-11.3178
▁noble	-11.3179
▁intent	-11.3179
ular	-11.3181
▁Nature	-11.3182
▁1950	-11.3182
▁tournament	-11.3184
▁Micro	-11.3187
▁ja	-11.319
▁girl	-11.319
▁tiny	-11.3191
▁PSE	-11.3194
▁Ukrainian	-11.3195
▁Tre	-11.3195
cz	-11.3198
▁hydro	-11.3205
▁inevitable	-11.3206
▁besides	-11.3209
under	-11.321
▁motions	-11.321
▁39	-11.3214
▁Marco	-11.3214
mos	-11.3214
lands	-11.3216
▁vis	-11.3216
▁smoke	-11.3217
nch	-11.3218
eng	-11.3218
▁Annual	-11.3219
▁Country	-11.322
eur	-11.322
ude	-11.3221
▁convey	-11.3225
▁substitute	-11.3226
▁critique	-11.3226
▁utility	-11.3232
▁profiles	-11.3232
▁Warcraft	-11.3233
▁owing	-11.3234
▁workforce	-11.3236
▁teach	-11.3239
▁CHF	-11.324
▁await	-11.3245
▁realised	-11.3248
▁Much	-11.325
lig	-11.325
▁opponents	-11.3255
▁feelings	-11.3255
ía	-11.3256
▁Heritage	-11.3258
▁promising	-11.3258
▁Partner	-11.326
ungen	-11.326
▁mar	-11.3263
▁indispensable	-11.3264
▁mineral	-11.3267
▁delayed	-11.3267
▁folk	-11.3267
EM	-11.327
▁styles	-11.327
▁laying	-11.3271
TI	-11.3271
74	-11.3274
▁designated	-11.3274
▁secured	-11.3276
▁accountability	-11.3277
▁Direct	-11.3281
▁sich	-11.3281
в	-11.3282
▁MB	-11.3284
▁minds	-11.3284
▁cat	-11.3285
▁nu	-11.3287
▁impetus	-11.3297
▁deck	-11.3299
▁Though	-11.3301
▁mi	-11.3302
▁Climate	-11.3303
▁intimate	-11.3304
▁Suites	-11.3304
▁Im	-11.3305
▁oder	-11.3307
reaching	-11.3308
▁capitalism	-11.3309
▁Unlike	-11.3311
▁entity	-11.3311
▁admire	-11.3315
▁earned	-11.3315
▁praise	-11.3316
▁NOT	-11.3317
▁Rhine	-11.3317
▁bomb	-11.3317
▁routine	-11.3322
▁luggage	-11.3323
91	-11.3324
▁punishment	-11.3331
▁USS	-11.3332
▁Mas	-11.3333
▁luck	-11.3336
▁coherence	-11.3336
▁2-	-11.3336
▁Sand	-11.3337
ses	-11.3338
▁eating	-11.3339
58	-11.3342
▁limitations	-11.3344
▁Han	-11.335
law	-11.3355
▁retirement	-11.3356
zio	-11.3357
▁lawyers	-11.3359
▁Again	-11.3359
ear	-11.3359
▁seaside	-11.3361
▁Gallery	-11.3363
▁assessments	-11.3365
▁wedding	-11.3366
gre	-11.3368
▁Das	-11.3374
▁extends	-11.3379
▁featured	-11.3381
▁killing	-11.3385
bal	-11.3386
hen	-11.3387
▁walks	-11.3388
▁controller	-11.3388
▁talent	-11.3389
▁outlined	-11.339
UM	-11.3391
▁surplus	-11.3391
▁Pie	-11.3392
400	-11.3393
▁existed	-11.3393
cast	-11.3393
97	-11.3395
69	-11.3395
▁dumping	-11.3396
▁XP	-11.3397
word	-11.3401
▁Between	-11.3401
ea	-11.3404
▁avoiding	-11.3408
▁climbing	-11.3411
▁Porto	-11.3413
▁Criminal	-11.3414
▁hunger	-11.3416
▁delivering	-11.342
▁inevitably	-11.3421
▁Objective	-11.3421
ova	-11.3421
▁forums	-11.3422
▁panels	-11.3423
▁cooperative	-11.3428
▁hole	-11.343
▁Cold	-11.3433
equipped	-11.3434
sky	-11.3434
TO	-11.3434
▁systematically	-11.3435
▁HIV	-11.3435
▁Statute	-11.3441
▁feels	-11.3445
▁explanations	-11.3445
▁gradual	-11.3447
▁hairdryer	-11.3447
▁Exhibition	-11.3448
▁Hill	-11.3449
stone	-11.3458
▁hang	-11.3458
▁cream	-11.3461
▁fundamentally	-11.3461
▁shoes	-11.3462
yo	-11.3466
Be	-11.3467
▁RI	-11.347
▁stays	-11.3471
▁yield	-11.3472
place	-11.3474
▁databases	-11.3477
▁sequence	-11.3477
▁somewhere	-11.3478
gas	-11.3479
put	-11.348
▁Simply	-11.348
▁gaming	-11.348
fect	-11.3482
suing	-11.3483
▁flower	-11.3483
▁2.5	-11.3483
aria	-11.3485
▁VI	-11.3485
▁Army	-11.3486
eb	-11.349
▁Chechnya	-11.3494
▁spell	-11.3502
▁plugin	-11.3509
print	-11.351
▁bears	-11.3511
ort	-11.3516
▁alert	-11.3517
▁continuation	-11.3517
▁Allah	-11.3521
los	-11.3522
▁prohibit	-11.3524
▁environments	-11.3526
Do	-11.3529
▁loading	-11.3533
▁Fra	-11.3537
▁carries	-11.3537
«	-11.3537
▁reveal	-11.3538
▁skilled	-11.3538
▁elegance	-11.3547
▁vacuum	-11.3547
▁blocked	-11.3548
▁deeper	-11.3548
▁awards	-11.3549
aj	-11.355
▁43	-11.3551
▁compatibility	-11.3553
▁Vol	-11.3557
▁Round	-11.3558
▁Fr	-11.3559
▁repression	-11.356
▁complimentary	-11.3561
▁Bulgarian	-11.3561
▁scenes	-11.3561
▁auch	-11.3562
gue	-11.3564
▁argued	-11.3565
▁discretion	-11.3566
▁socially	-11.3566
▁legendary	-11.3567
enberg	-11.3567
▁Saudi	-11.3575
▁refurbished	-11.3581
▁Fire	-11.3582
▁calculation	-11.3582
▁Fax	-11.3584
▁authorized	-11.3584
▁printer	-11.3585
▁arriving	-11.3587
▁congratulat	-11.3587
gna	-11.359
nis	-11.3591
▁continental	-11.3591
▁Piazza	-11.3592
▁pack	-11.3594
▁Gay	-11.3599
▁criterion	-11.36
▁villas	-11.3602
▁shore	-11.361
▁Look	-11.361
▁horses	-11.3613
▁Sc	-11.3614
▁Ze	-11.3616
▁globally	-11.3617
▁attraction	-11.3617
building	-11.3619
▁tremendous	-11.362
▁classification	-11.3621
▁shock	-11.3626
▁libraries	-11.3627
▁Saddam	-11.3627
shi	-11.3627
93	-11.3627
llo	-11.3629
▁pin	-11.3631
national	-11.3632
dorf	-11.3632
▁SP	-11.3633
▁dreams	-11.3633
▁sta	-11.3634
▁convincing	-11.3634
▁procedural	-11.3634
MB	-11.3634
▁cooling	-11.3635
▁detection	-11.3635
▁enforce	-11.3637
▁Mur	-11.3637
▁Products	-11.3639
▁solving	-11.364
▁Sar	-11.3641
▁interference	-11.3642
▁abandon	-11.3643
OM	-11.3644
▁Ein	-11.3645
57	-11.3647
▁Depend	-11.3648
▁gathering	-11.3649
▁execute	-11.3652
▁activate	-11.3652
▁NEW	-11.3659
▁Corporate	-11.366
▁foods	-11.3661
▁absorb	-11.3662
▁Cultural	-11.3667
dom	-11.3667
▁Sant	-11.3672
▁thirty	-11.3674
▁globe	-11.3674
▁handed	-11.3678
▁configure	-11.3679
▁resolv	-11.368
▁Singapore	-11.3681
▁swim	-11.3681
fen	-11.3684
vor	-11.3686
bri	-11.3693
з	-11.3694
▁exclude	-11.3696
▁Doha	-11.3698
ario	-11.37
▁entities	-11.3701
▁openly	-11.3701
▁Finance	-11.3708
▁Railway	-11.3709
mic	-11.371
▁painful	-11.371
GB	-11.3711
▁remedy	-11.3714
▁innocent	-11.3714
▁subjected	-11.3717
rá	-11.3717
▁incorrect	-11.3718
▁judges	-11.3719
▁activated	-11.3723
▁Key	-11.3727
▁2002.	-11.3727
▁rec	-11.3727
▁rigorous	-11.3728
▁washing	-11.3729
▁installing	-11.3732
ée	-11.3733
▁kit	-11.3735
▁Back	-11.3736
▁Summer	-11.3736
▁writer	-11.3737
▁Christians	-11.374
▁cathedral	-11.3742
▁URL	-11.3742
▁Wellness	-11.3745
▁reinforced	-11.3747
▁leg	-11.3749
code	-11.3752
ison	-11.3752
▁resumed	-11.3754
dan	-11.3757
▁guard	-11.3761
▁Terrace	-11.3762
▁dependence	-11.3763
▁behold	-11.3763
▁collections	-11.3763
Mar	-11.3764
▁borne	-11.3764
▁shooting	-11.3764
RI	-11.3768
▁comforts	-11.3773
▁Kal	-11.3779
▁overnight	-11.378
UR	-11.3782
▁Dresden	-11.3782
▁abstained	-11.3782
▁racing	-11.3783
▁Comp	-11.3785
LI	-11.3785
▁successor	-11.3785
▁indirectly	-11.3785
▁lit	-11.3788
tig	-11.3791
she	-11.3792
dent	-11.3792
▁bicycle	-11.3794
▁Being	-11.3795
▁gases	-11.3796
SI	-11.3796
▁Cala	-11.3801
▁simplified	-11.3803
▁Fe	-11.3804
▁Arm	-11.3805
▁locally	-11.3807
onic	-11.3807
▁hopefully	-11.3809
▁dans	-11.3809
ville	-11.3811
hold	-11.3811
▁Basel	-11.3811
▁ME	-11.3813
▁chamber	-11.3815
ators	-11.3815
tus	-11.3815
▁pose	-11.3816
sia	-11.3817
▁Local	-11.3818
▁Daniel	-11.3823
▁detention	-11.3825
▁infrastructures	-11.3826
▁Administration	-11.383
▁personality	-11.3832
▁serial	-11.3833
rea	-11.3834
▁attempting	-11.3836
CC	-11.3836
▁donors	-11.3839
▁desert	-11.384
▁fruits	-11.3842
▁Corporation	-11.3844
▁Egyptian	-11.3844
▁construct	-11.3844
▁CA	-11.3845
▁dogs	-11.3847
▁possession	-11.3848
▁Update	-11.3851
92	-11.3853
▁Young	-11.3855
▁complaint	-11.3856
▁Bern	-11.3858
▁invites	-11.3858
▁analyse	-11.3862
▁exquisite	-11.3864
▁decoration	-11.3865
▁council	-11.387
▁backed	-11.3871
▁instability	-11.3871
▁restrictive	-11.3873
▁clinical	-11.3874
▁mood	-11.3874
nom	-11.3877
▁envisaged	-11.3877
▁AM	-11.3878
sy	-11.3883
▁Mari	-11.3883
▁ruled	-11.3884
▁coastline	-11.3885
5-00	-11.3886
ect	-11.3887
▁promotes	-11.3889
▁Age	-11.389
▁Nigeria	-11.389
▁marking	-11.3893
▁waves	-11.3896
▁GPS	-11.3897
▁consolidate	-11.3897
▁aus	-11.39
▁entrepreneurs	-11.3901
▁Helsinki	-11.3906
▁disastrous	-11.3906
▁interpreted	-11.3909
fall	-11.391
▁lights	-11.3911
▁margin	-11.3912
▁panorama	-11.3913
▁Nikon	-11.3913
▁reviewed	-11.3915
▁Classic	-11.3915
ls	-11.3921
▁stating	-11.3924
cur	-11.3924
▁ou	-11.3925
▁colonial	-11.3926
▁conservative	-11.3929
▁confidential	-11.3933
▁dei	-11.3933
▁patch	-11.3939
▁refusal	-11.394
▁Theatre	-11.3941
▁assign	-11.3941
▁filters	-11.3945
▁Riviera	-11.3947
▁distant	-11.3948
▁limitation	-11.3948
96	-11.395
▁Sy	-11.395
▁Try	-11.3953
▁adequately	-11.3953
▁determining	-11.3954
▁rarely	-11.3957
▁bid	-11.3958
▁founder	-11.3958
▁Sur	-11.3966
▁conscience	-11.3968
▁IGC	-11.3968
▁Brand	-11.3973
ific	-11.3973
cio	-11.3975
▁hi	-11.3978
▁landing	-11.3979
▁settle	-11.3985
▁boom	-11.3985
▁Kin	-11.3986
ics	-11.3991
▁abuses	-11.3994
▁speaks	-11.3996
▁sincere	-11.3999
Enterprise	-11.4001
▁selecting	-11.4003
▁distinct	-11.4006
▁Latvia	-11.4009
▁harmonised	-11.4009
▁highway	-11.4012
stra	-11.4013
▁Tibetan	-11.4016
▁Wireless	-11.4017
▁Hand	-11.4017
atic	-11.4019
61	-11.4019
▁thereof	-11.402
TH	-11.4021
▁validity	-11.4022
grad	-11.4024
▁ceremony	-11.4024
PM	-11.4025
▁EX	-11.4025
▁altitude	-11.4026
din	-11.4027
▁Prof	-11.4029
east	-11.403
▁decor	-11.4032
▁psychological	-11.4038
▁AL	-11.4038
▁Berg	-11.4044
▁brilliant	-11.4045
▁Sim	-11.4049
▁enjoyable	-11.4051
▁hazardous	-11.4052
-3	-11.4054
▁Muslims	-11.4054
▁rank	-11.4055
▁Edinburgh	-11.4059
▁ferry	-11.406
▁distinguish	-11.4061
▁Sign	-11.4066
▁(3	-11.4067
▁scan	-11.4067
▁technically	-11.4068
ibility	-11.4068
▁grain	-11.4069
ò	-11.4073
▁scrutiny	-11.4073
▁Cro	-11.4073
▁Chile	-11.4075
ich	-11.4078
▁tailor	-11.4084
cas	-11.4086
▁distinctive	-11.4087
▁arises	-11.4088
▁loan	-11.4094
94	-11.4098
▁mount	-11.41
▁aluminium	-11.4101
▁advances	-11.4101
▁parent	-11.4104
▁exceptionally	-11.4104
tting	-11.4109
▁architect	-11.411
▁dear	-11.4113
▁Building	-11.412
ट	-11.4122
▁Samsung	-11.4122
▁Aus	-11.4127
▁pump	-11.4128
▁delivers	-11.413
▁refugee	-11.4132
cro	-11.4132
▁matches	-11.4133
▁AIDS	-11.4133
▁wishing	-11.4134
▁newest	-11.4137
▁distributors	-11.4137
▁graphical	-11.4138
▁bottle	-11.4138
HA	-11.4139
▁reader	-11.4143
▁Machine	-11.4145
▁pet	-11.4146
▁ci	-11.4146
▁preference	-11.4147
▁abilities	-11.4148
▁forming	-11.415
▁Privacy	-11.4151
▁Explorer	-11.4152
gging	-11.4153
ische	-11.4154
▁Bur	-11.4156
▁theoretical	-11.4157
▁examining	-11.4157
▁Image	-11.4159
▁correspond	-11.416
▁Unless	-11.416
▁VIP	-11.4161
▁civilians	-11.4163
ación	-11.4163
idad	-11.4163
▁Petitions	-11.4164
▁Ur	-11.4169
0.00	-11.417
▁ser	-11.4173
▁instant	-11.4174
▁healing	-11.4175
▁2012	-11.4175
▁adjustments	-11.4176
▁Mallorca	-11.4179
▁breaking	-11.4179
owned	-11.4179
▁Mountains	-11.4179
▁Mount	-11.4179
▁Innovation	-11.4181
▁het	-11.4183
▁unanimity	-11.4186
▁cruise	-11.4187
▁professor	-11.4187
▁tune	-11.4187
▁с	-11.419
▁symbols	-11.4193
▁carriers	-11.4198
▁conform	-11.4199
▁Large	-11.42
▁cotton	-11.42
▁Computer	-11.42
▁Sierra	-11.42
mmer	-11.4202
▁cure	-11.4204
▁shell	-11.4204
▁rid	-11.4205
▁Solidarity	-11.4207
▁sensitivity	-11.4209
▁Mai	-11.4211
anda	-11.4213
▁courtyard	-11.4214
▁solo	-11.4217
rac	-11.4223
▁birthday	-11.4223
▁Map	-11.4224
▁customized	-11.4226
▁Stock	-11.4226
Mediterranean	-11.4227
pet	-11.4228
▁backup	-11.423
▁interfaces	-11.4233
▁immense	-11.4235
▁safeguarding	-11.4236
71	-11.4239
read	-11.4241
▁preservation	-11.4243
▁admitted	-11.4243
American	-11.425
▁heaven	-11.425
rin	-11.4256
▁catalog	-11.4256
▁securing	-11.4257
▁Sound	-11.4258
▁Point	-11.4261
▁kg	-11.4262
▁prejudice	-11.4264
▁gr	-11.4264
98	-11.4268
▁voices	-11.4269
▁formally	-11.4269
▁Sen	-11.4271
▁fossil	-11.4271
▁democracies	-11.4271
▁coins	-11.4273
▁SQL	-11.4275
ALE	-11.4275
▁KDE	-11.4276
▁invasion	-11.4278
▁Especially	-11.4285
▁Tro	-11.4286
▁elite	-11.4286
▁tries	-11.4287
▁consolidated	-11.4294
▁herself	-11.4294
87	-11.4295
▁congress	-11.4297
▁civilisation	-11.4298
▁devote	-11.43
▁Credit	-11.4302
▁hosting	-11.4302
▁NO	-11.4302
fu	-11.4303
▁Nobel	-11.4304
я	-11.4306
ungs	-11.4306
▁Tar	-11.4306
ffe	-11.4306
source	-11.4311
ay	-11.4311
▁Adam	-11.4314
▁Whilst	-11.4314
▁beautifully	-11.4314
▁poly	-11.4317
▁audiovisual	-11.432
▁Political	-11.4323
▁tube	-11.4333
una	-11.4333
д	-11.4336
▁Newspapers	-11.4336
▁Gro	-11.4337
▁halt	-11.4339
▁orchestra	-11.4341
81	-11.4343
▁Leipzig	-11.4343
▁diameter	-11.4343
▁integrating	-11.4343
▁vo	-11.4347
Vi	-11.4349
round	-11.4349
▁buyer	-11.4349
▁commerce	-11.4351
▁annually	-11.4353
▁Tourist	-11.4353
▁Pat	-11.4353
▁viewing	-11.4354
▁supporters	-11.4354
6%	-11.4355
click	-11.4358
▁posed	-11.4358
-8	-11.436
aire	-11.436
▁au	-11.4363
▁ageing	-11.4363
▁iPod	-11.4365
▁Son	-11.4365
▁DC	-11.4367
ohesion	-11.4371
▁Future	-11.4371
▁Written	-11.4372
▁monopoly	-11.4372
▁Word	-11.4372
▁energies	-11.4372
▁towels	-11.4375
▁classified	-11.438
ech	-11.4386
▁pillars	-11.4391
-10	-11.4395
▁nearest	-11.4402
▁gi	-11.4403
▁protests	-11.4406
▁Arena	-11.4406
▁coin	-11.4407
▁smell	-11.4408
▁harsh	-11.4408
▁maintains	-11.4412
▁Congo	-11.4415
▁irrespective	-11.4415
▁overwhelming	-11.4417
▁corporations	-11.4417
nar	-11.4418
cit	-11.4419
▁Angel	-11.442
-5	-11.4421
▁breeding	-11.4423
▁arch	-11.443
flow	-11.4432
▁sympathy	-11.4437
mu	-11.4438
▁reasonably	-11.444
▁criminals	-11.4442
▁pr	-11.4442
▁pursuit	-11.4444
▁Hard	-11.4445
▁LCD	-11.4446
▁advised	-11.4447
▁protective	-11.445
▁reactions	-11.4451
▁Disabled	-11.4452
▁Division	-11.4452
▁accompanying	-11.4453
▁unilateral	-11.4458
dar	-11.4464
н	-11.4464
▁immunity	-11.4466
▁wisdom	-11.4466
▁cattle	-11.4466
▁SO	-11.447
▁perceived	-11.4471
▁obstacle	-11.4473
▁Ms	-11.4473
wel	-11.4475
▁attentive	-11.4481
▁surgery	-11.4481
▁transported	-11.4482
zy	-11.4483
page	-11.4486
wan	-11.4487
size	-11.4488
▁Annex	-11.449
▁ages	-11.449
band	-11.4491
bat	-11.4493
▁communist	-11.4502
▁origins	-11.4503
▁menus	-11.4506
icht	-11.4507
performance	-11.451
▁qua	-11.4511
▁Gal	-11.4511
▁cater	-11.4514
▁Slovak	-11.4515
▁worried	-11.4517
▁Print	-11.4521
▁portion	-11.4524
▁stones	-11.4526
▁Palm	-11.4528
▁gen	-11.453
financing	-11.4532
▁beside	-11.4532
és	-11.4532
▁medicinal	-11.4532
▁phrase	-11.4535
▁bags	-11.4537
▁flood	-11.4539
▁memories	-11.454
▁vertical	-11.454
▁jet	-11.4544
▁Help	-11.4546
▁initiate	-11.4546
▁inappropriate	-11.4547
▁Ter	-11.4548
sson	-11.4549
▁BC	-11.4549
ele	-11.4551
▁Afghan	-11.4554
▁modification	-11.4555
▁roles	-11.4555
any	-11.4556
▁linen	-11.4556
▁Dry	-11.4561
▁Nokia	-11.4562
▁galleries	-11.4562
▁strain	-11.4562
▁cra	-11.4565
lines	-11.4567
53	-11.4571
An	-11.4571
▁certificates	-11.4571
▁1999.	-11.4571
BS	-11.4576
▁samples	-11.4576
LAF	-11.4578
▁persist	-11.4578
▁injection	-11.4583
▁WC	-11.4585
▁bu	-11.4585
SD	-11.4588
hal	-11.459
ando	-11.4591
▁marble	-11.4591
▁forecast	-11.4593
▁demonstrations	-11.4594
▁endorsed	-11.4594
52	-11.4596
▁tonight	-11.46
▁linking	-11.4602
▁wished	-11.4602
▁deciding	-11.4606
▁renewal	-11.4608
▁suspend	-11.4609
▁bands	-11.4609
▁threatening	-11.461
▁furnishings	-11.461
▁belt	-11.461
▁BA	-11.4612
ily	-11.4612
▁Neither	-11.4613
▁secular	-11.4614
▁pas	-11.4617
▁breast	-11.4621
feld	-11.4621
▁tensions	-11.4621
active	-11.4621
▁William	-11.4624
only	-11.4625
▁profitable	-11.4626
▁visas	-11.4627
▁dramatically	-11.4629
▁revolutionary	-11.463
▁plates	-11.464
▁Love	-11.464
▁©	-11.4641
▁68	-11.4642
▁Revolution	-11.4642
▁laptop	-11.4643
▁pretext	-11.4651
ñ	-11.4654
▁Relax	-11.4658
▁Zealand	-11.4658
▁Consider	-11.4658
▁aiming	-11.4661
▁german	-11.4663
▁Galileo	-11.4665
▁layers	-11.4666
▁counts	-11.4668
▁strikes	-11.4669
▁Thai	-11.467
▁breath	-11.4671
▁Chancellor	-11.4673
7%	-11.4673
▁Mary	-11.4674
ime	-11.4679
▁inviting	-11.468
▁Blair	-11.4681
san	-11.4684
600	-11.4687
▁simulation	-11.4688
▁comfortably	-11.4689
▁Brok	-11.4689
▁witnessed	-11.4694
▁Canadian	-11.4695
▁exotic	-11.4695
▁avec	-11.4696
debate	-11.4696
▁kick	-11.4699
▁query	-11.47
▁coach	-11.47
▁predict	-11.4703
▁gaining	-11.4703
system	-11.4704
gs	-11.4704
tten	-11.4706
▁cor	-11.4707
▁pushed	-11.4709
▁violate	-11.471
▁guilty	-11.4712
▁Tele	-11.4712
▁hunt	-11.4714
▁(1)	-11.4719
▁barrier	-11.472
gram	-11.4726
▁studying	-11.4726
▁anyway	-11.4729
▁Smith	-11.4732
ase	-11.4735
▁electronics	-11.4735
▁safer	-11.4738
Linux	-11.474
▁completing	-11.474
▁tendency	-11.474
▁Fed	-11.4741
duc	-11.4744
met	-11.4745
▁ga	-11.4746
▁tone	-11.4748
▁1%	-11.4749
▁emphasize	-11.4752
DC	-11.4752
▁sheep	-11.4758
▁Bor	-11.4759
▁sin	-11.4759
▁hub	-11.4761
▁woods	-11.4762
▁persecution	-11.4762
its	-11.4765
▁chances	-11.4766
▁worker	-11.4767
ô	-11.477
▁pair	-11.4774
▁problematic	-11.4774
▁Along	-11.4775
▁modernisation	-11.4775
▁incomes	-11.4777
gt	-11.4779
▁Cla	-11.4779
▁Anyone	-11.478
▁46	-11.4782
▁deadlines	-11.4784
▁disabilities	-11.4785
▁fer	-11.4785
▁loaded	-11.4786
▁aboard	-11.4787
▁concludes	-11.4787
EE	-11.4789
▁Want	-11.4789
62	-11.4791
▁husband	-11.4792
▁wi	-11.4794
6-0	-11.4797
gio	-11.4798
▁smallest	-11.4799
▁drama	-11.48
EA	-11.48
▁sums	-11.48
gent	-11.4803
800	-11.4808
▁divisions	-11.481
▁hunting	-11.4811
▁tunnel	-11.4811
lio	-11.4812
▁Enter	-11.4813
▁ruins	-11.4813
▁govern	-11.482
▁prevents	-11.4821
▁vibrant	-11.4823
▁Watch	-11.4824
▁deployment	-11.4824
ense	-11.4824
▁Col	-11.4824
▁terraces	-11.4827
▁Colombia	-11.4828
play	-11.4829
▁Algeria	-11.483
▁costly	-11.483
▁Firefox	-11.483
▁Wikitravel	-11.483
vol	-11.4832
eck	-11.4833
▁werden	-11.4838
group	-11.4839
hm	-11.4841
▁possess	-11.4841
у	-11.4844
▁interventions	-11.4845
▁reign	-11.4849
▁limiting	-11.485
▁Engineering	-11.4851
▁trigger	-11.4853
▁holes	-11.4855
text	-11.4856
▁assessed	-11.4858
ão	-11.4858
▁consultations	-11.4858
▁alpine	-11.4861
gua	-11.4861
uc	-11.4861
▁Ven	-11.4864
▁Mass	-11.4869
▁Winter	-11.4873
home	-11.4873
DO	-11.4873
▁jazz	-11.4877
tsch	-11.4881
▁journalist	-11.4882
▁Siemens	-11.4883
▁container	-11.4883
▁60%	-11.4885
lf	-11.4886
rei	-11.4886
▁Gre	-11.4887
SL	-11.4888
▁illness	-11.4889
▁uns	-11.4892
▁ent	-11.4893
▁advisory	-11.4893
▁render	-11.4895
▁fastest	-11.4895
▁prerequisite	-11.4896
79	-11.4902
▁sch	-11.4903
▁broadcasting	-11.4904
▁dairy	-11.4906
▁Recently	-11.4911
▁47	-11.4913
▁identifying	-11.4914
▁Airlines	-11.4914
▁XML	-11.4914
▁complementary	-11.4915
ela	-11.4917
▁proves	-11.492
▁brutal	-11.4921
▁Francisco	-11.4922
▁41	-11.4924
84	-11.4926
▁march	-11.4926
▁180	-11.4926
▁multinational	-11.4927
FA	-11.4928
profit	-11.493
▁Schulz	-11.4933
▁DO	-11.4943
▁Bet	-11.4944
▁bulk	-11.4945
dos	-11.4947
▁breaks	-11.4948
▁gate	-11.4948
▁Cas	-11.495
▁stimulus	-11.4952
▁Nothing	-11.4952
▁cabin	-11.4957
▁Looking	-11.4958
▁baggage	-11.496
▁fireplace	-11.496
pers	-11.496
▁transnational	-11.4962
▁pipeline	-11.4966
▁ideology	-11.4967
▁developer	-11.4968
▁confirms	-11.4971
▁Europa	-11.4972
▁über	-11.4972
jpg	-11.4975
▁Montenegro	-11.4975
tr	-11.4977
▁Did	-11.4978
Out	-11.4978
▁delegations	-11.4982
inger	-11.4982
▁nightlife	-11.4984
tina	-11.499
▁pointing	-11.4993
▁forestry	-11.4994
▁popularity	-11.4995
ered	-11.4996
▁modifications	-11.4998
▁imagination	-11.4998
▁legacy	-11.4998
▁attacked	-11.4999
▁Cri	-11.4999
▁Tur	-11.4999
▁Text	-11.5002
trans	-11.5005
▁geo	-11.5007
▁literally	-11.5007
ace	-11.501
▁festivals	-11.501
▁crash	-11.5014
▁variables	-11.5018
▁een	-11.5021
▁Force	-11.5022
▁2001.	-11.5022
▁exploited	-11.5024
▁traditionally	-11.5026
ram	-11.5027
▁OK	-11.5027
▁vor	-11.5029
▁Times	-11.5029
▁submission	-11.5031
ê	-11.5033
case	-11.5033
cs	-11.5036
▁precedent	-11.5037
▁random	-11.5037
▁toxic	-11.5037
▁unified	-11.5041
▁petition	-11.5045
face	-11.5045
▁Picard	-11.5047
▁clauses	-11.505
▁adjacent	-11.5052
▁Ham	-11.5053
▁Cer	-11.5054
soft	-11.5058
mun	-11.5059
▁Para	-11.506
▁52	-11.5061
]]''	-11.5065
▁climb	-11.5066
▁Relations	-11.5068
▁sleeping	-11.5068
▁Fu	-11.5073
arch	-11.5074
▁loud	-11.5077
▁pu	-11.5082
nate	-11.5084
▁1998,	-11.5085
▁Croatian	-11.5087
▁rolling	-11.5087
vote	-11.5091
▁buffer	-11.5092
▁oriented	-11.5094
▁modular	-11.5099
▁dealer	-11.5102
▁(18	-11.5102
▁readers	-11.5102
Ha	-11.5103
bound	-11.5103
sum	-11.5113
▁confidentiality	-11.5116
▁retained	-11.5116
RM	-11.5116
▁trials	-11.512
▁textiles	-11.512
▁Br	-11.5122
▁minibar	-11.5124
(2)	-11.5124
▁Cur	-11.5125
0.000	-11.5125
▁phenomena	-11.513
▁temporarily	-11.513
▁Del	-11.5135
▁shoot	-11.5135
▁compromises	-11.5136
town	-11.5137
▁spreading	-11.5137
▁Additional	-11.5138
▁Ag	-11.5149
▁Environmental	-11.515
▁YOU	-11.515
▁HP	-11.5151
ité	-11.5152
▁1988	-11.5155
63	-11.5157
▁Tuscany	-11.5157
oo	-11.5159
▁spam	-11.516
î	-11.5161
track	-11.5162
▁Vert	-11.5163
▁incidents	-11.5166
▁speculation	-11.5169
elli	-11.5169
ı	-11.517
▁couples	-11.5171
▁licensed	-11.5174
▁donor	-11.5179
▁Production	-11.5183
▁theater	-11.5184
▁dioxide	-11.5185
▁motivation	-11.5185
ites	-11.5185
▁aesthetic	-11.5185
▁1930	-11.5187
trade	-11.5188
▁indications	-11.5188
hood	-11.5189
Ta	-11.5189
▁bird	-11.5192
ash	-11.5193
▁Solana	-11.5193
▁Quark	-11.5196
BC	-11.5198
73	-11.52
▁pricing	-11.52
▁chip	-11.5202
▁meter	-11.5204
▁ratify	-11.5206
▁Ticket	-11.5206
▁Medical	-11.5209
▁3%	-11.5213
game	-11.5214
▁Kor	-11.5215
▁enemies	-11.5216
▁renovation	-11.5216
▁timing	-11.5216
▁palm	-11.5219
GE	-11.522
▁Monti	-11.5221
▁painted	-11.5222
Europe	-11.5222
En	-11.5224
▁outermost	-11.5224
▁loose	-11.5225
▁Dolomites	-11.5225
▁organs	-11.5228
AD	-11.5229
▁Gen	-11.523
▁mat	-11.523
▁Haiti	-11.5236
conditioning	-11.524
▁enhancing	-11.5242
▁snacks	-11.5243
▁90%	-11.5249
▁350	-11.5249
▁ads	-11.5249
▁affair	-11.5249
▁correction	-11.5249
▁broadly	-11.5254
▁gourmet	-11.5255
▁2013	-11.5256
ink	-11.5258
▁chart	-11.5264
▁haven	-11.5266
▁cave	-11.5267
▁passport	-11.5268
▁beat	-11.5269
nov	-11.527
ण	-11.5271
ROM	-11.5272
▁Canary	-11.5277
▁mill	-11.5277
▁Warsaw	-11.5279
leg	-11.528
phone	-11.5281
cht	-11.5282
▁captured	-11.5286
▁democratically	-11.5286
▁powder	-11.5287
▁macroeconomic	-11.5287
HO	-11.5289
▁refreshing	-11.5289
▁cart	-11.5289
▁posting	-11.5289
Li	-11.5292
▁RSS	-11.5292
ox	-11.5294
▁tasty	-11.5295
AG	-11.5299
▁paragraphs	-11.5302
▁Yu	-11.5302
ION	-11.5303
▁preserving	-11.5303
▁encountered	-11.5305
▁imbalances	-11.5305
▁49	-11.5309
▁grey	-11.5312
▁App	-11.5312
▁responding	-11.5313
▁accessed	-11.5313
▁Still	-11.5314
▁thou	-11.5316
gg	-11.5318
▁activists	-11.532
▁lib	-11.5321
west	-11.5326
▁genocide	-11.5327
▁processor	-11.5328
1.	-11.5329
gor	-11.533
▁Whatever	-11.5331
▁bathing	-11.5333
▁fabulous	-11.5335
▁Hague	-11.5335
▁Pri	-11.5337
▁shorter	-11.534
▁Pla	-11.5341
▁pushing	-11.5342
▁shaped	-11.5342
ín	-11.5342
▁Bonn	-11.5344
▁Holland	-11.5345
hole	-11.5345
▁disadvantage	-11.5345
▁crop	-11.5347
▁trace	-11.5348
famous	-11.5352
plan	-11.5353
▁vague	-11.5354
▁surfaces	-11.5355
▁holder	-11.5356
▁lending	-11.5358
▁definitions	-11.5359
▁retreat	-11.5361
/96	-11.5362
▁Drive	-11.5364
CD	-11.5369
▁gentle	-11.537
gger	-11.5372
▁persuade	-11.5374
▁pragmatic	-11.5375
▁vegetable	-11.5378
iva	-11.5382
▁wanting	-11.5382
р	-11.5386
▁LED	-11.5386
▁yacht	-11.5386
▁purchaser	-11.5386
▁Freedom	-11.5387
▁assessing	-11.5387
user	-11.5392
▁mounted	-11.5393
▁ranking	-11.5394
▁oasis	-11.5399
▁Guinea	-11.5399
▁playground	-11.54
▁conducting	-11.5409
▁topical	-11.5412
▁privileges	-11.5414
आ	-11.5415
▁diplomacy	-11.5415
▁Version	-11.5416
▁fulfill	-11.5417
▁Sri	-11.5417
lis	-11.5421
▁evaluated	-11.5422
bes	-11.5424
▁stretch	-11.5425
▁Hor	-11.5428
▁floods	-11.543
▁continuity	-11.5431
▁Compar	-11.5433
Ho	-11.5435
▁institute	-11.5435
▁settlements	-11.5435
gau	-11.5437
bla	-11.544
ami	-11.5441
▁seekers	-11.5441
▁app	-11.5443
lov	-11.5444
▁HI	-11.5445
▁Democracy	-11.5447
▁batteries	-11.5447
▁gambling	-11.5447
▁statutory	-11.5447
▁Source	-11.5449
sti	-11.5454
▁responded	-11.5455
aud	-11.5457
▁Learn	-11.5461
▁burning	-11.5463
umb	-11.5466
▁storm	-11.5467
RS	-11.5468
isch	-11.5469
ym	-11.5471
ates	-11.5472
nica	-11.5474
arm	-11.5475
care	-11.5477
ström	-11.5479
▁Ashton	-11.5479
▁estimate	-11.5479
Facilities	-11.5481
▁Ali	-11.5483
▁Sales	-11.5487
▁optimize	-11.5487
after	-11.5487
▁retention	-11.5488
sive	-11.5491
▁commands	-11.5491
▁tracking	-11.5491
▁volumes	-11.5495
▁fragile	-11.5495
▁Den	-11.5497
Sa	-11.5499
▁spec	-11.5499
▁Garda	-11.5499
▁confront	-11.5501
▁municipal	-11.5502
▁hybrid	-11.5503
izer	-11.5505
ра	-11.5507
▁Ober	-11.5508
▁Hot	-11.5511
▁visibility	-11.5511
▁triple	-11.5515
▁1:	-11.5518
▁console	-11.552
▁Marketing	-11.552
▁baths	-11.5523
pr	-11.5523
▁1.2	-11.5526
eri	-11.5528
▁echo	-11.5528
▁safeguards	-11.5529
standing	-11.5529
▁sind	-11.5531
RC	-11.5534
▁weakness	-11.5535
▁understandable	-11.5535
83	-11.5535
▁orange	-11.5536
▁inspections	-11.554
spect	-11.554
BI	-11.5542
▁merit	-11.5544
Ex	-11.5546
▁experiments	-11.555
▁Solutions	-11.5551
▁Tan	-11.5552
▁economical	-11.5555
public	-11.5558
▁corrupt	-11.5559
▁screening	-11.556
▁embargo	-11.556
Hotel	-11.5564
▁deliberately	-11.5565
▁accommodations	-11.5568
▁Ford	-11.5568
‘	-11.557
▁pod	-11.557
▁Wolf	-11.5571
▁seed	-11.5573
gainst	-11.5574
▁Pl	-11.5574
html	-11.5579
kon	-11.5582
pool	-11.5583
▁multitude	-11.5584
▁tongue	-11.5585
▁Sav	-11.5585
NE	-11.5589
▁withdrawn	-11.5592
▁130	-11.5592
").	-11.5593
LD	-11.5593
▁municipality	-11.5594
▁shame	-11.5595
▁Deep	-11.5596
▁File	-11.5601
All	-11.5602
▁shut	-11.5605
▁Bas	-11.5607
▁closest	-11.5608
▁Starfleet	-11.5609
▁varying	-11.5611
LY	-11.5613
▁Name	-11.5613
▁launching	-11.5613
▁compensate	-11.5617
rry	-11.5617
▁coordinating	-11.5617
4%	-11.5617
▁defect	-11.5622
▁contradiction	-11.5624
▁adhere	-11.5625
▁Athens	-11.5625
▁Keep	-11.5626
▁refund	-11.5628
▁successes	-11.563
▁interpret	-11.5631
oon	-11.5633
ved	-11.5634
▁Father	-11.5634
▁70%	-11.5635
▁slight	-11.5635
▁thy	-11.5639
▁dropped	-11.5642
▁fulfilling	-11.5646
▁weaken	-11.5646
ARD	-11.5649
▁eliminating	-11.565
▁injury	-11.565
▁zoom	-11.565
▁organising	-11.5651
Ba	-11.5653
USS	-11.5656
Pa	-11.5658
▁OECD	-11.5658
▁foodstuffs	-11.5658
▁rhetoric	-11.5658
first	-11.566
▁stresses	-11.5661
fire	-11.5666
▁thread	-11.5667
▁hearts	-11.5675
pit	-11.5678
ender	-11.568
▁od	-11.5684
▁interfere	-11.5684
▁sorts	-11.5685
nel	-11.5685
▁assert	-11.5686
als	-11.5687
▁passage	-11.5689
die	-11.569
nte	-11.569
▁quoted	-11.5694
▁rice	-11.5694
rat	-11.5696
str	-11.5698
high	-11.5698
▁harder	-11.5698
2%	-11.5699
▁austerity	-11.5699
▁viruses	-11.5706
imo	-11.5706
▁Hat	-11.5709
▁(4	-11.5711
gl	-11.5711
▁quarters	-11.5714
▁persistent	-11.5716
bas	-11.5718
▁Official	-11.5724
▁friendship	-11.5726
▁Course	-11.5726
▁wholly	-11.5726
▁hoping	-11.5726
▁coup	-11.5731
stop	-11.5732
mber	-11.5736
▁Sports	-11.5736
▁mal	-11.5737
▁commodity	-11.5741
▁feasible	-11.5741
Da	-11.5743
▁weaknesses	-11.5745
ack	-11.5746
▁dryer	-11.5746
▁oven	-11.5747
▁Que	-11.5748
ld	-11.5748
▁cultivation	-11.5749
▁Patten	-11.575
▁directors	-11.5751
▁Fine	-11.5753
▁Intel	-11.5755
▁precautionary	-11.5757
▁drag	-11.5758
▁Des	-11.5762
piece	-11.5763
▁buttons	-11.5763
▁accompany	-11.5764
Mi	-11.5766
▁exemption	-11.5766
▁alleged	-11.5767
rad	-11.5769
BO	-11.577
master	-11.5773
eta	-11.5773
▁celebration	-11.5774
▁''[[	-11.5774
cus	-11.5777
▁Gas	-11.578
tto	-11.578
logy	-11.5782
▁disappeared	-11.5782
▁inequalities	-11.5782
▁ANY	-11.5786
к	-11.5786
▁Nazi	-11.579
▁negligence	-11.5791
rel	-11.5792
▁alarming	-11.5795
▁shortage	-11.5797
oma	-11.5798
▁positively	-11.5801
phy	-11.5801
(1)	-11.5802
▁attitudes	-11.5803
▁generating	-11.5805
▁rigid	-11.5806
▁reminded	-11.5808
Rule	-11.5808
▁pra	-11.5809
▁terrain	-11.5809
▁Dor	-11.5812
▁fits	-11.5814
▁horizon	-11.5815
▁Resolution	-11.5816
▁isn	-11.5816
▁bra	-11.5818
▁entail	-11.5818
▁turnover	-11.582
▁Ob	-11.5821
▁Uni	-11.5823
▁IBM	-11.5825
▁banana	-11.5827
▁scarce	-11.5827
minded	-11.5828
rated	-11.5829
▁Users	-11.583
▁Var	-11.5831
▁Kurdish	-11.5832
nbsp	-11.5832
▁fridge	-11.5833
▁Buyer	-11.5835
version	-11.5835
▁elimination	-11.5841
▁promenade	-11.5841
▁stainless	-11.5841
▁acute	-11.5841
▁neighbour	-11.5843
▁lifelong	-11.5846
▁Laundry	-11.5849
▁irregularities	-11.5849
▁Lama	-11.5851
▁concessions	-11.5852
▁recreation	-11.5852
▁Price	-11.5852
▁Ap	-11.5853
▁(10	-11.5853
▁compiled	-11.5855
▁liberty	-11.5857
▁facilitating	-11.5857
ded	-11.5858
▁magazines	-11.5858
Po	-11.5859
▁craft	-11.5859
▁wa	-11.586
▁attending	-11.5861
▁tariff	-11.5863
▁collecting	-11.5865
▁solarium	-11.5866
▁mature	-11.5868
▁outline	-11.5869
▁bass	-11.5869
isse	-11.587
▁lifts	-11.5871
▁Jordan	-11.5874
▁kingdom	-11.5874
▁teeth	-11.5877
▁15%	-11.5877
iro	-11.5877
▁Fortunately	-11.5883
▁capitalist	-11.5886
EX	-11.5889
▁hosted	-11.5889
▁Hussein	-11.5891
▁forever	-11.5891
▁preparatory	-11.5891
▁marina	-11.5892
▁Six	-11.5892
▁accessibility	-11.5895
▁coating	-11.5897
▁fin	-11.5898
anti	-11.5899
▁measurements	-11.5904
dding	-11.5904
▁bo	-11.5907
▁varieties	-11.5908
▁overseas	-11.5908
▁chronic	-11.591
Check	-11.5912
▁outbreak	-11.5912
rov	-11.5913
▁manually	-11.5916
rl	-11.5918
ranging	-11.5919
▁bugs	-11.592
▁delightful	-11.5921
▁protectionism	-11.5922
▁catastrophe	-11.5925
▁diagnosis	-11.5925
▁template	-11.5928
▁Ram	-11.5929
▁Eco	-11.5933
▁detected	-11.5935
ett	-11.5937
▁instruction	-11.5938
▁civilization	-11.594
▁finger	-11.5943
▁als	-11.5947
▁85	-11.5948
▁suspicion	-11.595
▁accomplished	-11.5951
cca	-11.5952
▁Date	-11.5952
▁singer	-11.5954
winning	-11.5957
▁basin	-11.5958
oid	-11.5958
▁Liberals	-11.5958
▁disadvantaged	-11.5959
▁mines	-11.5959
▁packed	-11.5962
-7	-11.5962
dri	-11.5963
▁painter	-11.5969
▁boutique	-11.597
take	-11.5971
▁peripheral	-11.5972
▁pad	-11.5974
▁cur	-11.5975
▁Chair	-11.5979
▁Mil	-11.5985
▁Review	-11.5986
▁Cre	-11.5989
▁replacing	-11.5993
▁poorer	-11.5996
▁imply	-11.5998
▁threaten	-11.5999
▁FREE	-11.6001
▁Initiative	-11.6001
▁incurred	-11.6001
▁anticipated	-11.6001
▁1986	-11.6002
▁sustain	-11.6003
ock	-11.6003
▁slaughter	-11.6006
month	-11.6007
▁110	-11.6007
▁LA	-11.6009
▁Cleaning	-11.601
▁CAN	-11.6011
▁Gall	-11.6012
▁neighborhood	-11.6018
▁Technologies	-11.6018
▁Quite	-11.6019
▁encourages	-11.6022
▁sto	-11.6022
looking	-11.6024
▁impressed	-11.6025
▁ranks	-11.6026
о	-11.6026
Bu	-11.6027
▁optimized	-11.6027
▁stamp	-11.603
▁toys	-11.603
▁races	-11.6035
▁households	-11.6035
▁relevance	-11.6035
▁analyze	-11.6035
▁lifting	-11.6036
▁anymore	-11.604
arian	-11.6049
sheet	-11.6052
ais	-11.6052
▁listing	-11.6054
▁Anna	-11.6057
▁tank	-11.6061
▁Mc	-11.6062
▁ST	-11.6062
▁breed	-11.6063
lat	-11.6068
▁Tampere	-11.6069
▁Vel	-11.6069
▁sees	-11.6071
ident	-11.6071
▁(2)	-11.6074
▁reveals	-11.6076
▁configured	-11.608
nen	-11.6083
rick	-11.6084
▁complied	-11.6086
▁attracted	-11.6088
imp	-11.609
edge	-11.6092
▁(“	-11.6093
▁notify	-11.6094
▁Found	-11.6094
▁repercussions	-11.6095
ias	-11.6098
▁tackled	-11.6098
mus	-11.61
▁champion	-11.6105
▁dé	-11.6107
▁DJ	-11.6107
▁scripts	-11.6111
▁updating	-11.6112
▁blend	-11.6112
▁donation	-11.6114
rn	-11.6115
▁è	-11.6115
▁wir	-11.6116
vid	-11.612
wei	-11.612
▁Düsseldorf	-11.6121
▁umbrella	-11.6121
▁metals	-11.6123
call	-11.6123
tti	-11.6125
▁eliminated	-11.6125
▁qualification	-11.6125
sign	-11.6129
▁Log	-11.613
▁verification	-11.613
▁Rose	-11.6132
▁attain	-11.6133
▁accord	-11.6134
▁reward	-11.6135
▁defines	-11.6137
▁uphold	-11.6139
▁1987	-11.6139
▁objections	-11.6139
lli	-11.614
discrimination	-11.6141
▁PR	-11.6142
ATION	-11.6143
▁passive	-11.6143
▁tens	-11.6144
▁stack	-11.6147
▁fare	-11.6149
▁SDL	-11.6151
▁myth	-11.6152
uv	-11.6153
▁Form	-11.6154
▁Fan	-11.6154
▁vegetation	-11.6155
▁rough	-11.6156
▁queries	-11.6157
▁chi	-11.6162
▁titles	-11.6163
▁Competition	-11.6164
/3	-11.6164
▁remit	-11.6165
▁Below	-11.6166
Sch	-11.617
effective	-11.6171
▁ample	-11.6175
▁factories	-11.6176
▁Pay	-11.6176
▁eggs	-11.6177
▁wasn	-11.6178
▁tissue	-11.6178
▁seasonal	-11.618
▁altogether	-11.6182
▁OSCE	-11.6182
▁Mol	-11.6182
vil	-11.6183
▁Link	-11.6184
rest	-11.6185
sko	-11.6185
▁placement	-11.6188
▁propaganda	-11.619
heugen	-11.619
▁strongest	-11.6191
▁experimental	-11.6197
LO	-11.6198
▁Tokyo	-11.6199
▁spoil	-11.6199
▁crack	-11.62
▁fortress	-11.6202
tric	-11.6205
▁anonymous	-11.6207
▁milestone	-11.6208
cen	-11.6209
▁MEP	-11.6209
▁ALDE	-11.621
mis	-11.6211
▁Stra	-11.6213
rr	-11.6215
▁quantitative	-11.6216
▁protects	-11.6218
itt	-11.622
▁rocks	-11.6221
mont	-11.6221
▁como	-11.6222
▁2015	-11.6222
▁Instruments	-11.6224
▁guiding	-11.6225
▁flu	-11.6225
▁abortion	-11.6226
▁hydraulic	-11.6226
▁sq	-11.6226
▁segments	-11.6227
▁CDs	-11.6227
▁downloads	-11.6228
▁receiver	-11.6229
▁SS	-11.623
▁Cuban	-11.6233
▁monastery	-11.6233
▁empire	-11.6233
▁nach	-11.6235
aging	-11.6235
▁ranges	-11.6236
▁”	-11.6239
that	-11.6239
▁Börse	-11.6242
▁laundry	-11.6242
▁Hitler	-11.6242
try	-11.6244
▁enshrined	-11.6244
▁liquidity	-11.6244
▁wheels	-11.6244
▁confronted	-11.6246
▁midst	-11.625
ages	-11.625
▁intuitive	-11.6251
▁motto	-11.6252
▁socialist	-11.6257
lé	-11.6257
▁rhythm	-11.6259
▁Band	-11.6261
▁DI	-11.6262
tum	-11.6264
rent	-11.6269
ни	-11.6269
▁ch	-11.6271
▁wing	-11.6272
▁exhaust	-11.6272
▁AT	-11.6273
generation	-11.6274
▁rehabilitation	-11.6277
▁noisy	-11.6277
▁evenings	-11.6278
▁shoulder	-11.6279
Net	-11.6279
tru	-11.6281
ced	-11.6284
▁Istanbul	-11.6286
▁Shanghai	-11.6286
▁hygiene	-11.6286
▁Orchestra	-11.6286
▁tons	-11.629
▁Universal	-11.629
nock	-11.6292
▁aspirations	-11.6293
▁temple	-11.6293
aya	-11.6293
ifying	-11.6294
▁Tarifa	-11.6295
▁definitive	-11.6296
▁54	-11.6297
lip	-11.6298
sub	-11.6298
▁recipient	-11.6301
▁tuna	-11.6302
▁Century	-11.6303
▁Zi	-11.6304
▁prevail	-11.6306
▁Info	-11.6307
ción	-11.6308
▁corresponds	-11.6309
bot	-11.6309
▁sick	-11.6309
cap	-11.6309
▁compliment	-11.6311
ista	-11.6311
▁consultants	-11.6312
▁forbidden	-11.6312
▁calculate	-11.6313
pri	-11.6314
▁barely	-11.6316
2009	-11.632
▁deployed	-11.632
▁pitch	-11.6321
▁refrain	-11.6321
▁slogan	-11.6321
▁inland	-11.6321
▁commissioned	-11.6321
employed	-11.6323
▁grasp	-11.6323
road	-11.6323
▁deliveries	-11.6324
▁diesel	-11.6324
▁disregard	-11.6326
ifies	-11.6327
▁exp	-11.6329
vit	-11.6332
▁tap	-11.6333
sse	-11.6334
lla	-11.6335
▁GMOs	-11.6337
▁Fischl	-11.6339
▁broadband	-11.6339
cri	-11.6345
▁sends	-11.6352
▁CON	-11.6354
▁flora	-11.6354
▁Lounge	-11.6356
▁cod	-11.6356
▁emergence	-11.6356
▁1985	-11.6358
▁hospitals	-11.6359
▁Certainly	-11.6361
▁optimization	-11.6365
speaking	-11.6369
ière	-11.637
▁Serbian	-11.6372
ule	-11.6375
▁brush	-11.6375
Upon	-11.6375
▁couldn	-11.6376
▁magical	-11.6376
▁geared	-11.6377
▁enchanting	-11.6379
cell	-11.6379
base	-11.6382
▁qualitative	-11.6383
▁Madeira	-11.6383
ça	-11.6383
▁livestock	-11.6384
ound	-11.6384
▁republic	-11.6385
order	-11.6386
▁debut	-11.6392
▁variations	-11.6393
▁EIB	-11.6393
▁Dam	-11.6396
▁Em	-11.6397
cost	-11.64
▁==	-11.64
▁timber	-11.64
▁Scottish	-11.64
▁Zu	-11.6402
▁Iceland	-11.6409
cip	-11.641
UN	-11.6414
▁transmit	-11.6415
▁Wine	-11.6416
▁incredibly	-11.6418
▁Premier	-11.6418
hard	-11.6419
Th	-11.6421
nit	-11.6423
▁mono	-11.6424
▁momentum	-11.6426
gin	-11.6427
▁networking	-11.6429
▁lifetime	-11.6431
▁Spirit	-11.6431
▁72	-11.6432
▁writers	-11.6434
▁documented	-11.6434
▁bone	-11.6435
▁displaced	-11.6436
▁disappointment	-11.6436
▁Level	-11.6437
uf	-11.6438
▁fluid	-11.6439
emann	-11.644
▁occasionally	-11.6442
▁emotions	-11.6442
▁blocking	-11.6445
▁@	-11.6445
▁ordering	-11.6452
away	-11.6452
▁Follow	-11.6453
▁Taliban	-11.6453
▁peninsula	-11.6453
▁descriptions	-11.6455
▁personalized	-11.6459
about	-11.6462
▁sister	-11.6467
▁architects	-11.6468
▁assumption	-11.6468
▁warn	-11.6471
▁trendy	-11.6471
▁organizing	-11.6472
▁accelerate	-11.6472
▁poet	-11.6473
▁promptly	-11.6474
fort	-11.6475
▁dock	-11.6475
▁160	-11.6477
▁truck	-11.6478
▁halls	-11.6478
ye	-11.6479
▁establishments	-11.6479
rit	-11.648
▁Almost	-11.6481
wear	-11.6482
▁tanks	-11.6482
▁debts	-11.6482
ature	-11.6483
▁protein	-11.6483
aba	-11.6483
▁restriction	-11.6483
tim	-11.6484
▁BO	-11.6485
If	-11.6486
▁conception	-11.6487
On	-11.6489
▁Ala	-11.6491
▁Tax	-11.6493
tive	-11.6494
▁DS	-11.6496
▁conversation	-11.6499
▁Timor	-11.65
▁swing	-11.6501
▁Mos	-11.6504
▁studios	-11.6505
▁suspect	-11.6505
▁aroma	-11.6508
▁instances	-11.6511
▁Ker	-11.6513
▁arena	-11.6514
▁Likewise	-11.6516
▁Clean	-11.6517
▁Char	-11.652
▁DA	-11.6523
▁incomplete	-11.6524
▁Wikicars	-11.6525
▁Fri	-11.6525
▁51	-11.6525
▁privilege	-11.6526
▁tired	-11.6531
▁vulnerability	-11.6534
▁cons	-11.6537
▁lands	-11.654
cular	-11.6542
▁tied	-11.6542
▁prop	-11.6544
▁Model	-11.6546
▁purchases	-11.6547
Photocopying	-11.6552
▁Mexican	-11.6552
▁intensity	-11.6552
▁cocktail	-11.6553
ema	-11.6554
stadt	-11.6554
▁ré	-11.6555
▁recreational	-11.6558
▁scandal	-11.6558
Pla	-11.6559
bor	-11.656
▁Five	-11.6561
▁Renaissance	-11.6562
▁Ul	-11.6563
▁wo	-11.6565
▁ear	-11.6565
▁signatures	-11.6567
▁Balkan	-11.657
▁competing	-11.657
ened	-11.657
▁disagreement	-11.657
▁preview	-11.6572
gno	-11.6572
iger	-11.6573
▁Mail	-11.6575
▁moon	-11.6575
lation	-11.6577
▁Color	-11.6578
▁earliest	-11.6579
▁embrace	-11.658
▁detriment	-11.658
▁colourful	-11.6582
▁realities	-11.6583
▁Send	-11.6583
▁photographer	-11.6587
▁improves	-11.6587
▁wearing	-11.6587
▁resident	-11.6593
▁sixth	-11.6595
bert	-11.6597
craft	-11.6599
▁Albert	-11.6599
ego	-11.6601
cul	-11.6602
lets	-11.6602
▁bell	-11.6603
pot	-11.6603
etta	-11.6606
/98	-11.6606
▁MA	-11.6607
▁college	-11.6608
▁53	-11.6609
&#	-11.661
▁confrontation	-11.6611
▁bitter	-11.6614
▁tariffs	-11.6614
▁hyper	-11.6614
▁earnings	-11.6616
▁Ö	-11.6617
▁critics	-11.6618
▁promotional	-11.6619
aga	-11.662
grade	-11.6622
rap	-11.6623
NO	-11.6623
▁gaps	-11.6624
▁Gor	-11.6628
▁administrator	-11.6635
▁MI	-11.6636
▁archives	-11.6639
jan	-11.6639
mente	-11.6641
▁tutorial	-11.6642
▁biotechnology	-11.6642
platz	-11.6643
▁defended	-11.6643
▁matching	-11.6643
▁parish	-11.6643
▁Abu	-11.6645
▁installer	-11.6646
ischen	-11.6646
▁Rad	-11.6649
▁versatile	-11.6651
lav	-11.6652
▁liberalization	-11.6653
▁asks	-11.6653
▁Scha	-11.6654
82	-11.6654
▁poll	-11.6655
▁sooner	-11.6655
▁refuge	-11.6656
▁Pal	-11.6656
position	-11.6658
▁Kim	-11.666
▁Seville	-11.6661
TT	-11.6663
▁licences	-11.6663
▁Turn	-11.6665
▁Bavaria	-11.6667
▁parliamentarian	-11.667
hol	-11.6672
▁humans	-11.6672
▁beam	-11.6673
tone	-11.6675
sofar	-11.6677
▁remark	-11.6678
action	-11.6679
▁Pension	-11.6679
▁workflow	-11.6679
lly	-11.668
FF	-11.6681
wed	-11.6685
lib	-11.6685
▁formulated	-11.6687
nz	-11.6689
▁Train	-11.6689
▁shores	-11.6693
▁voltage	-11.6694
rus	-11.6697
▁scratch	-11.6697
▁backdrop	-11.6698
▁Matt	-11.67
▁chef	-11.6703
▁Carl	-11.6704
ess	-11.6705
▁abolished	-11.6705
▁demonstrating	-11.6706
▁generic	-11.6706
▁honey	-11.6706
▁mankind	-11.6706
▁Globalisation	-11.6708
▁severely	-11.6708
▁specification	-11.6709
erie	-11.671
▁Advanced	-11.671
▁establishes	-11.6712
weg	-11.6712
ller	-11.6714
▁devastating	-11.6715
▁dare	-11.6718
pt	-11.672
rist	-11.672
iana	-11.6721
▁burn	-11.6722
IG	-11.6722
ars	-11.6722
person	-11.6723
'''	-11.6723
▁stricter	-11.6724
▁appalling	-11.6724
▁Kenya	-11.6725
▁sensors	-11.6727
▁accurately	-11.6727
TP	-11.6731
political	-11.6733
▁symptoms	-11.6733
▁Venezuela	-11.6734
▁harmonise	-11.6734
front	-11.6736
▁springs	-11.6737
▁Mode	-11.674
▁delight	-11.6742
▁worthwhile	-11.6743
lash	-11.6744
▁Stay	-11.6745
▁Championship	-11.6746
▁financially	-11.6746
strasse	-11.6747
▁broke	-11.6748
▁constituency	-11.6752
▁thrown	-11.6752
▁conscious	-11.6753
▁Off	-11.6754
El	-11.6756
▁Brazilian	-11.6757
▁credits	-11.6758
▁subsidiaries	-11.6761
▁Ibiza	-11.6761
▁gli	-11.6761
▁clarified	-11.6763
▁Was	-11.6765
club	-11.6766
rous	-11.6768
liche	-11.6769
▁somehow	-11.6769
SO	-11.677
▁Santer	-11.6771
▁magnetic	-11.6772
▁longest	-11.6774
bie	-11.6776
▁Gott	-11.6778
map	-11.6778
▁makers	-11.6781
▁Malaysia	-11.6781
Com	-11.6782
▁Around	-11.6784
▁lawyer	-11.6787
▁warehouse	-11.6788
▁lush	-11.6789
▁copper	-11.679
▁drawings	-11.679
▁alien	-11.6791
▁misleading	-11.6792
▁boarding	-11.6793
▁Battle	-11.6794
▁Silver	-11.6798
▁mounting	-11.6803
show	-11.6805
▁Borg	-11.6806
▁beneficiaries	-11.6807
▁injured	-11.6807
tun	-11.6811
▁в	-11.6812
DP	-11.6812
▁Antonio	-11.6813
▁breakthrough	-11.6816
▁Care	-11.6821
▁GM	-11.6821
/99	-11.6823
▁grade	-11.6823
▁Yesterday	-11.6825
▁Maybe	-11.6825
▁slide	-11.6825
▁Cypriot	-11.6827
▁§	-11.6832
▁scenic	-11.6834
▁Police	-11.6835
▁1945	-11.6837
rant	-11.684
▁Born	-11.6841
▁uncertain	-11.6843
▁GUE	-11.6845
▁RO	-11.6856
▁animation	-11.6858
PP	-11.6859
▁condemnation	-11.6861
но	-11.6863
▁inherent	-11.6864
▁boy	-11.6867
▁abstract	-11.6868
▁fabrics	-11.6868
▁casting	-11.6869
lk	-11.6871
▁suicide	-11.6872
IE	-11.6872
▁destroying	-11.6873
▁cro	-11.6873
lusion	-11.6874
stand	-11.6875
udgetary	-11.6876
▁holders	-11.6877
▁3.5	-11.6878
▁SPA	-11.6883
▁Save	-11.6884
▁Cash	-11.6884
▁SC	-11.6886
bad	-11.6889
▁exceeded	-11.6892
▁bridges	-11.6897
▁LE	-11.6897
▁surf	-11.69
▁verified	-11.69
TR	-11.6902
▁varies	-11.6903
▁Mit	-11.6906
▁Starting	-11.6908
SS	-11.6909
▁electro	-11.6909
▁smile	-11.6911
bol	-11.6913
atory	-11.6914
check	-11.6914
▁snack	-11.6914
▁08	-11.6916
▁cho	-11.6916
ographic	-11.6918
▁Scientific	-11.6918
pal	-11.692
▁sudden	-11.692
Banquet	-11.6921
▁carriage	-11.6922
▁likewise	-11.6925
▁PA	-11.6925
ст	-11.6925
▁(5	-11.6926
▁veto	-11.6927
▁explosion	-11.6927
▁vocal	-11.6928
▁successive	-11.6928
▁criticise	-11.6929
▁acoustic	-11.6929
My	-11.693
zar	-11.693
omen	-11.6938
ø	-11.6941
▁participant	-11.6943
▁intermediate	-11.6946
▁Mad	-11.6946
▁simpler	-11.6947
▁Bour	-11.6948
▁Questions	-11.6952
▁elect	-11.6953
▁juice	-11.6953
lea	-11.6953
▁treating	-11.6953
▁Arc	-11.6954
value	-11.6954
▁resume	-11.6956
gon	-11.6959
guard	-11.696
▁postponed	-11.6963
otic	-11.6963
▁API	-11.6964
▁caution	-11.6965
▁therapeutic	-11.6968
▁Bla	-11.6968
also	-11.697
▁density	-11.6974
wind	-11.6975
▁ti	-11.6977
▁portable	-11.6978
▁56	-11.698
▁Andreas	-11.698
▁outer	-11.6981
▁shipment	-11.6984
▁illegally	-11.6987
▁Alt	-11.699
▁photograph	-11.6992
iff	-11.6993
▁10-	-11.6993
▁enforced	-11.6995
▁pity	-11.6998
vet	-11.7
▁influences	-11.7
▁Ak	-11.7001
▁Lido	-11.7002
▁bookings	-11.7002
▁Caucasus	-11.7002
▁criticised	-11.7005
WA	-11.7008
FT	-11.701
ament	-11.7016
▁Bri	-11.7016
▁monument	-11.7017
lift	-11.7023
▁Table	-11.7024
oz	-11.7025
NGL	-11.7027
▁slot	-11.7027
nny	-11.7029
▁Nowadays	-11.7031
▁idyllic	-11.7031
▁absent	-11.7031
▁chaos	-11.7032
▁realization	-11.7033
/4	-11.7035
▁Qua	-11.7035
cat	-11.7037
▁Klingon	-11.7038
▁awaiting	-11.7038
sim	-11.7039
▁max	-11.7039
>	-11.7039
▁discourse	-11.704
▁peaks	-11.7041
▁sunset	-11.7042
eau	-11.7043
gged	-11.7046
pic	-11.7048
night	-11.7049
▁gratitude	-11.7049
▁Concern	-11.7049
▁composer	-11.7051
▁2%	-11.7053
▁scar	-11.7055
▁static	-11.7056
pra	-11.7056
▁140	-11.7056
▁forecasts	-11.7057
▁junior	-11.7059
▁documentary	-11.7059
▁democratisation	-11.7059
▁occurring	-11.706
#	-11.706
gri	-11.7062
py	-11.7065
▁drain	-11.7068
lian	-11.7068
▁cautious	-11.7068
▁cornerstone	-11.7069
▁PS	-11.707
▁submitting	-11.7071
▁confused	-11.7073
lum	-11.7075
▁Sarkozy	-11.7078
▁Stefan	-11.7078
lement	-11.7078
▁prosecution	-11.7079
▁definite	-11.708
▁med	-11.7081
▁rush	-11.7082
sar	-11.7083
▁Run	-11.7084
▁Pool	-11.7085
VA	-11.7085
▁Geo	-11.7087
▁pressures	-11.709
▁Articles	-11.709
pel	-11.7092
▁tin	-11.7093
cle	-11.7094
▁Arabia	-11.7095
▁royal	-11.7096
mobil	-11.7096
▁memorable	-11.7097
▁amateur	-11.7099
lim	-11.7099
++	-11.7102
tiv	-11.7103
iness	-11.7104
▁deterioration	-11.7106
▁Darfur	-11.7106
▁foreigners	-11.7107
▁Cape	-11.7108
▁swift	-11.7109
▁designing	-11.7113
▁Marine	-11.7114
▁nationality	-11.7114
nder	-11.7115
iano	-11.7118
▁leverage	-11.7121
▁Kon	-11.7121
▁containers	-11.7122
▁judiciary	-11.7125
▁Naples	-11.7125
▁Olympus	-11.7125
kar	-11.7127
▁economists	-11.7127
▁Pin	-11.713
▁advocates	-11.7131
▁campsite	-11.7131
г	-11.7131
▁discounts	-11.7131
initiative	-11.7131
pper	-11.7133
info	-11.7135
▁brown	-11.7135
▁Collection	-11.7136
MT	-11.7136
▁speeds	-11.7136
▁Installation	-11.7137
▁exercises	-11.7137
▁sehr	-11.714
sector	-11.7143
▁frames	-11.7143
▁Jacuzzi	-11.7144
▁mile	-11.7144
▁encryption	-11.7145
▁championship	-11.7145
▁flavour	-11.7145
▁Arctic	-11.7146
▁exported	-11.7148
Ra	-11.7149
▁draws	-11.7152
ł	-11.7152
1,	-11.7156
vision	-11.7158
▁additives	-11.7158
▁inspire	-11.7159
▁objection	-11.7159
▁ven	-11.716
▁dress	-11.7161
▁lays	-11.7163
och	-11.7165
▁(8	-11.7166
meter	-11.7168
▁Package	-11.7169
▁Eu	-11.717
▁Steel	-11.7171
ş	-11.7173
▁judgement	-11.7173
onia	-11.7174
▁violated	-11.7174
▁Sil	-11.7174
rid	-11.7175
▁positioned	-11.7175
▁accountable	-11.7176
▁Motor	-11.7176
▁pesticides	-11.7178
-6	-11.718
▁reside	-11.718
▁bal	-11.7181
▁accomodation	-11.7183
▁manipulation	-11.7183
▁indicating	-11.7183
▁ke	-11.7184
anta	-11.7185
bble	-11.7186
▁regulating	-11.7186
▁3.0	-11.7189
ides	-11.7192
▁distortion	-11.7194
160	-11.7199
Image	-11.7199
▁interact	-11.7202
▁prayer	-11.7202
gal	-11.7202
▁1979	-11.7203
sser	-11.7203
▁mothers	-11.7204
▁Directors	-11.7208
▁epi	-11.7212
▁radioactive	-11.7212
eller	-11.7214
▁Australian	-11.7215
▁urged	-11.7217
main	-11.7219
▁seating	-11.7221
▁chains	-11.7222
▁reflecting	-11.7223
▁Gothic	-11.7224
▁Seven	-11.7226
ingen	-11.7226
▁jo	-11.7228
▁voucher	-11.7231
▁Copyright	-11.7231
▁zur	-11.7231
mme	-11.7232
▁expecting	-11.7232
▁contamination	-11.7233
▁suits	-11.7234
▁Directorate	-11.7236
▁criticisms	-11.7238
▁anybody	-11.7238
▁mas	-11.7239
logical	-11.7239
▁shield	-11.724
▁decides	-11.7242
▁grip	-11.7244
One	-11.7245
▁neglect	-11.7248
ssen	-11.7248
▁Lar	-11.7249
▁electorate	-11.725
hin	-11.7252
▁Sin	-11.7253
aux	-11.7253
▁invalid	-11.7253
▁converter	-11.7254
▁jam	-11.7254
▁corrected	-11.7255
▁Juan	-11.7256
COD	-11.7256
▁courageous	-11.7257
▁nationalism	-11.7258
▁vol	-11.7259
▁Liberties	-11.726
▁inserted	-11.726
▁recruitment	-11.726
С	-11.726
▁Basque	-11.726
▁Farm	-11.7263
▁slip	-11.7264
▁MO	-11.7266
tica	-11.7266
▁Wales	-11.7266
▁Perfect	-11.727
▁Doctor	-11.727
▁equip	-11.7272
▁cabinet	-11.7274
▁fur	-11.7276
▁poses	-11.7278
▁biofuels	-11.7285
▁dealers	-11.7286
▁behave	-11.7287
▁generates	-11.7288
▁Santiago	-11.7288
▁KG	-11.7289
▁Studies	-11.729
▁Magic	-11.729
▁'''	-11.7298
▁frozen	-11.7298
▁transposition	-11.7299
▁cluster	-11.7299
▁gladly	-11.73
▁Dun	-11.73
▁mon	-11.7301
graph	-11.7302
▁seal	-11.7304
ę	-11.7308
▁licensing	-11.7308
▁Harbour	-11.7308
stal	-11.7309
▁virtue	-11.7309
▁Excel	-11.7309
▁Bath	-11.7313
▁Register	-11.7318
▁Transfer	-11.7318
green	-11.7324
aro	-11.7324
▁mutually	-11.7325
▁marginal	-11.7326
▁Accordingly	-11.7327
▁prototype	-11.7327
▁proactive	-11.7328
▁consciousness	-11.7329
▁kitchenette	-11.7329
mini	-11.733
eken	-11.7336
▁raid	-11.7337
SM	-11.7337
▁Beautiful	-11.7337
▁enthusiasts	-11.7337
▁childhood	-11.7338
▁adapting	-11.7339
▁incoming	-11.7342
▁Angeles	-11.7342
▁encouragement	-11.7345
▁Throughout	-11.7349
▁neuro	-11.7349
▁guardian	-11.7351
▁boys	-11.7353
tier	-11.7353
▁Fifth	-11.7356
▁]	-11.7358
▁wholeheartedly	-11.7358
▁viewpoint	-11.7358
▁Dar	-11.7358
▁resistant	-11.7359
▁Walk	-11.7361
zel	-11.7361
▁optimistic	-11.7362
▁cook	-11.7363
▁embark	-11.7364
▁Speed	-11.7365
▁hinder	-11.7365
▁fed	-11.7366
▁curious	-11.7367
▁expresses	-11.7367
▁envisage	-11.7368
gres	-11.7371
▁Majorca	-11.7372
▁appearing	-11.7373
▁influential	-11.7376
▁Taking	-11.7377
rri	-11.7379
▁formerly	-11.738
▁capita	-11.7381
odo	-11.7381
ancy	-11.7383
wards	-11.7384
▁entails	-11.7384
kes	-11.7384
▁Available	-11.7386
▁Hospital	-11.7386
▁Milosevic	-11.7386
▁pit	-11.7387
▁valleys	-11.7389
▁shelter	-11.7393
▁Panasonic	-11.7395
KE	-11.7399
EP	-11.7402
ister	-11.7402
growing	-11.7403
▁shapes	-11.7403
▁contradict	-11.7404
▁opposing	-11.7405
▁fauna	-11.7405
▁Various	-11.7406
▁hip	-11.7406
▁Title	-11.7407
fold	-11.7414
zone	-11.7414
▁Major	-11.7421
▁Kit	-11.7424
▁fitting	-11.7425
▁patio	-11.7426
Na	-11.7427
▁cozy	-11.7427
▁robots	-11.7427
▁disappointing	-11.7429
uni	-11.743
▁tv	-11.743
ending	-11.7434
▁irresponsible	-11.7435
▁stimulating	-11.7435
▁fre	-11.7435
uro	-11.7435
▁unclear	-11.7436
▁rentals	-11.7439
uz	-11.7439
▁Clo	-11.7439
▁Democrat	-11.7442
▁basket	-11.7444
▁epidemic	-11.7444
▁Channel	-11.7445
▁chips	-11.7445
▁Spe	-11.7445
▁Euros	-11.7446
▁Bou	-11.7447
iza	-11.7449
▁gene	-11.7449
lab	-11.745
▁recordings	-11.745
dress	-11.745
▁Mill	-11.7451
▁wins	-11.7452
▁Alpha	-11.7453
▁descend	-11.7454
▁complain	-11.7456
▁wholesale	-11.7456
▁09	-11.7457
▁£	-11.7458
▁judged	-11.7463
vu	-11.7463
▁FI	-11.7463
▁José	-11.7464
▁crowd	-11.7465
▁enthusiastic	-11.7466
▁anticipate	-11.7466
anza	-11.7471
exe	-11.7471
▁Por	-11.7472
▁burdens	-11.7473
▁Wood	-11.7474
▁Supreme	-11.7474
▁english	-11.7474
▁drew	-11.7474
▁FAQ	-11.7474
▁Bau	-11.7476
OT	-11.7477
▁bombing	-11.7482
rä	-11.7486
▁picked	-11.7487
course	-11.7489
▁Lab	-11.749
reich	-11.749
▁professionalism	-11.749
▁translators	-11.7491
▁dose	-11.7492
lau	-11.7494
▁captain	-11.7494
Go	-11.7496
▁headed	-11.7496
▁cosmetic	-11.7497
ende	-11.7498
bul	-11.7498
▁PM	-11.75
▁Unit	-11.7502
▁Audio	-11.7506
▁appropriately	-11.7507
▁Roll	-11.7509
▁neck	-11.7512
aus	-11.7513
▁Clinton	-11.7513
▁straightforward	-11.7513
▁restoring	-11.7514
▁Peru	-11.7514
▁bis	-11.7515
▁Little	-11.7516
cie	-11.7521
itology	-11.7522
▁cellar	-11.7522
uer	-11.7525
iel	-11.7525
Mail	-11.7526
▁pipe	-11.7528
▁Tuscan	-11.7528
▁aged	-11.7529
▁harvest	-11.7533
▁proprietary	-11.7533
▁appoint	-11.7534
▁distances	-11.7534
bet	-11.7534
▁organisms	-11.7535
▁internally	-11.7535
Free	-11.7541
▁fashionable	-11.7541
now	-11.7542
▁concluding	-11.7543
itis	-11.7543
proof	-11.755
etto	-11.755
▁onwards	-11.7553
▁billions	-11.7553
▁Province	-11.7553
▁exhibitors	-11.7554
fal	-11.7558
▁assumes	-11.7559
▁traces	-11.756
▁monopolies	-11.7563
gr	-11.7563
▁Airconditioning	-11.7564
zz	-11.7566
▁ecommerce	-11.7566
comp	-11.7566
nde	-11.757
▁cache	-11.7572
▁mixing	-11.7573
▁synthetic	-11.7573
▁disability	-11.7575
▁Dal	-11.7575
▁servants	-11.7577
▁Ros	-11.7577
▁Temple	-11.7578
ents	-11.7578
weight	-11.7579
▁seller	-11.7585
▁900	-11.7588
▁upgraded	-11.7595
▁rape	-11.7596
ön	-11.7597
▁connects	-11.7598
SH	-11.7601
▁donations	-11.7602
▁Mira	-11.7603
eren	-11.7605
file	-11.7606
eira	-11.7607
▁prohibition	-11.761
▁surfing	-11.7613
▁pending	-11.7615
mod	-11.7616
▁prizes	-11.7616
▁phases	-11.7619
▁Application	-11.7621
▁manifest	-11.7622
▁Avenue	-11.7623
▁bin	-11.7625
▁Patent	-11.7625
▁confined	-11.763
▁licenses	-11.7635
▁tub	-11.7638
▁bri	-11.764
▁mega	-11.7641
▁dish	-11.7645
▁font	-11.7645
▁Smart	-11.7646
▁infection	-11.7649
▁Sever	-11.7649
start	-11.765
step	-11.765
▁Prices	-11.7652
▁habit	-11.7653
▁shaping	-11.7653
▁Jackson	-11.7653
▁footing	-11.7655
LS	-11.7659
▁Cy	-11.766
cultural	-11.7663
▁letting	-11.7663
▁binary	-11.7664
▁yea	-11.7664
▁tag	-11.7666
▁EURO	-11.7667
/2000	-11.767
CL	-11.7671
▁disparities	-11.7673
▁Type	-11.7673
▁mould	-11.7675
teen	-11.7676
▁Low	-11.7676
▁slave	-11.7679
▁DG	-11.7681
mie	-11.7683
▁mask	-11.7683
▁psycho	-11.7683
mag	-11.7685
▁peer	-11.7686
▁methodology	-11.7686
▁smoothly	-11.7686
▁Hel	-11.7687
▁Kre	-11.7687
▁Independent	-11.7689
▁Vor	-11.769
▁Lanzarote	-11.7693
▁celebrations	-11.7693
▁Virtual	-11.7693
horn	-11.7695
▁passionate	-11.7695
▁unexpected	-11.7696
NT	-11.7697
▁nationalist	-11.7698
▁Step	-11.7698
▁Aid	-11.77
▁lengthy	-11.77
▁gifts	-11.7701
▁literary	-11.7703
aw	-11.7706
mine	-11.7711
▁Sho	-11.7712
igh	-11.7713
▁Emperor	-11.7713
▁injustice	-11.7713
▁privatisation	-11.7714
▁conditioned	-11.7715
5-02	-11.7718
▁predecessor	-11.772
dro	-11.772
HS	-11.7721
▁bro	-11.7722
▁archaeological	-11.7724
▁Apache	-11.7724
▁Slovenian	-11.7725
▁ineffective	-11.7725
▁conditional	-11.7726
sarge	-11.7727
▁Aqua	-11.7729
▁distort	-11.7729
Service	-11.7731
▁PO	-11.7732
nna	-11.7733
▁scenarios	-11.7734
cin	-11.7736
▁dirty	-11.7737
rik	-11.7738
rm	-11.7738
uda	-11.7738
▁failures	-11.7739
productive	-11.7739
▁distress	-11.7739
tribut	-11.7743
▁travelers	-11.7743
▁stadium	-11.7744
▁entre	-11.7744
▁Km	-11.7746
▁formulation	-11.7749
▁Franz	-11.7753
▁multilingual	-11.7753
▁comprising	-11.7754
▁duplicate	-11.7754
▁salaries	-11.7754
▁fiber	-11.7755
yer	-11.7755
▁mayor	-11.776
▁Wild	-11.7761
IF	-11.7763
▁Palacio	-11.7764
▁os	-11.7766
UT	-11.7767
▁murdered	-11.7768
▁sacrifice	-11.7768
▁beginners	-11.7774
ook	-11.7776
▁и	-11.7777
ios	-11.7777
▁zum	-11.7779
▁indicator	-11.7782
ering	-11.7783
▁Prix	-11.7787
max	-11.7789
▁enters	-11.7791
▁bull	-11.7791
big	-11.7791
DR	-11.7792
▁recommends	-11.7795
▁spray	-11.7795
▁sentences	-11.7799
▁engineer	-11.78
▁charging	-11.78
▁pla	-11.7801
▁deposits	-11.7801
/1999	-11.7805
IO	-11.7805
▁forcing	-11.7805
▁horny	-11.7808
▁Short	-11.7808
RT	-11.7809
▁broker	-11.7813
▁Rosa	-11.7813
ups	-11.7815
▁Russians	-11.7817
▁counting	-11.7819
▁Victoria	-11.782
▁tastes	-11.7822
▁dated	-11.7822
nig	-11.7824
▁draftsman	-11.7825
tura	-11.7827
▁Metal	-11.7829
▁somebody	-11.7831
determination	-11.7833
)]	-11.7833
▁Built	-11.7835
▁spiral	-11.7835
▁applicants	-11.7837
iest	-11.7837
▁outlook	-11.7839
▁tastefully	-11.784
▁span	-11.7841
▁stroke	-11.7844
▁chapters	-11.7846
▁Goals	-11.7846
▁Med	-11.7848
▁brave	-11.7848
▁awaits	-11.7849
▁insult	-11.7849
én	-11.7854
ą	-11.7856
▁exemplary	-11.7856
aka	-11.7858
▁Officer	-11.7861
▁pumps	-11.7862
used	-11.7862
▁leap	-11.7862
▁infant	-11.7863
▁screens	-11.7864
▁competitions	-11.7864
▁annex	-11.7867
▁Pope	-11.7868
▁pupils	-11.7868
▁bikes	-11.787
▁Gate	-11.7871
▁Limited	-11.7872
pen	-11.7872
))	-11.7873
▁calculations	-11.7873
fr	-11.7877
nos	-11.788
▁legend	-11.7886
kel	-11.7886
▁Currency	-11.7887
cm	-11.7887
▁Burg	-11.7888
▁Upper	-11.789
▁oak	-11.7892
Ad	-11.7893
▁pocket	-11.7893
!!!	-11.7893
lessness	-11.7895
▁Journal	-11.7899
▁icons	-11.79
▁rises	-11.7901
ndo	-11.7902
▁deprived	-11.7904
blo	-11.7905
▁coat	-11.7905
▁Jacques	-11.7907
▁undermining	-11.7907
▁dying	-11.7907
▁vous	-11.7911
phe	-11.7914
-18	-11.7917
▁Past	-11.7919
▁notable	-11.7919
ically	-11.792
▁Active	-11.7921
rb	-11.7926
dimensional	-11.7926
UL	-11.7926
▁requesting	-11.793
▁BR	-11.793
ün	-11.7931
▁enjoyment	-11.7934
▁Canal	-11.7935
station	-11.7936
700	-11.7937
▁Ball	-11.7937
▁Mid	-11.7938
▁Fre	-11.7939
▁1984	-11.794
ality	-11.7941
▁Israelis	-11.7942
▁claiming	-11.7947
▁offensive	-11.7948
▁consultancy	-11.7949
amente	-11.7949
▁remembered	-11.7949
▁Basic	-11.7951
▁investigated	-11.7954
▁attributed	-11.7954
nan	-11.7956
▁Editor	-11.7956
tory	-11.7956
▁learnt	-11.7956
▁reformed	-11.7958
▁depression	-11.7959
▁horror	-11.7959
▁thrust	-11.7959
member	-11.7961
▁1920	-11.7961
▁tournaments	-11.7963
▁Way	-11.7965
outs	-11.7965
▁touched	-11.7966
▁Wind	-11.7967
▁Premium	-11.7969
▁subway	-11.7973
2010	-11.7977
▁moratorium	-11.7979
▁xenophobia	-11.7979
struct	-11.7981
▁norms	-11.7981
▁Mod	-11.7981
▁thickness	-11.7981
/01	-11.7982
▁LAN	-11.7984
lies	-11.7985
▁Jack	-11.7985
▁singing	-11.7987
ă	-11.799
▁steady	-11.799
phan	-11.7991
eh	-11.7991
straße	-11.7991
▁cafes	-11.7995
/98)	-11.7995
ua	-11.7996
▁96	-11.7997
▁reminder	-11.7997
bau	-11.8
▁commodities	-11.8
▁Customs	-11.8002
▁employer	-11.8003
▁conceived	-11.8007
▁restart	-11.801
▁prostitution	-11.8011
▁Op	-11.8014
bl	-11.8015
ii	-11.8015
▁approaching	-11.8015
▁offences	-11.8017
yr	-11.8017
▁Parking	-11.8021
▁elevator	-11.8021
▁ritual	-11.8021
▁seeds	-11.8022
▁jury	-11.8022
▁unite	-11.8023
▁texture	-11.8023
tico	-11.8024
assi	-11.8024
▁SMS	-11.8025
production	-11.8028
TION	-11.8029
▁infected	-11.8032
▁Henry	-11.8032
▁appealing	-11.8032
atur	-11.8032
oy	-11.8034
▁columns	-11.8034
▁hereby	-11.8038
toria	-11.804
▁Perspective	-11.8042
▁Oslo	-11.8043
▁sal	-11.8045
▁Vis	-11.8045
▁1995,	-11.805
▁breakdown	-11.8054
3%	-11.8054
▁Statement	-11.8058
zzo	-11.8058
tha	-11.8059
▁ko	-11.8061
sil	-11.8061
▁drift	-11.8063
▁fifty	-11.8063
▁contradictory	-11.8063
▁slope	-11.8064
▁Os	-11.8065
▁mentioning	-11.8067
▁mistaken	-11.8067
▁gem	-11.8071
▁Days	-11.8072
ean	-11.8076
▁Hof	-11.8076
▁supposedly	-11.8077
eld	-11.8078
▁1,000	-11.8079
▁gut	-11.808
▁Venetian	-11.8084
▁balconies	-11.8084
▁precarious	-11.8084
▁Baroness	-11.8084
▁esta	-11.8084
Ru	-11.8085
▁cloud	-11.8085
▁Quick	-11.8086
▁stipulated	-11.8089
▁Franco	-11.809
▁Dream	-11.8095
▁transferring	-11.8097
▁harmonious	-11.8097
▁trucks	-11.8098
▁58	-11.8098
▁deregulation	-11.8099
▁nomination	-11.81
▁Ana	-11.8103
▁refrigerator	-11.8105
▁readily	-11.8106
▁tolerate	-11.8107
NS	-11.8107
▁inventory	-11.8108
▁manages	-11.811
▁brothers	-11.8111
▁Bru	-11.8112
Germany	-11.8113
▁DIN	-11.8114
▁tasting	-11.8115
▁ethics	-11.8116
▁Stone	-11.8116
▁weaker	-11.8118
▁beverages	-11.8118
cial	-11.8118
core	-11.8119
udi	-11.8124
▁Cairo	-11.8126
AU	-11.8128
▁reconcile	-11.8128
boat	-11.8129
▁excluding	-11.813
▁Germans	-11.813
▁Child	-11.813
mt	-11.813
▁designation	-11.8132
▁Final	-11.8134
▁Lanka	-11.8134
▁attributes	-11.8134
▁abide	-11.8135
▁accessing	-11.8135
▁Aires	-11.8136
▁Property	-11.8136
▁marvellous	-11.8136
▁redundant	-11.8136
▁vibration	-11.8136
▁99	-11.8136
▁mad	-11.8136
▁Already	-11.8136
▁Self	-11.8138
tour	-11.8139
▁reproductive	-11.8139
▁Pr	-11.8144
▁flags	-11.8146
ew	-11.8147
▁facade	-11.8147
▁Cubase	-11.8149
▁Pop	-11.8153
ogue	-11.8154
▁regain	-11.8156
▁educated	-11.8156
▁AKVIS	-11.8157
▁spin	-11.8159
▁economics	-11.8159
▁emphasises	-11.816
▁nutrition	-11.8161
▁investor	-11.8161
▁Guard	-11.8161
▁Snow	-11.8161
▁eleven	-11.8165
▁MD	-11.8165
▁differing	-11.8167
ados	-11.8169
▁Sche	-11.8171
▁authorization	-11.8171
▁actress	-11.8172
▁Whenever	-11.8174
kh	-11.8176
▁cocktails	-11.8177
fra	-11.8177
▁creatures	-11.8177
▁minors	-11.8178
ovo	-11.818
▁inability	-11.8181
▁thirdly	-11.8181
▁warmth	-11.8181
▁Zo	-11.8181
▁Bavarian	-11.8185
▁copied	-11.8189
illo	-11.819
lina	-11.8192
pos	-11.8195
ador	-11.8195
▁Blu	-11.8195
▁Share	-11.8197
▁refusing	-11.82
▁sc	-11.8206
▁coupled	-11.8207
▁county	-11.8209
▁allocate	-11.8212
▁disorder	-11.8213
▁compound	-11.8214
Se	-11.8214
▁sciences	-11.8216
▁gun	-11.8219
▁knock	-11.8221
▁realisation	-11.8223
▁politician	-11.8224
▁Ent	-11.8224
▁arisen	-11.8226
▁Payment	-11.8227
▁Ren	-11.8228
▁dozens	-11.8228
▁Georgian	-11.8232
▁Klaus	-11.8234
▁Blog	-11.8236
▁frankly	-11.8238
▁1998.	-11.8238
▁premier	-11.8239
sses	-11.8239
▁ceilings	-11.8243
▁GBP	-11.8244
eria	-11.8246
▁circles	-11.8248
▁Edit	-11.8249
л	-11.8252
/2	-11.8253
▁Chicago	-11.8253
▁hatred	-11.8253
▁salary	-11.8254
▁expects	-11.8256
▁на	-11.8257
▁ceramic	-11.8258
▁Mann	-11.826
▁lady	-11.8261
▁Individual	-11.8263
▁cooperating	-11.8264
▁editorial	-11.8264
alo	-11.8265
ega	-11.8265
taking	-11.8266
▁Friedrich	-11.8266
▁traveling	-11.8267
▁HA	-11.8269
Car	-11.8271
▁swiftly	-11.8271
▁Nine	-11.8272
▁Sat	-11.8272
▁threatens	-11.8273
▁altered	-11.8275
▁meta	-11.8279
As	-11.8279
▁hostage	-11.8282
▁149	-11.8285
▁1978	-11.8286
tail	-11.8287
▁browse	-11.8291
▁Simon	-11.8292
▁supplying	-11.8296
col	-11.8297
▁reconsider	-11.8299
▁SI	-11.83
▁LO	-11.8301
▁//	-11.8302
late	-11.8302
etti	-11.8302
lä	-11.8305
OP	-11.8307
▁hath	-11.8308
▁highlighting	-11.8309
▁Bin	-11.831
▁publicity	-11.831
▁Sto	-11.8317
ι	-11.8317
▁hike	-11.8317
▁guess	-11.8317
▁prevailing	-11.8318
▁exercised	-11.8319
cade	-11.8319
▁Cambodia	-11.832
▁merits	-11.8321
▁mod	-11.8324
▁04	-11.8325
▁exempt	-11.8327
▁dancing	-11.8328
GO	-11.8328
▁Bali	-11.8329
▁gu	-11.8331
FO	-11.8334
therapy	-11.8336
▁pubs	-11.8337
▁conceal	-11.8337
▁entirety	-11.8337
▁realm	-11.8337
▁Translation	-11.8338
▁Chapter	-11.8339
▁enrich	-11.8341
▁deliberate	-11.8342
ume	-11.8342
▁Ideal	-11.8343
▁Dark	-11.8343
live	-11.8344
▁Iron	-11.8345
▁artwork	-11.8347
▁towers	-11.8348
▁crown	-11.8348
▁obligatory	-11.8349
▁Dom	-11.835
▁1.0	-11.8352
▁Stalin	-11.8353
▁opponent	-11.8353
▁brochure	-11.8353
awa	-11.8354
ML	-11.8356
itor	-11.8357
▁Dia	-11.8359
teroperability	-11.836
▁Ever	-11.836
enburg	-11.8362
▁patented	-11.8362
▁spatial	-11.8363
▁450	-11.8365
▁facto	-11.8365
jer	-11.8366
α	-11.837
▁Companies	-11.8371
▁dedication	-11.8371
▁petrol	-11.8372
pens	-11.838
▁Haus	-11.838
ein	-11.8382
▁chic	-11.8382
▁fruitful	-11.8391
▁98	-11.8392
defined	-11.8392
▁prosperous	-11.8393
▁postpone	-11.8393
▁elaborate	-11.8395
▁adapter	-11.8396
▁switching	-11.8398
▁Ring	-11.8399
▁castles	-11.8399
ht	-11.8399
▁Ironing	-11.84
▁aggregate	-11.8403
▁exterior	-11.8403
▁Number	-11.8403
▁minimize	-11.8403
▁incompatible	-11.8405
▁Consulting	-11.8406
▁Alternatively	-11.8406
▁fleets	-11.8406
▁Albanian	-11.8407
eno	-11.8407
uous	-11.8409
present	-11.8411
▁owe	-11.8411
▁grapes	-11.8412
▁shoe	-11.8412
lung	-11.8413
▁volunteers	-11.8414
Bahn	-11.8414
▁glance	-11.8414
▁Visual	-11.8414
▁Tal	-11.8414
rug	-11.8415
▁AV	-11.8415
▁undermined	-11.8416
▁Provence	-11.8417
▁underway	-11.8418
▁Valle	-11.8423
werk	-11.8424
sche	-11.843
▁affirm	-11.8431
▁66	-11.8434
aff	-11.8435
▁Buenos	-11.8435
▁Adjustment	-11.8436
▁fusion	-11.8438
▁lectures	-11.8442
▁insecurity	-11.8444
▁consume	-11.8445
▁manoeuvre	-11.8447
▁biking	-11.8447
▁hedge	-11.8447
encia	-11.8449
▁rejecting	-11.8451
▁institutes	-11.8452
azione	-11.8453
▁continents	-11.8455
▁Soft	-11.8455
▁gay	-11.8456
▁loyal	-11.8457
▁Stein	-11.8457
▁explanatory	-11.8457
▁substantive	-11.8457
▁vaccination	-11.8457
▁Tru	-11.8457
▁Create	-11.8461
▁Sahara	-11.8461
900	-11.8462
tique	-11.8463
▁Hal	-11.8463
▁insisted	-11.8463
▁Operation	-11.8464
▁Bull	-11.8464
▁doctrine	-11.8468
▁durable	-11.8468
social	-11.8468
att	-11.8471
▁proliferation	-11.8471
/1	-11.8472
▁None	-11.8473
▁Bat	-11.8477
▁pos	-11.8477
nor	-11.8478
▁Often	-11.8478
▁Met	-11.848
▁polite	-11.848
▁Reader	-11.848
▁1967	-11.8482
▁populated	-11.8483
▁quo	-11.8487
▁Store	-11.8488
▁Mozart	-11.849
▁patience	-11.849
▁Think	-11.849
▁sul	-11.8492
▁stopping	-11.8494
tik	-11.8499
keeping	-11.85
mouth	-11.85
modern	-11.8501
▁recognising	-11.8501
aki	-11.8502
yan	-11.8503
▁recourse	-11.8504
▁extraction	-11.8505
▁analog	-11.8508
▁powered	-11.851
3,	-11.851
onciliation	-11.8511
▁dam	-11.8511
▁unchanged	-11.8512
▁preach	-11.8513
DVD	-11.8515
1)	-11.8517
bon	-11.8518
2000	-11.852
▁pluralism	-11.8523
▁Leonardo	-11.8524
gh	-11.8526
▁treasure	-11.8529
ddle	-11.8532
▁protocols	-11.8533
▁Manhattan	-11.8534
▁volcanic	-11.8534
▁nominated	-11.8534
▁Granada	-11.8534
▁exam	-11.8535
saving	-11.8536
▁traders	-11.8539
tori	-11.8541
commerce	-11.8541
thumb	-11.8542
▁2011.	-11.8544
▁sacred	-11.8545
▁Countries	-11.8545
▁loyalty	-11.8545
▁authoritarian	-11.8545
▁handy	-11.8548
▁surveys	-11.855
rig	-11.855
working	-11.8551
▁Monitoring	-11.8551
OC	-11.8551
Wi	-11.8552
▁Sel	-11.8552
▁poorly	-11.8554
▁DNA	-11.8555
▁fo	-11.8557
▁imprisoned	-11.8557
▁earmarked	-11.8559
▁pixels	-11.8562
spir	-11.8563
▁gar	-11.8564
ines	-11.8566
▁lodging	-11.8567
▁desires	-11.8567
▁odds	-11.8567
▁disclose	-11.857
▁id	-11.857
ois	-11.8571
developed	-11.8572
▁Join	-11.8573
▁relatives	-11.8577
▁ambassador	-11.8578
▁traceability	-11.8578
▁ratings	-11.8578
liberal	-11.8579
▁plastics	-11.8584
▁guys	-11.8584
▁fu	-11.8584
uld	-11.8587
▁reaffirm	-11.8588
ε	-11.8589
▁subsidy	-11.8589
▁2007-2013	-11.8589
▁firewall	-11.8589
▁lying	-11.8593
▁6,	-11.8593
ises	-11.8594
▁WE	-11.8594
▁filed	-11.8595
▁Easter	-11.8597
▁Total	-11.8597
▁Voyager	-11.86
lm	-11.8601
▁suspected	-11.8603
▁Torre	-11.8604
self	-11.8604
▁63	-11.8608
▁regulators	-11.8608
uta	-11.861
▁incorporating	-11.8611
▁Zimmer	-11.8611
▁Communities	-11.8611
▁exceeds	-11.8613
Un	-11.8614
▁sink	-11.8616
▁specialties	-11.8617
▁café	-11.8618
▁determines	-11.8619
▁bananas	-11.8621
'',	-11.8621
▁reunification	-11.8622
dging	-11.8622
lem	-11.8627
zia	-11.8632
▁explaining	-11.8632
LL	-11.8632
▁occurrence	-11.8633
recht	-11.8633
▁risen	-11.8634
▁historically	-11.8635
▁reproduce	-11.8637
▁hu	-11.8637
NC	-11.8641
▁undergo	-11.8643
▁FA	-11.8645
▁Terminal	-11.8645
▁ok	-11.8646
▁linear	-11.8648
▁illustrate	-11.8648
▁62	-11.8649
maker	-11.8651
▁warned	-11.8651
▁discovering	-11.8654
Ver	-11.8654
▁hitherto	-11.8655
▁simplicity	-11.8655
▁sunshine	-11.8655
rot	-11.8655
▁Wie	-11.8655
chu	-11.8657
▁jewel	-11.8658
telli	-11.8658
▁qualify	-11.8659
▁ON	-11.8663
▁ur	-11.8666
▁grows	-11.8667
nova	-11.8667
▁1975	-11.8668
▁simplifying	-11.8669
▁wash	-11.8669
▁invented	-11.8672
▁tall	-11.8676
fix	-11.8678
▁practise	-11.868
▁Eurostat	-11.868
zin	-11.868
▁sadly	-11.8681
▁Sciences	-11.8683
▁sentenced	-11.8685
▁glo	-11.8686
▁lifted	-11.8688
ο	-11.8688
▁REACH	-11.8688
▁assuming	-11.8688
▁cleaner	-11.8689
▁tends	-11.869
mbo	-11.8692
▁completeness	-11.8695
▁Sh	-11.8698
▁logos	-11.87
▁seasons	-11.8702
▁Pic	-11.8702
▁multinationals	-11.8703
▁Regions	-11.8703
efficient	-11.8707
Sp	-11.8708
rium	-11.871
▁Marbella	-11.8711
▁touches	-11.8714
BB	-11.8716
http	-11.8719
▁excursion	-11.872
▁benefited	-11.872
▁interviews	-11.872
▁happiness	-11.8722
▁millennium	-11.8722
▁Awards	-11.8723
▁muy	-11.8726
▁cri	-11.8727
abil	-11.8727
▁gro	-11.8727
▁tail	-11.8727
▁fatal	-11.8728
▁Electronic	-11.8728
▁lucky	-11.8731
▁Ry	-11.8732
▁steadily	-11.8733
▁eradicate	-11.8733
▁Remember	-11.8734
▁tan	-11.8735
ç	-11.8736
▁Marc	-11.8736
chan	-11.8736
anna	-11.8738
▁Marx	-11.874
CNS	-11.8743
▁Surely	-11.8744
▁advocated	-11.8747
▁NH	-11.8749
▁restraint	-11.8751
▁Tools	-11.8752
▁disturbing	-11.8752
▁flame	-11.8753
▁recital	-11.8754
wald	-11.8754
two	-11.8754
▁str	-11.8755
▁worship	-11.8755
▁celebrating	-11.8755
▁más	-11.8757
▁fiction	-11.8757
▁Pol	-11.8757
Card	-11.8761
▁disorders	-11.8764
where	-11.8765
▁Entertainment	-11.8766
▁Cast	-11.8767
▁Managing	-11.8767
▁clinic	-11.8769
▁exile	-11.8769
▁expressions	-11.8769
conf	-11.8769
▁publisher	-11.8771
▁Š	-11.8772
▁wealthy	-11.8773
▁templates	-11.8774
phi	-11.8774
host	-11.8775
this	-11.8778
▁Mercedes	-11.8778
▁assortment	-11.8778
▁Neighbourhood	-11.8778
▁EA	-11.8778
▁True	-11.8779
▁Rand	-11.8783
▁welding	-11.8784
MM	-11.8784
other	-11.8785
▁shed	-11.8786
▁AN	-11.8787
ila	-11.8787
sided	-11.8787
▁Put	-11.8787
▁vegetarian	-11.8789
▁Mugabe	-11.8789
fla	-11.8789
▁nowhere	-11.8792
▁excessively	-11.8796
sz	-11.8797
fit	-11.8798
▁harmonization	-11.88
▁assisted	-11.8802
phon	-11.8808
▁casual	-11.8811
▁Lodge	-11.8811
▁header	-11.8812
▁Maison	-11.8813
▁Customers	-11.8813
▁premature	-11.8815
lev	-11.8816
▁deter	-11.882
▁apparatus	-11.8823
▁Imperial	-11.8823
▁volunteer	-11.8823
▁cloning	-11.8823
▁Cra	-11.8824
geb	-11.8825
fel	-11.8827
iser	-11.8829
▁overlook	-11.8829
▁roller	-11.8831
scape	-11.8834
▁evaluating	-11.8834
▁brake	-11.8834
▁accomplish	-11.8837
▁Leon	-11.8838
▁Plant	-11.8839
▁Connect	-11.8844
▁betting	-11.8845
▁expedition	-11.8845
▁dependency	-11.8846
ivo	-11.8847
gie	-11.8847
▁1968	-11.8849
▁Karel	-11.8849
▁massages	-11.885
▁recipes	-11.8854
▁sectoral	-11.8854
▁god	-11.8855
▁trillion	-11.8857
▁bat	-11.8857
▁anger	-11.8858
▁farmhouse	-11.8858
▁Former	-11.8859
▁copying	-11.8861
ali	-11.8862
▁Delta	-11.8864
▁weekends	-11.8866
▁Hy	-11.8866
▁breaches	-11.8866
web	-11.8867
▁invention	-11.8868
▁companion	-11.8868
▁Ken	-11.8868
Up	-11.8869
film	-11.8875
ulate	-11.8878
▁Return	-11.8881
▁05	-11.8887
▁packing	-11.8888
cken	-11.8888
nger	-11.8888
▁organisational	-11.8889
▁patron	-11.889
▁mysterious	-11.8891
▁league	-11.8891
▁Wolfgang	-11.8891
▁Nuclear	-11.8891
▁Paragraph	-11.8891
▁trick	-11.8891
▁distortions	-11.8891
▁ed	-11.8893
▁neglected	-11.8893
▁communicated	-11.8895
▁showers	-11.8899
▁strengths	-11.89
cket	-11.8901
ggi	-11.8901
▁Deutschland	-11.8903
▁decree	-11.8905
▁professions	-11.8908
stan	-11.8909
osa	-11.8913
wen	-11.8913
▁injuries	-11.8913
▁disclosure	-11.8913
trip	-11.8914
▁Panel	-11.8916
cion	-11.8917
▁administrations	-11.8919
▁Job	-11.892
gia	-11.892
AI	-11.8924
▁explosive	-11.8925
▁surrender	-11.8925
/2010	-11.8925
▁unwind	-11.8927
▁Az	-11.8927
▁leak	-11.8928
▁feeding	-11.8929
▁winds	-11.8929
iert	-11.8936
▁drought	-11.8936
▁helicopter	-11.8937
▁Early	-11.8938
rom	-11.8939
vé	-11.894
▁bets	-11.8943
▁Republican	-11.8943
▁supranational	-11.8948
▁correctness	-11.8948
format	-11.8949
▁beliefs	-11.895
▁google	-11.8952
▁->	-11.8953
▁Ages	-11.8953
▁Bai	-11.8955
▁legs	-11.8956
né	-11.8956
iner	-11.8956
eli	-11.8958
access	-11.8958
▁forefront	-11.8959
▁buyers	-11.8959
center	-11.8959
▁CPU	-11.896
▁terminals	-11.8962
halt	-11.8962
▁cylinder	-11.8963
▁trap	-11.8968
▁Spi	-11.8969
▁cycles	-11.897
igo	-11.897
▁inspectors	-11.8971
▁Essen	-11.8973
▁Lin	-11.8975
rank	-11.8975
onne	-11.8975
▁tur	-11.8979
▁57	-11.8979
▁clip	-11.8982
tung	-11.8984
ground	-11.8987
▁fathers	-11.8988
vr	-11.899
▁lesser	-11.8992
▁Kur	-11.8993
▁ridiculous	-11.8993
turn	-11.8995
▁Had	-11.8996
ffer	-11.8996
▁assignment	-11.8996
dr	-11.8997
▁assistant	-11.9002
sberg	-11.9004
▁mercury	-11.9005
▁CFSP	-11.9005
mid	-11.9007
▁subtle	-11.9007
▁sons	-11.9007
▁Siena	-11.9009
▁evolved	-11.9012
cons	-11.9013
▁Lower	-11.9014
▁dynamics	-11.9015
▁Hollywood	-11.9016
▁gateway	-11.9019
▁Campo	-11.9021
▁confine	-11.9021
▁loads	-11.9021
▁weakened	-11.9022
▁rebuild	-11.9022
▁92	-11.9024
▁lacks	-11.9025
bing	-11.9025
urs	-11.9026
tine	-11.9029
▁rotation	-11.9029
▁attendance	-11.903
▁informative	-11.903
▁tie	-11.9031
▁writes	-11.9033
▁corners	-11.9036
▁frontiers	-11.9036
▁detrimental	-11.9037
shore	-11.9039
▁aforementioned	-11.9039
ли	-11.904
block	-11.904
cl	-11.904
▁rows	-11.9042
adi	-11.9043
▁Pet	-11.9044
lier	-11.9044
▁nose	-11.9045
▁Visa	-11.9045
▁contracting	-11.9045
▁occupational	-11.9046
0.0	-11.9048
▁Core	-11.905
▁Estate	-11.9051
▁Beyond	-11.9051
▁jacuzzi	-11.9051
▁radar	-11.9052
▁Sk	-11.9052
▁gesture	-11.9053
▁informing	-11.9055
▁episodes	-11.9057
▁dell	-11.9058
▁cake	-11.9062
▁hurt	-11.9063
▁Gil	-11.9063
▁deepen	-11.9063
▁holy	-11.9066
▁Zone	-11.9066
▁lamps	-11.9067
▁pulse	-11.9068
ogen	-11.9068
rma	-11.907
▁pub	-11.907
▁Living	-11.9071
▁starship	-11.9071
▁mainland	-11.9072
bis	-11.9073
▁Ask	-11.9074
▁Oxford	-11.9074
▁engaging	-11.9074
intensive	-11.9075
▁1982	-11.9075
▁Split	-11.9075
▁Clear	-11.9078
inen	-11.9082
▁Bob	-11.9082
door	-11.9085
▁coincide	-11.9085
▁miracle	-11.9086
▁Eurex	-11.9087
▁Overall	-11.9087
▁Gender	-11.9089
▁habits	-11.909
▁sharply	-11.909
▁radically	-11.9091
▁kindly	-11.9093
▁Brown	-11.9098
duct	-11.9099
▁constituents	-11.9099
▁recipe	-11.91
▁photographic	-11.9103
▁underlined	-11.9104
nation	-11.9105
verse	-11.9105
VE	-11.9106
▁oils	-11.9106
▁caves	-11.9107
▁wellbeing	-11.9109
tical	-11.9112
▁employs	-11.9114
good	-11.9115
▁Original	-11.9118
▁cereals	-11.9119
ged	-11.9121
php	-11.9122
nas	-11.9122
▁Benjamin	-11.9123
AB	-11.9124
▁odd	-11.9125
▁Recent	-11.9128
▁locked	-11.9131
▁egg	-11.9132
▁IM	-11.9136
▁Dec	-11.914
▁theatres	-11.9141
ctor	-11.9141
▁seize	-11.9142
▁lodge	-11.915
▁3000	-11.915
nus	-11.915
▁triggered	-11.915
/2009	-11.9152
▁Fun	-11.9153
rink	-11.9154
food	-11.9155
▁intact	-11.9156
▁Vision	-11.9159
clock	-11.9162
▁mud	-11.9162
▁fairs	-11.9164
Art	-11.9165
▁appliances	-11.9166
▁revise	-11.9167
▁Guatemala	-11.9167
ete	-11.9168
standard	-11.9168
▁EF	-11.9172
▁Prior	-11.9173
▁religions	-11.9173
▁Rail	-11.9174
▁instrumental	-11.9178
▁focal	-11.9179
▁Ly	-11.9179
▁pretend	-11.9179
▁polar	-11.918
PR	-11.9181
▁steering	-11.9181
▁7,	-11.9182
ike	-11.9182
▁associate	-11.9186
▁Syn	-11.9189
▁seas	-11.9189
▁struggling	-11.919
business	-11.9191
▁shipped	-11.9192
TNG	-11.9192
▁Poly	-11.9193
▁precondition	-11.9197
pes	-11.9197
▁mainstream	-11.9198
▁drastic	-11.9202
▁faithful	-11.9202
▁assault	-11.9203
▁termination	-11.9203
iers	-11.9209
▁cheque	-11.921
▁Provider	-11.921
lander	-11.9211
▁geographic	-11.9211
▁punished	-11.9212
MC	-11.9213
▁thematic	-11.9213
▁remuneration	-11.9214
▁laugh	-11.9215
▁positioning	-11.9215
▁EL	-11.9219
▁Bell	-11.922
▁ze	-11.9222
▁eventual	-11.9225
▁diploma	-11.9225
▁exercising	-11.9226
▁triumph	-11.9226
▁philosopher	-11.9226
▁athletes	-11.9226
▁margins	-11.9226
organ	-11.9226
▁offence	-11.9228
▁SU	-11.923
load	-11.9231
▁blank	-11.9232
▁bow	-11.9235
▁Algarve	-11.9237
▁inquiries	-11.9237
tax	-11.9238
white	-11.9238
▁Maritime	-11.9238
▁combinations	-11.9239
nge	-11.924
far	-11.924
▁depart	-11.924
pad	-11.9242
▁rival	-11.9242
▁1.1	-11.9243
▁relay	-11.9243
▁ICT	-11.9245
/2002	-11.9249
▁midnight	-11.925
kra	-11.925
What	-11.9251
▁suggesting	-11.9252
rock	-11.9253
▁observer	-11.9253
▁cow	-11.9255
▁Rica	-11.9258
ej	-11.9263
▁projection	-11.9264
▁guesthouse	-11.9267
▁Canaria	-11.9268
▁Others	-11.9271
▁laboratories	-11.9273
▁striving	-11.9273
▁incapable	-11.9273
▁derivatives	-11.9273
World	-11.9274
▁1997.	-11.9276
▁var	-11.9277
▁County	-11.9277
▁unification	-11.9279
▁Av	-11.9279
▁Jen	-11.9282
▁Azerbaijan	-11.9284
install	-11.9286
-12	-11.9287
▁formulate	-11.9287
▁reforming	-11.9289
▁colony	-11.9289
yard	-11.9291
▁browsing	-11.9296
▁Tyrolean	-11.9296
▁1983	-11.9297
▁1976	-11.9298
▁illustrated	-11.9299
▁75%	-11.93
▁judgments	-11.9301
▁emails	-11.9303
▁fairness	-11.9304
crib	-11.9305
Jo	-11.9305
▁boutiques	-11.9305
▁gran	-11.9308
cru	-11.9308
▁twentieth	-11.9308
▁policymakers	-11.9309
▁seriousness	-11.9313
inch	-11.9314
Man	-11.9315
tabling	-11.9317
▁Norwegian	-11.932
▁yourselves	-11.932
▁compression	-11.932
▁terminate	-11.9323
hler	-11.9327
quer	-11.9332
▁poison	-11.9332
▁Chernobyl	-11.9332
▁durch	-11.9332
▁mobilisation	-11.9333
▁Junior	-11.9333
▁anchor	-11.9333
▁conformity	-11.9334
▁88	-11.9337
▁CH	-11.9342
NCC	-11.9342
ures	-11.9342
▁Tag	-11.9343
▁describing	-11.9344
dev	-11.9345
▁reassure	-11.9347
server	-11.9347
Te	-11.9348
ре	-11.9349
▁Anne	-11.9349
▁07	-11.935
▁Mayor	-11.9351
ija	-11.9355
▁pray	-11.9355
▁consecutive	-11.9356
▁optimism	-11.9356
▁unsatisfactory	-11.9356
▁extensions	-11.9358
▁Buy	-11.936
▁hits	-11.9361
▁Pont	-11.9362
dio	-11.9362
▁Freedoms	-11.9363
▁particles	-11.9367
▁Berlusconi	-11.9367
▁diversification	-11.9368
▁chicken	-11.9368
▁profitability	-11.9369
▁(3)	-11.937
▁forgetting	-11.9372
▁Route	-11.9372
▁misuse	-11.9373
disproportionate	-11.9373
▁abstain	-11.9373
▁kite	-11.9378
▁vigilant	-11.9379
▁Different	-11.9379
▁microwave	-11.938
▁FC	-11.938
▁swap	-11.938
▁endanger	-11.9382
▁derogation	-11.9386
▁advisable	-11.9391
▁dismantling	-11.9391
▁hypocrisy	-11.9391
▁disarmament	-11.9391
▁photographers	-11.9392
▁advertisements	-11.9393
▁pressed	-11.9393
nau	-11.9398
▁ru	-11.9402
▁reinforcing	-11.9403
▁plasma	-11.9403
stock	-11.9404
▁recovered	-11.9408
▁Lady	-11.9411
orn	-11.9412
ied	-11.9413
▁Platform	-11.9415
▁prince	-11.9415
▁Movie	-11.9416
▁floating	-11.9417
▁Camping	-11.9418
▁insulation	-11.9419
▁bas	-11.9419
▁mortgage	-11.9422
▁cookie	-11.9423
color	-11.9426
▁approving	-11.9427
▁reluctant	-11.9427
▁Field	-11.9427
▁rooftop	-11.9428
▁boast	-11.9428
▁Senate	-11.9429
▁HOTEL	-11.9429
▁analysed	-11.943
▁Engine	-11.9431
▁adjustable	-11.9432
rating	-11.9434
▁agreeing	-11.9434
▁displaying	-11.9435
▁11,	-11.9438
▁pensioners	-11.9438
▁bei	-11.9439
▁controversy	-11.9439
▁intolerable	-11.9439
▁applaud	-11.9439
▁geopolitical	-11.9439
▁NT	-11.9441
▁counterparts	-11.9443
▁performs	-11.9443
▁scanner	-11.9448
ched	-11.9448
▁tooth	-11.9449
▁socket	-11.945
▁sing	-11.945
stro	-11.9451
▁einer	-11.9452
▁username	-11.9454
8%	-11.9455
üh	-11.9457
▁loop	-11.9457
▁fri	-11.9462
▁gastronomic	-11.9463
▁worries	-11.9463
▁avail	-11.9463
▁interiors	-11.9464
▁Gardens	-11.9465
VI	-11.9467
▁Base	-11.9467
▁apple	-11.9468
▁disruption	-11.9468
▁entrusted	-11.9469
▁rendered	-11.947
▁Author	-11.9471
▁Ultra	-11.9474
cycle	-11.9474
▁arrow	-11.9475
▁Café	-11.9475
▁frustration	-11.9475
▁intervals	-11.9478
▁Ang	-11.948
kl	-11.9486
▁ALL	-11.9486
zing	-11.9487
▁malaria	-11.9487
enza	-11.9488
▁Visitors	-11.9488
hem	-11.9488
Ar	-11.949
▁understands	-11.9491
BE	-11.9491
▁tre	-11.9491
▁san	-11.9493
▁retailers	-11.9495
ache	-11.9495
nc	-11.9496
▁Yugoslav	-11.9497
▁upgrading	-11.9499
▁Watson	-11.95
▁Andrew	-11.9501
▁Bremen	-11.9501
aid	-11.9502
Tech	-11.9503
▁locate	-11.9504
▁treasures	-11.9504
▁Cost	-11.9505
▁cult	-11.9507
▁frank	-11.9507
▁assisting	-11.951
▁counsel	-11.9511
▁Herzegovina	-11.9511
▁Superior	-11.9511
▁consumed	-11.9512
lee	-11.9512
▁Stephen	-11.9512
▁Generation	-11.9512
▁administer	-11.9512
▁cruel	-11.9512
▁61	-11.9514
▁Kol	-11.9514
▁edges	-11.9516
▁desperate	-11.9516
▁carpet	-11.9523
lish	-11.9523
▁farmer	-11.9523
▁cyber	-11.9524
▁Quarter	-11.9524
▁venues	-11.9527
▁stabilisation	-11.9527
▁TAC	-11.9528
East	-11.9528
driven	-11.9529
▁modem	-11.9529
▁Et	-11.9529
miss	-11.953
rak	-11.953
▁privately	-11.9532
▁marketplace	-11.9533
▁Command	-11.9533
▁salon	-11.9535
▁arose	-11.9535
▁temptation	-11.9536
▁RS	-11.9536
ów	-11.9536
▁wie	-11.9538
▁ter	-11.9538
▁accesses	-11.9538
▁ham	-11.9539
▁seventh	-11.9541
▁Baden	-11.9541
3.	-11.9542
▁Outlook	-11.9548
▁Contract	-11.955
▁provisional	-11.955
IR	-11.9551
▁Ethiopia	-11.9552
EGF	-11.9552
design	-11.9553
acy	-11.9553
▁eager	-11.9554
▁disadvantages	-11.9556
▁Event	-11.9559
▁deplore	-11.956
▁Rat	-11.9561
▁qu	-11.9562
foot	-11.9562
▁Len	-11.9564
pur	-11.9567
▁cleaned	-11.9568
▁imbalance	-11.9572
▁Verona	-11.9573
kal	-11.9574
commercial	-11.9574
jet	-11.9579
▁corporation	-11.9581
▁robot	-11.9581
das	-11.9582
▁Kla	-11.9583
▁Frattini	-11.9584
▁stuck	-11.9585
▁sensation	-11.9586
▁-->	-11.9587
▁Theater	-11.9588
bahn	-11.9589
who	-11.9592
▁prisons	-11.9596
▁Angola	-11.9597
▁physically	-11.9597
▁Cho	-11.9599
▁Lee	-11.9601
▁mold	-11.9602
▁om	-11.9604
pat	-11.9606
▁Grande	-11.9608
▁relocation	-11.9608
▁Important	-11.9609
▁traveller	-11.9611
▁sized	-11.9611
▁RA	-11.9612
▁2.2	-11.9612
▁physics	-11.9614
▁nominal	-11.9615
▁bottles	-11.9616
▁Syrian	-11.9617
regulation	-11.9617
▁hanging	-11.9618
▁Conservative	-11.9618
▁UV	-11.9621
▁eternal	-11.9621
cop	-11.9623
▁Mess	-11.9626
iler	-11.9629
lei	-11.963
й	-11.9632
ż	-11.9633
▁relaunch	-11.9634
▁Ay	-11.9636
▁proceeding	-11.9637
▁brick	-11.964
▁по	-11.9642
▁Race	-11.9642
▁RAM	-11.9644
▁exploration	-11.9645
rooms	-11.9648
iling	-11.9648
▁encrypted	-11.9649
▁Bro	-11.9652
▁rod	-11.9654
▁renew	-11.9655
▁immune	-11.9657
charge	-11.9659
▁Barack	-11.9659
▁conceptual	-11.966
▁defeated	-11.966
▁Arch	-11.9661
▁collectively	-11.9661
▁axis	-11.9667
ington	-11.9667
▁Portal	-11.9668
tent	-11.9668
▁rounds	-11.9669
ids	-11.9673
▁bon	-11.9674
▁hoc	-11.9675
▁ARE	-11.9676
▁curb	-11.9677
▁ya	-11.9677
▁Palazzo	-11.9682
▁06	-11.9684
wie	-11.9687
▁ears	-11.9693
▁clever	-11.9694
▁wird	-11.9695
▁overlooks	-11.9695
▁Arabic	-11.9697
▁pig	-11.97
mond	-11.9703
▁Pur	-11.9703
/20	-11.9704
ý	-11.9705
▁stereo	-11.9707
▁camiones	-11.9708
▁tubes	-11.9708
EG	-11.9709
account	-11.9709
▁adventures	-11.9709
▁theories	-11.9709
▁infringements	-11.9712
▁similarly	-11.9714
empt	-11.9715
▁Wal	-11.9715
FS	-11.9716
cke	-11.9716
▁Generally	-11.9718
sea	-11.9719
▁streams	-11.972
▁Nobody	-11.9721
▁CS	-11.9723
▁confer	-11.9724
▁utterly	-11.9725
carbon	-11.9726
="	-11.9727
▁beta	-11.9727
vas	-11.9728
▁partitions	-11.9728
aster	-11.973
dial	-11.9731
▁(15	-11.9731
▁Accommodation	-11.9731
▁implied	-11.9731
▁stabilise	-11.9731
▁essay	-11.9732
▁Nepal	-11.9732
▁Islamist	-11.9732
▁lecture	-11.9732
ching	-11.9736
▁illnesses	-11.9738
hon	-11.9738
zh	-11.9738
▁Personally	-11.974
▁Too	-11.9741
itation	-11.9741
▁ES	-11.9742
▁homeland	-11.9743
▁advertisement	-11.9743
▁03	-11.9744
▁compile	-11.9744
▁variant	-11.9744
▁glory	-11.9744
▁fishery	-11.9745
▁pur	-11.9747
▁Fat	-11.975
▁$2	-11.9752
▁organizational	-11.9757
▁spheres	-11.9757
holders	-11.9758
▁pave	-11.9759
lang	-11.9767
▁terminology	-11.9768
▁Learning	-11.9769
EST	-11.977
gun	-11.9771
▁destructive	-11.9774
▁simultaneous	-11.9774
cos	-11.9775
▁Rent	-11.9775
rai	-11.9777
▁rope	-11.9779
tral	-11.9781
force	-11.9782
▁Ambassador	-11.9782
▁nicely	-11.9783
FC	-11.9785
his	-11.9787
▁2.4	-11.9787
4-0	-11.9788
▁mess	-11.979
tube	-11.9792
▁fr	-11.9792
ní	-11.9792
established	-11.9793
ère	-11.9793
iko	-11.9793
▁Bluetooth	-11.9793
▁ensemble	-11.9793
Sh	-11.9794
tage	-11.9796
INE	-11.9797
▁domains	-11.9798
▁nano	-11.9802
▁printers	-11.9802
▁provinces	-11.9804
▁Comfort	-11.9804
▁Feel	-11.9805
▁excitement	-11.9806
▁Facebook	-11.9806
▁Performance	-11.9806
CR	-11.9808
misunderstanding	-11.9808
▁warnings	-11.9808
▁expose	-11.981
KA	-11.981
▁lab	-11.9813
Ka	-11.9813
▁Pierre	-11.9813
▁pioneer	-11.9813
▁pipes	-11.9813
▁ph	-11.9814
äu	-11.9815
▁Commerce	-11.9815
▁Catalan	-11.9818
▁jungle	-11.9818
▁alternate	-11.9818
▁Rimini	-11.9819
▁Solar	-11.982
те	-11.9821
▁fence	-11.9821
▁machining	-11.9824
ка	-11.9825
▁Added	-11.9827
wy	-11.983
▁buried	-11.9831
▁oppression	-11.9831
▁supermarket	-11.9832
▁ministerial	-11.9832
▁chill	-11.9836
▁(6	-11.9836
▁Lot	-11.9836
GP	-11.9844
mad	-11.9844
▁choir	-11.9845
▁Lan	-11.9845
ended	-11.9846
▁cultivated	-11.9848
▁colon	-11.9848
▁mor	-11.9848
▁mall	-11.985
zeit	-11.9852
▁rein	-11.9852
▁extensively	-11.9854
▁plateau	-11.9854
Euro	-11.9855
▁anxious	-11.9856
▁Partners	-11.9858
▁cited	-11.9864
▁02	-11.9866
▁pl	-11.9866
▁Us	-11.9867
▁baroque	-11.9868
▁Ost	-11.9871
▁mediation	-11.9873
5,000	-11.9874
IB	-11.9874
▁survived	-11.9876
▁deepening	-11.9876
▁vent	-11.9877
▁WI	-11.988
▁10,000	-11.9881
▁Oracle	-11.9881
▁Turning	-11.9881
▁bann	-11.9883
▁Graz	-11.9883
dol	-11.9884
▁Jazz	-11.9884
▁outcomes	-11.9884
▁Case	-11.9885
▁wasted	-11.9891
▁CC	-11.9892
▁gates	-11.9893
▁Texas	-11.9894
Fo	-11.9894
very	-11.9896
▁disciplines	-11.9897
▁landmark	-11.9897
▁premiere	-11.9897
bio	-11.9902
▁additionally	-11.9902
▁Walter	-11.9905
▁Bangkok	-11.9906
▁uranium	-11.9906
▁1981	-11.9907
claim	-11.9909
▁butter	-11.991
▁Converter	-11.9911
▁Commander	-11.9912
lite	-11.9918
▁oversee	-11.9918
▁Surround	-11.9919
9|	-11.992
[...]
