<unk>	0
<s>	0
</s>	0
▁के	-3.51208
▁।	-3.60257
▁है	-3.70546
▁.	-3.73925
▁,	-3.79794
▁में	-3.80757
▁की	-3.9802
▁से	-4.2576
▁और	-4.32401
▁को	-4.34353
▁का	-4.42177
▁हैं	-4.72175
▁-	-4.72232
▁पर	-4.75061
▁भी	-4.88548
▁कि	-4.88742
▁एक	-5.00702
▁ने	-5.04747
▁नहीं	-5.04913
▁तो	-5.20002
▁ही	-5.20771
▁लिए	-5.30723
▁कर	-5.32654
▁हो	-5.36916
▁इस	-5.42102
▁यह	-5.51399
▁था	-5.56871
▁'	-5.66175
ों	-5.80458
▁किया	-5.82275
▁गया	-5.86886
▁करने	-5.89489
▁(	-5.90736
▁)	-5.94808
▁अपने	-5.96499
▁जो	-5.99101
▁साथ	-5.99404
ी	-5.99814
▁कुछ	-6.09036
▁वह	-6.16305
▁रहे	-6.18091
▁?	-6.18741
▁रहा	-6.20774
▁न	-6.22339
▁तक	-6.23548
▁या	-6.24109
▁थी	-6.24329
▁थे	-6.26066
▁कोई	-6.28194
▁कहा	-6.28564
▁दिया	-6.31477
▁मैं	-6.3233
▁!	-6.34192
▁बाद	-6.37174
▁लेकिन	-6.38571
▁आप	-6.38742
▁जा	-6.38953
ा	-6.40154
▁हुए	-6.44536
▁क्या	-6.45516
▁किसी	-6.45605
▁बात	-6.47313
▁रही	-6.47791
▁अब	-6.48916
▁अपनी	-6.49815
▁:	-6.519
▁हम	-6.53185
▁ये	-6.5324
▁जब	-6.55115
▁तरह	-6.58918
▁बहुत	-6.59331
▁वे	-6.6019
▁करते	-6.64983
▁जाता	-6.68577
▁रूप	-6.69019
▁होता	-6.69461
▁पहले	-6.70778
▁“	-6.72291
▁फिर	-6.72716
▁गई	-6.7288
▁हुआ	-6.74907
▁समय	-6.7529
▁व	-6.75427
े	-6.75538
▁वाले	-6.75787
▁होने	-6.7587
▁जी	-6.79162
▁आज	-6.80044
▁दो	-6.81214
▁लोगों	-6.82811
▁सकता	-6.84022
▁उनके	-6.85053
▁”	-6.85145
▁बार	-6.8662
▁देश	-6.88936
▁गए	-6.89136
▁भारत	-6.89721
▁आ	-6.9021
▁सरकार	-6.9028
▁उस	-6.90916
▁उन्होंने	-6.91014
▁	-6.91591
▁काम	-6.91624
▁लोग	-6.91796
▁द्वारा	-6.94323
▁उसे	-6.94332
▁इन	-6.94368
▁दिन	-6.94592
न	-6.94851
▁/	-6.96574
ता	-6.98332
▁उसके	-6.98356
▁मुझे	-6.99737
▁दी	-6.99966
▁करना	-7.00361
▁जाने	-7.00681
▁कई	-7.0281
▁वो	-7.0441
▁नाम	-7.04837
▁इसके	-7.05631
▁हुई	-7.05693
▁होगा	-7.06383
ं	-7.0682
▁उन्हें	-7.0692
▁तथा	-7.07255
▁हर	-7.07624
▁सभी	-7.09085
▁कम	-7.109
▁;	-7.11404
▁होती	-7.12396
▁‘	-7.13103
▁कभी	-7.14039
▁घर	-7.1506
▁सकते	-7.16544
ो	-7.17168
▁मेरे	-7.18187
▁जैसे	-7.19207
▁उनकी	-7.22348
▁एवं	-7.22658
▁चाहिए	-7.22765
▁सब	-7.23094
▁हूँ	-7.23477
र	-7.24897
▁करता	-7.25117
▁कारण	-7.25785
▁सिंह	-7.26127
▁साल	-7.26213
▁लिया	-7.26433
▁सबसे	-7.27451
▁अगर	-7.28337
▁पास	-7.28348
▁ऐसा	-7.29195
ने	-7.29205
ः	-7.29915
▁ऐसे	-7.30016
▁ले	-7.31919
▁अधिक	-7.32793
▁लेकर	-7.3468
▁दे	-7.34806
▁अपना	-7.3546
▁&	-7.35573
▁लगा	-7.3573
▁जीवन	-7.36907
▁मे	-7.37341
▁जाती	-7.39326
▁बारे	-7.40957
▁करें	-7.41551
▁दोनों	-7.42046
▁हमारे	-7.42784
▁पुलिस	-7.43264
▁बीच	-7.43586
▁वाली	-7.44255
▁होते	-7.45067
ना	-7.45208
क	-7.45803
▁उसकी	-7.4598
▁ओर	-7.47071
▁तब	-7.48778
▁मैंने	-7.50645
▁भारतीय	-7.50943
▁#	-7.51005
▁मन	-7.51812
ते	-7.51887
▁अन्य	-7.52236
▁देने	-7.52489
▁लिये	-7.52927
▁क्षेत्र	-7.53894
▁2	-7.53954
▁बताया	-7.54046
▁जाते	-7.54063
▁मेरी	-7.54174
▁=	-7.54854
▁शुरू	-7.55411
▁1	-7.56058
▁अभी	-7.56321
▁ज्यादा	-7.57013
्स	-7.57298
▁यहां	-7.578
ल	-7.5835
▁*	-7.58699
▁वर्ष	-7.58745
▁इसी	-7.59756
▁फिल्म	-7.59867
▁अलग	-7.60613
▁सी	-7.60851
▁पता	-7.61317
कर	-7.62449
स	-7.62628
▁यदि	-7.63554
▁तुम	-7.63735
▁क्योंकि	-7.6385
म	-7.64002
▁राज्य	-7.6495
▁[	-7.65091
▁]	-7.65123
▁तीन	-7.65242
ियों	-7.65338
▁क्यों	-7.6535
▁उन	-7.66467
▁ए	-7.67374
▁बना	-7.67386
▁आगे	-7.6763
▁दिल्ली	-7.6782
▁नही	-7.68227
▁बन	-7.6828
▁इसे	-7.68793
▁पूर्व	-7.69547
▁यही	-7.7219
▁विकास	-7.72205
▁उनका	-7.7269
▁सामने	-7.73703
▁समाज	-7.74167
▁दुनिया	-7.74432
▁उसने	-7.74751
▁प्रकार	-7.75484
▁श्री	-7.75514
▁कांग्रेस	-7.75774
▁ना	-7.75814
▁आपको	-7.75817
▁इसलिए	-7.75982
▁मिल	-7.76105
ती	-7.76572
▁बस	-7.77113
▁बाहर	-7.77306
▁उसका	-7.77693
▁पूरी	-7.77726
▁3	-7.77822
▁हूं	-7.78015
▁लगता	-7.78366
▁कैसे	-7.78554
▁दूसरे	-7.78722
▁जिस	-7.78815
▁सकती	-7.78946
▁आदि	-7.80245
▁इससे	-7.80559
▁हमें	-7.80649
”	-7.81073
▁बड़ी	-7.81536
▁पानी	-7.81663
▁आने	-7.81923
▁प्रति	-7.82194
▁प्रदेश	-7.82457
▁बड़े	-7.82524
▁पार्टी	-7.82796
▁होगी	-7.83104
▁केवल	-7.833
▁गयी	-7.83616
▁हाथ	-7.84285
▁यहाँ	-7.84564
▁इसका	-7.85172
▁मेरा	-7.85533
▁करती	-7.8563
▁आया	-7.86298
▁ऐसी	-7.86575
▁दौरान	-7.87046
्	-7.8728
▁जाए	-7.87437
▁कहीं	-7.8757
▁व्यक्ति	-7.87735
▁जाएगा	-7.87912
▁शामिल	-7.8801
▁आई	-7.88205
▁वाला	-7.88309
▁जाना	-7.88542
▁भर	-7.88852
▁अच्छा	-7.89146
▁124	-7.89276
▁खुद	-7.89942
▁गये	-7.90035
▁कार्य	-7.90085
▁5	-7.90561
▁प्राप्त	-7.91613
▁कहते	-7.92527
▁देखा	-7.92547
▁दूर	-7.935
▁आपके	-7.93614
▁सही	-7.93688
त	-7.94155
▁बनाने	-7.94308
▁देख	-7.95011
ई	-7.95379
▁जानकारी	-7.95657
▁जगह	-7.95765
▁चुनाव	-7.95912
▁चल	-7.96095
▁देते	-7.96659
▁काफी	-7.96723
▁अनुसार	-7.97112
▁किए	-7.97311
▁सिर्फ	-7.97519
▁जनता	-7.97813
▁10	-7.97882
▁रह	-7.98137
▁चार	-7.98148
▁होना	-7.98646
▁नई	-7.99167
▁करके	-7.9921
▁सा	-7.99668
▁मामले	-7.99779
▁4	-7.99893
▁रात	-7.99978
जी	-8.00004
▁पिछले	-8.00194
▁लगे	-8.01157
▁धर्म	-8.02251
ें	-8.03296
▁वहां	-8.0331
▁पूरा	-8.04016
▁दिनों	-8.04117
▁परिवार	-8.04795
▁बड़ा	-8.05043
▁खिलाफ	-8.0509
▁शायद	-8.05178
▁विचार	-8.05341
▁बिना	-8.05473
▁इसमें	-8.05607
▁कहना	-8.05939
▁ध्यान	-8.0622
▁जहां	-8.07052
▁आम	-8.07227
▁भाषा	-8.07732
▁ठीक	-8.07976
▁याद	-8.08241
▁शहर	-8.08458
▁कह	-8.08512
▁0	-8.09507
▁तैयार	-8.10026
▁समझ	-8.10316
▁कार्यक्रम	-8.11022
▁इतना	-8.11223
▁स्थिति	-8.11857
▁6	-8.12243
▁भाई	-8.1225
▁जारी	-8.12841
▁बच्चों	-8.13068
▁...	-8.13079
▁जबकि	-8.1312
ओं	-8.13356
▁शिक्षा	-8.13649
▁उत्तर	-8.14571
▁अ	-8.15119
▁जिसमें	-8.15162
▁टीम	-8.15501
▁ली	-8.15604
▁हमारी	-8.1594
▁१	-8.15964
ित	-8.16041
▁उसी	-8.1616
▁विशेष	-8.16278
▁हिन्दी	-8.16473
▁दिल	-8.16554
नी	-8.16558
▁लेने	-8.16787
▁मंत्री	-8.16891
िंग	-8.17195
ि	-8.17986
▁कुमार	-8.1841
▁अच्छी	-8.18989
▁रहने	-8.1904
ज	-8.19167
▁पहली	-8.19232
▁लाख	-8.20036
▁मुख्य	-8.20492
▁चाहते	-8.20547
▁नेता	-8.2163
▁देता	-8.21882
▁लगी	-8.21895
▁बंद	-8.223
▁खेल	-8.22517
▁सवाल	-8.22584
▁मिला	-8.22615
▁शब्द	-8.2268
▁स्थान	-8.22686
▁भाजपा	-8.22709
▁कोशिश	-8.2283
▁पीछे	-8.23055
▁संख्या	-8.23344
▁कौन	-8.23384
▁चला	-8.23588
▁_	-8.23866
▁मीडिया	-8.23981
▁रहते	-8.23996
▁गांव	-8.24437
▁लगभग	-8.24693
▁हिंदी	-8.25087
▁दिए	-8.25124
▁राम	-8.25471
▁आदमी	-8.25679
▁महिला	-8.26296
▁आपकी	-8.26301
▁नए	-8.26827
▁7	-8.26877
या	-8.27022
▁ऊपर	-8.27416
▁कविता	-8.27486
▁इसकी	-8.27681
▁योजना	-8.27825
▁बल्कि	-8.2799
▁आधार	-8.29213
▁ई	-8.29386
▁अलावा	-8.29679
▁रखा	-8.29725
▁निर्माण	-8.2987
▁प्रयोग	-8.30156
▁विश्व	-8.30326
▁थीं	-8.30447
▁व्यवस्था	-8.30754
▁उपयोग	-8.3078
▁स्तर	-8.30887
▁दूसरी	-8.31132
▁भाग	-8.31144
▁पिता	-8.3123
ट	-8.31419
▁पूरे	-8.31493
▁कल	-8.31532
▁लग	-8.31596
▁करोड़	-8.31603
▁तरफ	-8.31635
▁रहता	-8.31721
▁मगर	-8.3174
▁लिखा	-8.31779
▁राष्ट्रीय	-8.32116
▁देना	-8.32636
▁विभाग	-8.32739
▁आए	-8.32792
▁होकर	-8.32869
▁देखने	-8.33155
▁कहानी	-8.33228
▁सेवा	-8.33266
▁आता	-8.33605
▁12	-8.33832
ए	-8.33951
▁बच्चे	-8.33968
▁वही	-8.34088
▁प्रेम	-8.34098
▁जन्म	-8.34178
▁२	-8.34238
▁वजह	-8.3425
▁वैसे	-8.34358
▁रंग	-8.35189
िया	-8.35345
▁जिसे	-8.3557
▁रुपये	-8.35699
▁पी	-8.35934
▁करीब	-8.35959
▁11	-8.3685
▁जरूरत	-8.37008
▁वहाँ	-8.37141
▁स्कूल	-8.37302
▁पाकिस्तान	-8.374
▁प्रमुख	-8.37549
▁कंपनी	-8.37983
▁शरीर	-8.38147
▁वहीं	-8.38301
▁8	-8.38477
▁मांग	-8.38592
▁20	-8.38764
▁सुबह	-8.38848
▁बाजार	-8.38949
▁तौर	-8.39022
▁अमेरिका	-8.39209
▁उससे	-8.39547
▁जांच	-8.39578
▁नीचे	-8.39906
के	-8.40312
▁पत्र	-8.40563
▁पांच	-8.40637
ू	-8.40771
▁विभिन्न	-8.40894
▁अध्यक्ष	-8.40941
व	-8.41048
▁हजार	-8.41261
▁आपने	-8.41492
▁प्यार	-8.41602
▁मुख्यमंत्री	-8.41686
▁करेंगे	-8.42009
▁सुरक्षा	-8.42198
▁गांधी	-8.4233
▁पोस्ट	-8.42572
▁स्थित	-8.43008
▁अधिकारी	-8.43313
▁विषय	-8.43325
▁यात्रा	-8.43495
▁जल	-8.44283
▁बजे	-8.44366
▁हमेशा	-8.44443
▁आते	-8.44462
▁छोटे	-8.4453
▁किस	-8.44817
▁हालांकि	-8.45242
▁सके	-8.45337
▁होंगे	-8.45365
▁जिससे	-8.45451
▁ज्ञान	-8.45529
▁हों	-8.45553
▁रखने	-8.45714
▁15	-8.45842
▁चुके	-8.45846
▁जवाब	-8.4595
▁स	-8.46383
री	-8.46489
▁भाव	-8.46713
▁द	-8.46794
▁जिसके	-8.46873
▁सारे	-8.46948
▁मंदिर	-8.47055
▁मदद	-8.4743
▁सच	-8.47853
▁हाल	-8.48024
▁नजर	-8.48159
▁देर	-8.48297
▁सोच	-8.48324
▁बनाया	-8.48434
प	-8.48858
▁डॉ	-8.49012
▁माध्यम	-8.49183
▁सरकारी	-8.49329
▁भगवान	-8.49983
ब	-8.49985
▁महत्वपूर्ण	-8.50211
▁पा	-8.50278
▁प्रतिशत	-8.50932
▁सामाजिक	-8.50956
▁2010	-8.513
▁प्रयास	-8.51362
▁चुका	-8.51661
▁चर्चा	-8.51716
▁छोड़	-8.51827
▁2011	-8.5206
▁माँ	-8.52092
का	-8.52445
▁हमने	-8.52449
▁वालों	-8.52489
▁राजनीति	-8.5283
▁गीत	-8.52915
▁जान	-8.53221
▁ब्लॉग	-8.53291
▁राज	-8.53455
▁प्रदान	-8.53685
▁इतनी	-8.53946
▁9	-8.54406
▁विरोध	-8.54572
▁चाहता	-8.54765
▁सो	-8.54884
▁आपका	-8.54928
▁साहित्य	-8.5543
▁खबर	-8.55498
▁जिला	-8.555
▁उपलब्ध	-8.55569
▁माना	-8.55719
▁जैसा	-8.55777
▁इस्तेमाल	-8.55943
▁पद	-8.56075
▁घटना	-8.56336
▁प्रधानमंत्री	-8.56489
▁आती	-8.56665
▁कानून	-8.56679
▁शादी	-8.57164
ड	-8.57446
▁करे	-8.57461
▁जहाँ	-8.57493
▁धीरे	-8.57605
▁एस	-8.5762
▁बढ़	-8.57658
▁देखते	-8.57687
़	-8.58232
▁लाभ	-8.58253
▁स्वयं	-8.58268
वा	-8.58368
▁सूचना	-8.5849
य	-8.5851
▁मौत	-8.58573
▁केंद्र	-8.58981
▁नया	-8.59
▁रिपोर्ट	-8.59058
▁आरोप	-8.59081
▁कुल	-8.59125
▁बातें	-8.59246
▁इतिहास	-8.59453
▁बने	-8.59635
▁लेख	-8.59682
▁राजनीतिक	-8.59692
▁पड़ा	-8.60246
▁म	-8.60348
▁चुकी	-8.60472
▁अर्थ	-8.60487
▁चलते	-8.60634
▁30	-8.60641
▁मिली	-8.60873
िक	-8.60987
▁पैदा	-8.6101
द	-8.61308
▁मोदी	-8.61447
▁वापस	-8.61656
ह	-8.61716
▁य	-8.61745
▁बैंक	-8.61841
▁तहत	-8.61853
▁जैसी	-8.61878
▁वर्ग	-8.61884
▁किये	-8.62075
▁महीने	-8.6214
▁वक्त	-8.62253
▁लाल	-8.62313
▁दर्ज	-8.62516
▁क	-8.62833
ली	-8.62908
▁जन	-8.62961
▁रहती	-8.63389
▁2012	-8.63603
▁बैठक	-8.63752
▁पाया	-8.6389
▁पत्नी	-8.63896
▁त	-8.63989
▁जिले	-8.64041
रा	-8.64278
▁आर्थिक	-8.64406
▁बी	-8.65258
▁मां	-8.6536
▁संबंध	-8.6537
▁मत	-8.6584
ग	-8.66092
▁समस्या	-8.66348
▁महिलाओं	-8.66551
▁लेते	-8.66627
▁नगर	-8.66769
▁दें	-8.66802
▁शाम	-8.66975
▁शर्मा	-8.6713
▁रख	-8.67135
▁2009	-8.67204
▁उच्च	-8.67319
▁18	-8.67579
▁देशों	-8.67958
▁अधिकार	-8.68293
▁धन	-8.68366
▁राजा	-8.68636
▁विश्वास	-8.68669
▁अनेक	-8.68669
▁तय	-8.68788
▁हमारा	-8.68965
▁साहब	-8.69518
▁उसमें	-8.69574
▁बदल	-8.69574
▁मिलने	-8.69579
ला	-8.69703
▁देती	-8.69952
▁बाल	-8.70194
▁जाएगी	-8.70287
▁>	-8.70314
▁सर	-8.70419
▁रुपए	-8.70646
▁उनसे	-8.70713
ओ	-8.70963
▁बेहतर	-8.71067
▁चाहे	-8.71109
▁सारी	-8.71117
▁शक्ति	-8.71217
▁दिखाई	-8.71229
▁25	-8.72186
▁अवसर	-8.72528
▁स्	-8.72764
▁सहित	-8.72867
▁मुंबई	-8.73096
▁दस	-8.73132
▁मिले	-8.73364
▁प्रदर्शन	-8.73549
ीय	-8.73806
▁चीन	-8.73926
▁कमी	-8.74122
▁स्वास्थ्य	-8.74249
▁मै	-8.74295
▁उम्र	-8.74473
▁बाबा	-8.74621
▁बता	-8.74728
ंग	-8.74865
▁मान	-8.74895
▁लगातार	-8.74955
▁पहचान	-8.75045
▁भीतर	-8.7514
▁ब	-8.75262
▁र	-8.75349
▁लड़की	-8.7536
एं	-8.75377
▁अनुभव	-8.75503
▁मानव	-8.75697
▁प्रभाव	-8.76036
▁मूल	-8.76268
▁विज्ञान	-8.7627
▁पसंद	-8.76439
▁दर	-8.76501
▁डी	-8.76578
▁मुताबिक	-8.76736
▁ताकि	-8.76823
▁भूमिका	-8.76978
▁मतलब	-8.77586
▁फोन	-8.77674
▁जीत	-8.77804
▁साफ	-8.78653
मा	-8.78931
▁चले	-8.79159
पुर	-8.79455
▁जमीन	-8.79525
▁मार	-8.79562
▁संघ	-8.79672
▁जाये	-8.79751
▁पड़ता	-8.79806
▁छोटी	-8.79867
▁दल	-8.79903
श	-8.79911
▁पे	-8.79929
▁बावजूद	-8.80146
▁समर्थन	-8.80343
▁तभी	-8.80344
▁हे	-8.80539
▁सम्मान	-8.80879
▁पति	-8.81005
▁अधिकारियों	-8.81113
▁2008	-8.81144
▁आये	-8.81157
▁०	-8.81228
s	-8.81259
▁आर	-8.81496
▁बिहार	-8.81552
▁संगीत	-8.81582
ण	-8.81609
▁उम्मीद	-8.81872
▁13	-8.82017
▁मिलता	-8.8203
▁लोक	-8.82036
▁बनी	-8.82051
▁सौ	-8.82283
▁14	-8.82326
को	-8.82442
▁प्रक्रिया	-8.82447
▁हिस्सा	-8.83068
▁अच्छे	-8.83373
▁कवि	-8.83406
▁16	-8.83451
▁सत्ता	-8.83739
▁कार	-8.83989
▁पेश	-8.84043
▁गलत	-8.8416
▁भ्रष्टाचार	-8.84252
▁वर्तमान	-8.84333
▁निकल	-8.84349
▁ओ	-8.84461
▁पड़	-8.84659
▁इतने	-8.8514
▁यानी	-8.85146
▁सीमा	-8.85447
▁अगले	-8.85513
▁कदम	-8.85535
▁घंटे	-8.85605
▁समिति	-8.85682
▁%	-8.85799
ले	-8.85808
▁अध्ययन	-8.85833
▁जानते	-8.85922
▁काल	-8.85929
▁कब	-8.8594
▁मई	-8.8601
▁भारी	-8.86487
▁लें	-8.86609
▁राय	-8.86641
▁सामान्य	-8.86706
▁लो	-8.86722
▁लगाया	-8.8677
▁परिवर्तन	-8.86841
▁दूसरा	-8.86893
▁मार्च	-8.86971
▁नेताओं	-8.87151
▁कोर्ट	-8.87281
▁संस्कृति	-8.87313
▁पूछा	-8.87317
▁जरूरी	-8.87741
ये	-8.87775
▁मौजूद	-8.88001
▁टी	-8.88004
▁अंत	-8.88081
▁जिसका	-8.88172
▁जिन	-8.88208
से	-8.88319
▁कितना	-8.88438
▁कला	-8.88498
▁हत्या	-8.89121
▁पक्ष	-8.89126
▁३	-8.89264
▁प्रकाशित	-8.89514
▁व्यापार	-8.89591
▁लेना	-8.89887
▁सदस्य	-8.89901
▁सिर	-8.89905
▁युवा	-8.90024
▁बनने	-8.90028
▁अंदर	-8.90055
▁देखकर	-8.90085
▁माता	-8.90272
▁बिजली	-8.90562
▁रचना	-8.90601
▁प्रश्न	-8.90761
▁बयान	-8.90815
▁स्पष्ट	-8.9086
▁मामला	-8.91112
की	-8.91123
▁सेना	-8.91167
▁प्र	-8.91269
▁लेखक	-8.91306
▁सड़क	-8.91392
▁पैसे	-8.91451
▁मनुष्य	-8.91492
▁कहने	-8.91504
▁पहुंच	-8.9169
▁एम	-8.91741
▁खास	-8.9179
▁भविष्य	-8.91845
▁गुरु	-8.91917
▁करो	-8.91927
▁आयोजित	-8.92177
▁इंडिया	-8.92179
▁क्षेत्रों	-8.92226
▁समाचार	-8.92281
▁प्रकाश	-8.92364
▁बैठे	-8.92386
▁क्रिकेट	-8.92404
▁संगठन	-8.92412
▁अंग्रेजी	-8.9242
▁अथवा	-8.92483
▁पहला	-8.92492
▁कहाँ	-8.92831
▁राशि	-8.92847
▁सात	-8.93032
▁जाकर	-8.9332
▁सु	-8.93472
▁प्रभावित	-8.93536
▁इनके	-8.93729
▁जनवरी	-8.9385
▁खान	-8.9393
▁आवश्यकता	-8.94147
▁रन	-8.94204
▁दौर	-8.94312
▁प	-8.9454
▁बल	-8.9463
▁महसूस	-8.94655
▁प्रत्येक	-8.94683
▁हासिल	-8.94706
▁दर्द	-8.94892
▁2013	-8.94988
▁जून	-8.94997
▁राष्ट्रपति	-8.95055
▁यादव	-8.95105
▁निर्णय	-8.95344
▁सुख	-8.95715
▁मिनट	-8.9578
▁ऑफ	-8.95825
▁17	-8.95924
▁तरीके	-8.95959
▁स्थापित	-8.9597
▁50	-8.96015
▁जल्दी	-8.96119
गी	-8.96299
▁उठा	-8.96307
▁स्वीकार	-8.96485
▁अंतिम	-8.96498
▁मैच	-8.96626
▁फीसदी	-8.96677
▁तमाम	-8.96778
▁५	-8.96831
▁खाने	-8.97092
▁बनाए	-8.97166
▁नदी	-8.97345
▁दक्षिण	-8.97475
▁शुरुआत	-8.97524
▁पुरुष	-8.97849
▁उनको	-8.97977
▁आंदोलन	-8.9805
▁खर्च	-8.98096
▁पार	-8.9816
▁प्रस्तुत	-8.98238
▁टिप्पणी	-8.98289
च	-8.9847
▁डा	-8.9855
▁भूल	-8.98582
▁विश्वविद्यालय	-8.98653
▁हेतु	-8.98751
▁अगस्त	-8.98787
▁आग	-8.9887
▁स्थानीय	-8.98956
▁मुश्किल	-8.99077
▁कितने	-8.99158
▁दिशा	-8.99231
▁बेहद	-8.99341
▁लगाने	-8.99364
ियां	-8.99409
▁वर्षों	-8.99528
फ	-8.99692
▁हाँ	-8.99711
ियाँ	-8.99716
▁तेल	-8.99745
▁करेगा	-8.99753
▁अस्पताल	-8.99865
▁स्त्री	-8.99989
▁आवश्यक	-9.00207
▁निजी	-9.00242
▁देकर	-9.00323
▁प्रवेश	-9.00581
...	-9.00631
▁सुधार	-9.00679
▁संयुक्त	-9.00712
▁फैसला	-9.00737
▁24	-9.00822
▁पूर्ण	-9.00862
▁आदेश	-9.00864
▁23	-9.00971
सी	-9.0121
▁बातचीत	-9.01324
▁पूजा	-9.01393
▁सत्य	-9.01428
▁मार्ग	-9.01465
ु	-9.01467
▁ग्राम	-9.01495
▁आयोजन	-9.01637
▁लिख	-9.01711
▁प्रशासन	-9.01925
▁अंक	-9.02052
▁जाति	-9.02131
▁आखिर	-9.02234
▁तेज	-9.02304
▁बाकी	-9.02348
▁शब्दों	-9.0253
▁मध्य	-9.02703
▁विदेशी	-9.02708
▁आनंद	-9.02873
▁तू	-9.02926
▁19	-9.03135
▁डर	-9.03184
▁परिणाम	-9.03453
▁गाँव	-9.03503
▁जेल	-9.03658
▁खोज	-9.03661
▁जुलाई	-9.03694
▁सफल	-9.04017
▁पाने	-9.04174
▁कितनी	-9.04284
▁राहुल	-9.04457
▁लागू	-9.04524
▁21	-9.04549
▁भोजन	-9.04658
▁विधानसभा	-9.04668
▁जमा	-9.04828
▁एन	-9.04865
▁वि	-9.0491
▁राष्ट्र	-9.05002
▁अप्रैल	-9.05063
▁संबंधित	-9.05079
▁साबित	-9.05263
▁खत्म	-9.05284
▁टीवी	-9.05334
▁मात्र	-9.05534
▁दृष्टि	-9.05581
▁दर्शन	-9.0561
▁समूह	-9.05626
▁अक्सर	-9.05709
टी	-9.05798
▁कही	-9.0596
ज़	-9.0602
▁संभव	-9.06155
▁घोषणा	-9.06187
▁अतिरिक्त	-9.06201
▁खड़े	-9.06253
▁छात्रों	-9.06311
▁युद्ध	-9.06515
▁खड़ा	-9.06604
▁समान	-9.0664
▁जुड़े	-9.06668
▁चलता	-9.06819
▁रखते	-9.07057
▁महान	-9.07361
▁डाल	-9.07363
0	-9.07418
▁भले	-9.07477
▁क्षमता	-9.07492
गा	-9.07496
▁उत्पादन	-9.07593
▁कार्रवाई	-9.07715
▁सहायता	-9.07925
्य	-9.07928
▁फ़िल्म	-9.08058
▁जरूर	-9.08137
▁गंभीर	-9.08172
▁रहेगा	-9.08237
▁उदाहरण	-9.08335
▁अन्ना	-9.08462
वी	-9.08704
▁अमेरिकी	-9.08844
▁उनमें	-9.09088
▁उप	-9.09093
▁22	-9.09134
▁पुत्र	-9.09152
▁फल	-9.09162
▁चली	-9.09442
▁तुम्हारे	-9.09507
▁जिंदगी	-9.09637
ँ	-9.09873
▁भूमि	-9.09953
▁पड़े	-9.09956
▁कराने	-9.10066
▁प्रथम	-9.10089
यों	-9.10111
▁देवी	-9.10143
▁सूची	-9.10197
▁रोग	-9.10254
एँ	-9.10452
▁छह	-9.10517
▁आवाज	-9.10587
▁आयोग	-9.10667
▁रोक	-9.10855
▁खूब	-9.10973
▁जायेगा	-9.11062
▁संघर्ष	-9.11131
▁शिव	-9.11211
▁शिकायत	-9.11237
▁बोर्ड	-9.11293
सा	-9.11329
▁योग	-9.1136
▁प्रबंधन	-9.11569
रे	-9.11594
▁तेजी	-9.11604
▁आकर	-9.11711
▁खुश	-9.11856
▁किन्तु	-9.11926
डी	-9.12037
▁सुविधा	-9.12131
▁हवा	-9.12201
▁किसानों	-9.12216
▁जोर	-9.12233
▁माह	-9.12251
▁सजा	-9.12254
▁पैसा	-9.12502
▁करनी	-9.12601
▁मित्र	-9.12873
▁नज़र	-9.12915
▁सफलता	-9.12937
▁केन्द्र	-9.1295
▁विवाह	-9.13095
▁परीक्षा	-9.1321
▁अभियान	-9.13218
▁बेटी	-9.13233
▁४	-9.1335
▁गुजरात	-9.13622
▁अदालत	-9.13679
▁बोल	-9.1373
▁चाहती	-9.13789
▁चाहिये	-9.14075
▁नंबर	-9.14173
▁थोड़ा	-9.1437
▁शासन	-9.14432
▁आठ	-9.14678
▁इनमें	-9.14716
▁असर	-9.14849
▁संसद	-9.14881
▁चित्र	-9.1496
▁मोबाइल	-9.15071
▁ह	-9.15159
▁नेतृत्व	-9.1529
▁ला	-9.1541
▁वन	-9.15502
▁नीति	-9.15558
▁रक्षा	-9.15695
▁ग	-9.15705
▁॥	-9.15977
▁परन्तु	-9.15986
▁सभा	-9.15996
▁पल	-9.16138
▁पत्रकार	-9.1616
▁छात्र	-9.16245
▁इन्हें	-9.16258
▁आशा	-9.16281
▁अंतर	-9.16457
▁पुराने	-9.16747
▁यू	-9.16756
▁सहयोग	-9.16761
▁देव	-9.16879
▁"	-9.16975
▁विकसित	-9.17015
▁समीक्षा	-9.17065
▁समाप्त	-9.17069
▁ईश्वर	-9.17317
▁वास्तव	-9.17421
▁26	-9.17729
▁ल	-9.17867
▁नौकरी	-9.17968
▁आधारित	-9.18124
▁पुस्तक	-9.18204
▁पुरस्कार	-9.18231
▁मूल्य	-9.18233
▁किताब	-9.18464
▁तुम्हें	-9.18493
▁बातों	-9.18505
▁पड़ी	-9.18718
▁कंपनियों	-9.18722
▁बे	-9.18747
▁मौके	-9.18938
▁कमरे	-9.19244
▁गैर	-9.1928
▁कृषि	-9.19286
▁लगती	-9.19302
▁मौका	-9.19326
▁खाना	-9.19363
▁लिखने	-9.1943
▁रहना	-9.19465
▁मुक्त	-9.1959
▁व्यवहार	-9.19678
▁सुना	-9.19761
▁रे	-9.19836
▁सोमवार	-9.19995
▁रखना	-9.20287
▁चिंता	-9.20379
▁तुलना	-9.20621
▁राजस्थान	-9.20742
▁मुस्लिम	-9.21141
▁फिल्मों	-9.21233
▁शांति	-9.21303
▁हाथों	-9.21397
▁खा	-9.21556
▁दोस्त	-9.21599
▁सीधे	-9.21652
▁मर	-9.21662
▁कृष्ण	-9.22095
▁कार्यालय	-9.22155
▁कीमत	-9.222
▁किसान	-9.22237
▁जिसकी	-9.22615
▁सामग्री	-9.22896
▁अचानक	-9.22999
▁वरिष्ठ	-9.23267
▁दिये	-9.23428
▁विवाद	-9.23458
▁रास्ते	-9.23507
▁मंच	-9.23546
▁हां	-9.23701
▁९	-9.23781
▁देंगे	-9.2383
▁फूल	-9.23839
▁+	-9.23924
▁कहां	-9.23941
▁शुक्रवार	-9.23967
▁उद्योग	-9.23991
▁वोट	-9.24037
▁उ	-9.24058
▁कहता	-9.24295
▁प्रस्ताव	-9.24376
▁थोड़ी	-9.24465
▁ऊर्जा	-9.24495
▁नि	-9.24593
▁हिन्दू	-9.24737
▁सुंदर	-9.24747
▁वृद्धि	-9.24816
▁सं	-9.24819
▁ईसा	-9.24853
▁बोला	-9.24878
▁विस्तार	-9.24951
▁मिलती	-9.25154
▁आसान	-9.25235
▁इंटरनेट	-9.25262
▁वी	-9.25332
▁सारा	-9.25573
▁बदलाव	-9.25615
▁हार	-9.25836
▁मेल	-9.25948
▁दिवस	-9.26105
▁»	-9.26155
▁सार्वजनिक	-9.26237
▁मंत्रालय	-9.26278
▁सप्ताह	-9.26307
▁लेता	-9.26352
▁मानते	-9.26461
में	-9.26471
▁समझा	-9.26508
▁रविवार	-9.2651
▁धन्यवाद	-9.26602
▁निश्चित	-9.26828
▁विजय	-9.26857
▁उद्देश्य	-9.26912
▁उसको	-9.26961
▁लक्ष्य	-9.27069
▁मौसम	-9.27094
▁दूध	-9.27193
▁गंगा	-9.2721
▁जिन्हें	-9.27455
▁कथा	-9.2748
▁चैनल	-9.27556
▁2007	-9.27563
▁इच्छा	-9.27579
▁सुन	-9.27704
▁मृत्यु	-9.27741
▁सोचा	-9.27844
▁बैठ	-9.27847
▁शो	-9.27908
अ	-9.27951
▁मजबूत	-9.27974
▁सचिव	-9.27975
▁पहुंचे	-9.28006
▁बोली	-9.28076
▁समारोह	-9.28093
▁बेटे	-9.28317
▁हु	-9.28474
▁शिकार	-9.28625
▁मात्रा	-9.28733
▁चलने	-9.28806
ड़	-9.28905
▁इनकी	-9.28934
▁ग्रामीण	-9.29305
▁नुकसान	-9.29364
▁हुये	-9.29407
▁हालत	-9.29456
▁चेहरे	-9.29513
▁गिरफ्तार	-9.29683
▁मंगलवार	-9.29776
▁प्रणाली	-9.2985
▁सेक्स	-9.29935
▁रास्ता	-9.29981
▁27	-9.30076
▁पढ़	-9.302
▁संसार	-9.30251
▁प्रकृति	-9.3033
y	-9.30379
▁शनिवार	-9.30409
▁प्रसाद	-9.30428
दा	-9.30482
▁प्रचार	-9.30568
▁फोटो	-9.30655
▁लिखी	-9.30656
▁बुधवार	-9.30663
पन	-9.30673
▁28	-9.30704
▁जगत	-9.30757
▁इंसान	-9.30829
▁बताते	-9.30901
▁बोले	-9.31032
▁नये	-9.31061
▁सूर्य	-9.31235
▁धार्मिक	-9.31337
▁कॉलेज	-9.31474
▁रखी	-9.31577
▁40	-9.31578
▁मैदान	-9.31641
▁जय	-9.31802
▁निर्देश	-9.31937
▁उधर	-9.3195
थ	-9.32022
▁जाएंगे	-9.32181
▁कराया	-9.32477
▁दबाव	-9.32506
▁देखना	-9.32623
▁जे	-9.32766
▁लाने	-9.32777
▁बधाई	-9.32844
▁निकाल	-9.32871
▁खुशी	-9.32904
▁खो	-9.32917
▁फरवरी	-9.32925
▁गरीब	-9.32986
▁ख	-9.33081
▁मानना	-9.33199
▁जल्द	-9.33286
▁विदेश	-9.33298
▁कश्मीर	-9.33364
आ	-9.33419
▁स्थापना	-9.33518
▁मुंह	-9.33643
▁अखबार	-9.33727
स्	-9.33832
▁मुद्दे	-9.33855
▁परेशान	-9.33914
▁अनुमति	-9.3393
▁आधुनिक	-9.33979
▁नियम	-9.34097
▁गति	-9.34152
▁वीडियो	-9.34309
▁निवेश	-9.34441
▁उचित	-9.34524
▁मा	-9.34649
▁अक्टूबर	-9.34714
▁रोज	-9.34762
▁स्वामी	-9.34771
▁भीड़	-9.34885
▁होटल	-9.34983
▁ज	-9.34989
▁पाते	-9.35071
▁मामलों	-9.35138
ै	-9.35186
▁स्वागत	-9.35364
▁राज्यों	-9.35366
▁बिल	-9.35373
▁छोटा	-9.35517
▁पेट	-9.35524
▁सुरक्षित	-9.35547
▁दरअसल	-9.35602
▁मुझसे	-9.35773
▁पकड़	-9.35847
वाद	-9.35947
▁६	-9.36075
▁नवंबर	-9.36582
▁आसपास	-9.36594
▁संभावना	-9.36626
▁चिकित्सा	-9.36693
▁देखें	-9.36769
▁रेल	-9.36793
▁खराब	-9.3684
▁महत्व	-9.37057
▁दावा	-9.37075
▁प्रशिक्षण	-9.37107
▁हा	-9.37212
▁आना	-9.37391
▁ट	-9.37391
▁टेस्ट	-9.37485
▁भावना	-9.37555
▁संपर्क	-9.37559
▁कार्ड	-9.37585
▁महा	-9.3773
▁लगते	-9.38095
▁नौ	-9.38105
▁बजाय	-9.38195
▁जितना	-9.38363
▁नियंत्रण	-9.38553
▁रहें	-9.38572
▁बनाई	-9.38901
▁•	-9.38914
▁बचपन	-9.39065
▁पश्चिम	-9.39087
▁चीनी	-9.39174
▁एल	-9.39328
▁जिनमें	-9.39365
▁बढ़ा	-9.39426
वे	-9.395
▁विकल्प	-9.39551
▁कु	-9.39576
▁न्यायालय	-9.39601
▁इलाज	-9.39661
▁तुम्हारी	-9.39731
▁हमले	-9.3989
▁पढ़ने	-9.39911
▁च	-9.3992
▁बिल्कुल	-9.3998
▁विधायक	-9.40033
▁शराब	-9.40115
दार	-9.40137
▁राजधानी	-9.40144
▁डे	-9.40163
▁आत्मा	-9.40191
▁रस	-9.40238
▁बनाकर	-9.40346
▁पाए	-9.4049
▁संस्था	-9.40557
▁सामना	-9.40563
▁संदेश	-9.40634
▁कर्म	-9.407
▁संस्थान	-9.40718
ति	-9.40851
▁चाय	-9.41076
▁सुन्दर	-9.41159
▁क्	-9.41169
▁नामक	-9.41172
▁डॉलर	-9.41197
▁युग	-9.41212
▁जिसने	-9.41389
वर	-9.41436
▁अंतरराष्ट्रीय	-9.41448
▁अरे	-9.41588
▁लेखन	-9.41657
▁तलाश	-9.41677
▁फ़िर	-9.41701
▁सालों	-9.41712
▁000	-9.41738
▁बहस	-9.41744
▁इ	-9.41792
▁विरोधी	-9.41821
4	-9.41948
▁बुरा	-9.42009
▁शेयर	-9.42135
▁अन्दर	-9.42165
▁सलाह	-9.42302
▁`	-9.42355
▁29	-9.42455
ाई	-9.42477
▁100	-9.42481
▁ढंग	-9.42771
▁निवासी	-9.42803
▁जाय	-9.42918
िन	-9.42999
▁पुरानी	-9.43063
सिंह	-9.43111
▁पंजाब	-9.43125
▁परियोजना	-9.43126
▁भवन	-9.43348
▁मालूम	-9.43385
▁जिनके	-9.43391
▁मैने	-9.43458
▁विचारों	-9.4354
▁न्याय	-9.43642
▁बढ़ाने	-9.43649
▁खिलाड़ी	-9.43746
▁~	-9.43839
▁पत्रिका	-9.43857
▁मिलेगा	-9.44008
▁एंड	-9.44191
▁छूट	-9.44326
▁लिखे	-9.44567
▁स्टेशन	-9.44588
▁इधर	-9.44732
▁मालिक	-9.44772
▁अपराध	-9.44824
▁सदस्यों	-9.44829
राम	-9.44833
▁संकट	-9.44932
▁दिसंबर	-9.44941
▁रेलवे	-9.44949
▁व्यक्त	-9.45102
▁दशक	-9.45193
▁वेबसाइट	-9.45216
▁बजट	-9.45334
वादी	-9.45379
▁प्राचीन	-9.45549
▁दिखा	-9.45649
▁मिलकर	-9.45895
▁८	-9.45913
▁डॉक्टर	-9.46029
जा	-9.46154
▁संपादित	-9.46159
▁जानता	-9.46207
▁अमर	-9.46224
▁इनका	-9.46283
▁भेज	-9.46347
पूर्ण	-9.46354
▁शोध	-9.46411
▁इलाके	-9.46539
▁लाइन	-9.4656
कार	-9.46584
▁मनमोहन	-9.46593
पी	-9.46595
▁प्रधान	-9.46637
▁प्रसिद्ध	-9.4668
▁पहुँच	-9.46771
पर	-9.46796
▁पालन	-9.46804
म्	-9.46828
▁पैर	-9.46858
▁तैयारी	-9.46875
▁उत्पन्न	-9.46889
▁लड़ाई	-9.469
▁आवाज़	-9.46902
▁00	-9.47107
▁खरीद	-9.47228
▁७	-9.47233
▁चारों	-9.47234
▁जैन	-9.47372
▁आजकल	-9.47535
▁सचिन	-9.47574
▁दिमाग	-9.48028
▁सामान	-9.48133
▁लोगो	-9.48138
▁मारे	-9.48315
▁हृदय	-9.48333
▁समझने	-9.48377
▁पाता	-9.48484
▁माल	-9.48485
▁रखे	-9.4875
▁वैज्ञानिक	-9.48783
▁अरब	-9.48786
▁बहन	-9.48862
▁अतः	-9.4887
▁कर्मचारियों	-9.48901
▁दूसरों	-9.49454
बी	-9.49503
▁सम्मेलन	-9.49692
▁देखो	-9.4971
▁स्वरूप	-9.49765
▁बारिश	-9.49909
▁लौट	-9.50072
्र	-9.50073
▁पंचायत	-9.50114
▁हिसाब	-9.50175
▁कल्पना	-9.50214
▁हिंसा	-9.50228
▁संकेत	-9.50277
र्स	-9.50348
▁लखनऊ	-9.50527
▁लोकतंत्र	-9.50584
▁आस	-9.50643
▁बाप	-9.50651
▁अवधि	-9.50789
▁वित्त	-9.50967
▁पहुंचा	-9.5102
▁डिग्री	-9.51098
▁न्यूज	-9.51161
▁कहती	-9.51191
▁आँखों	-9.51264
▁बनाना	-9.51334
▁हमला	-9.51436
▁स्थल	-9.51477
▁‘‘	-9.51604
डा	-9.51634
▁विज्ञापन	-9.51643
न्	-9.51668
▁करा	-9.51672
▁शेर	-9.51798
ख	-9.51826
▁व्यक्तिगत	-9.52011
वि	-9.52104
▁सोने	-9.52194
इ	-9.52243
▁पड़ेगा	-9.52273
▁तोड़	-9.52276
▁धरती	-9.52398
बा	-9.52433
ड़ा	-9.52501
▁फ	-9.52637
▁खाली	-9.52682
राज	-9.5272
▁व्यापक	-9.52933
▁the	-9.52996
▁इसीलिए	-9.53124
▁ज़्यादा	-9.5318
▁ग्रह	-9.53238
▁चयन	-9.53249
▁दुख	-9.53297
▁निगम	-9.53334
▁पेड़	-9.53356
▁चरण	-9.53361
▁आसानी	-9.53385
▁समुदाय	-9.53447
▁रोड	-9.53457
▁भरा	-9.53463
▁पढ़ा	-9.53557
▁समाधान	-9.53568
▁लि	-9.53758
▁सांसद	-9.53844
यें	-9.53857
▁दम	-9.5388
▁31	-9.53987
▁धारा	-9.54039
▁कठिन	-9.54169
▁घायल	-9.5422
▁सकें	-9.54281
▁केंद्रीय	-9.54298
t	-9.54405
▁करेगी	-9.54466
▁सिद्ध	-9.54476
▁प्रतिक्रिया	-9.54583
▁नयी	-9.54827
▁विशाल	-9.54871
▁दुकान	-9.54873
िका	-9.54873
▁मास्टर	-9.54894
▁बचा	-9.54995
▁आकार	-9.54998
▁संजय	-9.55003
▁सका	-9.55006
▁चीज	-9.55063
▁परंतु	-9.55157
▁अप	-9.55197
▁टिकट	-9.55215
▁बीमारी	-9.5524
▁छत्तीसगढ़	-9.55253
▁अति	-9.55394
▁योगदान	-9.55449
▁पृष्ठ	-9.55543
▁कमजोर	-9.55592
▁होनी	-9.55611
▁दृश्य	-9.55618
▁मिलते	-9.55877
▁लोकसभा	-9.55929
▁उपस्थित	-9.55978
▁सह	-9.5613
▁परिषद	-9.56164
▁मतदान	-9.56288
▁भेजा	-9.56431
▁बैठा	-9.56517
▁निर्धारित	-9.56546
▁तस्वीर	-9.56561
▁जंगल	-9.56763
▁जिन्होंने	-9.56789
▁गैस	-9.56851
▁गृह	-9.56872
िए	-9.56876
▁गाड़ी	-9.57
▁डाला	-9.57141
▁गिर	-9.57143
▁अल	-9.57233
▁खड़ी	-9.57408
▁पर्यावरण	-9.5759
▁युवक	-9.57625
▁परमाणु	-9.57862
▁सिर्फ़	-9.57885
▁बढ़ती	-9.58065
▁पत्रकारिता	-9.58203
▁रहेंगे	-9.58252
▁सोनिया	-9.58381
▁कंप्यूटर	-9.58419
▁जरिए	-9.58441
▁समस्याओं	-9.58469
▁लंबे	-9.5855
▁·	-9.5861
▁कप	-9.58712
▁स्वतंत्रता	-9.58733
▁भरी	-9.58797
▁अवश्य	-9.58816
हा	-9.5883
▁भला	-9.5905
ेगा	-9.59068
▁मकान	-9.59087
▁पाठ	-9.59094
▁प्रो	-9.59142
वार	-9.59285
▁तुरंत	-9.59301
▁रखें	-9.59324
▁आराम	-9.5935
▁अशोक	-9.59381
▁सन्	-9.5942
▁घोषित	-9.59515
▁राह	-9.59526
▁कपड़े	-9.59534
▁भुगतान	-9.59629
▁माहौल	-9.59719
▁अधिकांश	-9.59777
▁राहत	-9.59788
▁जानने	-9.59802
▁शुभ	-9.59819
▁श	-9.59947
▁पाई	-9.59957
▁गुण	-9.59959
▁परिचय	-9.59984
▁ऐ	-9.59986
▁तर्क	-9.60043
▁फायदा	-9.60079
▁भ	-9.60201
▁ऑनलाइन	-9.6032
▁हद	-9.60385
▁प्राकृतिक	-9.60441
▁पाँच	-9.60482
▁कड़ी	-9.60507
▁सूत्रों	-9.60534
▁लगने	-9.60536
फ़	-9.60598
▁रुप	-9.6061
▁खून	-9.60678
▁गईं	-9.6074
▁जाओ	-9.60748
▁पत्थर	-9.60836
▁साथी	-9.60949
▁संग्रह	-9.61012
▁बचाने	-9.6104
▁सुनने	-9.61306
▁श्रेणी	-9.6135
▁बीजेपी	-9.61356
▁मानसिक	-9.6139
▁दोपहर	-9.61447
▁हल	-9.61556
▁नागरिक	-9.61561
▁आय	-9.6165
▁खाते	-9.61761
▁सबको	-9.61833
▁दिख	-9.61845
▁आवेदन	-9.61892
▁विधि	-9.61932
▁तीनों	-9.6195
ियो	-9.61951
▁शैली	-9.62044
▁संपन्न	-9.62049
ेश	-9.62087
▁संबंधी	-9.62169
▁कर्मचारी	-9.62404
▁रहेगी	-9.62413
▁हजारों	-9.62443
▁सक्रिय	-9.62521
▁शुरु	-9.62656
०	-9.62684
ेंगे	-9.6271
▁सहायक	-9.62763
उ	-9.62841
▁कारोबार	-9.62902
▁नींद	-9.62903
▁मु	-9.63046
मान	-9.63159
▁आजादी	-9.63295
▁दवा	-9.63296
▁पाठक	-9.63302
▁औसत	-9.63372
▁छोड़कर	-9.63494
▁तहसील	-9.63522
▁देखी	-9.63598
▁जरा	-9.64061
▁पृथ्वी	-9.6409
▁तनाव	-9.64178
▁स्व	-9.64207
▁किनारे	-9.64268
▁ट्रेन	-9.64291
▁बराबर	-9.64415
▁सितंबर	-9.64484
▁आरोपी	-9.64598
▁जिम्मेदारी	-9.64607
▁अनुसंधान	-9.64662
▁फैसले	-9.64665
▁मना	-9.64995
▁खाद्य	-9.65036
▁मजबूर	-9.65094
▁नारी	-9.65113
▁तकनीक	-9.65174
▁बच्चा	-9.65225
▁देगा	-9.653
▁सक्षम	-9.65362
▁सत्र	-9.65515
▁सांस्कृतिक	-9.65615
ंस	-9.65639
▁हिंदू	-9.65666
▁बेटा	-9.65667
▁हित	-9.65701
▁प्रेस	-9.65733
▁लोकप्रिय	-9.66046
▁मुँह	-9.66086
▁लड़कियों	-9.66094
▁रोकने	-9.66108
▁अली	-9.66108
▁60	-9.66119
▁आलोचना	-9.66187
▁इसलिये	-9.66318
▁बंगाल	-9.66474
▁संत	-9.66484
▁दूरी	-9.66584
▁दलों	-9.66785
▁उपचार	-9.66798
▁क्लिक	-9.66833
▁जाहिर	-9.67032
▁वित्तीय	-9.67075
▁ज्यादातर	-9.6718
▁माने	-9.67182
▁स्वर	-9.67237
▁कल्याण	-9.67311
▁साइट	-9.67364
▁संदर्भ	-9.67392
▁सागर	-9.67438
▁किलोमीटर	-9.6757
▁चोरी	-9.67645
▁उत्पाद	-9.67702
▁संविधान	-9.67884
▁रो	-9.68117
▁लिंक	-9.68215
▁दलित	-9.68301
▁रोजगार	-9.68345
▁क्रम	-9.68362
ीकरण	-9.68383
▁संपत्ति	-9.68414
▁मिट्टी	-9.68434
▁अंग	-9.68548
▁मुलाकात	-9.68578
भ	-9.68622
▁विकेट	-9.687
▁तेरे	-9.68799
▁भय	-9.68817
▁खैर	-9.68908
▁सिनेमा	-9.68918
▁चुनौती	-9.69034
▁हरियाणा	-9.69058
▁फिलहाल	-9.69328
ंड	-9.69348
▁दोष	-9.6954
▁प्रिय	-9.69603
▁मानक	-9.69648
▁पार्क	-9.69739
▁परीक्षण	-9.69791
▁पर्याप्त	-9.69821
▁अनुवाद	-9.69866
▁दिखाया	-9.69905
▁दैनिक	-9.69936
▁बिक्री	-9.69944
▁बम	-9.70027
▁चरित्र	-9.70049
▁शीर्ष	-9.70065
▁होली	-9.70189
▁दान	-9.70285
▁लड़के	-9.70347
▁गो	-9.70423
▁महाराज	-9.70446
▁प्रकट	-9.70467
▁उठाया	-9.7081
▁असली	-9.7088
▁सपने	-9.70883
r	-9.70934
▁स्वतंत्र	-9.70937
▁भर्ती	-9.71066
▁संस्करण	-9.71102
▁पीने	-9.71394
▁ताकत	-9.71414
▁किंतु	-9.71521
रो	-9.71521
▁अकेले	-9.71526
▁यहीं	-9.7162
▁इस्लाम	-9.71644
▁नव	-9.71663
▁com	-9.71688
▁भोपाल	-9.71728
ां	-9.71777
▁डिजाइन	-9.71803
▁सितम्बर	-9.71828
▁छवि	-9.71869
▁तीसरे	-9.71883
▁सबके	-9.71947
▁महाराष्ट्र	-9.71952
▁काव्य	-9.71957
▁प्रमाण	-9.71986
▁सिस्टम	-9.7202
▁नियमित	-9.72029
▁लिखते	-9.7206
▁a	-9.72065
▁तुम्हारा	-9.72081
▁सम्बन्ध	-9.72093
▁गुरुवार	-9.72137
▁भरे	-9.72191
▁लेती	-9.72309
▁सीमित	-9.7236
▁कैसा	-9.72393
▁वाहन	-9.72426
▁स्टार	-9.72523
▁शानदार	-9.72538
▁जयपुर	-9.72561
लाल	-9.72598
▁विशिष्ट	-9.72612
▁पत्रकारों	-9.7263
▁सरल	-9.72706
▁इंतजार	-9.7272
▁वेब	-9.72753
▁तकनीकी	-9.72838
▁प्रतियोगिता	-9.72878
▁जायेगी	-9.72895
▁अनुमान	-9.7292
▁उपाय	-9.72924
▁वाह	-9.72932
▁हालात	-9.72951
▁चेहरा	-9.73077
▁अस्तित्व	-9.73106
▁शेष	-9.73192
▁कार्यों	-9.7326
▁हवाई	-9.73264
▁जाएं	-9.73306
▁मुसलमान	-9.7332
▁A	-9.73325
▁जोशी	-9.73349
▁सहज	-9.73426
▁हिस्से	-9.73498
▁वास्तविक	-9.73517
▁उतना	-9.73523
नि	-9.73538
▁ब्रिटेन	-9.7363
▁शहरों	-9.73731
▁मो	-9.73767
▁आत्म	-9.73781
▁समुद्र	-9.7384
▁सीट	-9.73864
▁अमरीका	-9.73877
▁योग्य	-9.73911
▁समेत	-9.73938
पा	-9.7394
▁जितनी	-9.74016
▁मेहनत	-9.74247
▁रेखा	-9.74381
▁आतंकवाद	-9.74383
नाथ	-9.74418
▁मंगल	-9.74535
▁रि	-9.74593
▁रखता	-9.74765
▁वर्मा	-9.7482
▁मान्यता	-9.75034
▁मुकाबले	-9.75108
▁निदेशक	-9.75139
▁छ	-9.75236
▁भरोसा	-9.75386
▁संपादक	-9.75404
▁थाना	-9.75417
▁दोस्तों	-9.75549
▁ब्लाग	-9.75567
▁उठ	-9.75612
▁तुमने	-9.75687
▁ऐतिहासिक	-9.75708
▁मीटर	-9.75749
▁सुनिश्चित	-9.7583
▁पड़ती	-9.75855
▁वातावरण	-9.75961
▁दिसम्बर	-9.75978
▁आदर्श	-9.76013
▁नवम्बर	-9.76014
▁एकदम	-9.76109
▁सदा	-9.76124
▁सीबीआई	-9.76425
▁भिन्न	-9.76431
▁एजेंसी	-9.76434
▁मंडल	-9.76452
▁शिक्षक	-9.76484
▁35	-9.7654
िये	-9.76615
▁रा	-9.76769
▁शारीरिक	-9.76795
▁आबादी	-9.76879
▁नाटक	-9.76978
सन	-9.77065
▁कैंसर	-9.77147
▁राजीव	-9.77166
▁स्कोर	-9.77265
▁सहारा	-9.77315
ाना	-9.77323
▁शांत	-9.77425
▁बीज	-9.77489
▁तंत्र	-9.77554
▁चलाने	-9.77623
▁बच	-9.7782
▁वर्णन	-9.77934
▁अंतर्गत	-9.77993
▁गलती	-9.78128
▁सर्व	-9.78159
▁काले	-9.78202
▁देखे	-9.78289
7	-9.78299
▁आंखों	-9.78325
▁जीव	-9.78403
▁मिलाकर	-9.78419
▁चलती	-9.78428
▁सुझाव	-9.7843
▁दौड़	-9.78484
▁बदले	-9.78492
▁ऋण	-9.78546
▁रक्त	-9.7856
▁उल्लेख	-9.78687
▁2006	-9.78709
▁वस्तु	-9.78714
▁पढ़ाई	-9.78721
▁उतर	-9.78751
▁पुनः	-9.7879
▁सन	-9.78861
▁खोल	-9.78883
▁कहे	-9.78915
▁अपील	-9.78943
▁अर्थात	-9.78967
▁वर्षीय	-9.79092
▁पश्चिमी	-9.79162
▁रूपये	-9.79175
ही	-9.79198
e	-9.79202
▁तथ्य	-9.79209
▁गाने	-9.79238
▁तरीका	-9.79258
▁पिछली	-9.79322
▁जायेंगे	-9.79465
▁आरक्षण	-9.79522
▁हाउस	-9.79549
▁लंबी	-9.79573
▁काट	-9.79658
▁रोटी	-9.79857
▁नारायण	-9.79904
▁परेशानी	-9.79948
▁मॉडल	-9.80002
▁देखता	-9.80103
▁गाँधी	-9.80114
▁आश्चर्य	-9.80162
▁मुसलमानों	-9.80175
▁बढ़ने	-9.80214
▁बदलने	-9.8026
▁घटनाओं	-9.80264
प्र	-9.80275
▁सूरज	-9.80314
▁दुःख	-9.80355
▁टन	-9.80442
▁विद्यालय	-9.80517
▁बुरी	-9.80549
▁to	-9.80568
▁मौजूदा	-9.80722
▁लगाए	-9.80746
मी	-9.80799
▁कपूर	-9.80802
▁परंपरा	-9.80966
▁सम	-9.81238
▁आयी	-9.81243
▁बाबू	-9.8127
▁चुप	-9.8136
▁बा	-9.81365
▁करवा	-9.81374
▁बेहतरीन	-9.81413
मन	-9.81457
▁व्यवसाय	-9.81562
▁घरों	-9.8165
▁तेरी	-9.81668
▁बिलकुल	-9.81672
▁रु	-9.81686
▁लाखों	-9.81811
▁गूगल	-9.81817
▁खेती	-9.81842
▁गठन	-9.81898
▁सफाई	-9.8195
▁निर्भर	-9.81962
▁संगठनों	-9.82015
▁उपन्यास	-9.82098
शन	-9.82099
जन	-9.82104
▁यानि	-9.82114
वाला	-9.82164
1	-9.82198
▁ता	-9.82217
▁मुक्ति	-9.8227
▁प्रौद्योगिकी	-9.82297
▁रहीं	-9.82332
▁आपसे	-9.82368
▁जिम्मेदार	-9.82395
▁प्रार्थना	-9.82439
▁लागत	-9.82507
▁बनता	-9.82526
▁गोली	-9.82553
▁भू	-9.82685
▁लूट	-9.82849
▁सुनकर	-9.82869
▁ग्रहण	-9.82899
▁समझते	-9.82935
▁अहम	-9.8294
▁गले	-9.83038
▁नष्ट	-9.83082
▁पापा	-9.83167
▁सपना	-9.83224
▁मिलेगी	-9.83243
ड़ी	-9.83452
▁तिवारी	-9.83574
▁टूट	-9.83584
▁ड	-9.83598
देव	-9.83712
▁गर्म	-9.83832
▁शाह	-9.8389
▁बनाये	-9.83906
▁उन्हीं	-9.84015
▁in	-9.84044
▁भूख	-9.84071
▁कलाकार	-9.84161
▁गुप्ता	-9.84179
▁स्थानों	-9.84354
▁औरत	-9.84427
▁साधारण	-9.84509
3	-9.84511
नगर	-9.84524
▁आकाश	-9.84532
▁पवित्र	-9.84611
▁प्रभु	-9.84655
▁संचार	-9.84778
▁मंत्र	-9.84885
▁प्रकाशन	-9.84914
▁खतरा	-9.85007
▁उपकरण	-9.85048
▁भास्कर	-9.85097
▁अनु	-9.85141
▁of	-9.85149
▁संरक्षण	-9.85161
▁पहल	-9.85178
i	-9.85273
▁घरेलू	-9.85352
▁अगली	-9.8556
▁अभाव	-9.85712
▁करार	-9.85723
▁विपरीत	-9.85842
▁बलात्कार	-9.85857
▁आखिरी	-9.85878
▁अल्लाह	-9.85978
▁भक्ति	-9.86119
▁रेडियो	-9.86123
▁सुप्रीम	-9.86201
▁राजनैतिक	-9.86355
▁@	-9.86364
▁संस्कार	-9.86387
▁पीढ़ी	-9.86474
▁चलो	-9.86515
▁सिद्धांत	-9.86649
▁प्रतीक	-9.86667
▁चक्कर	-9.8667
▁सीख	-9.86724
▁प्रदर्शित	-9.86783
▁मुद्दों	-9.86802
▁लगाकर	-9.86813
▁मुद्रा	-9.86838
▁गोल	-9.87056
▁मशीन	-9.87101
▁शव	-9.87255
▁चूत	-9.87318
▁संस्कृत	-9.87382
▁गांवों	-9.87434
▁प्रगति	-9.87541
▁व्यक्तित्व	-9.87638
ठ	-9.87652
▁लंदन	-9.87652
▁सहमत	-9.87679
▁लेंगे	-9.8772
▁अवस्था	-9.87807
▁उठाने	-9.87852
▁रैली	-9.87903
टर	-9.87951
▁कृपया	-9.88095
▁विश्लेषण	-9.88124
▁मुद्दा	-9.88135
▁पाप	-9.88212
दी	-9.88233
शा	-9.88402
▁उतार	-9.88417
▁जिनकी	-9.88498
ंट	-9.88567
▁श्रृंखला	-9.88609
▁नरेंद्र	-9.88611
▁बनकर	-9.88654
▁युवाओं	-9.88798
▁अभिव्यक्ति	-9.88808
▁खेत	-9.88858
▁बुद्धि	-9.88896
▁चौधरी	-9.89173
▁पटना	-9.89192
▁कट	-9.89193
▁गर्मी	-9.89225
▁प्रेरणा	-9.89238
▁कार्यकर्ता	-9.89286
▁पाक	-9.89371
▁व्यक्तियों	-9.89434
ेज	-9.89437
यां	-9.89451
िश	-9.89456
▁विरुद्ध	-9.89476
▁गा	-9.89491
▁बोलने	-9.89501
▁बीस	-9.89519
▁दिखाने	-9.89527
▁रानी	-9.89679
▁कार्यकर्ताओं	-9.89685
▁संवाद	-9.89698
▁अंतर्राष्ट्रीय	-9.89706
▁पीठ	-9.89726
▁भाषण	-9.89738
▁दु	-9.89954
▁इक	-9.89955
▁आभार	-9.89958
ान	-9.90005
▁अन	-9.90065
▁उम्मीदवार	-9.90153
▁समस्त	-9.90205
▁जीने	-9.90489
▁खूबसूरत	-9.90516
▁पुल	-9.90574
▁सूत्र	-9.90689
रू	-9.90805
▁आयु	-9.90812
▁हाई	-9.90816
▁ब्रिटिश	-9.90866
▁प्रतिभा	-9.90878
▁विषयों	-9.90899
▁विवरण	-9.90957
▁खुले	-9.91004
▁हक	-9.9105
▁दर्शकों	-9.91053
▁चाह	-9.91316
▁यूं	-9.91499
▁सोचने	-9.91559
▁जिनका	-9.91637
▁आधा	-9.91661
▁बर	-9.91684
मे	-9.91802
▁सुनाई	-9.91821
▁शुल्क	-9.91832
▁मी	-9.91879
▁खेलने	-9.91963
स्ट	-9.91981
9	-9.92038
▁तारीख	-9.92045
िस	-9.92102
▁हथियार	-9.92107
▁फिल्में	-9.92133
▁कमेटी	-9.92141
▁स्कूलों	-9.9216
▁नोट	-9.92226
▁चोट	-9.92254
▁निर्देशक	-9.92375
▁पढ़ें	-9.92423
▁आन्दोलन	-9.92474
▁ओवर	-9.92487
▁बो	-9.92518
▁45	-9.92561
▁क्लब	-9.92625
गे	-9.9277
▁क्रांति	-9.92957
▁तरफ़	-9.93077
ात्मक	-9.93091
▁खिलाड़ियों	-9.93122
▁अधिनियम	-9.93153
▁S	-9.93176
▁उन्होने	-9.9324
क्स	-9.93243
▁सवार	-9.93285
▁व्	-9.93343
▁80	-9.93389
▁गुणवत्ता	-9.93423
▁गिरावट	-9.93444
▁हटा	-9.93445
्ड	-9.93456
▁आदत	-9.93498
▁रिश्ते	-9.93509
▁वितरण	-9.93516
▁यकीन	-9.93569
▁अजीब	-9.93606
▁परिसर	-9.93628
▁अभ्यास	-9.93642
▁इलाकों	-9.93653
▁तार	-9.9367
▁वीर	-9.93674
▁सीधा	-9.93727
ार	-9.93751
▁प्रेरित	-9.93756
▁क्रिया	-9.93766
▁महंगाई	-9.93831
▁फर्क	-9.93923
▁रुक	-9.93948
▁पुरुषों	-9.93978
▁$	-9.94028
▁तत्व	-9.94055
▁सदी	-9.94258
सर	-9.94305
▁दोषी	-9.94337
▁बनाते	-9.94338
▁सम्मानित	-9.944
▁भाषाओं	-9.94407
▁जानी	-9.9444
ौ	-9.9446
रिया	-9.94491
▁बताने	-9.94532
▁लाया	-9.94578
▁यौन	-9.94597
काल	-9.94667
▁पंडित	-9.94734
▁मुलायम	-9.94742
▁कानूनी	-9.94757
▁दि	-9.94845
▁ग़ज़ल	-9.94847
▁मानो	-9.94919
वान	-9.94937
▁इंडियन	-9.95017
▁कक्षा	-9.95051
▁अवैध	-9.95302
▁पाकिस्तानी	-9.95383
त्व	-9.95387
▁09	-9.95395
▁नेटवर्क	-9.95443
▁द्वार	-9.95457
डे	-9.9552
लो	-9.95528
▁संकल्प	-9.95668
वाले	-9.95671
▁गौरतलब	-9.95739
▁अर्थव्यवस्था	-9.95753
▁s	-9.95796
▁वार्ता	-9.95921
▁सड़कों	-9.95965
▁धूप	-9.95988
▁शुद्ध	-9.96091
▁जुड़ी	-9.9611
▁वकील	-9.9611
वें	-9.96151
▁जोड़	-9.96167
▁आलेख	-9.96177
▁औद्योगिक	-9.96186
▁विद्या	-9.96244
▁लगाई	-9.96257
▁रखकर	-9.96353
▁आसमान	-9.9646
▁वीं	-9.96538
▁कौशल	-9.96592
▁प्रवक्ता	-9.96615
▁पाठ्यक्रम	-9.96701
▁पशु	-9.96731
▁विद्युत	-9.96745
ne	-9.96779
क्	-9.96891
▁मिश्र	-9.96976
▁पदार्थ	-9.97029
▁कप्तान	-9.97035
▁ममता	-9.97208
▁स्वस्थ	-9.9734
▁झूठ	-9.97407
▁प्राण	-9.97428
▁चुनावों	-9.97494
ष	-9.97541
▁आवास	-9.97554
▁हिम्मत	-9.97576
▁प्रारंभ	-9.97589
▁एच	-9.9765
ed	-9.97771
▁बन्द	-9.97788
▁पात्र	-9.97844
▁बाढ़	-9.97919
▁त्याग	-9.97942
▁08	-9.98124
▁लिखना	-9.98185
▁अपेक्षा	-9.9822
्त	-9.98299
▁ग्रुप	-9.98318
▁लड़	-9.98418
▁आतंकवादी	-9.98458
▁निकट	-9.98469
▁जनरल	-9.98472
वीं	-9.98493
▁रामदेव	-9.98555
▁पहुंचने	-9.98589
रों	-9.98604
ेशन	-9.9862
बे	-9.98647
▁डाउनलोड	-9.98708
टा	-9.98727
▁यूँ	-9.98752
▁उल्लेखनीय	-9.98778
▁गतिविधियों	-9.98845
▁सच्चाई	-9.98891
▁गौर	-9.98898
▁साधना	-9.98904
▁आशंका	-9.98907
▁देवता	-9.98947
▁यूरोप	-9.9898
▁केन्द्रीय	-9.98985
▁ज़रूरत	-9.99028
▁कार्यवाही	-9.99064
यो	-9.99208
▁गरीबी	-9.99298
▁एशिया	-9.99313
▁विस्तृत	-9.99359
ण्ड	-9.99388
▁पीड़ित	-9.99593
▁पूछ	-9.99654
▁उत्तराखंड	-9.99679
▁मुख	-9.99713
▁वक़्त	-9.99746
ेगी	-9.99796
▁किस्म	-9.99812
▁अग्रवाल	-9.99825
▁दाम	-9.99962
▁कहें	-10.0002
▁ऑस्ट्रेलिया	-10.0004
▁गहरी	-10.0006
▁निकला	-10.0006
▁वेतन	-10.001
▁मायावती	-10.001
▁साफ़	-10.0022
▁श्रीमती	-10.0024
a	-10.003
▁अधिकतर	-10.0046
गत	-10.0051
▁मानने	-10.0052
▁मजा	-10.0056
▁बॉलीवुड	-10.0058
▁अभिनेता	-10.0061
▁मोह	-10.0065
▁अनिवार्य	-10.0068
▁बाज़ार	-10.0068
▁रिकॉर्ड	-10.0069
▁योजनाओं	-10.0069
▁बांध	-10.0075
गो	-10.0076
▁सलमान	-10.0081
▁गीता	-10.0085
▁नियमों	-10.0089
▁जोश	-10.0091
▁महिलाएं	-10.0092
▁टैक्स	-10.0099
▁सफेद	-10.0102
▁ऑफिस	-10.0103
▁सुनवाई	-10.0104
▁दीपक	-10.0108
▁विधान	-10.0113
▁कार्यक्रमों	-10.0114
▁हें	-10.0119
कि	-10.012
▁2005	-10.0122
▁पाठकों	-10.0126
▁कायम	-10.0141
▁चेतना	-10.0153
▁इंग्लैंड	-10.0155
▁फसल	-10.0155
मेंट	-10.0156
▁लायक	-10.0168
▁सपा	-10.0172
नो	-10.0173
▁बदला	-10.0177
और	-10.0183
▁असल	-10.0186
▁जीतने	-10.0188
▁प्रोग्राम	-10.0193
▁होंगी	-10.0201
▁अजय	-10.0212
▁पर्व	-10.0214
यू	-10.0217
▁अनिल	-10.0226
▁70	-10.0227
▁उत्साह	-10.0228
▁नेशनल	-10.0232
▁ईरान	-10.0238
▁जापान	-10.0241
▁उन्	-10.0241
▁पुराना	-10.0243
बर	-10.0246
▁काली	-10.0249
u	-10.0255
▁झा	-10.0257
▁आडवाणी	-10.0273
▁शंकर	-10.0287
▁मोहन	-10.0289
पाल	-10.0297
▁प्रतिनिधि	-10.0301
▁मुझ	-10.0312
▁निकलने	-10.0315
▁निर्माता	-10.0325
▁प्रभावी	-10.0328
▁कैसी	-10.0334
▁क्षण	-10.0348
▁B	-10.0351
▁सर्वाधिक	-10.0354
▁साधन	-10.0356
▁संचालन	-10.0357
▁चाहि	-10.0361
▁वैसा	-10.0363
▁विपक्ष	-10.0366
▁मनोरंजन	-10.0368
▁आश्रम	-10.0369
▁पर्यटन	-10.0382
▁विष्णु	-10.0386
▁अत्यंत	-10.0386
▁मरने	-10.0391
▁याचिका	-10.0393
▁हज़ार	-10.04
▁भा	-10.0405
▁बीमा	-10.0406
दर	-10.0408
▁स्मृति	-10.0412
▁डि	-10.0413
▁आपूर्ति	-10.0413
▁विमान	-10.0429
▁परम	-10.0435
▁मारा	-10.0436
चा	-10.0442
▁रणनीति	-10.0445
वन	-10.0465
▁महात्मा	-10.0467
▁स्रोत	-10.0472
▁सुविधाओं	-10.048
▁वजन	-10.0482
यी	-10.0483
▁मित्रों	-10.0485
▁महज	-10.0495
▁बि	-10.0498
▁ख्याल	-10.0498
▁सुर	-10.0499
▁ध	-10.0501
▁01	-10.0504
▁जाँच	-10.051
▁श्रम	-10.0513
▁दोनो	-10.0513
वाली	-10.0516
▁छा	-10.0518
▁यार	-10.0519
जे	-10.053
▁05	-10.0533
▁दृष्टिकोण	-10.0537
▁मल	-10.0543
शी	-10.0543
▁आपस	-10.0545
दे	-10.0546
▁आदिवासी	-10.0554
▁जागरण	-10.0558
▁ठाकुर	-10.0566
▁आँखें	-10.0566
कारी	-10.0567
▁गहरा	-10.057
▁सेंटर	-10.0573
▁निर्मित	-10.0574
▁32	-10.0577
▁मि	-10.0579
गढ़	-10.0582
▁ब्राह्मण	-10.0587
▁इन्हीं	-10.0593
▁उन्हे	-10.0601
▁अहसास	-10.0603
▁दीवार	-10.0606
▁जितने	-10.0609
▁कहकर	-10.061
▁इसको	-10.0614
▁उक्त	-10.0616
▁रू	-10.0617
्या	-10.0618
▁सांस	-10.0634
▁वापसी	-10.0642
▁बुद्ध	-10.0645
▁मेडिकल	-10.0646
याँ	-10.0648
▁समाजवादी	-10.0648
▁ओबामा	-10.0648
▁द्वितीय	-10.0654
ध	-10.0661
▁निकले	-10.0662
▁बह	-10.067
▁बचाव	-10.0676
▁लक्ष्मी	-10.0677
है	-10.0681
▁पारी	-10.0685
▁07	-10.0692
▁मानता	-10.0692
िल	-10.0693
▁नेहरू	-10.0702
▁पाती	-10.0707
▁क्षेत्रीय	-10.0708
▁सोचते	-10.0709
▁चंद्र	-10.0717
▁सचमुच	-10.0717
▁पहुंची	-10.0729
ेड	-10.0743
▁चूंकि	-10.0745
▁शोर	-10.0754
▁बनती	-10.0755
▁सकारात्मक	-10.0757
▁सर्वश्रेष्ठ	-10.0757
▁धारण	-10.0759
▁जवान	-10.0763
▁प्राप्ति	-10.0766
▁कारणों	-10.0771
▁दास	-10.0772
▁खरीदने	-10.0772
▁अभिनय	-10.0772
ेश्वर	-10.0775
▁महीनों	-10.0784
▁मशहूर	-10.0784
▁देह	-10.0797
▁काला	-10.0797
दान	-10.0798
▁बरस	-10.0798
▁निकाला	-10.0804
▁शीर्षक	-10.0806
▁शक	-10.0808
▁अफ्रीका	-10.0809
▁मिलना	-10.082
▁सि	-10.0822
▁जिक्र	-10.0823
▁बढ़ावा	-10.0825
▁००	-10.0825
▁नृत्य	-10.0827
▁संग	-10.0836
▁जग	-10.084
▁बढ़िया	-10.0843
▁तर	-10.0844
ऊ	-10.0849
▁बढ़ते	-10.0851
▁सेट	-10.0852
▁अन्तिम	-10.0855
स्त	-10.0855
▁गेंद	-10.0859
वाल	-10.0862
▁नीतीश	-10.0875
▁पहाड़	-10.089
छ	-10.0892
▁पटेल	-10.0897
▁ब्रह्म	-10.0902
▁सुपर	-10.0904
▁संबोधित	-10.0905
▁खुल	-10.0906
▁किरदार	-10.0908
▁सहमति	-10.0913
▁बीते	-10.0914
▁स्टोरी	-10.0914
▁सफर	-10.0915
▁रवि	-10.0917
▁उर्दू	-10.0918
ानी	-10.0919
▁मुफ्त	-10.092
▁आतंक	-10.0921
▁तत्काल	-10.0926
▁संतुलित	-10.0935
▁फेसबुक	-10.094
▁सेवन	-10.0946
▁चक्र	-10.0947
▁आमतौर	-10.0956
▁गली	-10.0957
▁विवेक	-10.096
▁नेपाल	-10.0964
▁इत्यादि	-10.0964
▁स्वाभाविक	-10.0965
▁वैश्विक	-10.097
▁अमिताभ	-10.0975
▁काफ़ी	-10.0978
▁खुला	-10.0989
▁राजेश	-10.0991
▁तीसरी	-10.1
▁शोषण	-10.1003
घ	-10.1008
▁भेद	-10.1011
▁पाना	-10.1016
▁छत	-10.1016
▁भक्त	-10.1017
▁यों	-10.1017
त्	-10.1023
▁सेवाओं	-10.1026
▁200	-10.1029
▁रूस	-10.1032
▁स्वभाव	-10.1033
▁बहाने	-10.1038
▁दुर्घटना	-10.1044
▁लगाते	-10.1044
ास	-10.105
इस	-10.1057
▁हि	-10.1073
▁अंश	-10.1077
▁आएगा	-10.108
▁चीज़	-10.1081
▁चीजें	-10.1086
▁आरंभ	-10.1086
▁पेज	-10.1092
ember	-10.1093
▁बहु	-10.1093
▁कोलकाता	-10.1099
▁तन	-10.1102
ेट	-10.1107
▁गुरू	-10.1125
▁शर्त	-10.1128
▁खेलों	-10.1131
▁संसाधन	-10.1134
▁तैनात	-10.1136
▁चाल	-10.1136
▁इलाहाबाद	-10.1138
n	-10.1153
▁मारने	-10.1155
▁थाने	-10.1162
सं	-10.1167
▁कृपा	-10.1171
िम	-10.1176
▁कक्ष	-10.1189
▁मस्जिद	-10.119
▁केस	-10.1196
▁गाय	-10.1217
▁जीवित	-10.1217
हर	-10.1222
▁हफ्ते	-10.1223
▁लालू	-10.1229
▁जिन्दगी	-10.1235
▁जाएँ	-10.124
▁दा	-10.1241
▁जोखिम	-10.1242
▁चोर	-10.1249
▁चंद	-10.1251
▁अतिथि	-10.126
▁गायब	-10.1262
▁गत	-10.1264
▁जिलों	-10.1277
▁बचने	-10.1277
▁टाइम	-10.128
▁परिवारों	-10.1283
ेन	-10.1285
▁क्लास	-10.1291
▁कमाई	-10.1295
▁घुस	-10.1301
▁माया	-10.1302
▁मजदूर	-10.1304
▁निम्न	-10.1308
▁C	-10.1309
▁लघु	-10.131
▁रोशनी	-10.131
▁मोड़	-10.1313
▁समर्पित	-10.1315
▁कोर्स	-10.1315
▁झारखंड	-10.1318
▁भैया	-10.1325
▁किशोर	-10.1328
▁मूर्ति	-10.1332
▁चीजों	-10.1332
कों	-10.1333
▁आचार्य	-10.1336
▁उत्पादों	-10.1336
▁ताजा	-10.1339
▁तिथि	-10.134
▁राग	-10.1341
▁कथित	-10.1345
▁किलो	-10.1345
▁देखिए	-10.1348
▁निरंतर	-10.1359
▁बीमार	-10.1363
▁तेरा	-10.1366
▁पढ़े	-10.1368
▁उतनी	-10.1374
▁विधेयक	-10.1379
▁डालने	-10.1386
▁व्रत	-10.1387
▁तट	-10.1395
▁प्राथमिक	-10.14
▁कान	-10.1405
ेस	-10.1409
▁कम्पनी	-10.1413
▁समक्ष	-10.1417
▁फ़	-10.1417
▁ढेर	-10.1427
▁सभ्यता	-10.1432
▁बादल	-10.1436
▁परिस्थितियों	-10.1437
▁मध्यप्रदेश	-10.1443
▁मुख्यालय	-10.1448
▁33	-10.1449
▁p	-10.145
▁and	-10.1457
▁प्रभारी	-10.1462
▁बैठी	-10.1463
▁लंड	-10.1463
▁त्वचा	-10.1468
▁सुनते	-10.1475
▁ज़िन्दगी	-10.148
▁पूछताछ	-10.1481
▁एक्स	-10.1482
▁मानी	-10.1487
▁बेचने	-10.1489
िग	-10.1498
▁चौहान	-10.1499
ॅ	-10.15
▁भारती	-10.1508
▁जम्मू	-10.152
▁मनाया	-10.152
▁घूम	-10.1521
▁आकर्षित	-10.1529
▁बिन	-10.1534
▁बेच	-10.1535
▁जुड़ा	-10.1536
▁अर्जुन	-10.1543
▁बच्चन	-10.1544
▁एफ	-10.1545
▁चुना	-10.1547
▁90	-10.1551
▁चुनावी	-10.1551
ात	-10.1558
▁भ्रष्ट	-10.1563
▁गर्व	-10.1566
▁प्रेमी	-10.1573
▁मस्तिष्क	-10.1573
▁आग्रह	-10.1574
▁यूपी	-10.1576
▁टाटा	-10.1576
▁आगामी	-10.1586
ाबाद	-10.1589
▁संबंधों	-10.1591
▁बढ़कर	-10.1597
▁मोहम्मद	-10.1603
▁लक्षण	-10.1607
▁विपणन	-10.1608
▁हू	-10.1608
▁चढ़	-10.162
▁पुष्टि	-10.1622
ियन	-10.1623
▁पूर्वी	-10.1624
▁प्रत्याशी	-10.1624
▁छुट्टी	-10.1627
▁प्रसार	-10.1631
▁स्नान	-10.1636
▁शीघ्र	-10.1639
2	-10.1645
▁बोलते	-10.1658
▁रोल	-10.1659
▁शिविर	-10.1659
▁सैनिक	-10.167
लि	-10.1672
▁जड़	-10.1676
▁डाक्टर	-10.169
गंज	-10.1698
▁लगेगा	-10.1698
▁भाभी	-10.1703
पूर्वक	-10.1705
▁बनाता	-10.1708
▁लड़का	-10.1718
▁आस्था	-10.1719
▁जवानी	-10.1719
▁गुप्त	-10.1722
▁अहमद	-10.1723
▁अनुरोध	-10.1732
▁F	-10.1743
▁सवालों	-10.1748
al	-10.1749
▁http	-10.1755
▁लोकपाल	-10.1756
▁छाया	-10.1757
▁कालेज	-10.1762
एल	-10.1763
▁सोचता	-10.177
▁क्यूँ	-10.1772
▁लिंग	-10.1782
▁विशेषज्ञ	-10.1784
▁ज़रूर	-10.1785
▁चालू	-10.1809
▁भोग	-10.1815
▁अध्यक्षता	-10.1816
▁भरपूर	-10.182
▁रुचि	-10.1821
▁अद्भुत	-10.1829
▁कमल	-10.1829
▁गठबंधन	-10.1839
िनी	-10.1845
▁संवाददाता	-10.1847
▁निकालने	-10.1849
▁ऑफ़	-10.185
▁व्यस्त	-10.1856
▁चावल	-10.186
▁भावनाओं	-10.1862
▁चैनलों	-10.1863
▁दोस्ती	-10.1873
▁क्रोध	-10.1873
▁ईमेल	-10.1873
▁ज़मीन	-10.1877
▁उपस्थिति	-10.1878
▁न्यू	-10.1882
ing	-10.1886
▁टू	-10.189
▁आनन्द	-10.1891
▁36	-10.1893
▁वरना	-10.1893
▁बालक	-10.1894
▁निवास	-10.1896
▁गुस्सा	-10.19
▁दुश्मन	-10.1909
▁पाल	-10.1928
▁जज	-10.193
▁सर्वे	-10.1933
▁चन्द्र	-10.1935
▁I	-10.194
▁दशा	-10.1943
▁कुर्सी	-10.1954
▁चालक	-10.1961
▁बनना	-10.1963
▁खतरनाक	-10.1964
▁बाहरी	-10.1966
▁वर्षा	-10.1967
▁सिटी	-10.197
▁अमरीकी	-10.1971
▁फार्म	-10.1975
▁बुलाया	-10.1984
▁परिचित	-10.1984
▁तस्वीरें	-10.1994
▁सकी	-10.1997
▁सोना	-10.2005
▁बढ़ता	-10.2006
▁नागरिकों	-10.2013
▁500	-10.2014
▁वार	-10.2016
▁जाया	-10.2019
▁गाना	-10.2019
▁अमित	-10.2028
▁परम्परा	-10.203
▁समझौते	-10.2043
▁कविताओं	-10.2045
▁संचालित	-10.2047
▁आउट	-10.2047
▁घाट	-10.2048
6	-10.2049
▁कलम	-10.2051
▁सार्थक	-10.2051
▁होम	-10.2051
▁ख़ुद	-10.2052
रूप	-10.2057
8	-10.2057
▁व्यावसायिक	-10.2061
▁डाली	-10.2061
▁चेतावनी	-10.2062
▁विमर्श	-10.2065
दास	-10.2068
▁रखती	-10.2071
▁री	-10.2081
▁जर्मनी	-10.2086
▁ति	-10.209
▁दोबारा	-10.2092
▁नोटिस	-10.2097
▁ग्रामीणों	-10.2099
▁सॉफ्टवेयर	-10.2102
▁पीड़ा	-10.2102
▁2004	-10.2109
▁हमसे	-10.2111
▁कराई	-10.2115
▁सैकड़ों	-10.212
▁ऊ	-10.2121
▁अंदाज	-10.2127
▁थ	-10.2131
▁पड़ने	-10.2132
▁थोड़े	-10.2135
▁रोगी	-10.2139
▁गेट	-10.2155
▁कर्ज	-10.2156
▁साक्षात्कार	-10.216
▁विकिपीडिया	-10.2161
▁कबीर	-10.2165
▁आइ	-10.2169
हीन	-10.2178
▁अदा	-10.2181
▁१९	-10.2182
▁घोटाले	-10.219
▁संस्थाओं	-10.2195
▁कॉल	-10.2205
▁समझौता	-10.2206
▁फंड	-10.2209
▁दरवाजे	-10.2211
▁नाक	-10.2211
▁हटाने	-10.2236
▁उपयोगी	-10.2237
▁बारह	-10.2237
्ट	-10.2243
▁यूरोपीय	-10.2245
▁नियुक्त	-10.2245
▁डेढ़	-10.2246
▁सकेंगे	-10.2251
in	-10.2252
▁प्रत्यक्ष	-10.2254
▁ग्राहकों	-10.2263
▁गुजर	-10.2265
▁घ	-10.2265
▁सेक्टर	-10.2265
▁लगाना	-10.2265
▁अनशन	-10.2284
5	-10.2286
▁मिशन	-10.2295
▁कन्या	-10.2304
▁औ	-10.2306
▁वाकई	-10.2306
▁ठोस	-10.2308
▁खुलासा	-10.2308
▁सम्पूर्ण	-10.2309
▁निर्यात	-10.2314
▁करवाने	-10.2315
▁चमक	-10.2321
▁स्वर्ण	-10.2326
मैन	-10.2334
ाया	-10.2334
▁ज़रूरी	-10.2334
तो	-10.2341
▁सकेगा	-10.2347
▁पढ़ते	-10.2364
▁मज़ा	-10.2367
▁देखभाल	-10.2378
▁भाग्य	-10.2381
▁पैमाने	-10.2394
▁समझना	-10.2399
▁दादा	-10.24
▁प्रतिदिन	-10.2401
▁बुनियादी	-10.2404
▁नमक	-10.2414
▁रायपुर	-10.2417
▁इंजीनियरिंग	-10.242
▁बैठकर	-10.2421
il	-10.2423
▁शनि	-10.2424
▁दौरे	-10.2424
▁उठता	-10.2426
▁बिस्तर	-10.2427
▁स्वर्ग	-10.243
▁एहसास	-10.2431
▁देगी	-10.2432
ंद	-10.2435
▁जीते	-10.2436
▁प्रस्तुति	-10.2441
▁फैला	-10.2442
▁आत्महत्या	-10.2446
वां	-10.2449
▁जमाने	-10.245
▁विचारधारा	-10.2451
▁पावर	-10.2453
▁आधे	-10.2463
ड़े	-10.2464
ाव	-10.2466
▁जानना	-10.2466
▁भरने	-10.2467
▁सेकंड	-10.2469
▁पथ	-10.2476
▁नायक	-10.248
▁प्रतिबंध	-10.2484
▁आजाद	-10.2488
▁बसपा	-10.2493
▁करोड़ों	-10.2494
▁श्रद्धा	-10.2495
▁इंदिरा	-10.2496
▁सहयोगी	-10.2498
▁साथियों	-10.2501
▁34	-10.2503
▁पंच	-10.2505
र्	-10.2511
▁कष्ट	-10.2511
▁पूंजी	-10.2512
▁तु	-10.2514
▁हरी	-10.2514
▁यात्रियों	-10.2515
▁आँख	-10.2518
▁शताब्दी	-10.2522
▁वायु	-10.2523
sday	-10.2524
▁महासचिव	-10.2525
▁समा	-10.253
▁गीतों	-10.2534
▁चुन	-10.2534
h	-10.2536
यर	-10.2541
▁श्रीलंका	-10.2544
▁चेक	-10.2546
▁आओ	-10.2547
▁चौक	-10.2548
▁रमेश	-10.2559
▁अधिकतम	-10.2565
▁तीसरा	-10.2568
▁रुख	-10.2572
▁बढ़ी	-10.2574
▁जमकर	-10.2574
▁मन्दिर	-10.2576
▁06	-10.2576
ंच	-10.258
▁तत्कालीन	-10.2581
▁अंतरिक्ष	-10.2586
▁रोज़	-10.2587
▁मनोज	-10.2593
▁शुरूआत	-10.2593
▁साढ़े	-10.2597
▁पहन	-10.2599
▁मानसिकता	-10.2602
▁तापमान	-10.2602
▁39	-10.2608
▁संदेह	-10.2609
▁02	-10.2613
▁गणेश	-10.2614
खा	-10.2615
▁शहरी	-10.2616
▁P	-10.2618
▁नर	-10.2626
▁संशोधन	-10.2635
▁ख़ास	-10.2644
▁बुक	-10.2645
▁कमाल	-10.2648
▁ज़	-10.265
▁बोझ	-10.2651
▁खासकर	-10.2653
▁ग्राहक	-10.2653
ar	-10.2654
▁अभि	-10.2658
▁हड़ताल	-10.266
▁शिक्षकों	-10.2665
▁आकर्षण	-10.2665
▁उत्सव	-10.2669
▁पाये	-10.2677
▁करवाया	-10.2679
▁अभिनेत्री	-10.268
▁प्रसन्न	-10.2683
▁हस्ताक्षर	-10.2683
▁एकता	-10.2687
▁वर	-10.2689
ाँ	-10.2691
▁03	-10.2691
▁पं	-10.2698
▁मेले	-10.2699
ंक	-10.27
▁संतोष	-10.2701
▁अक्तूबर	-10.2705
▁खुली	-10.2708
▁कम्प्यूटर	-10.2709
▁लम्बी	-10.2711
▁पचास	-10.2718
▁व्याख्या	-10.2719
▁टाइम्स	-10.2721
▁बनते	-10.2727
▁शहीद	-10.2732
▁एक्सप्रेस	-10.274
▁रिश्ता	-10.2741
▁हजारे	-10.2742
▁उपर	-10.2745
▁बाग	-10.2748
▁वस्तुओं	-10.2748
▁राव	-10.2751
▁यूनिवर्सिटी	-10.2752
o	-10.2753
▁प्रोजेक्ट	-10.276
▁श्याम	-10.2764
▁अग्नि	-10.2766
वत	-10.2768
▁दौरा	-10.277
▁विविध	-10.2773
▁आधी	-10.2776
▁श्रेष्ठ	-10.2782
▁सामूहिक	-10.2793
▁अनुरूप	-10.2793
▁प्रावधान	-10.2795
▁प्रकरण	-10.2804
▁निशान	-10.2807
▁लड़ने	-10.2813
▁स्नातक	-10.2815
▁हंस	-10.2816
▁बैंकों	-10.2819
▁पु	-10.2821
▁स्नेह	-10.2822
▁तुझे	-10.2823
▁बाइक	-10.2825
▁नियुक्ति	-10.2827
▁स्वाद	-10.2829
▁प्रवाह	-10.2841
▁पान	-10.2843
▁अखबारों	-10.2849
▁आईपीएल	-10.2851
▁धोनी	-10.2851
▁जला	-10.2854
▁पदों	-10.2864
▁साझा	-10.2865
▁देखिये	-10.2874
▁परिजनों	-10.2878
▁भेंट	-10.2879
er	-10.2884
ंत	-10.2886
▁वेद	-10.2889
▁मिश्रा	-10.2897
▁व्यंग्य	-10.2901
▁जिसमे	-10.2904
▁ध्वनि	-10.2904
त्र	-10.2916
बल	-10.2923
▁नीतियों	-10.2925
▁लेखकों	-10.2926
▁ब्लॉगर	-10.2935
▁अमीर	-10.2942
▁संरचना	-10.2944
▁फांसी	-10.295
▁जनसंख्या	-10.2953
▁विस्फोट	-10.296
▁चिंतन	-10.2965
मय	-10.2965
तर	-10.2973
▁साहस	-10.2974
▁38	-10.2975
▁सैन्य	-10.2976
▁शाखा	-10.2979
▁ब्याज	-10.298
▁जेब	-10.2989
▁११	-10.2989
▁अन्तर्गत	-10.2992
▁किमी	-10.2998
▁वा	-10.2999
▁खाता	-10.3
▁डाक	-10.3003
क़	-10.3009
▁न्यूज़	-10.3012
▁दायर	-10.3013
▁कीमतों	-10.3015
▁आतंकी	-10.3019
▁उत्तरी	-10.3019
▁04	-10.3023
कल	-10.3024
▁खारिज	-10.3029
▁जंग	-10.3029
▁गिरा	-10.3032
रि	-10.3041
▁गौरव	-10.3043
▁गंभीरता	-10.3044
▁रहकर	-10.3047
मु	-10.305
▁रकम	-10.3051
▁मिस	-10.3053
▁उपयुक्त	-10.3055
ीन	-10.3062
▁फैशन	-10.3065
▁अधिकारों	-10.307
▁भौतिक	-10.3071
▁मजदूरों	-10.3075
▁रहो	-10.3077
▁वैज्ञानिकों	-10.3078
चे	-10.308
▁मूल्यांकन	-10.308
▁75	-10.3084
▁जानती	-10.3085
मो	-10.3094
▁छू	-10.3099
ची	-10.3099
▁हुसैन	-10.3101
▁सीखने	-10.3104
▁हमे	-10.3107
▁ठ	-10.311
ुआ	-10.3112
▁विनोद	-10.3117
▁खतरे	-10.3117
▁रूपए	-10.3119
▁शास्त्र	-10.3119
▁इनकार	-10.3119
▁हट	-10.3121
▁पार्टियों	-10.3122
िस्ट	-10.3127
d	-10.3131
करण	-10.3131
▁रावण	-10.3135
▁निर्वाचन	-10.3138
▁कलेक्टर	-10.3142
▁बीत	-10.3154
▁गोपाल	-10.3156
▁गोद	-10.3162
▁जोड़ी	-10.3163
▁जरुरत	-10.317
▁युक्त	-10.3171
▁सर्वोच्च	-10.319
▁रिकार्ड	-10.3191
▁जीता	-10.3205
▁दया	-10.3207
सु	-10.3219
▁स्थायी	-10.322
▁संपूर्ण	-10.3226
▁बॉक्स	-10.3228
▁उपभोक्ता	-10.3229
▁उत्	-10.3229
▁यद्यपि	-10.3234
▁प्रताप	-10.3235
▁प्रबंध	-10.3239
▁48	-10.3242
▁अपमान	-10.3243
▁गरीबों	-10.3251
▁वर्ल्ड	-10.3253
▁उपाध्यक्ष	-10.3253
▁कुत्ते	-10.3253
▁संभाल	-10.3255
▁चे	-10.3256
▁न्यूनतम	-10.326
▁भ्रम	-10.326
▁हिन्दुस्तान	-10.3261
णी	-10.3262
▁सर्वेक्षण	-10.3265
▁छोड़ने	-10.3267
▁दाल	-10.3268
▁गरम	-10.3268
▁एकमात्र	-10.3277
▁बल्लेबाज	-10.3282
▁जाम	-10.3286
फा	-10.329
▁अंजाम	-10.3291
▁बच्ची	-10.3297
▁कब्जा	-10.3299
▁धमकी	-10.3301
▁रोचक	-10.3302
▁मानवीय	-10.3305
तम	-10.3316
▁मील	-10.3318
▁दर्शक	-10.3319
▁नो	-10.3331
▁सदन	-10.3331
▁यात्री	-10.3335
▁मौन	-10.335
▁एयर	-10.3353
▁मंजिल	-10.3353
▁अनुकूल	-10.3356
▁प्रसारण	-10.3365
▁ख़बर	-10.3367
▁जाल	-10.3369
▁सरदार	-10.3373
▁शुक्ल	-10.3375
▁ट्रक	-10.338
▁ज्योतिष	-10.338
▁वृक्ष	-10.3383
▁इंजन	-10.3386
▁करियर	-10.3386
▁विद्यार्थियों	-10.3391
▁खबरें	-10.3392
▁आहार	-10.3395
▁रूम	-10.3403
▁ते	-10.3405
▁बारी	-10.3407
▁समर्थक	-10.3414
▁पैरों	-10.3414
▁भगत	-10.3415
▁सुरेश	-10.3418
ूं	-10.342
म्प	-10.3424
पे	-10.3431
▁37	-10.3432
▁पागल	-10.3436
▁रत्न	-10.3437
▁जॉन	-10.344
▁दिक्कत	-10.3442
▁प्रोफेसर	-10.345
▁अनाज	-10.3461
▁55	-10.3467
जो	-10.3472
▁कलाकारों	-10.3475
▁प्रशासनिक	-10.348
▁सीटों	-10.3481
▁गु	-10.3486
न्द	-10.349
▁समझता	-10.3493
▁भेजने	-10.3495
▁रात्रि	-10.3496
▁सैनिकों	-10.3497
▁पेशकश	-10.3497
▁विजेता	-10.3504
▁जरिये	-10.3508
▁शर्म	-10.3509
▁प्रशंसा	-10.351
▁बगैर	-10.3512
▁महल	-10.352
▁सख्त	-10.3522
▁आपदा	-10.353
▁योग्यता	-10.3532
▁शूटिंग	-10.3536
▁परमात्मा	-10.3537
▁अंग्रेज़ी	-10.3539
▁ऋषि	-10.3542
▁बु	-10.3542
ाल	-10.3547
▁ब्रांड	-10.3551
▁गहराई	-10.3552
▁हनुमान	-10.3555
▁हरि	-10.3561
▁ऑटो	-10.3564
▁प्लान	-10.3568
▁दिखता	-10.357
ाने	-10.3571
▁प्रचलित	-10.3572
▁साइकिल	-10.3575
▁टिप्पणियाँ	-10.3576
▁झ	-10.3582
▁गणित	-10.3583
▁ईमानदारी	-10.3584
▁खींच	-10.3585
▁पहुँचा	-10.3587
▁अकेला	-10.3588
▁पद्धति	-10.3593
▁कामना	-10.3594
▁अन्तर	-10.3602
▁गुना	-10.3604
▁सुनील	-10.3604
▁जोड़ने	-10.3605
आर	-10.3605
▁अत	-10.3608
▁नतीजा	-10.3609
▁साहित्यिक	-10.3612
▁पूछे	-10.3612
▁यूपीए	-10.3612
▁42	-10.3617
▁परि	-10.3618
▁अन्त	-10.3621
▁एड	-10.3621
▁क्षमा	-10.3621
▁नाराज	-10.3629
▁ज़रा	-10.3633
▁डूब	-10.3635
▁अफसर	-10.3637
हम	-10.3638
▁E	-10.3642
गु	-10.3642
▁दिलाने	-10.3642
▁अन्यथा	-10.3645
▁बालों	-10.3645
▁मूल्यों	-10.3645
▁......	-10.3646
▁केंद्रित	-10.3652
▁सबूत	-10.3653
▁कर्नाटक	-10.3654
▁फाइनल	-10.3656
▁सृष्टि	-10.3659
रत	-10.3666
▁प्रायः	-10.3666
▁निवेशक	-10.3667
हार	-10.367
▁संसदीय	-10.3681
▁पो	-10.3683
▁रिलीज	-10.3684
▁बताना	-10.3688
▁अतीत	-10.3697
▁केरल	-10.3703
▁इकाई	-10.3706
▁लिमिटेड	-10.3707
▁मचा	-10.371
▁पेट्रोल	-10.3713
▁शिक्षण	-10.3714
▁हैदराबाद	-10.372
▁माँग	-10.3721
▁पढने	-10.3722
▁पर्वत	-10.3724
▁क्रेडिट	-10.373
▁मुखर्जी	-10.373
▁अव	-10.3731
एक	-10.3733
▁दत्त	-10.3733
▁डोमेन	-10.3734
▁बहरहाल	-10.3741
▁फ्रांस	-10.3744
▁निशाना	-10.3746
▁सांख्यिकीय	-10.375
न्स	-10.3752
▁मोटर	-10.3753
▁लाइसेंस	-10.3757
▁सिलसिला	-10.3764
िय	-10.3778
▁मंत्रियों	-10.3782
▁शरद	-10.3783
▁विद्यार्थी	-10.3788
▁खोलने	-10.3792
▁वादा	-10.3797
▁बताई	-10.3798
▁तत्वों	-10.3801
▁सोशल	-10.3812
▁यज्ञ	-10.3812
▁बडे	-10.3813
▁डेटा	-10.3814
▁ज्ञात	-10.3816
▁श्रीवास्तव	-10.3822
▁दीप	-10.3823
▁गहरे	-10.3837
पुरा	-10.3842
▁उड़	-10.3851
ज़ा	-10.3855
▁सम्	-10.3859
▁वार्षिक	-10.3862
▁राकेश	-10.3867
▁आयात	-10.3869
▁सुभाष	-10.3872
▁अन्	-10.3872
▁जि	-10.388
▁उच्चारण	-10.3885
▁कामयाब	-10.3886
▁घाटी	-10.3889
▁भूत	-10.389
▁बोध	-10.3891
▁बिजनेस	-10.3892
▁पश्चात	-10.39
▁प्रतीत	-10.39
▁जादू	-10.3906
हो	-10.3915
▁लीग	-10.3915
▁तलवार	-10.3928
क्ष	-10.3933
▁मानकर	-10.3938
▁मंजूरी	-10.394
▁हकीकत	-10.3953
▁सहारे	-10.3956
▁चाँद	-10.396
▁तारीफ	-10.3961
ary	-10.3965
▁पड़ते	-10.3966
▁नरेन्द्र	-10.3969
▁सूरत	-10.3971
ियत	-10.3974
▁खंड	-10.3977
▁मुम्बई	-10.3978
▁बेकार	-10.3981
▁छाप	-10.3981
▁दीदी	-10.3982
ेन्द्र	-10.3983
▁फैल	-10.399
▁अत्यधिक	-10.3991
▁नैतिक	-10.3995
▁नवीन	-10.3995
▁चलना	-10.4001
एन	-10.4003
▁सृजन	-10.4006
▁कठोर	-10.4006
▁पोल	-10.4009
▁जन्मदिन	-10.4011
▁पढ़ी	-10.4015
▁सेल	-10.402
▁हाय	-10.4028
लिंग	-10.403
▁स्क्रीन	-10.4031
▁सुनी	-10.4034
▁2000	-10.4047
▁इन्	-10.4058
▁उल्लंघन	-10.406
ेल	-10.4061
▁वें	-10.4062
▁बचे	-10.4062
▁तुमसे	-10.4063
▁सौंप	-10.4074
▁मुकदमा	-10.4078
▁पवन	-10.4078
▁गाया	-10.4079
▁मार्केट	-10.4081
▁संस्थानों	-10.409
▁परमेश्वर	-10.4091
ुल	-10.4092
▁ताऊ	-10.4093
▁आपसी	-10.4095
▁जनपद	-10.4095
▁परिवहन	-10.4096
▁प्रवृत्ति	-10.4098
▁अर्थात्	-10.4101
▁फेंक	-10.4103
▁रहस्य	-10.4105
▁हीरो	-10.4106
▁मायने	-10.4109
▁दायरे	-10.4109
▁शा	-10.4111
▁चौ	-10.4111
▁दाखिल	-10.4114
▁सूक्ष्म	-10.4117
▁किरण	-10.4127
ढ	-10.4134
▁रिश्तों	-10.4137
▁मकसद	-10.4138
▁आंख	-10.4139
▁पढ़कर	-10.414
▁शून्य	-10.4141
▁स्वप्न	-10.4148
▁इनसे	-10.4148
▁संवेदनशील	-10.4156
▁मह	-10.4159
▁संवत	-10.416
▁कहानियों	-10.4162
▁इस्तीफा	-10.4163
▁शिखर	-10.4166
▁आरोपियों	-10.4171
▁रांची	-10.4175
▁आएगी	-10.418
▁आकर्षक	-10.4182
▁पहलू	-10.4183
▁भार	-10.4187
▁दबा	-10.4188
▁सार	-10.4189
▁धान	-10.419
▁हिंदुस्तान	-10.4191
▁खिला	-10.4194
▁युवती	-10.4194
▁साजिश	-10.4201
▁कमर	-10.4207
▁सिविल	-10.4213
▁लाइफ	-10.4214
▁उत्तम	-10.4216
▁मछली	-10.4219
चर	-10.4222
▁निश्चय	-10.4228
वास	-10.4229
▁दिखने	-10.4234
▁जगहों	-10.4234
था	-10.4245
▁अमल	-10.4247
▁पब्लिक	-10.4251
▁पिताजी	-10.4252
▁लकड़ी	-10.4259
▁झलक	-10.4264
▁पूजन	-10.4264
▁उदय	-10.4265
▁केजरीवाल	-10.4267
▁उपरोक्त	-10.4272
▁शुक्रिया	-10.4272
▁भागीदारी	-10.4274
▁प्रा	-10.4275
▁मुकाबला	-10.4282
▁दुर्गा	-10.4285
भर	-10.4286
▁hai	-10.4288
र्ट	-10.4293
▁बडी	-10.4294
▁घड़ी	-10.4295
▁दुखी	-10.4301
▁किताबें	-10.4302
▁पि	-10.431
र्न	-10.4321
▁सोचना	-10.4325
▁प्रतीक्षा	-10.4326
▁स्टेडियम	-10.433
▁छिपा	-10.4331
▁उत्तराखण्ड	-10.4332
▁D	-10.4333
▁हार्दिक	-10.4333
▁तीस	-10.4336
▁प्रतिमा	-10.4346
िट	-10.435
▁अस	-10.4351
▁उजागर	-10.4352
▁सरकारों	-10.4355
▁पुरूष	-10.4357
▁दिलचस्प	-10.4367
▁हवाले	-10.437
▁मम्मी	-10.4371
▁पूछने	-10.4373
णा	-10.4377
▁वार्ड	-10.4386
ल्ड	-10.4389
▁f	-10.4389
▁आलोक	-10.439
▁जोड़ा	-10.4395
▁वाक्य	-10.4395
▁आफ	-10.4396
▁बिग	-10.4396
▁निरीक्षण	-10.4402
▁गुल	-10.4407
▁संतान	-10.4408
▁धार	-10.4409
गर	-10.4412
▁फूलों	-10.4413
▁विभाजन	-10.4416
▁हानि	-10.4426
▁आमिर	-10.4436
▁अध्याय	-10.4439
▁आचरण	-10.4439
▁इंदौर	-10.4444
▁जताई	-10.4446
▁स्त्रियों	-10.4448
यन	-10.445
▁इंतज़ार	-10.4454
▁१०	-10.4455
▁44	-10.4456
▁दुआ	-10.4463
▁दिनांक	-10.4464
▁हुयी	-10.4469
आई	-10.448
▁जुड़	-10.4486
▁कोने	-10.4495
▁वाहनों	-10.4501
b	-10.4503
▁तथाकथित	-10.4504
▁बैठने	-10.4505
▁2003	-10.4506
▁आंतरिक	-10.4506
▁पकड़ा	-10.4507
▁वंचित	-10.4511
▁लीजिये	-10.4515
▁चु	-10.4519
▁तल	-10.4523
▁राजस्व	-10.4527
▁लिखित	-10.4529
▁कटौती	-10.4534
▁ठाकरे	-10.4538
▁चुने	-10.4538
▁चलेगा	-10.4541
gt	-10.4548
▁ग्रंथ	-10.4549
▁बरसात	-10.4552
▁लीजिए	-10.4565
▁मेला	-10.4567
▁बिहारी	-10.4567
▁बौद्ध	-10.4569
ंज	-10.4572
▁समीर	-10.4573
▁लव	-10.4574
▁मास	-10.4577
▁भारतीयों	-10.4577
▁पारित	-10.4577
▁फा	-10.4581
▁ईसाई	-10.4581
▁भोजपुरी	-10.4582
ाय	-10.4583
▁बापू	-10.4587
▁परिभाषा	-10.4589
▁सम्पर्क	-10.459
▁भेजे	-10.4591
▁हास्य	-10.4593
▁बरामद	-10.4598
▁कानपुर	-10.4603
▁हिमाचल	-10.4606
▁कीजिए	-10.4607
▁ज़िंदगी	-10.461
▁is	-10.4616
▁उठे	-10.4616
▁49	-10.4617
▁डेटाः	-10.4624
▁पदक	-10.4636
▁निगरानी	-10.4638
▁वर्ण	-10.4645
▁छुपा	-10.4648
मैं	-10.4649
k	-10.466
▁रवाना	-10.4663
▁भजन	-10.4665
▁दफ्तर	-10.4666
▁उठाकर	-10.4674
▁मजाक	-10.4675
मत	-10.4678
▁47	-10.4678
▁पारंपरिक	-10.468
▁शुक्र	-10.4688
▁↑	-10.4689
▁निम्नलिखित	-10.4689
▁अंग्रेजों	-10.469
▁माला	-10.4692
▁फ़ोन	-10.4692
▁नियंत्रित	-10.47
▁न्यायाधीश	-10.47
▁झील	-10.4702
नों	-10.4702
▁निधन	-10.4708
▁स्थिर	-10.4708
▁2002	-10.4711
▁बगल	-10.4712
▁कनाडा	-10.4714
▁बढ़ोतरी	-10.4714
▁कवर	-10.4717
▁एसपी	-10.4719
▁ज्योति	-10.472
▁दर्जन	-10.4724
ूर	-10.4725
▁ख़त्म	-10.4727
▁सौंदर्य	-10.4728
▁कोयला	-10.4733
▁कागज	-10.4733
▁बहू	-10.4734
ख़	-10.4735
▁आक्रमण	-10.4742
▁बढ	-10.4743
▁बेल	-10.4743
▁मण्डल	-10.4745
▁गिरफ्तारी	-10.4748
▁प्रतिष्ठित	-10.475
्ता	-10.4759
लर	-10.476
एम	-10.4761
▁यथार्थ	-10.4765
▁पहुंचाने	-10.4768
▁आज़ादी	-10.4774
▁शास्त्री	-10.4776
▁अखिलेश	-10.478
▁रद्द	-10.4787
▁आरोपों	-10.4787
▁सपनों	-10.4787
▁गम	-10.479
▁यूनियन	-10.4795
▁मांगी	-10.4795
▁आयुक्त	-10.4796
▁अपराधी	-10.48
झ	-10.4806
▁सीता	-10.481
g	-10.4815
▁रिसर्च	-10.4816
वल	-10.4819
▁जम	-10.4821
▁व्यापारी	-10.4822
▁सरस्वती	-10.4827
्म	-10.4827
▁उठी	-10.4833
▁हैंः	-10.4838
▁एसोसिएशन	-10.4841
▁अवतार	-10.4845
ल्	-10.4846
▁खुदा	-10.4847
▁सीरीज	-10.4847
▁जहाज	-10.4854
▁टेलीविजन	-10.4856
▁यु	-10.4859
▁कैद	-10.4875
▁उपयोगकर्ता	-10.4877
▁असम	-10.4892
▁संसाधनों	-10.4892
▁आशीर्वाद	-10.4897
▁खेला	-10.4902
▁प्राथमिकता	-10.4911
▁मैचों	-10.4912
▁मोर्चा	-10.4914
▁चर्च	-10.4915
▁सब्जी	-10.4916
▁आंखें	-10.4916
▁वंश	-10.493
▁सदैव	-10.4935
▁फुट	-10.4936
▁हिट	-10.4938
▁संवेदना	-10.4946
▁हिल	-10.4951
▁राज्यपाल	-10.4951
▁परियोजनाओं	-10.4951
▁स्टील	-10.4952
▁धूल	-10.4962
्यु	-10.4965
▁गुलाब	-10.4973
▁तुम्हे	-10.4973
▁कोड	-10.4975
▁निकली	-10.4977
▁पढ	-10.4982
▁बुरे	-10.4985
▁तालाब	-10.4997
▁निपटने	-10.4998
ेर	-10.4998
▁स्वार्थ	-10.4999
र्क	-10.5
▁पहाड़ी	-10.5
▁शिशु	-10.5005
▁टॉप	-10.5007
▁प्रदूषण	-10.501
▁कार्यकाल	-10.5013
lt	-10.5014
▁धो	-10.5014
▁यमुना	-10.5017
लिया	-10.502
▁मधुर	-10.5031
▁शरण	-10.5031
▁मतदाता	-10.5032
▁कैरियर	-10.504
▁प्रतिष्ठा	-10.504
▁आर्य	-10.504
▁प्रतिनिधित्व	-10.5041
▁घी	-10.5043
▁तुलसी	-10.5043
▁जटिल	-10.5047
or	-10.5048
▁ब्लॉक	-10.5049
▁आध्यात्मिक	-10.5055
▁बाधा	-10.5057
▁सबकी	-10.5068
शील	-10.5071
▁टेक	-10.5079
f	-10.5084
▁मैन	-10.5085
▁टूर्नामेंट	-10.509
▁थक	-10.509
▁गौतम	-10.5092
▁जीना	-10.5093
▁छोड	-10.5099
▁लहर	-10.51
▁बीबीसी	-10.5104
▁हाईकोर्ट	-10.5106
▁गहन	-10.511
▁समझे	-10.5116
▁हैः	-10.5118
▁छीन	-10.5119
▁शख्स	-10.5119
▁राजकुमार	-10.5121
▁फाइल	-10.5129
▁किताबों	-10.5134
▁फेर	-10.5137
▁नकारात्मक	-10.514
▁बुला	-10.5141
▁चेन्नई	-10.5147
▁आंसू	-10.5149
▁आश्वासन	-10.5154
▁यातायात	-10.5162
▁इनको	-10.5165
▁गुलाम	-10.5169
▁आपत्ति	-10.5169
श्री	-10.5169
कर्ता	-10.5174
▁अरविंद	-10.5176
▁नाग	-10.5178
▁घास	-10.5179
▁डाले	-10.5184
▁आतंकवादियों	-10.5185
▁हितों	-10.52
▁द्वीप	-10.5204
▁फर्जी	-10.5206
▁कॉम	-10.5207
िज	-10.5207
▁चाहें	-10.5213
▁जमानत	-10.5222
an	-10.5223
भी	-10.5226
▁महोदय	-10.5229
▁बतौर	-10.5229
▁लम्बे	-10.5235
▁उपकरणों	-10.5239
▁वाणी	-10.524
▁विशेषज्ञों	-10.5247
▁टाइप	-10.525
हे	-10.5252
▁जायें	-10.5253
▁पै	-10.5253
▁बज	-10.5254
मल	-10.5258
▁दंड	-10.5259
▁देवताओं	-10.5267
▁प्रयत्न	-10.5268
▁उड़ान	-10.527
▁कवियों	-10.527
▁बर्फ	-10.5273
▁चुपचाप	-10.5274
रण	-10.5274
▁मस्त	-10.5276
श्	-10.5276
▁पत्रों	-10.5277
▁बताता	-10.5278
▁पारिवारिक	-10.5282
▁गेहूं	-10.5284
▁लेट	-10.5286
▁मासूम	-10.5289
▁41	-10.529
▁बेशक	-10.5297
लू	-10.5303
▁बंधन	-10.5307
▁खिड़की	-10.5319
▁मरीज	-10.5322
▁51	-10.5323
▁हाथी	-10.5324
▁पंकज	-10.5325
▁जर्मन	-10.533
▁नजदीक	-10.5332
▁गर्भ	-10.5336
▁धारणा	-10.5336
मि	-10.5338
▁इशारा	-10.534
▁नाते	-10.5343
▁तीर्थ	-10.5343
▁फूट	-10.5343
▁मध्यम	-10.5347
▁अनंत	-10.5347
▁सिगरेट	-10.5355
▁सिन्हा	-10.5356
▁घट	-10.5361
▁अरुण	-10.5361
▁प्रस्तावित	-10.5362
डो	-10.5363
▁बहादुर	-10.5366
▁गयीं	-10.5374
▁46	-10.5377
▁कंपनियां	-10.5377
▁2001	-10.5378
ेंट	-10.5378
▁प्रबंधक	-10.5388
▁रचनाओं	-10.5395
▁आमंत्रित	-10.5395
▁हालाँकि	-10.5395
▁आदर	-10.5398
▁साहित्यकार	-10.5401
▁सलाहकार	-10.5401
▁जिनसे	-10.5403
हि	-10.5405
▁कै	-10.5407
सू	-10.5411
▁चिकित्सक	-10.5414
▁नेट	-10.5426
इन	-10.5426
ूँ	-10.5428
▁अकादमी	-10.5428
▁बदलते	-10.5436
्व	-10.544
▁गर	-10.544
रु	-10.5441
▁जिसको	-10.5444
▁हादसे	-10.5446
▁बॉस	-10.5449
▁43	-10.5455
▁अफगानिस्तान	-10.5459
▁धोखा	-10.5461
▁बिगड़	-10.5461
▁गाली	-10.5473
▁मुकेश	-10.5473
▁जिंदा	-10.5476
▁फ्री	-10.5486
▁शान्ति	-10.5487
▁ओम	-10.5504
▁अधीन	-10.5505
▁शु	-10.5506
▁कुशल	-10.5507
▁रोका	-10.5507
▁कस	-10.5509
ur	-10.5517
▁हमको	-10.5518
टन	-10.5518
▁T	-10.5519
▁उठाए	-10.552
▁भांति	-10.5524
▁स्तरीय	-10.5528
▁मोर	-10.553
▁अमृत	-10.5531
▁कूद	-10.5533
▁नाच	-10.5534
▁प्रयासों	-10.5535
▁चाचा	-10.5538
▁मस्ती	-10.5539
▁बुराई	-10.5539
▁देनी	-10.5542
कु	-10.5545
▁जु	-10.5552
▁अधिग्रहण	-10.5555
▁पढ़ना	-10.556
▁कर्तव्य	-10.5564
▁कोच	-10.5567
▁अयोध्या	-10.5572
▁पड़ोसी	-10.5578
▁निष्कर्ष	-10.5579
▁पाएंगे	-10.5581
▁दायित्व	-10.5583
▁अक्षर	-10.5584
▁ईमानदार	-10.5585
▁नम्बर	-10.5586
▁भगवान्	-10.5594
▁थोडा	-10.5598
▁चलाया	-10.5599
लोक	-10.5605
▁शि	-10.5606
▁जुट	-10.5612
▁सतह	-10.5612
▁अर	-10.5613
▁बैग	-10.5615
▁नमस्कार	-10.5615
▁रेप	-10.5615
पति	-10.5616
▁कथन	-10.5618
▁मथुरा	-10.5625
▁जातक	-10.5626
▁इन्होंने	-10.5627
▁मुखिया	-10.5628
▁बांग्लादेश	-10.5631
▁लंबा	-10.5637
▁मोटी	-10.5639
▁मनाने	-10.5641
▁सास	-10.5643
▁आदिवासियों	-10.5644
▁देखती	-10.5644
▁सीधी	-10.5645
▁अफसरों	-10.5646
▁अभिषेक	-10.5648
▁मोटे	-10.5649
▁मृत	-10.565
▁पोषण	-10.5656
▁आगरा	-10.5669
▁शौक	-10.567
▁मांस	-10.5672
▁विशेषता	-10.5672
▁पुण्य	-10.5676
▁महाभारत	-10.5687
▁निराशा	-10.5687
▁निर्मल	-10.5689
▁हरे	-10.5697
▁कार्यकारी	-10.5698
▁दरवाजा	-10.5699
▁पंक्ति	-10.5699
▁दिवसीय	-10.5701
▁संयोग	-10.5704
▁सितारों	-10.5705
▁मंडी	-10.5709
▁प्रसंग	-10.5711
▁52	-10.572
▁नीरज	-10.5722
▁पैदल	-10.5723
▁भागों	-10.5727
▁मुहम्मद	-10.5731
▁65	-10.5735
▁महेश	-10.5736
▁हिमालय	-10.5737
पत्र	-10.5743
▁ताल	-10.5745
गण	-10.5746
▁लक्ष्मण	-10.5746
▁टुकड़े	-10.575
▁उद्घाटन	-10.5752
▁ऑपरेशन	-10.5752
▁कार्यरत	-10.5769
▁दर्जा	-10.5776
▁धातु	-10.5776
▁विद्वान	-10.578
▁असफल	-10.5781
▁शक्तिशाली	-10.5786
▁राधा	-10.579
लैंड	-10.579
▁चीख	-10.5791
▁हस्तक्षेप	-10.5798
▁सिख	-10.58
ोर	-10.5803
▁मुहैया	-10.5804
▁सुखद	-10.5808
▁वास	-10.5815
ढ़	-10.5816
▁प्रारंभिक	-10.5817
▁पुष्प	-10.5818
▁चढ़ा	-10.5828
▁प्रांत	-10.5832
▁निराश	-10.5834
▁दस्तावेज	-10.5835
▁रोगों	-10.5837
▁साम्राज्य	-10.5838
▁गायक	-10.5841
▁सबका	-10.5842
▁डालकर	-10.5844
▁सर्विस	-10.585
▁सिंचाई	-10.5856
▁उदास	-10.5858
▁नदियों	-10.5858
▁काटने	-10.5859
▁दादी	-10.5862
▁आदरणीय	-10.5864
▁सिलसिले	-10.5874
▁कांग्रेसी	-10.5874
▁पलट	-10.5874
▁शान	-10.5882
▁फिट	-10.5884
▁जरुर	-10.5887
भाव	-10.5888
▁शिष्य	-10.5888
▁पीएम	-10.5891
▁वै	-10.5893
▁पेशेवर	-10.5896
▁पदार्थों	-10.5897
▁सांसदों	-10.5908
▁दीजिए	-10.5921
▁आधिकारिक	-10.5922
p	-10.5924
▁हरा	-10.5924
▁त्रि	-10.5929
▁दीपावली	-10.5942
▁आंकड़े	-10.5944
▁दलितों	-10.5944
▁लोकप्रियता	-10.5945
▁गारंटी	-10.5956
▁खेतों	-10.5958
▁शासक	-10.5958
▁मुझको	-10.5961
▁इंच	-10.5968
▁कहेंगे	-10.5971
▁माफी	-10.5975
▁इंकार	-10.5978
र्द	-10.5978
द्ध	-10.5981
▁ज्	-10.5993
▁भंग	-10.6001
▁मधु	-10.6003
▁हुईं	-10.6007
▁अज्ञात	-10.6008
▁शाहरुख	-10.6011
▁मिलेंगे	-10.6027
जर	-10.6027
स्थ	-10.6028
▁सिफारिश	-10.603
▁पक्षी	-10.604
▁विरासत	-10.6041
िता	-10.6043
▁छोड़ा	-10.6044
▁मानस	-10.6045
▁छात्रा	-10.6047
द्र	-10.6048
▁स्टेट	-10.6053
युक्त	-10.6053
▁R	-10.6056
देश	-10.606
्वा	-10.6062
ंगी	-10.6064
▁इटली	-10.6066
▁आंकड़ों	-10.6068
▁अनुसूचित	-10.6071
▁पेंशन	-10.6073
▁सीनियर	-10.6076
▁बिंदु	-10.6081
▁संहिता	-10.6082
▁चाहा	-10.6086
20	-10.6086
▁K	-10.6088
▁मजबूरी	-10.6092
▁प्रारम्भ	-10.6094
टे	-10.6096
▁निभा	-10.6098
▁आरम्भ	-10.6101
▁धुन	-10.6103
▁दिला	-10.6113
▁इस्लामी	-10.6114
▁56	-10.6131
▁मच	-10.6131
▁उपहार	-10.6132
चंद	-10.6137
▁बताओ	-10.6137
▁तप	-10.6142
र्म	-10.6143
▁दवाओं	-10.6147
▁व्यावहारिक	-10.6147
▁स्पर्श	-10.6148
▁जूते	-10.6155
▁सम्पन्न	-10.6161
▁ब्यूरो	-10.6164
▁300	-10.6164
▁मासिक	-10.6169
▁सू	-10.617
▁सच्चे	-10.6173
▁रसोई	-10.6174
▁संभावित	-10.6178
▁यंत्र	-10.6179
▁इमारत	-10.6182
▁अकबर	-10.6183
▁पुनर्	-10.6185
▁बस्ती	-10.6187
▁सटीक	-10.6187
te	-10.6195
▁उन्नत	-10.6196
▁बाँध	-10.6201
▁वगैरह	-10.6205
▁वचन	-10.6208
▁इंजीनियर	-10.6212
▁संक्रमण	-10.6215
▁निकाले	-10.6215
▁टक्कर	-10.6219
▁पहने	-10.6236
▁मिट	-10.6239
na	-10.6244
▁खोला	-10.625
ोगे	-10.6252
गांव	-10.6263
▁मिलियन	-10.6274
▁स्वीकृति	-10.6275
▁उड़ा	-10.6278
▁पेपर	-10.6287
▁परिस्थिति	-10.6287
▁पृष्ठभूमि	-10.629
▁गेंदबाज	-10.6293
▁त्रिपाठी	-10.6294
▁खोजने	-10.6295
▁अंततः	-10.6297
▁तरीकों	-10.6298
▁लौटा	-10.6299
▁सिरे	-10.631
▁पौधे	-10.6312
बद्ध	-10.6319
मर	-10.6321
▁वाद	-10.6322
▁चांदी	-10.6322
ल्स	-10.6325
▁काबू	-10.6327
▁रेत	-10.6329
▁हिस्सों	-10.6346
▁जानवर	-10.6348
▁हंसी	-10.6352
▁अवधारणा	-10.636
▁रंगों	-10.636
▁लाना	-10.6361
▁चौथे	-10.6364
चि	-10.6367
▁ग़लत	-10.637
▁बडा	-10.6374
▁गुणों	-10.6385
▁साधु	-10.6387
▁गुर	-10.639
▁रोम	-10.6392
▁जातियों	-10.6393
▁बैंड	-10.6396
▁मेट्रो	-10.6397
ंडा	-10.6398
▁पीछा	-10.6399
▁मराठी	-10.6401
▁काश	-10.6407
▁अखिल	-10.6414
▁रिजर्व	-10.642
▁मरीजों	-10.6422
▁शोक	-10.6424
▁दरबार	-10.6426
▁सबक	-10.6431
िड	-10.6431
▁पुन	-10.6434
▁पाकर	-10.6438
▁IST	-10.645
▁गुस्से	-10.645
▁राजेन्द्र	-10.6452
▁वस्त्र	-10.6457
▁आलू	-10.6462
▁नाथ	-10.6463
▁शपथ	-10.6467
▁लौटने	-10.6467
ेंद्र	-10.6469
▁जूझ	-10.6472
▁तोड़ने	-10.6476
▁यूनिट	-10.6476
▁हिरासत	-10.6483
▁चैन	-10.6484
▁पट्टी	-10.649
▁तकलीफ	-10.6493
▁कामकाज	-10.6495
▁मामूली	-10.6496
▁ओलंपिक	-10.6505
▁परिवेश	-10.6507
▁उमर	-10.6508
▁नशे	-10.6511
▁सीडी	-10.6512
▁पुकार	-10.6513
▁अत्याचार	-10.6518
▁आलम	-10.6518
▁समानता	-10.6525
्ज	-10.6532
▁फ़रवरी	-10.6532
▁डो	-10.6535
▁उपेक्षा	-10.6543
एस	-10.6546
▁नाव	-10.6546
▁विदेशों	-10.6547
▁M	-10.6548
▁लोकतांत्रिक	-10.655
▁अवगत	-10.656
▁गणना	-10.6561
▁वाजपेयी	-10.6569
▁इसने	-10.6569
▁प्राणी	-10.6571
▁संतुष्ट	-10.6573
▁मंदी	-10.6578
▁दिव्य	-10.6578
ॉ	-10.6579
▁अन्याय	-10.6581
▁कण	-10.6583
▁अनुराग	-10.6584
▁कं	-10.6585
10	-10.6588
▁लता	-10.6591
पो	-10.6594
▁उत्कृष्ट	-10.6596
न्त	-10.6602
तु	-10.6602
▁मसीह	-10.6603
ून	-10.6604
▁लिखकर	-10.6605
▁सुविधाएं	-10.6606
वाया	-10.6609
▁हमलों	-10.6619
▁रेड	-10.662
▁सीटें	-10.6627
▁समर्थकों	-10.6634
▁घंटों	-10.6636
▁N	-10.6638
र्ड	-10.6638
भा	-10.6642
▁गठित	-10.6642
▁वैसी	-10.665
▁किस्मत	-10.6657
▁दीक्षित	-10.6659
▁परे	-10.6661
▁कैमरे	-10.6664
▁बादशाह	-10.6666
शि	-10.6669
▁अनुभूति	-10.6673
▁ढाई	-10.6675
▁मद	-10.6683
घर	-10.6686
▁ट्रैक	-10.6689
▁दीजिये	-10.6695
▁बाजारों	-10.6699
रस	-10.6702
▁बटन	-10.6711
▁हॉल	-10.6715
▁चि	-10.6717
▁मतदाताओं	-10.6717
l	-10.6718
▁भव्य	-10.6718
▁पशुओं	-10.6724
▁बरकरार	-10.6724
▁पूर्ति	-10.6727
▁एकल	-10.6731
▁लण्ड	-10.6731
▁58	-10.6733
▁कृति	-10.6737
▁व्यास	-10.6739
▁सम्मिलित	-10.674
▁54	-10.674
▁ग्रीन	-10.6741
ष्ट	-10.6744
▁व्यय	-10.6744
▁अधीक्षक	-10.6753
▁पट	-10.6758
▁छात्राओं	-10.6759
▁लगाये	-10.6759
हरा	-10.677
निक	-10.6774
▁खेलते	-10.6775
▁दिखती	-10.6777
फी	-10.6779
कुल	-10.6785
▁उठाना	-10.6788
▁विभागों	-10.679
▁चंडीगढ़	-10.6799
वासियों	-10.6805
▁झेल	-10.681
▁संयंत्र	-10.681
▁मिश्रण	-10.6812
▁इंटर	-10.6813
▁रुपया	-10.6814
ोस	-10.6816
▁ढूंढ	-10.6816
▁फंस	-10.6817
▁सोनी	-10.6817
▁समीप	-10.6823
्न	-10.6824
▁पसंदीदा	-10.6828
▁कमाने	-10.6829
वीर	-10.683
▁बहुमत	-10.683
▁भट्ट	-10.6832
गन	-10.6833
ाब	-10.6834
▁पुस्तकों	-10.6835
▁स्टोर	-10.6836
▁संतुलन	-10.6838
▁मानवता	-10.6839
▁प्रगतिशील	-10.6842
▁विनय	-10.6847
▁पहुँचने	-10.6849
▁अटल	-10.6853
▁क़	-10.6854
▁हैरान	-10.6857
▁दाग	-10.6862
▁किसे	-10.6863
सो	-10.6866
▁निंदा	-10.6867
▁सदस्यता	-10.6868
▁चांद	-10.6869
▁गे	-10.6872
▁मंदिरों	-10.6873
▁बौद्धिक	-10.6876
▁सेवाएं	-10.6877
डिया	-10.6878
▁श्रीकृष्ण	-10.6879
▁सहन	-10.6879
▁अनुपात	-10.6883
▁भंडार	-10.6889
▁बनाती	-10.6896
▁ऑ	-10.6901
▁कराना	-10.6902
▁आस्ट्रेलिया	-10.6903
▁बदन	-10.6903
m	-10.6904
▁प्रसारित	-10.6905
▁युवकों	-10.6908
▁सुशील	-10.6911
▁प्याज	-10.6912
▁कपिल	-10.6914
▁तले	-10.6914
▁दक्षिणी	-10.6919
▁शत्रु	-10.692
▁विष	-10.6922
T	-10.6922
▁गोवा	-10.6931
▁वैदिक	-10.6931
▁हल्का	-10.6933
▁उठाते	-10.6936
▁पू	-10.6939
▁ग्लोबल	-10.694
▁अपहरण	-10.6941
हट	-10.6942
▁समकालीन	-10.6942
▁यश	-10.6944
▁खनन	-10.6944
▁कैमरा	-10.6947
्रा	-10.6947
▁उपलब्धि	-10.6951
▁ऊंचाई	-10.6951
▁ट्रस्ट	-10.6953
▁आंध्र	-10.6955
ri	-10.6956
धर	-10.6958
▁लापरवाही	-10.6961
▁आईएएनएस	-10.6962
▁दुकानों	-10.6968
▁नक्सलियों	-10.6971
▁मसले	-10.6972
▁फीस	-10.6974
त्मक	-10.6977
▁समूहों	-10.6981
▁भुला	-10.6985
गल	-10.6986
▁G	-10.6988
▁ख़ुशी	-10.699
▁लेगा	-10.6991
▁मौलिक	-10.6993
▁शतक	-10.6993
ौर	-10.6993
▁किसने	-10.6997
▁लड़कियां	-10.6998
▁घंटा	-10.7002
ad	-10.7004
ta	-10.7005
▁अक्षय	-10.7009
▁समृद्ध	-10.7012
▁दिनेश	-10.7014
▁ड्राइवर	-10.702
▁आसाराम	-10.7021
न्ड	-10.7022
्द	-10.7028
ार्थ	-10.7031
▁गिरने	-10.7033
▁सफ़र	-10.7039
▁मारपीट	-10.7047
▁घूमने	-10.7051
▁पौधों	-10.7051
▁तूफान	-10.7054
▁57	-10.7059
बार	-10.706
▁बोर	-10.7062
▁प्राइवेट	-10.7065
▁पकड़े	-10.7066
▁बोतल	-10.7067
▁भेजी	-10.7069
▁व्यर्थ	-10.707
▁विपक्षी	-10.7071
▁सशक्त	-10.7071
▁कच्चे	-10.7072
▁गाइड	-10.7073
▁रामायण	-10.7075
▁ओह	-10.7076
॰	-10.708
▁59	-10.7083
▁रोशन	-10.7085
▁पत्रिकाओं	-10.7085
▁डालर	-10.7086
▁इन्द्र	-10.709
▁श्रेय	-10.7098
▁यथा	-10.7099
▁परिवर्तित	-10.7111
▁ki	-10.7112
▁पांव	-10.7117
ीं	-10.7117
▁सदियों	-10.7124
ॉन	-10.7129
ुर	-10.7131
▁बीमारियों	-10.7135
▁दुसरे	-10.7135
▁लड़कों	-10.7141
▁सौदा	-10.7145
▁लीला	-10.7145
▁जाग	-10.7147
▁अहमदाबाद	-10.715
फल	-10.715
▁तीव्र	-10.7151
▁फॉर	-10.7152
▁पुर	-10.7152
▁वास्तविकता	-10.7156
▁पंजाबी	-10.7158
▁खण्ड	-10.7159
▁कोशिकाओं	-10.7159
▁जागरूकता	-10.7162
▁बुजुर्ग	-10.7165
▁जवानों	-10.7167
▁बताती	-10.718
यह	-10.7184
▁चिन्ता	-10.7189
▁चलकर	-10.7192
▁फि	-10.7201
▁सीखा	-10.7216
▁अध्यापक	-10.7217
निया	-10.7222
▁स्मरण	-10.7223
▁53	-10.7229
वो	-10.7233
▁लगीं	-10.7236
▁रोगियों	-10.7237
▁चा	-10.724
▁लिस्ट	-10.7242
▁सच्चा	-10.7245
▁गढ़	-10.7246
▁अख़बार	-10.7252
▁150	-10.7254
▁निर्देशन	-10.7259
▁इंडस्ट्री	-10.726
्ज़	-10.7261
▁जुटा	-10.7264
▁कन	-10.7266
ोन	-10.7271
▁मर्द	-10.7273
▁राजेंद्र	-10.7274
▁माननीय	-10.7278
▁सलाम	-10.7295
▁पंजीकरण	-10.7296
धन	-10.7298
▁इंतजाम	-10.73
▁डीजल	-10.7301
▁अल्पसंख्यक	-10.7302
▁प्रणाम	-10.7307
▁देन	-10.7308
▁www	-10.7309
▁ब्लैक	-10.7309
▁गोल्ड	-10.7309
▁देरी	-10.7311
▁सज्जन	-10.7314
▁प्रोत्साहित	-10.7316
▁चर्चित	-10.7317
सि	-10.7318
▁चम्मच	-10.7321
▁ताज	-10.7322
▁क्योकि	-10.7323
▁दुर्भाग्य	-10.7327
▁नैतिकता	-10.7328
▁रसायन	-10.733
▁बुध	-10.7333
▁देहरादून	-10.7337
▁हिला	-10.7337
▁दशकों	-10.7341
▁तमिल	-10.7341
▁गुज़र	-10.7342
▁सिपाही	-10.7348
ृ	-10.735
▁स्टाफ	-10.7357
▁उसमे	-10.7358
▁शुभकामनाएं	-10.7363
इए	-10.7365
▁अंकित	-10.7365
▁प्रोत्साहन	-10.7369
▁खिल	-10.737
▁परवाह	-10.737
▁अहंकार	-10.7371
▁बाई	-10.7375
िटी	-10.7376
्ल	-10.7385
▁उच्चतम	-10.7386
▁पक्षों	-10.7388
▁फरार	-10.7392
▁आखिरकार	-10.7399
▁राजकीय	-10.7405
७	-10.741
▁पहेली	-10.741
▁महाविद्यालय	-10.7411
▁चरणों	-10.7412
▁तंग	-10.7412
▁मार्क	-10.7416
▁लाइट	-10.7418
▁करेंगी	-10.7419
▁99	-10.7422
▁पड़ेगी	-10.7426
▁औरतों	-10.7426
ष्	-10.7428
▁बसे	-10.743
▁कीजिये	-10.7434
▁PM	-10.7434
▁करूंगा	-10.7435
▁विधा	-10.7435
▁पाण्डेय	-10.7438
▁लिहाज	-10.7443
▁सिल	-10.7445
▁गुट	-10.7449
▁जबरदस्त	-10.745
▁तिल	-10.745
▁जानवरों	-10.7452
▁स्थितियों	-10.7454
▁अगला	-10.7454
en	-10.7456
▁क़ानून	-10.7458
▁प्राधिकरण	-10.7465
▁मुस्कुरा	-10.7468
जि	-10.7471
▁लेखा	-10.7473
▁बताए	-10.7476
ti	-10.7478
▁बजाए	-10.7479
▁ठंड	-10.7481
दीप	-10.7489
क्र	-10.7491
▁आकलन	-10.7493
अर	-10.7493
re	-10.7494
▁पैकेज	-10.7496
▁नकली	-10.75
▁लाई	-10.7501
▁नक्सली	-10.7504
▁तिब्बत	-10.7506
▁होश	-10.7506
ेंस	-10.7509
▁खिताब	-10.751
▁ka	-10.7513
▁मतभेद	-10.7515
▁डायरी	-10.7523
le	-10.753
▁इन्सान	-10.7531
▁जोड़े	-10.7531
▁डायरेक्टर	-10.7535
▁उर्फ	-10.7538
▁प्रभावशाली	-10.7538
यु	-10.754
▁प्रेमचंद	-10.7546
ानंद	-10.7547
वाने	-10.7548
▁चिट्ठी	-10.7553
▁स्पेशल	-10.7554
▁बीवी	-10.7557
सार	-10.7561
▁ताप	-10.7562
▁विविधता	-10.7563
▁प्रियंका	-10.7566
▁ऊंची	-10.7567
▁मिर्च	-10.7574
▁उम्मीदवारों	-10.758
▁महोत्सव	-10.7581
पल	-10.7582
वै	-10.7585
▁तान	-10.7585
▁शायर	-10.7586
▁खाद	-10.7589
▁नाना	-10.759
▁१८	-10.7592
12	-10.7594
▁95	-10.7596
▁सम्भव	-10.7597
▁टिक	-10.7602
▁जिया	-10.7604
▁पन्ने	-10.7606
▁अनुदान	-10.7608
ियर	-10.7608
▁बनेगा	-10.761
▁तलाक	-10.7612
▁चिदंबरम	-10.7616
▁बचत	-10.7617
ऐ	-10.7625
▁निर्धारण	-10.7628
▁हस्त	-10.7628
▁मजदूरी	-10.763
▁शत	-10.763
▁अंधेरे	-10.7631
▁गला	-10.7637
▁विद्रोह	-10.7639
▁सीरिया	-10.764
व्य	-10.764
▁आईटी	-10.7646
▁ब्	-10.7647
ुक	-10.765
▁चूक	-10.7651
▁अवार्ड	-10.7652
दि	-10.7653
वाई	-10.7656
▁प्रदीप	-10.7656
▁राज्यसभा	-10.7656
▁नोएडा	-10.7657
▁गुड	-10.7657
▁प्रयुक्त	-10.7658
▁चित्रों	-10.7665
▁वैकल्पिक	-10.7666
▁कहानियां	-10.7668
▁बर्बाद	-10.767
▁शिवराज	-10.7674
तन	-10.7675
िव	-10.7675
▁कस्बे	-10.7676
▁फौज	-10.7679
▁स्टॉक	-10.7681
▁नवीनतम	-10.7681
▁संजीव	-10.7687
▁आएंगे	-10.7689
▁पहुँचे	-10.7691
▁बहा	-10.7694
▁कांड	-10.7709
▁सन्दर्भ	-10.7712
▁घोर	-10.7715
ग्रस्त	-10.7717
▁शाही	-10.7719
▁नक्षत्र	-10.7723
▁पुस्तकें	-10.7723
▁नामांकन	-10.7723
▁हेड	-10.7724
▁हंगामा	-10.7729
▁सांप्रदायिक	-10.7729
लों	-10.773
▁दिग्विजय	-10.7731
▁मुस्कान	-10.7732
▁मैनेजर	-10.7734
▁जागरूक	-10.7736
▁साँस	-10.7739
▁समापन	-10.774
11	-10.7742
▁ऑन	-10.7747
म्ब	-10.7748
▁गौ	-10.7749
▁समझाने	-10.7751
▁बची	-10.7752
हु	-10.7758
▁चिंतित	-10.776
▁संभवतः	-10.7766
▁बढ़ाया	-10.7766
▁ज्ञापन	-10.7767
जीत	-10.7771
▁सेंट	-10.7771
▁बीकानेर	-10.7772
am	-10.7775
▁एकड़	-10.7775
ज्ञ	-10.7776
th	-10.7776
▁इंटरनेशनल	-10.7777
▁तारा	-10.7781
▁सच्ची	-10.7782
▁निकलते	-10.7782
▁भेदभाव	-10.7782
▁रचनात्मक	-10.7783
▁न्यायिक	-10.7784
ठा	-10.7792
▁H	-10.7793
▁इंटरव्यू	-10.7794
▁झटका	-10.7794
▁लॉ	-10.7795
▁जगा	-10.7796
ाक	-10.7796
▁रेस	-10.7798
▁आसन	-10.78
▁पतन	-10.7801
▁बजा	-10.7802
▁पुणे	-10.7804
▁लाकर	-10.7807
▁प्रिंट	-10.7812
▁बिक	-10.7813
▁ब्रेक	-10.7814
▁प्लांट	-10.7816
▁एजेंसियों	-10.7818
▁तेंदुलकर	-10.782
▁विधायकों	-10.7821
▁स्थलों	-10.7825
▁आगमन	-10.7826
on	-10.7826
▁यादों	-10.7827
▁मूड	-10.783
▁डॉक्टरों	-10.7831
▁दर्शाता	-10.7834
▁सावधान	-10.7835
▁ज़ोर	-10.7838
्क	-10.7842
▁प्यास	-10.7843
▁g	-10.7847
▁रच	-10.7847
▁दिखाते	-10.7854
▁मरे	-10.7855
▁दुर्लभ	-10.7859
▁जोरदार	-10.7861
▁लू	-10.7862
▁उपदेश	-10.7866
िर	-10.7867
▁अब्दुल	-10.7869
▁कहानियाँ	-10.7872
▁चेयरमैन	-10.7874
ाए	-10.7883
▁मिटा	-10.7884
▁सिवा	-10.7894
▁हल्के	-10.7898
▁on	-10.7899
▁लिखता	-10.7906
▁जस	-10.7908
▁Read	-10.7908
▁तमिलनाडु	-10.7911
▁काशी	-10.7913
▁प्रबल	-10.7918
▁अड्डे	-10.7918
▁मोती	-10.792
▁कम्युनिस्ट	-10.792
▁आत्मविश्वास	-10.7923
▁रोहित	-10.7925
▁कतई	-10.7929
ूंगा	-10.7931
▁तेज़	-10.7932
▁तुमको	-10.7933
▁निहित	-10.7936
▁अनजान	-10.7936
P	-10.7945
▁मांगने	-10.7947
▁मसलन	-10.7949
▁प्लास्टिक	-10.795
▁ठंडा	-10.7955
▁निगाह	-10.7956
▁व्याप्त	-10.7961
▁महेंद्र	-10.7965
▁पायी	-10.7966
▁मीटिंग	-10.7973
▁नौकर	-10.7974
▁टैग	-10.7976
▁कमा	-10.7976
it	-10.7977
▁मानवाधिकार	-10.7981
▁रफ्तार	-10.7985
▁ललित	-10.7986
▁गेम	-10.7986
▁डिजिटल	-10.7988
▁दिलचस्पी	-10.7988
▁सतीश	-10.799
धा	-10.7993
▁चिन्ह	-10.7993
▁वर्गों	-10.8
▁ऋतु	-10.8001
▁रूक	-10.8004
▁मीरा	-10.8005
▁डांस	-10.8006
▁सम्राट	-10.8009
▁भक्तों	-10.801
▁पुराण	-10.8012
I	-10.8016
▁लालच	-10.8017
▁उतने	-10.8018
▁आइए	-10.8021
▁मुसीबत	-10.8023
▁घटनाएं	-10.8024
▁भयानक	-10.8027
▁टेबल	-10.803
▁ठहरा	-10.803
▁महक	-10.803
▁समग्र	-10.8035
▁पुत्री	-10.8038
▁खेले	-10.8043
D	-10.8045
v	-10.805
▁चमत्कार	-10.8051
▁कैबिनेट	-10.8051
▁लु	-10.8052
ंगे	-10.8057
es	-10.8058
▁हथियारों	-10.806
▁ख़	-10.8064
▁कारक	-10.8066
▁हॉट	-10.8067
▁तालिबान	-10.8068
▁तीर	-10.8068
st	-10.8072
३	-10.8073
▁re	-10.8077
कू	-10.8082
▁हिन्दुओं	-10.8082
▁प्रवीण	-10.8084
▁सोसायटी	-10.8086
▁तथ्यों	-10.809
▁ची	-10.8095
▁खाई	-10.8096
▁वैचारिक	-10.8096
वती	-10.8097
19	-10.8097
योग	-10.8098
▁राजनेता	-10.8098
▁बोलना	-10.81
▁गर्दन	-10.8114
▁सौर	-10.8117
्री	-10.8118
▁स्पेन	-10.8119
▁चरम	-10.8121
▁व्यायाम	-10.8124
▁समुद्री	-10.8128
▁उपज	-10.8129
▁बढ़े	-10.8137
▁ओपन	-10.8137
▁अपन	-10.8138
टो	-10.8141
▁दावे	-10.8143
▁कोमल	-10.8146
▁माध्यमिक	-10.815
वेल	-10.8153
▁बैल	-10.8154
▁be	-10.8156
▁करूँ	-10.8156
दारी	-10.8157
▁खुफिया	-10.8161
▁इमाम	-10.8164
▁नाकाम	-10.8165
▁आह	-10.8165
▁प्रथा	-10.8165
षा	-10.8167
कोट	-10.8168
▁इजाजत	-10.8171
▁अनुबंध	-10.8172
▁संदिग्ध	-10.8174
▁परामर्श	-10.8175
▁ठहर	-10.8175
▁बेस	-10.8175
▁रिश्वत	-10.8179
▁कराए	-10.8183
▁फ्लैट	-10.8184
▁समझाया	-10.8189
▁जोधपुर	-10.8192
▁बदनाम	-10.8192
▁माओवादी	-10.8194
▁१२	-10.8197
▁चर	-10.8198
ांग	-10.8199
▁उद्योगों	-10.8204
day	-10.8211
डर	-10.8211
▁पर्दे	-10.8217
▁कार्टून	-10.8219
▁शैक्षिक	-10.8222
▁श्रीराम	-10.8226
▁सर्दी	-10.8226
▁अंकों	-10.8228
▁कॉफी	-10.8228
▁दंगों	-10.8228
▁माई	-10.8233
द्द	-10.8234
▁डालते	-10.8237
▁जहर	-10.8244
▁धाम	-10.8246
▁दूँ	-10.8246
▁फिल्मी	-10.8248
▁बरसों	-10.8252
▁कंट्रोल	-10.8252
▁लाइव	-10.8255
▁रोजाना	-10.8263
▁सूचित	-10.8266
▁आज्ञा	-10.8267
▁घटा	-10.8267
▁निकाली	-10.8272
▁धरना	-10.8277
▁अत्यन्त	-10.828
▁शोभा	-10.8283
▁रोने	-10.8285
▁कौर	-10.8286
▁जरुरी	-10.8289
▁ऐलान	-10.8291
▁संग्रहालय	-10.8294
c	-10.8295
▁मामा	-10.8297
एफ	-10.8308
▁प्यारी	-10.8311
▁रथ	-10.8312
▁खाया	-10.8313
▁चादर	-10.8319
▁अन्न	-10.8325
▁गवाह	-10.8327
▁आवंटन	-10.8331
▁शे	-10.8339
▁सूखे	-10.834
▁भूकंप	-10.8341
▁अपराह्न	-10.8347
▁इज्जत	-10.8347
▁यो	-10.8347
▁अधि	-10.8347
▁दोहरा	-10.8349
▁विक्रम	-10.835
▁युवराज	-10.835
▁सहकारी	-10.8351
▁आशीष	-10.8352
ैया	-10.8354
▁जाएंगी	-10.8358
▁परस्पर	-10.8359
ra	-10.8361
▁ग्यारह	-10.8361
▁निधि	-10.8363
▁भाइयों	-10.8366
▁नतीजे	-10.8367
▁औषधि	-10.8369
▁द्विवेदी	-10.837
मिल	-10.8371
▁पड़ोस	-10.8371
▁कनेक्शन	-10.8372
▁कू	-10.8373
रिक	-10.8376
▁क्रमशः	-10.8377
▁मिस्र	-10.8377
▁कहावत	-10.8379
▁जप	-10.8384
▁लिहाजा	-10.8388
▁बढा	-10.8389
▁एशियाई	-10.8391
▁साठ	-10.8392
▁रीति	-10.8398
▁घोड़े	-10.8401
▁साइंस	-10.8402
▁संक्षिप्त	-10.8403
E	-10.8403
▁c	-10.8404
▁बर्तन	-10.8409
▁ब्लॉगिंग	-10.8411
▁इकट्ठा	-10.8416
▁मजबूती	-10.8417
ज्ज	-10.8421
ण्	-10.8423
▁समर्पण	-10.8424
▁प्रश्नों	-10.8425
▁विनाश	-10.8428
▁आह्वान	-10.8431
▁सेहत	-10.8433
▁सस्ते	-10.8433
बो	-10.8438
▁नै	-10.8445
▁मानती	-10.8445
▁मिसाल	-10.8448
▁उपभोक्ताओं	-10.8449
▁{	-10.8449
▁कर्मियों	-10.8454
▁दुबारा	-10.8455
▁पोस्टर	-10.8459
▁अपितु	-10.8462
▁e	-10.8463
▁अनुशासन	-10.8463
▁सवा	-10.8463
▁ग्वालियर	-10.8468
▁कहो	-10.8468
▁नी	-10.8476
▁रमन	-10.8477
▁वर्षो	-10.8479
▁२०	-10.848
▁न्यूयॉर्क	-10.8483
▁85	-10.8483
▁रतन	-10.8486
▁कोरिया	-10.8486
▁कब्जे	-10.8491
▁जलवायु	-10.8496
▁गिनती	-10.8499
▁असंभव	-10.8499
▁धर	-10.8499
▁कोष	-10.8501
▁सबकुछ	-10.8505
▁महावीर	-10.8505
▁मर्यादा	-10.8508
▁अम्मा	-10.8511
नर	-10.8512
▁उद्यान	-10.8514
▁वसूली	-10.8516
▁मौज	-10.8516
▁विराट	-10.8522
▁यादें	-10.8524
ांक	-10.8527
▁छाती	-10.8527
▁खां	-10.8531
▁उठकर	-10.8534
च्छ	-10.8539
▁१५	-10.854
▁ड्यूटी	-10.8543
▁for	-10.8544
▁अर्थशास्त्र	-10.8547
▁पिछड़े	-10.8548
▁पकड़ने	-10.8551
▁पांडे	-10.8555
▁छः	-10.8558
▁हॉकी	-10.856
▁लेन	-10.8565
▁जापानी	-10.8567
लेट	-10.857
▁सावधानी	-10.857
▁जयंती	-10.8572
▁चाहत	-10.8575
▁आचार	-10.8575
▁कोटा	-10.8575
▁अग्रणी	-10.8577
▁लीटर	-10.8577
▁ख़िलाफ़	-10.8577
▁निकलता	-10.8581
▁तिमाही	-10.8585
▁विश्	-10.8585
▁धीमी	-10.8593
शक्ति	-10.8593
O	-10.861
▁मद्देनज	-10.8613
▁मार्गदर्शन	-10.8614
वालों	-10.862
▁रहित	-10.8621
▁राखी	-10.8622
▁दिखे	-10.8625
▁नरेश	-10.8626
▁मनु	-10.8628
▁बढ़त	-10.8632
▁l	-10.8632
▁मुल्क	-10.8634
▁कंधे	-10.8635
▁मूर्ख	-10.8635
▁दूंगा	-10.8636
▁बुखार	-10.8636
▁रासायनिक	-10.8637
▁कदर	-10.8638
▁घेर	-10.8643
▁se	-10.8646
▁किन	-10.8648
▁मलिक	-10.8649
ch	-10.865
▁मिलन	-10.8651
▁तरक्की	-10.8656
▁ससुराल	-10.8657
▁सज़ा	-10.8659
▁कविताएं	-10.8661
▁इश्क	-10.8663
▁me	-10.8665
▁सर्च	-10.8668
▁ज़माने	-10.8669
▁वाई	-10.867
▁अंदाजा	-10.8672
छा	-10.8675
तः	-10.8679
▁छोर	-10.8682
▁शक्तियों	-10.8682
▁यान	-10.8684
▁400	-10.8686
▁फीट	-10.8686
▁लाश	-10.869
▁नारे	-10.8691
▁राणा	-10.8692
▁हरकत	-10.8693
▁अपराधियों	-10.8694
▁सीएम	-10.8702
▁मरम्मत	-10.8704
▁मैनेजमेंट	-10.8704
▁मक	-10.8705
▁पत्ते	-10.8707
▁मुनि	-10.8708
▁सीन	-10.8709
▁डॉट	-10.8712
▁उभर	-10.8712
▁शिक्षित	-10.8714
▁भ्रमण	-10.8715
▁भई	-10.8717
▁मदन	-10.8718
▁बनवा	-10.8725
▁शेयरों	-10.8726
▁लोन	-10.8726
▁निवेदन	-10.8728
▁किराया	-10.8728
▁फेल	-10.873
▁उठने	-10.8737
▁शुक्ला	-10.8738
▁लेनी	-10.8741
▁वनडे	-10.8741
धारी	-10.8744
▁डबल	-10.8747
▁रचनाकार	-10.8748
▁64	-10.8749
▁शायरी	-10.875
ंब	-10.8751
▁पहनने	-10.8753
▁ke	-10.8753
राय	-10.8756
▁स्तन	-10.8761
▁जुटे	-10.8764
▁हलचल	-10.8765
▁पसन्द	-10.8766
▁अल्प	-10.8766
▁Wed	-10.8771
▁लिपि	-10.8773
▁जानें	-10.8775
▁}	-10.8778
▁वायरस	-10.8779
▁नील	-10.8788
यान	-10.8793
▁सत	-10.8794
▁संगठित	-10.8794
पि	-10.8798
▁सांप	-10.8799
▁टेनिस	-10.88
▁प्रतिरोध	-10.8801
▁वारदात	-10.8801
▁क्रांतिकारी	-10.8806
▁कपड़ों	-10.8806
स्य	-10.8808
▁कृष्णा	-10.881
▁मुह	-10.8819
▁शरीफ	-10.8822
▁बिल्ली	-10.8833
▁अजमेर	-10.8835
ाऊ	-10.8836
▁डेविड	-10.8837
▁गंध	-10.8838
▁अवकाश	-10.884
▁सुनना	-10.8844
▁रूसी	-10.8847
▁हल्की	-10.8848
▁सुमन	-10.8851
▁क्यू	-10.8855
▁एक्ट	-10.886
▁उमा	-10.8863
▁मनीष	-10.8864
▁तब्दील	-10.8869
ंगा	-10.8872
▁कैलाश	-10.8872
▁जानकर	-10.8878
▁दिलीप	-10.8881
▁अर्जित	-10.8884
पू	-10.8884
▁कामों	-10.8888
▁भैंस	-10.8889
▁विशेषकर	-10.8892
▁नहर	-10.8894
▁धूम	-10.8894
ज़ी	-10.8896
▁बनारस	-10.8899
▁लाए	-10.8902
ाम	-10.8903
▁पडा	-10.891
▁गण	-10.8915
▁धमाल	-10.8917
▁इं	-10.8922
नीय	-10.8923
▁दूं	-10.8924
▁फट	-10.8924
▁अपर	-10.8924
▁सम्बन्धित	-10.8925
▁दमन	-10.8925
▁जू	-10.8932
▁सां	-10.8946
▁ग्रस्त	-10.8949
▁सै	-10.8949
▁उछाल	-10.8954
▁ब्रा	-10.8956
▁साहिब	-10.8962
▁पवार	-10.8969
▁समस्याएं	-10.8971
▁बैक	-10.8977
क्टर	-10.898
▁भावों	-10.8982
▁प्यारे	-10.8983
सम	-10.8985
▁घबरा	-10.8985
▁बैंकिंग	-10.8986
▁जंगलों	-10.8988
▁मारी	-10.8989
▁होंने	-10.8994
▁प्रभात	-10.8995
र्ग	-10.9
▁मजेदार	-10.9001
▁सिम	-10.9001
▁अंग्रेज	-10.9004
▁व्यापारियों	-10.9005
▁चिर	-10.9009
▁दहेज	-10.9011
▁गाल	-10.9014
मार	-10.9016
▁मौजूदगी	-10.9018
▁०००	-10.9019
▁चलन	-10.9019
▁माथे	-10.902
ङ	-10.9023
▁प्रोटीन	-10.9024
▁अद्यतन	-10.9027
▁नींव	-10.9027
▁उधार	-10.9029
▁पुस्तिका	-10.903
▁अश्लील	-10.9034
ly	-10.9036
▁वाम	-10.9042
▁पर्यटकों	-10.9044
▁सराहना	-10.9045
▁संचालक	-10.9047
▁चीफ	-10.9048
▁विद्वानों	-10.905
▁अहिंसा	-10.9057
▁जानकार	-10.9058
न्ट	-10.9059
▁ट्रेनिंग	-10.9059
▁इरादा	-10.906
▁अनुभवों	-10.9068
▁बद	-10.9069
▁चित्त	-10.907
▁ठेकेदार	-10.9072
▁उन्नति	-10.9072
ाइड	-10.9074
▁एकत्र	-10.9074
▁कमरा	-10.9077
▁कामयाबी	-10.9083
स्टर	-10.9086
▁जैव	-10.9089
▁कद	-10.9095
▁भटक	-10.9098
▁सेवक	-10.9098
▁घोटाला	-10.9098
▁कविताएँ	-10.91
▁कुत्ता	-10.9103
▁महिमा	-10.9106
▁बाय	-10.911
▁स्वीकृत	-10.9111
▁किले	-10.9112
ूल	-10.9112
▁निर्दोष	-10.9112
▁त्योहार	-10.9113
▁सीने	-10.9114
▁जस्टिस	-10.9121
▁चित्रण	-10.9122
▁नफरत	-10.9123
▁पहलुओं	-10.9124
▁प्लेट	-10.9134
ुद्दीन	-10.9137
▁संस्थापक	-10.9138
▁बहाना	-10.914
▁पंद्रह	-10.9143
▁साड़ी	-10.9144
▁हसन	-10.9147
▁पाँव	-10.9152
▁आरती	-10.9153
▁सुविधाएँ	-10.9155
▁शीला	-10.916
▁झांक	-10.9164
▁क्यूंकि	-10.9165
▁बनाम	-10.9165
▁आइटम	-10.9171
▁पड	-10.9177
▁स्तंभ	-10.9177
▁Monday	-10.9182
▁रेट	-10.9183
▁नारा	-10.9184
▁क्रिकेटर	-10.9186
▁Friday	-10.9187
▁मुड़	-10.9192
▁धैर्य	-10.9193
र्व	-10.9203
▁ज्यों	-10.9203
▁नैनीताल	-10.9212
▁प्रोफाइल	-10.9212
▁जिनको	-10.9213
▁संयम	-10.9213
▁चिल्ला	-10.9218
▁फायदे	-10.9219
▁महत्त्वपूर्ण	-10.9221
▁नशा	-10.9223
हन	-10.9225
▁निष्पक्ष	-10.9226
▁पहना	-10.9229
▁दार्शनिक	-10.9229
▁सरकारें	-10.9229
ोल	-10.923
ालय	-10.923
▁सैर	-10.9232
ic	-10.9233
▁किराए	-10.9235
▁सस्ता	-10.924
▁अल्	-10.9244
▁खरीदी	-10.9245
▁हिंसक	-10.9246
▁सादर	-10.9248
▁गज	-10.9249
ाइ	-10.9249
▁दरों	-10.9254
▁पीट	-10.9262
▁बैनर	-10.9265
▁सवारी	-10.9266
▁रामलीला	-10.9269
फ़ा	-10.9273
▁दांत	-10.9273
▁W	-10.9274
▁शिल्प	-10.9275
▁ब्लागर	-10.928
▁कारगर	-10.9285
▁स्टाइल	-10.9286
▁रिलायंस	-10.9288
▁चालीस	-10.9292
▁सेठ	-10.9293
▁थम	-10.9294
▁संगम	-10.9297
▁राख	-10.9298
▁निभाने	-10.9298
▁ब्लोग	-10.9298
▁तकरीबन	-10.9305
▁हर्ष	-10.9305
▁विटामिन	-10.9313
▁सप्तर्षि	-10.9316
▁संध्या	-10.9319
▁सौंपा	-10.932
▁विदा	-10.932
ग्	-10.932
▁ईंधन	-10.9325
▁कपड़ा	-10.9325
▁विगत	-10.9328
▁Tuesday	-10.933
▁रिश्तेदार	-10.9334
▁देखेंगे	-10.9337
▁w	-10.934
▁कार्बन	-10.934
▁माफ	-10.9341
▁सेंसेक्स	-10.9342
▁पदाधिकारी	-10.9342
▁घातक	-10.9347
▁मिठाई	-10.9347
▁करीना	-10.9348
▁लग्न	-10.9348
२	-10.9351
▁n	-10.9354
▁निभाई	-10.9358
▁आपराधिक	-10.9359
▁प्रजा	-10.936
▁ह्रदय	-10.9361
▁सौभाग्य	-10.9361
▁सरपंच	-10.9362
▁बुश	-10.9363
▁कमजोरी	-10.9364
▁बलि	-10.9365
▁लौटे	-10.9366
क्त	-10.9367
▁दुष्कर्म	-10.9369
▁घेरे	-10.9371
ैल	-10.9383
▁प्	-10.939
▁रूचि	-10.9391
▁शेखर	-10.9394
▁इंद्र	-10.9394
ुन	-10.9395
▁नित्य	-10.9395
▁मेहता	-10.9396
▁राजू	-10.9398
▁अकेली	-10.9398
▁झटके	-10.9413
▁वेस्ट	-10.9417
वश	-10.9417
ताओं	-10.942
ठी	-10.9423
▁वर्क	-10.9427
▁टाल	-10.9432
▁छेद	-10.9433
▁जिलाधिकारी	-10.9438
▁hindi	-10.9439
▁बलों	-10.9442
▁आवश्यकताओं	-10.9447
▁मैक	-10.945
ट्स	-10.9456
▁हँस	-10.9457
▁मेरठ	-10.9461
▁ब्लू	-10.9462
▁चुरा	-10.9464
x	-10.9475
▁खातिर	-10.9475
▁बनर्जी	-10.9477
▁लोहे	-10.9478
▁बू	-10.9484
▁तृतीय	-10.9484
▁एकजुट	-10.9485
▁बस्तर	-10.9486
30	-10.9488
▁हैसियत	-10.949
▁ऊपरी	-10.9491
M	-10.9502
▁बहनों	-10.9502
▁फुटबॉल	-10.9504
▁आयेगा	-10.9506
थी	-10.9509
▁सप्लाई	-10.951
▁जगदीश	-10.9514
▁खुलकर	-10.9516
▁मेँ	-10.9517
▁साइड	-10.9517
▁मेहमान	-10.9517
▁कमीशन	-10.9518
▁ब्रह्मा	-10.952
▁लोहा	-10.9523
▁ho	-10.9524
▁नामों	-10.9525
▁मोहब्बत	-10.9527
▁औपचारिक	-10.953
ारी	-10.953
▁प्रदर्शनी	-10.9535
▁गडकरी	-10.9536
त्त	-10.9537
▁2014	-10.9538
▁मोक्ष	-10.9541
▁तड़प	-10.9545
न्न	-10.9547
▁सिमट	-10.9551
विन	-10.9551
▁अपनाया	-10.9553
▁मुहिम	-10.9556
▁देशी	-10.9557
▁त्वरित	-10.9562
ाइन	-10.9567
▁स्वच्छ	-10.9571
▁सुधर	-10.9572
▁फ़ाइल	-10.9574
▁आयाम	-10.958
▁नें	-10.9581
▁Thu	-10.9586
नाम	-10.9587
▁बांट	-10.959
▁बाघ	-10.9592
▁खाकर	-10.9597
▁उलट	-10.9601
▁उपाधि	-10.9603
▁त्र	-10.9606
▁82	-10.9611
15	-10.9616
▁रंगीन	-10.962
▁मजे	-10.9621
▁विश्वविद्यालयों	-10.9624
▁सर्जरी	-10.9629
▁मोल	-10.9635
▁सिद्धांतों	-10.9637
▁धक्का	-10.9639
▁हरिद्वार	-10.964
▁कमान	-10.9642
▁जनजाति	-10.9642
▁Satur	-10.9643
ौली	-10.9644
▁इराक	-10.9646
at	-10.9646
▁सम्बंधित	-10.965
▁दीवारों	-10.9653
▁विवश	-10.9655
▁बोलता	-10.966
▁यीशु	-10.966
▁नौजवान	-10.9665
▁छल	-10.9667
▁फॉर्म	-10.967
▁चपेट	-10.9672
▁मारकर	-10.9674
▁उत्पत्ति	-10.9678
▁संयोजन	-10.9679
▁चौथी	-10.9679
स्प	-10.9694
▁अंदाज़	-10.9699
▁ठहराया	-10.9702
▁मुगल	-10.9709
▁विहार	-10.9709
▁बेचारे	-10.9711
▁क्षति	-10.9712
▁तारे	-10.9714
▁अच्	-10.9714
▁Sunday	-10.9719
सेन	-10.972
▁तस्वीरों	-10.9721
▁ट्र	-10.9727
▁प्रतिनिधियों	-10.9728
16	-10.9728
▁जोड़कर	-10.973
मेन	-10.9731
बि	-10.9733
कृत	-10.9733
▁समझदार	-10.974
▁सन्देश	-10.9741
▁by	-10.9741
ष्ठ	-10.9744
▁पेड़ों	-10.9744
वानी	-10.9747
▁साईं	-10.9748
▁चार्ज	-10.9749
▁सदर	-10.975
▁शेख	-10.9751
▁भरत	-10.9752
▁संदीप	-10.9756
▁गूंज	-10.9756
▁क्र	-10.9757
▁परिभाषित	-10.9758
▁निदान	-10.9759
शु	-10.976
हित	-10.9765
▁चलाते	-10.9766
▁ग्रन्थ	-10.9773
▁मंजूर	-10.9775
▁पार्टनर	-10.9775
दु	-10.9776
▁हावी	-10.9777
▁साधक	-10.9777
▁वापिस	-10.9778
▁फे	-10.9779
▁यादा	-10.9782
▁करण	-10.9782
▁एजेंट	-10.9783
▁उंगली	-10.9787
▁मंत्रिमंडल	-10.9787
▁उतरने	-10.9787
जू	-10.9787
पु	-10.9788
फर	-10.9793
ियम	-10.9794
▁गुम	-10.9795
▁खुशबू	-10.9798
६	-10.9798
▁धूम्रपान	-10.9799
▁उदयपुर	-10.9801
▁वाराणसी	-10.9802
▁पेन	-10.9802
▁फंसे	-10.9802
▁आर्ट	-10.9802
▁बदली	-10.9803
▁उठती	-10.9808
▁संस्मरण	-10.9811
▁उमड़	-10.9811
▁बाज	-10.9811
▁प्रशांत	-10.9814
▁छेड़	-10.9814
▁उठते	-10.9815
▁नकल	-10.9816
बाजी	-10.982
▁साकार	-10.982
▁कौ	-10.9821
▁अपनाने	-10.9822
▁बेस्ट	-10.9835
▁भयंकर	-10.9843
▁एमबीए	-10.9844
▁गुलाबी	-10.9845
▁प्रेमिका	-10.9849
▁आन	-10.9849
▁दीं	-10.985
▁शक्ल	-10.9863
▁बेटियों	-10.9871
सल	-10.9872
▁250	-10.9873
▁मानें	-10.9873
▁सीजन	-10.9874
▁उड़ीसा	-10.9876
खे	-10.9879
▁आयुर्वेद	-10.988
▁पाएगा	-10.9883
▁दंगे	-10.9884
▁लघुकथा	-10.9887
▁चतुर्वेदी	-10.9888
▁ड्राइव	-10.9889
▁O	-10.989
ेरी	-10.9892
▁सस्ती	-10.9895
▁अर्चना	-10.9899
▁बच्चो	-10.9899
▁कराते	-10.9899
▁आशय	-10.9901
▁चोपड़ा	-10.9903
▁बनायी	-10.9903
▁नीम	-10.9904
▁राशन	-10.9905
▁पुरी	-10.9907
▁AM	-10.9909
▁लय	-10.991
▁श्रद्धांजलि	-10.9912
▁कानों	-10.9913
१	-10.9918
▁फुल	-10.9919
धि	-10.9919
▁शशि	-10.9922
▁मोड	-10.9922
प्	-10.9923
▁72	-10.9924
▁भि	-10.9924
▁मनोहर	-10.9926
▁चलिए	-10.9928
ंध	-10.9928
▁तरस	-10.9928
घाट	-10.9929
▁बल्लेबाजी	-10.993
▁बुलंद	-10.9932
▁त्यौहार	-10.9936
▁बक	-10.9937
▁अनूप	-10.9939
▁पिट	-10.994
▁मुशर्रफ	-10.9949
▁नतीज	-10.9952
▁किसके	-10.9953
▁कोश	-10.9959
▁निर्देशित	-10.996
▁जूनियर	-10.9966
25	-10.9967
▁ट्विटर	-10.9968
▁अं	-10.9969
▁कलाम	-10.9975
▁चाहेंगे	-10.9975
र्थ	-10.9978
क्या	-10.9983
▁उछल	-10.9984
ीज	-10.9984
▁सम्पत्ति	-10.9985
▁घटनाक्रम	-10.9986
ोप	-10.9987
विक	-10.999
▁जनाब	-10.999
▁आईं	-10.999
▁हँसी	-10.9992
▁गिलास	-10.9995
▁पंख	-10.9995
▁नाश	-10.9997
▁तिलक	-10.9997
लाइन	-10.9998
▁कारों	-10.9998
भाषा	-11.0002
▁सिखाया	-11.001
▁मोटा	-11.0019
▁गर्भवती	-11.002
▁गरिमा	-11.0021
▁मेन	-11.0023
▁सीमाओं	-11.0024
▁मालिश	-11.0025
▁पेड	-11.0027
राव	-11.0028
▁रेंज	-11.0028
▁May	-11.003
पुरी	-11.0031
▁सम्बन्धी	-11.0031
▁98	-11.0033
▁बाँट	-11.004
▁सोचकर	-11.0041
▁विवादों	-11.0045
▁टीचर	-11.0048
▁पीते	-11.0053
ेक्ट	-11.0056
▁सालाना	-11.0057
चार	-11.006
पत	-11.0063
▁उपयोगकर्ताओं	-11.0063
▁साउथ	-11.0066
▁दिखते	-11.007
▁बलिदान	-11.007
जल	-11.0074
▁बताये	-11.0079
▁संग्राम	-11.0082
▁बोस	-11.0089
▁बीसीसीआई	-11.009
▁संकलन	-11.009
▁हिस्सेदारी	-11.0094
▁वृद्ध	-11.0095
▁जाएँगे	-11.0099
▁1000	-11.0104
▁नारद	-11.0107
▁पालिका	-11.0107
▁आख़िर	-11.0108
▁वक्तव्य	-11.0108
50	-11.0116
▁1999	-11.0122
▁संगीतकार	-11.0126
▁टिप्पणियों	-11.0127
▁वर्णित	-11.0129
w	-11.0129
हैं	-11.0129
ेक	-11.0133
▁सज	-11.0135
▁पलायन	-11.0137
▁बर्दाश्त	-11.0139
▁ब्रज	-11.014
्टी	-11.014
▁चुप्पी	-11.0141
ha	-11.0144
▁घृणा	-11.0145
▁बंधक	-11.0149
▁विफल	-11.0151
▁पीस	-11.0152
▁बिता	-11.0158
▁62	-11.016
ाकार	-11.0164
▁गतिविधि	-11.0165
▁रचा	-11.0167
▁अंडर	-11.0167
▁बराबरी	-11.0169
▁रावत	-11.0172
▁दीन	-11.0174
▁इस्पात	-11.0176
▁भु	-11.0179
▁एंटी	-11.0183
▁मुठभेड़	-11.0185
▁क्विंटल	-11.0191
▁comments	-11.0192
▁जंगली	-11.0195
▁आयकर	-11.0196
ऊं	-11.0197
▁दौलत	-11.0197
▁केन्द्रों	-11.02
▁समृद्धि	-11.0203
▁सोम	-11.0204
▁अरबी	-11.0205
▁मात	-11.0207
▁91	-11.0207
▁बृहस्पतिवार	-11.021
▁चिह्न	-11.0212
▁आपत्तिजनक	-11.0213
▁co	-11.0214
▁पंजीकृत	-11.0216
▁निकालकर	-11.0217
▁गिरोह	-11.0219
कर्म	-11.0229
▁पूल	-11.0231
▁63	-11.0233
▁राजनाथ	-11.0235
लु	-11.0235
कुमार	-11.0239
▁बहार	-11.0242
j	-11.0244
बाई	-11.0246
▁मनो	-11.0259
▁टु	-11.0266
▁चाट	-11.0269
▁फिक्सिंग	-11.0273
▁वितरित	-11.0274
▁पेयजल	-11.0278
▁कठिनाई	-11.0281
▁एड्स	-11.0281
▁मधुमेह	-11.0284
▁स्थगित	-11.0284
▁कन्	-11.0287
▁डाटा	-11.0289
▁बाते	-11.029
▁सूचकांक	-11.029
ीक	-11.0295
▁परिदृश्य	-11.0299
▁करवाई	-11.0303
▁नाइट	-11.0304
▁भूषण	-11.0306
▁आलोचक	-11.0307
▁उत्साहित	-11.0307
▁प्रसन्नता	-11.0308
आप	-11.0308
मिन	-11.0308
▁माफिया	-11.031
▁एक्सचेंज	-11.0321
▁रोना	-11.0323
▁झुक	-11.0324
▁माइकल	-11.0326
▁ब्लाक	-11.0326
▁जातीय	-11.0326
▁अफसोस	-11.0327
▁पक	-11.0341
▁बढ़ाकर	-11.0341
▁फलस्वरूप	-11.0344
▁जिस्म	-11.0345
▁पैक	-11.0346
▁महंगा	-11.0346
▁आरएसएस	-11.0347
बू	-11.0348
▁कुंडली	-11.035
▁समन्वय	-11.0355
्ले	-11.0356
▁अड्डा	-11.0359
हू	-11.036
र्ज	-11.0362
▁स्वतः	-11.0365
▁मांगे	-11.0371
▁पते	-11.0373
दू	-11.0379
▁आक्रोश	-11.0381
▁खरीदा	-11.0383
▁पार्षद	-11.0387
▁महर्षि	-11.0387
▁आँसू	-11.0393
▁लुक	-11.0394
▁हीं	-11.0395
▁ख्वाब	-11.0403
18	-11.0406
▁भरोसे	-11.0409
▁उत्पीड़न	-11.0409
▁जश्न	-11.0409
▁बड़	-11.0412
▁चक	-11.0413
▁समर्थ	-11.0414
▁जीन	-11.0415
नु	-11.0417
▁गणतंत्र	-11.0418
▁गोरखपुर	-11.0423
▁निचले	-11.0425
▁जब्त	-11.0426
▁नेत्र	-11.0426
▁मृतक	-11.043
प्त	-11.0439
▁67	-11.044
▁बैठते	-11.0444
▁टे	-11.0447
▁दिलाया	-11.0448
▁बसा	-11.0452
▁टुकड़ा	-11.0453
्यू	-11.0453
▁मोर्चे	-11.0456
▁गार्ड	-11.0457
▁सहानुभूति	-11.0463
▁प्रतिस्पर्धा	-11.0467
▁सकेगी	-11.0467
▁टीमों	-11.047
▁घटिया	-11.0471
▁कड़े	-11.0472
▁छपी	-11.0477
▁जिद	-11.0479
▁मन्त्र	-11.0479
▁निर्णायक	-11.0485
ब्	-11.0487
▁महादेव	-11.0488
ैन	-11.0488
▁Nov	-11.049
गें	-11.0491
▁ष	-11.0491
▁पहाड़ों	-11.0493
▁झूम	-11.0496
▁de	-11.0499
▁परंपरागत	-11.0502
▁ट्रैफिक	-11.0504
▁प्रमाणित	-11.0505
▁नागपुर	-11.0506
क्रम	-11.0508
्रे	-11.051
ादि	-11.0513
▁सुखी	-11.0515
रम	-11.0516
▁जबलपुर	-11.0517
▁छुटकारा	-11.052
▁परिश्रम	-11.052
ंडी	-11.052
▁दस्तावेज़	-11.0523
▁विश्राम	-11.0524
दो	-11.0526
वासी	-11.0529
▁अवसरों	-11.0532
़ी	-11.0534
▁1990	-11.0538
▁सफ़ेद	-11.0539
▁बूढ़े	-11.0545
▁वसंत	-11.0547
▁बदलना	-11.0552
▁पढा	-11.0553
▁स्टूडियो	-11.0555
▁करूं	-11.0556
▁फूड	-11.0557
▁ताला	-11.0558
▁ढ	-11.056
▁सूख	-11.0564
▁गुर्जर	-11.0564
▁हवाला	-11.0564
▁सुनो	-11.0565
li	-11.0568
▁सौन्दर्य	-11.0571
▁गुफा	-11.0572
▁दिखाए	-11.0573
▁खूबसूरती	-11.0579
▁पैसों	-11.0581
▁गाते	-11.0583
z	-11.0585
▁हज़रत	-11.0587
▁क्रीम	-11.0588
▁जिज्ञासा	-11.059
▁तर्ज	-11.0592
▁उपासना	-11.0596
नहीं	-11.0598
ब्र	-11.0599
▁गंवा	-11.0603
▁सुधारने	-11.0605
▁कोट	-11.0605
▁वाल	-11.0609
▁खुदरा	-11.061
▁विभाजित	-11.061
▁संयोजक	-11.0612
▁बालिका	-11.0614
▁इलेक्ट्रॉनिक	-11.0614
B	-11.0614
▁सीरियल	-11.0618
▁श्रद्धालुओं	-11.0621
▁विरूद्ध	-11.0622
▁खयाल	-11.0622
▁पक्का	-11.0623
ेक्स	-11.0625
▁शास्त्रीय	-11.063
▁शैक्षणिक	-11.0632
▁परिणामस्वरूप	-11.0633
▁दिखाना	-11.0634
▁ताज़ा	-11.0636
▁बट	-11.0638
▁सतत	-11.0641
▁पहुंचाया	-11.0641
ांत	-11.0641
्ब	-11.0645
▁पूछते	-11.0654
▁नाराजगी	-11.0657
S	-11.0657
शास्त्र	-11.0658
▁भावनात्मक	-11.0659
▁स्प	-11.0659
▁योगी	-11.066
ऊँ	-11.0666
न्द्र	-11.0667
▁क्यो	-11.0669
▁मालिकों	-11.067
▁अर्ध	-11.0673
▁मांगा	-11.0674
▁चारा	-11.0675
▁निवारण	-11.068
▁कहूँ	-11.0683
▁उर्जा	-11.0683
▁एकत्रित	-11.0683
▁रिटर्न	-11.0686
17	-11.0687
▁योजनाएं	-11.0693
▁उजाला	-11.0693
▁V	-11.0693
▁खोजें	-11.0695
धार	-11.0696
▁रिहा	-11.0696
▁करूँगा	-11.0699
▁राजपूत	-11.0702
▁शर्तों	-11.0703
माल	-11.0704
▁खनिज	-11.0705
▁शिमला	-11.0706
▁बखूबी	-11.0709
▁मोहल्ले	-11.0709
▁भावुक	-11.0709
▁लै	-11.071
▁डोर	-11.0712
▁ट्रेड	-11.0713
▁पूर्णिमा	-11.0713
▁सर्वर	-11.0713
▁वालो	-11.0715
▁उपाध्याय	-11.0719
▁पिटाई	-11.072
▁66	-11.0722
तक	-11.0723
▁डालें	-11.0724
▁दिखायी	-11.0734
01	-11.0736
▁ग्रे	-11.0737
▁भ्रूण	-11.0742
▁उपवास	-11.0742
▁नगरी	-11.0742
▁एसी	-11.0757
▁टैगः	-11.0757
▁स्कीम	-11.0761
▁पूछना	-11.0762
▁पड़ताल	-11.0772
▁फैले	-11.0776
▁प्रमोद	-11.0778
▁कॉ	-11.0779
्टन	-11.0781
▁भीषण	-11.0782
▁नेताजी	-11.0782
▁मर्जी	-11.0784
▁पर्यटक	-11.0786
▁संवैधानिक	-11.0789
▁फसलों	-11.0789
▁शिवसेना	-11.079
ेंगी	-11.0792
▁घुसपैठ	-11.0797
▁इनाम	-11.0798
▁कॉलोनी	-11.08
▁समेट	-11.0801
▁हिंद	-11.0804
ीकृत	-11.0804
▁लेखिका	-11.0806
▁सुषमा	-11.0817
▁फ्रेंच	-11.0817
▁एसएमएस	-11.0818
▁संज्ञा	-11.0823
▁चूँकि	-11.0826
▁वसूल	-11.0828
▁लटका	-11.0829
▁रोमन	-11.083
▁वश	-11.0831
▁रोते	-11.0832
▁घूमते	-11.0837
▁ससुर	-11.0839
▁अद्वितीय	-11.0843
▁U	-11.0845
▁गजल	-11.0845
्वे	-11.0846
▁हेल्थ	-11.0846
▁विचित्र	-11.085
▁गज़ल	-11.0851
▁ma	-11.0851
▁सेक्सी	-11.0854
▁रिक्त	-11.0855
▁गिरी	-11.086
▁अपेक्षाकृत	-11.0863
▁वहीँ	-11.0864
▁पेशे	-11.0864
▁पश्चात्	-11.0864
▁जैविक	-11.0866
▁रूपों	-11.0867
▁दही	-11.0872
▁The	-11.0873
▁Oct	-11.0876
▁विद्यमान	-11.0879
▁ख़ान	-11.088
▁दुर्ग	-11.0886
▁तादाद	-11.0886
▁मीणा	-11.0887
▁L	-11.0887
▁आंकड़ा	-11.0896
ाओं	-11.0896
▁सुने	-11.0899
▁विन	-11.0902
▁पक्षियों	-11.0905
▁दृढ़	-11.0906
▁बै	-11.0907
▁गायत्री	-11.0909
▁समाप्ति	-11.091
▁तुम्	-11.0911
▁चूम	-11.0915
▁आज़ाद	-11.0916
▁कोल	-11.0917
▁अतिक्रमण	-11.0919
▁पीना	-11.092
▁भागने	-11.092
▁जाट	-11.0921
ड़ों	-11.0926
▁ताक	-11.0926
दिन	-11.0929
▁पुस्तकालय	-11.093
▁करीबी	-11.0937
▁स्टैंड	-11.0937
▁खासी	-11.0938
▁प्रवासी	-11.0939
▁कुत्तों	-11.0939
▁पाटिल	-11.0942
▁राजी	-11.0944
▁जुर्माना	-11.0947
▁फर	-11.0947
▁धनी	-11.0951
▁चिड़िया	-11.0954
▁होड़	-11.0956
▁सीखना	-11.0956
▁लिखें	-11.0958
80	-11.0959
▁प्रारूप	-11.0959
▁नहा	-11.096
▁this	-11.0963
▁महीना	-11.0965
▁दांव	-11.0966
▁Jul	-11.0969
▁कैट	-11.097
▁विद्यालयों	-11.0972
ण्ट	-11.0976
▁उदार	-11.0977
▁साई	-11.0981
शिप	-11.0981
▁अंकल	-11.0985
▁प्रासंगिक	-11.0988
▁निबंध	-11.0989
▁शर्ट	-11.0998
▁खामोश	-11.1
▁गुड़	-11.1003
ज़र	-11.1004
▁सिंगापुर	-11.1005
▁संकोच	-11.1005
▁अज	-11.1007
नू	-11.1009
▁तह	-11.101
▁कार्यशाला	-11.1015
▁किस्से	-11.1019
▁एक्शन	-11.1022
लिन	-11.1024
▁संगत	-11.1025
22	-11.1025
▁ज़ाहिर	-11.1025
ील	-11.1029
▁सब्सिडी	-11.103
09	-11.1033
ni	-11.1033
▁संस्	-11.1034
▁84	-11.1034
▁लाहौर	-11.1035
ग्र	-11.1036
धान	-11.1041
▁पहुंचकर	-11.1042
▁नायिका	-11.1042
▁निकलती	-11.1043
▁मीठी	-11.1046
ँग	-11.1047
▁जीभ	-11.1049
▁सोते	-11.1049
▁भावी	-11.1059
▁मणि	-11.1059
▁पांडेय	-11.1062
अप	-11.1063
तंत्र	-11.1065
▁मुबारक	-11.1069
ya	-11.1069
▁ब्लड	-11.107
▁ऊंचा	-11.1071
▁मीठा	-11.1073
▁कुंभ	-11.1073
▁टि	-11.1075
▁सुकून	-11.1076
▁गर्मियों	-11.1076
▁चू	-11.1078
▁स्मार्ट	-11.1079
▁पौराणिक	-11.1082
▁नकार	-11.1083
▁वामपंथी	-11.1085
▁Apr	-11.1086
▁अनजाने	-11.1089
▁तुरन्त	-11.1096
▁नाबालिग	-11.1099
▁मंशा	-11.11
▁दू	-11.1106
एंगे	-11.1107
▁प्रखंड	-11.1107
व्	-11.1108
▁k	-11.1112
▁आभास	-11.1112
▁परिक्रमा	-11.1113
▁गिर्द	-11.1115
रानी	-11.1115
▁गायन	-11.1123
▁रवैया	-11.1123
▁बहती	-11.1123
▁मूवी	-11.1126
एच	-11.1128
▁ध्रुव	-11.1128
▁राजभाषा	-11.1128
▁सोचती	-11.1129
▁चलाना	-11.113
▁मस	-11.113
▁मानसून	-11.1131
▁मांगों	-11.1132
27	-11.1134
डि	-11.1136
35	-11.1136
▁शोधकर्ताओं	-11.1141
थे	-11.1142
40	-11.1142
▁नर्मदा	-11.1144
▁आल	-11.1147
▁अभिनव	-11.115
▁लेखों	-11.115
▁फ़ा	-11.1151
▁वरदान	-11.1151
▁जै	-11.1152
un	-11.1155
▁लैपटॉप	-11.1157
▁ऊंचे	-11.1157
▁सभ्य	-11.1159
▁पीले	-11.1161
ूँगा	-11.1161
▁कार्यो	-11.1162
▁नमन	-11.1162
▁गंदगी	-11.1164
▁शौचालय	-11.1167
▁आमदनी	-11.1167
26	-11.1168
▁जुलूस	-11.117
▁पग	-11.1171
▁प्यारा	-11.1174
▁साप्ताहिक	-11.1177
▁कैंप	-11.118
▁संबद्ध	-11.1182
▁दुबे	-11.1183
▁संधि	-11.1183
▁थकान	-11.1185
कर्मियों	-11.1186
▁उठाये	-11.1187
▁गांधीजी	-11.1189
▁टूटे	-11.1189
▁रास	-11.1192
▁पीसी	-11.1196
▁फैली	-11.1197
▁रेड्डी	-11.1201
▁वाणिज्य	-11.1203
▁वकालत	-11.1208
▁सम्भावना	-11.1208
फे	-11.1211
▁आयत	-11.1214
▁परिणामों	-11.1218
▁आदित्य	-11.1221
ल्ट	-11.1221
▁रिपोर्टर	-11.1224
ाये	-11.1225
▁सुनाया	-11.1225
▁पूछता	-11.1225
▁राजमार्ग	-11.1229
▁टै	-11.123
चन	-11.1234
\	-11.1239
▁अपनों	-11.124
बिल	-11.1242
लाई	-11.1242
▁मुस्करा	-11.1243
▁आहत	-11.1243
▁झुका	-11.1244
▁लाये	-11.1244
▁द्र	-11.1246
▁बोलो	-11.1248
▁दिवाली	-11.1253
▁मुआवजा	-11.1255
▁ढाल	-11.1258
▁आड़	-11.126
▁साध	-11.126
▁94	-11.1261
▁सनातन	-11.1262
▁नाश्ता	-11.1266
▁साइन	-11.1268
▁बंध	-11.1269
▁पदाधिकारियों	-11.1269
▁अस्पतालों	-11.1272
▁सैफ	-11.1272
▁समुचित	-11.1273
75	-11.1275
▁अध	-11.1279
▁मिड	-11.1284
स्क	-11.1286
▁कमेंट	-11.1287
▁महत्त्व	-11.1289
▁बताएं	-11.1293
ro	-11.1294
▁माइक्रो	-11.1302
▁आला	-11.1303
24	-11.1307
▁नीलामी	-11.1308
▁घुल	-11.1308
▁चों	-11.1309
▁यम	-11.1312
▁फिसल	-11.1317
▁सावन	-11.132
▁चिट्ठे	-11.1326
C	-11.1328
▁प्री	-11.1329
▁श्	-11.1329
▁पार्किंग	-11.1329
▁नमूना	-11.1331
स्व	-11.1332
▁खोले	-11.1334
▁अग्रिम	-11.1335
▁ड्रेस	-11.1336
▁लाग	-11.1337
▁पूर्वाह्न	-11.1338
▁पूर्वक	-11.134
▁इज	-11.134
▁पासपोर्ट	-11.134
▁नरक	-11.1353
▁दुकानदार	-11.1353
▁कानूनों	-11.1357
▁उतरे	-11.1357
▁लम्बा	-11.1363
▁दीपिका	-11.1367
▁हरेक	-11.1367
▁साक्षी	-11.1368
▁असीम	-11.1369
▁सितारे	-11.137
▁निशा	-11.1374
▁किराये	-11.1377
पट	-11.138
▁बच्	-11.138
ौल	-11.1381
र्ण	-11.1383
डन	-11.1383
▁स्वरुप	-11.1386
▁झाड़	-11.1387
▁अर्पित	-11.1391
▁सिवाय	-11.1391
▁कीमतें	-11.1395
▁सिद्धान्त	-11.1395
▁इसमे	-11.1398
▁चौथा	-11.1398
▁ट्यूब	-11.1399
▁पहुंचते	-11.1403
▁असाधारण	-11.1404
क्ल	-11.1406
▁शंका	-11.1408
▁वोह	-11.1409
▁मैडम	-11.1415
▁टूटने	-11.1416
▁साहेब	-11.1416
▁फैलाने	-11.1418
▁व्य	-11.1418
▁शासकीय	-11.1421
द्	-11.1424
▁चलाई	-11.1424
▁विज्ञापनों	-11.1424
▁सबने	-11.1425
्ति	-11.1426
▁प्रवचन	-11.1434
▁जताया	-11.1434
▁कृत्रिम	-11.1439
▁रहमान	-11.1439
▁अनदेखी	-11.1442
▁नागर	-11.1443
▁लेखनी	-11.1443
▁जता	-11.1449
▁रण	-11.1449
भाई	-11.1451
▁जीवंत	-11.1451
ाचार्य	-11.1452
▁ऑल	-11.1452
▁प्रशिक्षित	-11.1452
▁जेम्स	-11.1453
▁खासतौर	-11.1456
▁पायलट	-11.1457
▁लाठी	-11.1457
▁एयरपोर्ट	-11.146
▁लोभ	-11.1461
▁सक्सेना	-11.1463
▁बाट	-11.1467
▁बनें	-11.1468
▁हक़	-11.1471
▁शैतान	-11.1474
▁खपत	-11.1476
▁पावन	-11.1483
▁कमज़ोर	-11.1484
▁ध्	-11.1484
▁समझकर	-11.1485
▁प्रतिबद्धता	-11.1489
▁महेन्द्र	-11.1492
▁तारों	-11.1492
पद	-11.1493
ाइट	-11.1494
द्व	-11.1498
▁लाते	-11.15
ober	-11.1502
▁शीतल	-11.1503
▁अनुचित	-11.1507
त्य	-11.1509
▁परदे	-11.151
▁प्रहार	-11.1511
▁कम्पनियों	-11.1513
▁जुबान	-11.1513
▁बसंत	-11.1515
▁जात	-11.1523
▁सकने	-11.1524
▁रॉक	-11.1525
▁भव	-11.1526
▁खिलाडियों	-11.1526
▁कलकत्ता	-11.153
▁मंद	-11.1532
▁चिकित्सकों	-11.1532
▁राजनेताओं	-11.1534
▁वास्तु	-11.1535
▁सचेत	-11.1535
▁डिस्क	-11.1536
▁पृ	-11.1541
▁ख़राब	-11.1544
नेस	-11.1544
▁सोवियत	-11.1551
किंग	-11.1558
▁मुनाफा	-11.1563
▁नितिन	-11.1564
▁कुलपति	-11.1571
म्भ	-11.1571
बर्ग	-11.1571
▁अकाल	-11.1571
▁अंतराल	-11.1571
धी	-11.1575
▁ब्याह	-11.1579
▁फलों	-11.1581
▁स्टे	-11.1582
▁स्ट्रीट	-11.1583
▁कुमारी	-11.1583
▁वाटर	-11.1589
▁भाँति	-11.159
▁सर्वप्रथम	-11.159
क्यू	-11.159
टिंग	-11.159
▁टूटी	-11.1595
▁जॉर्ज	-11.1597
▁स्मारक	-11.1598
▁बिल्डिंग	-11.16
▁स्पेस	-11.1603
▁उठाई	-11.1605
▁76	-11.1607
▁पन्ना	-11.1611
▁कलियुग	-11.1614
▁वाणिज्यिक	-11.1615
मुख	-11.1615
▁अरविन्द	-11.1618
▁ढांचे	-11.1618
▁क्रिसमस	-11.1618
▁दर्जनों	-11.1618
▁अमन	-11.1622
्यो	-11.1623
ुओं	-11.1625
लन	-11.1627
▁शहद	-11.163
ेला	-11.1633
21	-11.1636
▁संपादन	-11.1636
▁सत्	-11.1636
चित	-11.1636
▁व्यवस्थापक	-11.1638
▁१६	-11.1639
ारा	-11.164
कारों	-11.1641
ir	-11.1643
▁भेड़	-11.1644
▁बाला	-11.1644
▁लगाव	-11.1645
▁झूठे	-11.1647
▁भोज	-11.1648
▁छंद	-11.1648
▁दुल्हन	-11.165
▁धंधा	-11.165
▁होंठ	-11.165
▁हड्डी	-11.1651
▁प्रयोगशाला	-11.1652
▁लगेगी	-11.1656
▁बेड	-11.1658
▁समाधि	-11.1662
▁चुनने	-11.1663
गिरी	-11.1664
▁गहलोत	-11.1664
▁स्पेक्ट्रम	-11.1668
▁भूखे	-11.1669
▁अनुच्छेद	-11.1671
13	-11.1673
▁जबरन	-11.1674
▁टेप	-11.1674
▁कॉपी	-11.1676
▁गृहमंत्री	-11.1679
नारायण	-11.168
▁धरा	-11.1682
▁विडियो	-11.1685
▁बसों	-11.1686
▁झगड़ा	-11.1687
▁खुदाई	-11.1688
▁टेलीफोन	-11.1689
▁पृथक	-11.169
रंग	-11.1691
A	-11.1693
ेम	-11.1693
▁चलें	-11.1695
िद	-11.1699
ुम	-11.1703
▁hi	-11.1705
भाग	-11.1706
▁धरोहर	-11.1707
काम	-11.1709
वाँ	-11.1712
▁कारोबारी	-11.1714
▁चुनौतियों	-11.1714
्ली	-11.1716
▁गम्भीर	-11.1719
▁चौकी	-11.1722
▁रणबीर	-11.1729
▁औरतें	-11.1729
▁नकद	-11.1729
▁श्र	-11.1736
▁चेतन	-11.1739
▁बदौलत	-11.1743
▁स्वराज	-11.1744
ाह	-11.1744
▁डब्ल्यू	-11.1746
कम	-11.1747
▁लड़ा	-11.1747
▁इजाफा	-11.1749
▁अभय	-11.1753
ळ	-11.1754
▁आइये	-11.1756
▁बंदूक	-11.1757
▁सुनता	-11.1762
▁पतंग	-11.1763
स्ट्र	-11.1763
मेट	-11.1766
▁मनुष्यों	-11.1769
▁गार्डन	-11.177
▁लापता	-11.1772
▁निलंबित	-11.1775
▁मसाला	-11.1776
▁दलाल	-11.1777
▁कोतवाली	-11.1779
▁विकार	-11.1781
▁छी	-11.1783
▁आईएएस	-11.1783
▁मार्केटिंग	-11.1785
la	-11.1788
▁तपस्या	-11.179
▁फर्म	-11.179
▁मिसाइल	-11.179
▁बाध्य	-11.1791
▁श्लोक	-11.1793
▁तुर्की	-11.1796
14	-11.18
vi	-11.18
▁३०	-11.18
▁लड	-11.1803
▁भागवत	-11.1807
▁मनोविज्ञान	-11.1812
▁एण्ड	-11.1815
▁दुबई	-11.1815
▁1998	-11.1816
▁उन्ही	-11.182
▁यादगार	-11.1821
▁जीवों	-11.1821
▁अपार	-11.1823
▁दबंग	-11.1824
▁नीच	-11.1825
▁हैरानी	-11.1826
▁मेडल	-11.1829
▁68	-11.183
▁मं	-11.1831
▁77	-11.1831
टक	-11.1831
▁खेलना	-11.1836
▁अपवाद	-11.1837
▁मकर	-11.1837
▁74	-11.1839
▁व्यापारिक	-11.184
▁रेटिंग	-11.184
▁किंग	-11.1846
▁ठंडी	-11.1847
▁J	-11.1847
▁दिग्गज	-11.185
▁टीका	-11.1854
▁साख	-11.1854
▁लेगी	-11.1854
▁मठ	-11.1855
▁टकरा	-11.1855
वाणी	-11.1857
िकल	-11.1861
▁बदलती	-11.1866
▁काहे	-11.1869
▁स्कूली	-11.1869
▁दलील	-11.1873
▁काउंसिल	-11.1877
▁मनोवैज्ञानिक	-11.1877
▁पुजारी	-11.1877
▁आक्रामक	-11.1878
▁t	-11.1878
▁अमेरिकन	-11.1881
टल	-11.1881
et	-11.1884
▁मुकदमे	-11.1887
ज्ञान	-11.1887
क्षेत्र	-11.1892
▁ढल	-11.1892
▁चोद	-11.1893
▁अविनाश	-11.1895
▁बुद्धिजीवी	-11.1895
▁नस्ल	-11.1896
▁kar	-11.1897
ैं	-11.1898
▁कहलाता	-11.1899
▁प्रतिबंधित	-11.1899
▁पैनल	-11.1904
▁धन्य	-11.1907
▁लॉग	-11.1907
60	-11.1911
▁खरीदारी	-11.1915
▁प्ले	-11.1921
▁Dec	-11.1921
▁उलझ	-11.1922
ौं	-11.1928
▁अंपायर	-11.1932
▁बोलती	-11.1933
▁केन्द्रित	-11.1933
▁रूख	-11.1935
▁त्रासदी	-11.1937
▁बिखर	-11.1938
क्षा	-11.194
▁वीजा	-11.1941
▁सुलभ	-11.1944
▁पोशाक	-11.1946
▁पतली	-11.1948
▁देसी	-11.1948
▁संतों	-11.1949
▁प्रवास	-11.1952
▁ज्ञानी	-11.1953
▁बिठा	-11.1955
ाप	-11.1956
▁पहुच	-11.1957
▁श्रीनगर	-11.1959
▁रम	-11.1961
▁प्रत्याशिय	-11.1961
▁खन्ना	-11.1962
हल	-11.1963
▁ग्रंथों	-11.1965
▁कसम	-11.1967
▁َ	-11.1969
▁जनहित	-11.1971
▁कतार	-11.1972
कालीन	-11.1981
▁वरुण	-11.1983
▁पुरा	-11.1987
▁निष्ठा	-11.199
▁Sept	-11.1991
▁पूनम	-11.1994
▁टोपी	-11.1998
▁पेरिस	-11.1998
us	-11.2004
▁चोटी	-11.2005
▁पॉलिसी	-11.2006
▁डरते	-11.2014
▁बुझ	-11.2014
ंगल	-11.2016
प्रसाद	-11.2019
▁छप	-11.2024
▁पाउडर	-11.2027
▁उस्ताद	-11.2027
▁क़दम	-11.2029
▁मॉल	-11.2031
▁पार्वती	-11.2031
▁गैंग	-11.2034
▁शाहिद	-11.2037
▁सकल	-11.2037
नेट	-11.2038
▁घाव	-11.2039
▁पंचायतों	-11.2041
▁घटक	-11.2042
▁गलियों	-11.2047
▁हमलावर	-11.2047
▁कोटि	-11.2048
▁जनगणना	-11.205
▁इमरान	-11.205
▁धर्मों	-11.205
▁b	-11.205
्ना	-11.2052
▁ब्राजील	-11.2053
▁चंद्रमा	-11.2055
भूमि	-11.2055
▁सूट	-11.2056
▁शी	-11.2057
▁करोड	-11.2058
▁चौंक	-11.2058
▁भविष्यवाणी	-11.2058
F	-11.2066
▁61	-11.2069
▁इसीलिये	-11.207
ट्र	-11.207
▁स्ट	-11.207
▁खु	-11.2073
▁निर्माताओं	-11.2074
कला	-11.2074
▁आंशिक	-11.2076
र्ष	-11.2078
▁सहयोगियों	-11.2079
▁साभार	-11.2079
▁गजब	-11.2079
▁चै	-11.2082
▁पूज्य	-11.2084
प्स	-11.2085
▁अग्र	-11.2085
▁चाची	-11.2086
▁तथापि	-11.2086
▁केदारनाथ	-11.2087
▁धमाके	-11.2088
▁600	-11.209
▁छु	-11.2092
▁बायो	-11.2094
▁चयनित	-11.2095
प्रकाश	-11.2095
ोत्सव	-11.2097
▁पेट्रोलियम	-11.2098
▁चूस	-11.2099
▁नरम	-11.2102
ुस	-11.2105
▁जोड़ें	-11.2106
▁उपरांत	-11.2106
▁हिंदुओं	-11.2107
▁पनप	-11.2109
▁बनाएं	-11.211
▁कोहली	-11.2114
▁सूखा	-11.2116
▁पार्ट	-11.2116
▁तेवर	-11.2116
▁वाशिंगटन	-11.2117
▁लोड	-11.2125
▁71	-11.2126
▁रखेंगे	-11.2127
्थ	-11.213
▁तेलंगाना	-11.2132
▁अंचल	-11.2132
▁बारात	-11.2134
▁रियल	-11.2135
▁नियत	-11.2135
धर्म	-11.2139
▁असमर्थ	-11.2141
▁धमाक	-11.2143
▁साईट	-11.2144
▁कसाब	-11.2149
▁आश्वस्त	-11.215
▁सीईओ	-11.215
▁कमिश्नर	-11.2154
▁हीरा	-11.2157
▁डील	-11.216
▁उलझन	-11.2161
जु	-11.2161
▁पॉल	-11.2162
▁योनि	-11.2163
▁समर	-11.2163
िमा	-11.2164
मुक्त	-11.2164
▁ऊँची	-11.2165
▁आविष्कार	-11.2165
▁कड़ा	-11.2167
39	-11.2169
▁वर्चस्व	-11.2169
▁नाटकों	-11.2169
as	-11.217
▁आयेंगे	-11.2173
▁किसकी	-11.2176
्ह	-11.2177
▁विधवा	-11.2178
▁दीवाली	-11.2185
िफ	-11.2186
▁लोकल	-11.2188
▁कोर	-11.219
▁अंगों	-11.2192
▁योंकि	-11.2193
▁१७	-11.2194
▁थमा	-11.2194
▁इकाइयों	-11.2196
ma	-11.2196
R	-11.2199
▁अवसाद	-11.2203
▁बिछा	-11.2204
▁दुकानें	-11.2205
▁कथाकार	-11.2206
▁निकलकर	-11.221
▁दुखद	-11.2212
▁गीतकार	-11.2213
▁रजत	-11.2214
▁निराला	-11.2215
▁संपादकीय	-11.2217
▁ती	-11.2218
▁भली	-11.2219
▁हौसला	-11.222
▁अंकुश	-11.2222
08	-11.2222
▁मीर	-11.2223
▁बूंद	-11.2223
▁गेंदबाजी	-11.2226
िप	-11.2228
▁दूरदर्शन	-11.2228
▁परिजन	-11.2229
▁व्याकरण	-11.2229
▁रै	-11.223
▁अकसर	-11.223
▁२२	-11.2232
28	-11.2235
▁बतला	-11.2236
▁छेड़छाड़	-11.2237
▁सब्जियों	-11.2237
▁आँगन	-11.2237
▁पिला	-11.2239
▁१४	-11.224
▁निशाः	-11.224
▁पुरोहित	-11.2241
▁एरिया	-11.2241
▁पसीना	-11.2248
▁खर	-11.2251
▁चौराहे	-11.2252
▁दुरुपयोग	-11.2252
▁उपायों	-11.2254
▁टैक्सी	-11.2257
▁पीपल	-11.2259
▁अपराधों	-11.226
▁व्यवस्थित	-11.226
कट	-11.226
76	-11.2263
ॉल	-11.2267
▁पर्दा	-11.2268
▁धा	-11.2268
▁दिलों	-11.2269
▁संभावनाओं	-11.2271
▁ईद	-11.2272
▁गांड	-11.2274
▁घटित	-11.2277
▁व्याख्यान	-11.2277
▁करोगे	-11.2278
त्री	-11.2278
▁अजीत	-11.2278
▁पढाई	-11.228
▁सुश्री	-11.2289
▁बचना	-11.2292
▁टो	-11.2301
▁प्रकाशक	-11.2305
▁सितारा	-11.2306
▁इच्छुक	-11.2309
▁मानचित्र	-11.231
चक	-11.2312
▁धड़कन	-11.2315
चंद्र	-11.2316
▁1980	-11.2317
▁समूचे	-11.232
▁पायेंगे	-11.2323
▁पंप	-11.2325
हाँ	-11.2326
▁मूलभूत	-11.2326
▁बहिष्कार	-11.2328
स्वरूप	-11.2331
▁कमेन्ट	-11.2334
▁लोहिया	-11.2336
▁लांच	-11.2337
▁पड़ाव	-11.2337
▁नारियल	-11.2338
▁पिछला	-11.2341
▁बाबत	-11.2342
▁उतारने	-11.2343
▁अनुभवी	-11.2344
▁खत	-11.2345
▁बेरोजगारी	-11.2346
ग्राम	-11.2349
▁समझी	-11.235
▁श्वेत	-11.2351
▁वासना	-11.2352
▁मिनी	-11.2353
▁अध्यात्म	-11.2353
▁जुगाड़	-11.2355
▁माओवादियो	-11.2362
▁जाओगे	-11.2363
▁वस्तुतः	-11.2365
▁गोयल	-11.2367
▁दण्ड	-11.2369
▁बाथरूम	-11.237
▁लीक	-11.2371
29	-11.2372
▁एसडीएम	-11.2373
▁स्पर्धा	-11.2374
किया	-11.2375
ाते	-11.2376
बोध	-11.2378
▁सरोकार	-11.2378
▁बेचैन	-11.238
ाती	-11.2381
▁बाह्य	-11.2383
▁संलग्न	-11.2385
▁टा	-11.2388
▁सौंपी	-11.239
▁कत्ल	-11.2392
इये	-11.2392
▁न्यूजीलैंड	-11.2397
▁घोल	-11.2398
ोला	-11.2401
▁परत	-11.2403
ताल	-11.2405
▁Jan	-11.2406
▁at	-11.2407
खी	-11.2409
▁मुकाम	-11.2413
▁आंटी	-11.2415
▁फोरम	-11.2415
▁ज़िक्र	-11.2416
▁दूरसंचार	-11.242
▁फाड़	-11.2421
▁वोटर	-11.2423
▁समझती	-11.2425
▁विख्यात	-11.2427
▁ऑस्ट्रेलियाई	-11.2428
▁घुटने	-11.243
▁चुदाई	-11.2432
▁1996	-11.2436
▁पोर्ट	-11.2436
्का	-11.2439
▁प्रसव	-11.2439
▁पेय	-11.244
▁जिम	-11.244
▁गद्य	-11.244
▁तबाही	-11.2441
▁मिश्रित	-11.2442
▁टिका	-11.2444
▁उसपर	-11.2444
▁नीले	-11.2446
▁नसीब	-11.2446
दल	-11.2449
▁प्रातः	-11.2454
▁साइटों	-11.2457
▁कर्ण	-11.2457
▁हराया	-11.2457
ation	-11.2458
▁हिम	-11.2462
▁लादेन	-11.2463
▁बैर	-11.2464
▁राजाओं	-11.2464
▁घुमा	-11.2464
▁नम	-11.2464
▁पौ	-11.2464
▁ja	-11.2466
▁किस्सा	-11.2467
▁पका	-11.2467
▁पिच	-11.247
▁साम	-11.2473
▁आरक्षित	-11.2475
▁विभागीय	-11.2477
▁मान्य	-11.2478
▁रखो	-11.2479
▁बहने	-11.2486
▁वध	-11.2491
▁साब	-11.2491
▁78	-11.2492
▁गेंदों	-11.2493
▁कालोनी	-11.2494
▁साधनों	-11.2498
▁ईमान	-11.25
ग़	-11.2501
▁उग्र	-11.2502
▁गुलामी	-11.2502
▁निर्	-11.2504
▁रूपी	-11.2505
▁सलीम	-11.2505
ल्ला	-11.2506
ेस्ट	-11.2511
▁संशोधित	-11.2516
▁सामुदायिक	-11.2516
▁राहु	-11.2517
ॆ	-11.2517
ाओ	-11.252
▁ko	-11.252
▁हाइ	-11.2526
▁अनुसरण	-11.2528
▁लॉन्च	-11.2528
▁120	-11.2529
▁मौलाना	-11.2529
▁बांस	-11.2531
▁किशन	-11.2533
ंडर	-11.2535
▁जमाना	-11.2535
▁ग्रेट	-11.2543
89	-11.2543
▁उल्टा	-11.2544
बाल	-11.2545
▁अक	-11.2547
▁भयावह	-11.2547
र्च	-11.2548
▁हार्ड	-11.2548
▁बदमाश	-11.2556
▁तरुण	-11.2558
▁ईस्ट	-11.2559
▁जॉब	-11.2562
▁सोलह	-11.2562
▁चीर	-11.2564
“	-11.2566
▁वायदा	-11.2568
▁गिना	-11.2571
▁संन्यास	-11.2573
▁लौटते	-11.2576
नुमा	-11.2578
▁अकाउंट	-11.2587
▁साम्प्रदायिक	-11.2589
▁निवासियों	-11.2594
▁मीना	-11.2596
वाह	-11.2598
▁लगेंगे	-11.2599
▁फाउंडेशन	-11.2602
▁73	-11.2607
माला	-11.2608
▁डालना	-11.2611
▁रिवाज	-11.2612
५	-11.2614
कर्ताओं	-11.2619
टेक	-11.2619
▁नक्सलवाद	-11.262
▁ब्राह्मणों	-11.262
▁सहवाग	-11.2622
▁ढूँढ	-11.2624
हत	-11.2629
▁गाँवों	-11.263
▁महंगी	-11.263
▁स्पीड	-11.263
▁हॉ	-11.2631
▁स्थाई	-11.2631
बाद	-11.2631
▁अंतर्	-11.2634
फ्ट	-11.2635
▁जवाहर	-11.2637
▁69	-11.2638
▁ढा	-11.2638
▁साझेदारी	-11.264
▁हिन्द	-11.2641
90	-11.2643
बीर	-11.2644
▁कूट	-11.2648
▁निशाने	-11.2648
▁मूलतः	-11.2653
▁धारावाहिक	-11.2655
▁खासा	-11.2656
▁शुभकामनायें	-11.2664
▁कृत्य	-11.2668
ोज	-11.2673
▁आवंटित	-11.2673
ुद	-11.2674
भूत	-11.2677
▁प्रणव	-11.2686
▁न्यायमूर्ति	-11.2689
▁अस्त	-11.269
▁कश्यप	-11.2693
▁प्रीति	-11.27
▁वेदों	-11.2701
▁पीड़ितों	-11.2705
▁बनेगी	-11.2708
▁स्वादिष्ट	-11.2709
ैक	-11.2712
▁कहूं	-11.2713
ाद	-11.2713
▁हेक्टेयर	-11.2716
▁सिद्धि	-11.2718
▁आपरेशन	-11.2721
▁थोडी	-11.2726
▁मेज	-11.2726
▁नैनो	-11.2727
▁क्रान्ति	-11.2728
▁चित	-11.273
▁महाराजा	-11.273
ोली	-11.2732
▁माप	-11.2732
▁August	-11.2732
▁शुभारंभ	-11.2732
▁सक्रियता	-11.2733
▁विशेषज्ञता	-11.2735
▁घाटा	-11.2735
ेरा	-11.2735
▁जनक	-11.2736
▁श्रेणियाँः	-11.2738
▁पहचाना	-11.2739
ॊ	-11.2739
▁कुरान	-11.274
▁जुटाने	-11.2741
▁मज़बूत	-11.2744
▁ढांचा	-11.2748
▁प्रतिकूल	-11.275
▁प्राचार्य	-11.275
▁आर्	-11.275
▁Me	-11.2751
▁प्रेमियों	-11.2751
▁रजिस्टर	-11.2752
▁फीसद	-11.2755
▁लंबाई	-11.2755
▁सिखा	-11.2756
▁अधूरी	-11.2756
▁धनराशि	-11.2757
▁दुष्ट	-11.2758
ाज	-11.2759
ोद	-11.276
▁झूठी	-11.2761
▁लगन	-11.2762
ेन्ट	-11.2762
▁गोविंद	-11.2764
▁टांग	-11.2764
▁पडता	-11.2764
▁द्रविड़	-11.2764
ीस	-11.2765
▁पंक्तियों	-11.277
▁राजे	-11.277
▁गुजराती	-11.2775
▁अपेक्षित	-11.278
▁मरते	-11.2784
▁सेंट्रल	-11.2784
▁किसका	-11.2785
▁तेज़ी	-11.2787
▁टमाटर	-11.2788
▁पसीने	-11.2788
▁मुजफ्फरनगर	-11.2788
▁जीप	-11.2793
▁चैक	-11.2793
▁जानिए	-11.2793
▁नानी	-11.2795
▁चाहूँगा	-11.2797
चन्द्र	-11.2803
▁as	-11.2804
▁हार्ट	-11.2804
▁चिट्ठाकार	-11.2807
▁सल	-11.2809
▁हॉलीवुड	-11.2812
▁कमला	-11.2813
▁गड़बड़	-11.2814
▁कुंजी	-11.2816
▁लौह	-11.2818
ेष	-11.2818
लिक	-11.2819
▁गि	-11.2819
ानु	-11.282
▁बराक	-11.2824
▁छोड़ना	-11.2831
▁निरन्तर	-11.2832
▁कॉमेंट	-11.2833
▁अशुभ	-11.284
▁फ़ैसला	-11.284
▁उम्दा	-11.284
▁माफ़	-11.2843
▁सियासत	-11.2844
▁फायर	-11.2846
▁भलाई	-11.2848
▁वेस्टइंडीज	-11.2848
id	-11.2849
▁नेटवर्किंग	-11.2851
▁बीती	-11.2853
▁प्रक्रियाओं	-11.2854
▁इल	-11.2855
23	-11.2856
▁टिप्पणियां	-11.2856
▁बकाया	-11.2857
▁लुट	-11.2859
▁मानकों	-11.286
▁उपयोगिता	-11.2862
▁एकीकृत	-11.2862
▁नंगे	-11.2862
▁छापा	-11.2862
▁विदाई	-11.2862
्मा	-11.2863
▁पिया	-11.2863
दन	-11.2864
▁वनस्पति	-11.2869
▁दब	-11.287
▁र्	-11.287
▁भौगोलिक	-11.2872
सिया	-11.2874
▁केबल	-11.288
▁नं	-11.2882
el	-11.2885
▁दिखाता	-11.2886
▁बवाल	-11.2887
▁नवाज	-11.289
▁नूर	-11.2891
me	-11.2897
मंत्री	-11.2898
▁89	-11.2899
▁निकलना	-11.2907
▁वैभव	-11.2913
▁घाटे	-11.2916
▁आराधना	-11.2917
▁पकड़कर	-11.2918
▁ba	-11.2918
▁प्रशंसक	-11.2919
मू	-11.2923
H	-11.2924
▁पटरी	-11.2925
▁दखल	-11.2927
▁अभियंता	-11.2929
▁June	-11.2929
▁१३	-11.293
▁भोले	-11.293
▁भरकर	-11.2933
▁गिल	-11.2933
▁उत्पादक	-11.2936
▁ग्रेड	-11.2939
▁लौ	-11.294
िक्स	-11.294
▁भड़क	-11.2943
▁मू	-11.2944
बु	-11.2945
41	-11.2947
▁रचनाएँ	-11.2949
▁दबाने	-11.2952
▁गोबर	-11.2952
▁फोर्स	-11.2952
▁पाट	-11.2953
38	-11.2955
▁प्रतिवर्ष	-11.296
▁वकीलों	-11.2962
▁विश्वसनीय	-11.2964
▁रश्मि	-11.2965
▁एनडीए	-11.2967
▁पंचम	-11.297
▁जिलाध्यक्ष	-11.297
▁सेन	-11.2972
▁1991	-11.2972
▁उपलब्धता	-11.2974
▁लहरा	-11.2974
‘	-11.2975
▁थाली	-11.2977
दत्त	-11.2978
▁उल	-11.2978
▁चढ़ाव	-11.298
▁राज्	-11.2981
▁युगल	-11.2981
ebru	-11.2986
▁लाईन	-11.2986
▁आईसीसी	-11.2989
▁सहजता	-11.2993
▁चिट्ठा	-11.2994
सिल	-11.2997
▁कार्यकारिणी	-11.2998
▁भारद्वाज	-11.2998
टू	-11.3001
▁ताकतवर	-11.3002
▁समझो	-11.3004
▁एसिड	-11.3006
▁तरल	-11.3007
▁बोल्ड	-11.3008
▁उद्यम	-11.3009
▁सत्याग्रह	-11.301
▁पत्थरों	-11.301
▁निकालना	-11.3011
▁वर्ना	-11.3011
▁खोया	-11.3012
▁मलेशिया	-11.3014
▁सियासी	-11.3015
▁दर्पण	-11.3015
55	-11.3015
▁स्ट्र	-11.3017
▁दिखी	-11.3017
▁अनमोल	-11.3018
▁धंधे	-11.3018
▁फील्ड	-11.3019
▁बीजिंग	-11.302
▁ध्वस्त	-11.3022
▁तूने	-11.3023
ावली	-11.3025
परक	-11.3029
िणी	-11.303
▁मजिस्ट्रेट	-11.303
▁मुमकिन	-11.3035
▁मंथन	-11.3035
▁विकलांग	-11.3039
▁रहेंगी	-11.3041
▁पढ़ता	-11.3042
▁गिन	-11.3042
ाइज	-11.3043
▁समुदायों	-11.3043
▁सीमेंट	-11.3044
▁राजस्थानी	-11.3044
▁कसर	-11.3045
▁आदान	-11.3045
गढ	-11.3046
वादियों	-11.305
▁दस्तक	-11.305
▁म्यूजिक	-11.3051
▁March	-11.3051
▁लडकी	-11.3053
▁फु	-11.3055
▁मोबाईल	-11.3055
▁इंग्लिश	-11.3055
ce	-11.3056
▁महानगर	-11.3057
▁नवाब	-11.3058
▁शस्त्र	-11.3058
▁कश्मीरी	-11.306
ब्ब	-11.306
न्ना	-11.3061
33	-11.3061
▁ट्रांस	-11.3064
▁यूएस	-11.3064
▁कब्र	-11.3067
▁छुट	-11.3067
▁शर्मनाक	-11.3067
▁२५	-11.3068
▁चाहूंगा	-11.3068
पाद	-11.3068
49	-11.307
▁खुलने	-11.3073
▁त्रुटि	-11.3074
▁92	-11.3077
▁मुट्ठी	-11.3079
▁चन्द्रमा	-11.3081
▁यूरो	-11.3083
37	-11.3083
▁बोनस	-11.3085
▁द्वि	-11.3085
▁गोलियां	-11.3085
▁कवायद	-11.3088
▁रिश्तेदारों	-11.3091
▁काल्पनिक	-11.3092
▁चीज़ों	-11.3093
▁टर	-11.3096
ियल	-11.3098
▁कैन	-11.3098
▁जहा	-11.3099
▁संभल	-11.3099
ाकर	-11.3101
▁ॐ	-11.3101
▁चंदन	-11.3102
शे	-11.3106
hi	-11.3108
▁दृश्यों	-11.311
▁क्यूं	-11.3111
▁दीक्षा	-11.3112
▁आभारी	-11.3114
▁जिन्दा	-11.3114
▁ढेरों	-11.3115
▁स्टूडेंट्स	-11.3116
▁कार्यालयों	-11.3117
▁सद	-11.3118
लक	-11.3119
▁.........	-11.3119
ak	-11.3121
98	-11.3123
▁उत्थान	-11.3125
▁पुनर्वास	-11.3126
▁क्रमांक	-11.3127
▁फ्ल	-11.3127
▁चीज़ें	-11.3127
um	-11.3128
▁उतारा	-11.3129
▁पराजित	-11.3129
▁उखाड़	-11.313
▁ओसामा	-11.3133
▁संभालने	-11.3135
▁दावेदार	-11.3136
▁रोमांचक	-11.3136
▁बिलासपुर	-11.3137
▁संवाददाताओं	-11.3138
▁इंस्टीट्यूट	-11.3141
▁न्यायपालिका	-11.3142
▁आफिस	-11.3142
▁बारीक	-11.3147
▁लाला	-11.3148
▁विराम	-11.3148
जब	-11.315
िज्म	-11.315
▁आधुनिकता	-11.3155
▁आटा	-11.3159
▁बुझा	-11.316
▁सम्पादक	-11.3161
▁लटक	-11.3162
▁160	-11.3162
▁चेन	-11.3165
▁अनेकों	-11.3165
▁विकासशील	-11.3165
▁गोस्वामी	-11.3167
्टर	-11.3168
wa	-11.3169
ोँ	-11.3175
▁पद्म	-11.3176
ोट	-11.3177
▁सत्संग	-11.3179
▁मेगावाट	-11.3183
▁बचाया	-11.3183
▁बंदर	-11.3186
िंदर	-11.3191
▁खीर	-11.3192
▁प्रजाति	-11.3194
श्य	-11.3198
▁इंस्पेक्टर	-11.32
▁ग़म	-11.3201
घा	-11.3201
U	-11.3205
्ते	-11.3206
यत	-11.3206
्रो	-11.3214
▁नेपाली	-11.3214
प्रति	-11.3219
▁सोचे	-11.322
▁उतरा	-11.3224
▁मुहब्बत	-11.3225
▁इशारे	-11.3229
▁96	-11.323
▁खदान	-11.3232
▁सुनीता	-11.3235
▁स्पॉट	-11.3238
ासन	-11.3246
▁सिक्के	-11.3246
▁बिगाड़	-11.3249
▁निज	-11.3249
च्च	-11.3257
▁सोसाइटी	-11.3258
▁दाव	-11.3261
▁फिल्	-11.3263
बरा	-11.3266
▁प्रणब	-11.3266
▁अंध	-11.3269
▁दर्जे	-11.3269
▁श्रोताओं	-11.3269
▁सहला	-11.327
▁तात्पर्य	-11.327
▁चढ	-11.3271
मेल	-11.3271
▁करनेवाले	-11.3272
▁एज	-11.3275
▁भड़ास	-11.3275
ate	-11.3276
▁खोलकर	-11.3277
▁फी	-11.3278
ाएंगे	-11.3279
▁800	-11.328
▁बूझ	-11.328
▁फ़िल्में	-11.3282
प्प	-11.3282
रन	-11.3285
▁महानिदेशक	-11.3287
▁चाहने	-11.3288
▁साहित्यकारों	-11.3289
▁निपटा	-11.3289
▁मिटाने	-11.3292
▁जोन	-11.3302
टिक	-11.3305
▁जर	-11.3305
▁बेचैनी	-11.3306
▁पत्तों	-11.3308
▁तालमेल	-11.3308
▁एल्बम	-11.331
▁लिप्त	-11.3311
▁पडे	-11.3313
वाना	-11.3314
▁श्रमिक	-11.3316
▁खिलाफ़	-11.332
▁रूट	-11.3321
▁आंगन	-11.3324
़ा	-11.3326
▁चित्रकार	-11.3329
▁स्वा	-11.3329
▁ऑडियो	-11.3337
▁वादे	-11.3337
▁कार्तिक	-11.3338
▁निर्देशों	-11.334
सिक	-11.3341
▁अजित	-11.3348
sh	-11.3349
▁माकपा	-11.335
्ला	-11.3352
▁फो	-11.3352
▁हटाया	-11.3353
▁प्रेत	-11.3354
▁हिदायत	-11.3355
▁सौदे	-11.3356
▁ढोल	-11.3359
▁जमात	-11.336
▁कोयले	-11.336
तार	-11.3362
▁श्वास	-11.3362
▁पाइप	-11.3364
▁मेजर	-11.3368
▁विरोधियों	-11.3368
▁पूरक	-11.3369
ंदा	-11.3371
▁ख़रीद	-11.3373
31	-11.3373
▁अस्सी	-11.3374
▁अवलोकन	-11.3376
▁हत्याकांड	-11.3376
▁वां	-11.3377
▁क़ि	-11.3377
चरण	-11.3379
▁बॉडी	-11.3381
▁बदलता	-11.3382
▁अनुपम	-11.3383
▁क्रूर	-11.3383
▁पॉ	-11.3384
▁डीएम	-11.3385
डू	-11.3385
▁इन्ही	-11.3388
▁अचल	-11.3388
▁पोस्टमार्टम	-11.3388
▁नीला	-11.3388
▁कर्मों	-11.3391
▁डरा	-11.3392
▁अधूरा	-11.3397
▁बेन	-11.3398
कन	-11.3399
▁बूथ	-11.3399
ायी	-11.34
▁अफ्रीकी	-11.34
▁स्थिरता	-11.3402
▁गू	-11.3403
दिया	-11.3404
▁स्क्रिप्ट	-11.3408
▁सड़कें	-11.3408
▁अना	-11.3408
▁क्राइम	-11.3414
▁1997	-11.3415
▁नाट्य	-11.3415
▁पटक	-11.3415
▁प्ल	-11.3417
▁दंगा	-11.342
▁दामन	-11.342
▁चो	-11.3421
स्थान	-11.3422
▁कचरा	-11.3424
प्पा	-11.3428
▁स्क	-11.3429
▁कपास	-11.343
पार	-11.343
▁श्रमिकों	-11.3432
िब	-11.3432
थि	-11.3432
▁इलाका	-11.3437
वह	-11.3437
▁क़रीब	-11.3439
▁मार्क्स	-11.3442
▁मज़दूर	-11.3443
▁उज्जैन	-11.3444
▁रुझान	-11.3444
▁स्वाभिमान	-11.3444
▁साहू	-11.3445
▁माधव	-11.3449
बाग	-11.3451
▁बदमाशों	-11.3451
▁घु	-11.3451
४	-11.3452
▁<	-11.3452
▁कीमती	-11.3456
32	-11.3458
▁महत्	-11.3459
▁गिरे	-11.3459
▁प्राणियों	-11.3463
▁टूर	-11.3467
▁गानों	-11.3467
▁छूने	-11.3467
▁कपडे	-11.3469
▁गवर्नर	-11.347
▁गुरुदेव	-11.3471
ानन्द	-11.3473
▁लुभा	-11.3473
▁अमृतसर	-11.3475
हान	-11.3478
नल	-11.3481
▁गांगुली	-11.3482
▁पंक्तियाँ	-11.3483
▁श्रद्धालु	-11.3484
षण	-11.3488
▁81	-11.3489
▁खरीदें	-11.3489
▁फूंक	-11.349
▁टकराव	-11.3491
कता	-11.3492
▁राक्षस	-11.3492
▁अंडे	-11.3493
ेय	-11.3493
▁विल	-11.3499
48	-11.35
▁पार्टियां	-11.3501
▁राजन	-11.3502
▁हरीश	-11.3505
▁असफलता	-11.3506
▁घोष	-11.3509
▁जन्मे	-11.351
▁खट	-11.3512
▁रंजन	-11.3512
▁वैद्य	-11.3514
▁आवासीय	-11.3514
ायन	-11.3515
ीम	-11.3518
▁धकेल	-11.3519
▁डिज़ाइन	-11.3521
▁गाथा	-11.3522
▁कुर	-11.3523
▁डिजाइनर	-11.3523
▁चन्द	-11.3527
▁मसला	-11.3528
मंडल	-11.3528
▁चैंपियन	-11.3529
▁जबर्दस्त	-11.353
▁खडा	-11.353
▁जाइए	-11.3532
▁गाड़ियों	-11.3533
▁देशभर	-11.3533
बंद	-11.3534
▁तैयारियों	-11.3536
▁हादसा	-11.3538
कत	-11.354
▁आकांक्षा	-11.3541
▁दिखाकर	-11.3541
▁ग़	-11.3542
▁विवादास्पद	-11.3542
▁88	-11.3543
म्म	-11.3544
ड़ियों	-11.3544
▁दस्तावेजों	-11.3547
▁लत	-11.3549
▁करवाना	-11.355
▁प्रमोशन	-11.3551
▁संप्रदाय	-11.3551
▁छिपे	-11.3557
भि	-11.3559
▁हल्ला	-11.3559
▁समझें	-11.3561
▁पन	-11.3561
▁आजीवन	-11.3563
▁d	-11.3563
▁अख्तर	-11.3568
▁झंडा	-11.3569
▁प्राय	-11.3571
▁कॉलेजों	-11.3571
▁रसूल	-11.3576
▁गणराज्य	-11.3577
▁छठे	-11.3578
ish	-11.3579
▁उत्तरप्रदेश	-11.3582
▁पन्नों	-11.3582
▁रौशनी	-11.3583
र्य	-11.3587
68	-11.3588
▁गुंजाइश	-11.359
he	-11.3591
▁जलन	-11.3591
▁अस्मिता	-11.3594
▁हुक्म	-11.3597
लेख	-11.3598
▁अफजल	-11.3598
▁लाता	-11.36
▁बांटने	-11.36
▁जनम	-11.3604
▁बिटिया	-11.3606
▁संभावनाएं	-11.361
▁सुधा	-11.361
▁बढ़ाना	-11.361
▁व्हाइट	-11.3611
▁मातृ	-11.3611
▁गेम्स	-11.3612
▁गुहार	-11.3612
▁na	-11.3615
▁बाजी	-11.3618
▁मौ	-11.3619
▁अस्थायी	-11.3624
▁डिब्बे	-11.3624
▁गढ़वाल	-11.3625
▁निमंत्रण	-11.3629
▁मोटरसाइकिल	-11.3629
येंगे	-11.3629
▁करुणा	-11.3629
▁बीबी	-11.363
य्या	-11.3631
▁फै	-11.3633
▁विनिमय	-11.3633
▁रिक्शा	-11.3633
येगा	-11.3633
▁बादलों	-11.3633
▁स्थानांतरण	-11.3634
▁वैध	-11.3634
▁बेवकूफ	-11.3636
▁कंस	-11.3637
▁सहेज	-11.3637
▁लड़ते	-11.3638
▁ऐश	-11.364
▁अस्	-11.3643
लय	-11.3643
▁टोक	-11.3645
▁स्वामित्व	-11.3646
▁उत्सुकता	-11.3647
▁बुर	-11.3648
▁माहिर	-11.3649
di	-11.3649
▁तिहाई	-11.3651
ंठ	-11.3651
▁अगुवाई	-11.3655
इयों	-11.3656
चू	-11.3658
▁प्रीमियम	-11.3659
▁संगोष्ठी	-11.3659
ाली	-11.3664
▁1993	-11.3664
▁पढ़ाने	-11.3666
डोर	-11.3668
▁हाजिर	-11.3669
▁रिहाई	-11.3673
देवी	-11.3673
▁बढती	-11.3674
▁घटी	-11.3676
ीर	-11.3677
ीश	-11.368
▁श्रोता	-11.368
▁बुद्धिमान	-11.3681
▁तम	-11.3682
ेंड	-11.3683
▁सती	-11.3685
03	-11.3685
▁सफलतापूर्वक	-11.3689
▁शास्त्रों	-11.3689
se	-11.3692
▁परहेज	-11.3692
प्ट	-11.3695
▁sa	-11.3702
▁निफ्टी	-11.3703
▁उनपर	-11.3704
▁83	-11.3705
02	-11.3708
▁हारे	-11.3708
लम	-11.371
ol	-11.3714
▁इमेज	-11.3717
▁आकृति	-11.3719
▁सिब्बल	-11.372
▁हल्दी	-11.3721
▁वतन	-11.3721
▁भगा	-11.3724
▁विश्वनाथ	-11.3733
▁जबाब	-11.3733
▁घोटाल	-11.3734
▁भयभीत	-11.3738
L	-11.374
▁बताइए	-11.374
▁पैंट	-11.374
ल्ल	-11.3741
▁उबाल	-11.3743
05	-11.3743
▁सेकुलर	-11.3745
▁87	-11.3747
▁93	-11.375
ंप	-11.375
▁पिछड़	-11.3751
▁रंगमंच	-11.3752
▁गोष्ठी	-11.3752
िकी	-11.3754
▁बिखेर	-11.3755
▁ग़रीब	-11.3757
▁सैन	-11.3757
▁उभार	-11.3758
टि	-11.3761
▁रैंकिंग	-11.3762
▁सामान्यतः	-11.3762
▁फोड़	-11.3763
and	-11.3763
▁डेरा	-11.3763
▁दुर्	-11.3766
▁खिसक	-11.3769
▁तोड़कर	-11.3769
▁1947	-11.377
▁छपा	-11.377
▁हिन्दुस्तानी	-11.3772
तू	-11.3776
▁विद	-11.3776
▁हरियाली	-11.3777
▁बंसल	-11.3779
खंड	-11.378
▁नंगा	-11.3784
▁सुनाने	-11.3784
▁पुख्ता	-11.3786
▁अभिव्यक्त	-11.3786
▁1992	-11.3787
▁रोकना	-11.3794
▁86	-11.3798
▁जूता	-11.3801
07	-11.3803
▁अमरनाथ	-11.3803
यल	-11.3804
▁गौरी	-11.3805
36	-11.3806
▁नित	-11.3806
▁डाय	-11.3808
▁संस्कारों	-11.3809
▁बाधित	-11.3809
▁सडक	-11.381
▁मय	-11.3811
▁नर्स	-11.3813
▁ठुकरा	-11.3813
▁समितियों	-11.3813
▁पहलवान	-11.3814
▁सुरंग	-11.3818
सागर	-11.3821
▁बिन्दु	-11.3822
▁मल्टी	-11.3823
▁सिद्धार्थ	-11.3823
▁झाँक	-11.3826
▁श्रेणीः	-11.383
▁बंगाली	-11.3831
▁ठंडे	-11.3837
▁शान्त	-11.3837
42	-11.3838
▁डांट	-11.3839
▁समाजवाद	-11.384
▁पीला	-11.3841
बै	-11.3841
▁उपलब्धियों	-11.3842
▁पीकर	-11.3843
▁अनावश्यक	-11.3844
▁पालतू	-11.3848
▁गाडी	-11.3851
▁लीडर	-11.3855
▁प्रभाष	-11.3855
▁परिप्रेक्ष्य	-11.3857
▁बेंच	-11.3858
▁जावेद	-11.3858
47	-11.3859
▁मुख्यतः	-11.3866
वट	-11.3867
82	-11.3869
सभी	-11.3871
▁लगाता	-11.3873
▁टूटा	-11.3875
▁बहाल	-11.3876
ul	-11.3878
ter	-11.388
▁बग	-11.3882
▁भो	-11.3883
▁प्रचलन	-11.3884
▁हटकर	-11.3885
▁खाद्यान्न	-11.3893
▁न्	-11.3894
▁अग	-11.3895
▁हँसते	-11.3897
▁सूखी	-11.3898
न्दा	-11.3901
ेज़	-11.3902
ाग	-11.3904
▁दाने	-11.3904
▁नियति	-11.3905
▁सील	-11.3905
▁आकाशवाणी	-11.3907
▁छुप	-11.391
▁लक्षणों	-11.3911
▁पिंड	-11.3911
चु	-11.3911
▁निर	-11.3912
▁बकवास	-11.3916
▁समझदारी	-11.3918
▁प्रतिभागियों	-11.3919
चल	-11.3919
▁भीख	-11.392
▁संपदा	-11.3924
▁गड़बड़ी	-11.3925
▁माध्यमों	-11.3925
ठे	-11.3926
▁प्रयोजन	-11.3926
स्ता	-11.3928
71	-11.3929
▁बढ़ेगी	-11.3929
▁रुके	-11.3932
▁स्नातकोत्तर	-11.3933
85	-11.3935
▁लपेट	-11.3942
▁लैस	-11.3946
▁इर्द	-11.3948
कांत	-11.395
▁बिरादरी	-11.3951
▁घिस	-11.3955
िला	-11.3955
ांश	-11.3957
▁अर्	-11.3957
▁पॉप	-11.3958
51	-11.396
▁मनी	-11.396
▁प्रत्युत्तर	-11.3962
▁नल	-11.3962
▁जबरदस्ती	-11.3963
िच	-11.3965
▁चलाए	-11.3965
▁उत्तेजना	-11.3969
▁97	-11.3969
▁हराम	-11.397
77	-11.3972
▁पोर्टल	-11.3976
▁अंधेरा	-11.3984
▁गल	-11.3985
▁उद्	-11.3986
▁वसा	-11.3987
▁लख	-11.399
▁जीतकर	-11.3991
▁अम्बेडकर	-11.3991
▁अपडेट	-11.3991
उस	-11.3992
▁धर्मशाला	-11.3994
▁यक्ष	-11.3994
▁तमाशा	-11.3996
गम	-11.3998
▁अतुल	-11.3999
▁जोकि	-11.3999
▁कलात्मक	-11.4003
▁दरिया	-11.4003
▁प्लस	-11.4007
▁तृणमूल	-11.4009
▁दिक्चाल	-11.4009
▁आश्चर्यजनक	-11.401
▁छठ	-11.4016
▁भिड़	-11.4017
86	-11.4019
▁रपट	-11.402
▁पैन	-11.4021
▁तहलका	-11.4023
▁सेमिनार	-11.4023
▁बेर	-11.4024
▁जाऊं	-11.4032
▁पच्चीस	-11.4032
▁अनगिनत	-11.4034
▁बास	-11.4037
▁चैट	-11.4041
शुदा	-11.4041
आज	-11.4041
▁रज	-11.4042
▁वयस्क	-11.4043
▁2366	-11.4045
▁संप्रग	-11.4045
▁कैलेंडर	-11.4045
▁बढने	-11.4047
▁सजग	-11.4051
आइ	-11.4051
▁वन्य	-11.4052
तों	-11.4052
▁व्यतीत	-11.4054
▁फ्लू	-11.4055
▁उदासी	-11.4055
▁बैठता	-11.4059
बन	-11.406
▁पासवर्ड	-11.406
▁सुधीर	-11.4063
▁पढे	-11.4066
▁लेवल	-11.4067
▁1995	-11.4069
▁निजात	-11.4069
▁फिल	-11.407
झा	-11.4071
▁जेन	-11.4072
▁चाकू	-11.4074
▁चिपक	-11.4075
▁प्रीमियर	-11.4077
▁अरबों	-11.4078
▁ध्वज	-11.4079
▁सुलझाने	-11.4084
▁लात	-11.4086
▁काबिल	-11.4087
▁महासागर	-11.4087
▁चौदह	-11.4091
▁सूर	-11.4091
▁मुल	-11.4094
▁अनन्त	-11.4095
▁साइबर	-11.4095
▁सनी	-11.4096
▁विवेकानंद	-11.4096
▁भेजें	-11.4096
नामा	-11.4096
▁\	-11.4099
▁मनरेगा	-11.41
is	-11.4103
▁हंसते	-11.4112
67	-11.4112
▁लगाएं	-11.4116
▁दाढ़ी	-11.4118
▁बुन	-11.4118
▁बॉल	-11.4121
▁विजयी	-11.4122
▁छिप	-11.4123
▁बां	-11.4124
▁डेली	-11.4128
▁कमरों	-11.413
▁शीत	-11.413
▁एं	-11.4132
न्ध	-11.4135
▁पोषक	-11.4136
▁r	-11.4137
मुखी	-11.4137
▁उपक्रम	-11.4138
▁79	-11.4139
▁चूर्ण	-11.4141
फ़ी	-11.4143
▁पूछो	-11.4145
▁परेशानियों	-11.4151
▁भीम	-11.4154
▁सेंसर	-11.4163
▁सराहनीय	-11.4164
▁पेंट	-11.4165
▁पिछड़ा	-11.4165
▁नकदी	-11.4167
▁कोइ	-11.4168
▁सर्वोत्तम	-11.4168
▁आएं	-11.417
▁पंथ	-11.417
▁घिर	-11.4171
▁कैश	-11.4172
▁ढो	-11.4172
▁पक्की	-11.4174
ट्टी	-11.4174
▁पायेगा	-11.4175
▁प्रदेशों	-11.4177
▁पारा	-11.4178
▁शॉट	-11.4178
▁प्रमाणपत्र	-11.4179
▁थोक	-11.418
▁ऑफर	-11.4182
▁तारीफ़	-11.4188
▁मूत्र	-11.419
बाज	-11.4191
▁समीकरण	-11.4192
▁घने	-11.4194
▁फायरिंग	-11.4194
▁शिंदे	-11.4196
ाइल	-11.4196
▁सर्प	-11.42
▁लेबल	-11.42
रियों	-11.4201
▁कौम	-11.4201
▁पंत	-11.4202
दायक	-11.4203
▁लंका	-11.4203
स्तर	-11.4206
▁उपग्रह	-11.4208
▁मज	-11.4208
▁क्षत्रिय	-11.4209
▁थियेटर	-11.421
▁फंसा	-11.421
44	-11.4211
अब	-11.4212
वर्ग	-11.4212
▁हॉस्पिटल	-11.4217
लै	-11.4217
▁हज	-11.4218
▁चोरों	-11.4219
▁उपभोग	-11.4219
▁आयेगी	-11.422
▁कर्मी	-11.4221
▁उद्धरण	-11.4223
▁बैटरी	-11.4225
▁नयन	-11.4228
गार	-11.4228
▁सामर्थ्य	-11.4228
ऐं	-11.423
▁झूठा	-11.423
▁परख	-11.423
▁हैँ	-11.4231
सिन	-11.4231
▁गोविन्द	-11.4234
▁बेगम	-11.4235
▁समलैंगिक	-11.4237
▁कैल	-11.4238
अगली	-11.4241
▁कराये	-11.4242
59	-11.4242
▁ईंट	-11.4246
▁ब्लोगर	-11.4247
▁यूज	-11.425
▁कृत	-11.4253
V	-11.4255
▁क्लासिक	-11.4255
▁शिकायतें	-11.4256
तुम	-11.4256
ोड	-11.4257
▁निर्वाह	-11.4258
▁घायलों	-11.4259
▁निहार	-11.426
▁अंधविश्वास	-11.426
▁बेचारा	-11.4263
▁रेस्तरां	-11.427
भूषण	-11.4273
▁तरंग	-11.4273
▁दूतावास	-11.4274
▁५०	-11.4276
▁व्यंजन	-11.428
▁तत्त्व	-11.428
अल	-11.4281
वेद	-11.4282
▁बढ़ाते	-11.4282
▁चौबीस	-11.4284
▁आश्रय	-11.4288
मिक	-11.4289
▁सुंदरता	-11.429
ांतर	-11.4291
▁कैदी	-11.4293
मार्ग	-11.4296
दीन	-11.4298
यम	-11.4299
ाराम	-11.43
▁मेजबान	-11.43
▁वरीयता	-11.43
▁अभिलेख	-11.4302
▁लगाम	-11.4303
▁देंहटाएं	-11.4306
▁कसौटी	-11.4307
▁इरादे	-11.4307
W	-11.4311
▁अफ़सोस	-11.4311
▁कीचड़	-11.4312
▁माओवाद	-11.4313
▁रॉय	-11.4321
▁पत्	-11.4323
क्ट	-11.4323
▁किला	-11.4324
▁मशीनों	-11.4324
भारत	-11.4325
▁शहीदों	-11.4328
्प	-11.433
▁खाड़ी	-11.433
वेयर	-11.4331
▁मित्रता	-11.4331
▁सम्प्रदाय	-11.4335
क्षित	-11.4338
▁खेली	-11.4338
▁किलोग्राम	-11.434
▁विर	-11.4341
िं	-11.4342
ेटर	-11.4348
▁दूकान	-11.4349
▁भूगोल	-11.4349
▁ऊँचा	-11.435
▁मीठे	-11.4354
▁अंबानी	-11.4354
▁जुआ	-11.4355
▁डेस्क	-11.4356
शंकर	-11.4358
▁अज्ञेय	-11.4358
▁नंद	-11.436
...............	-11.4365
▁चूर	-11.4366
▁चिपका	-11.4367
lo	-11.4368
▁सख्ती	-11.4371
▁रेखांकित	-11.4372
▁आजम	-11.4375
▁वॉल	-11.4376
द्य	-11.4377
▁चिन्तन	-11.4377
▁हानिकारक	-11.4377
▁खजाने	-11.4377
▁कैदियों	-11.4384
▁डिप्लोमा	-11.4386
▁खल	-11.4388
▁ख्याति	-11.439
▁बढ़ेगा	-11.4391
▁लालकृष्ण	-11.4392
▁गायिका	-11.4392
65	-11.4395
06	-11.4395
▁सेमीफाइनल	-11.4395
▁कराता	-11.4395
▁तीव्रता	-11.4396
▁ओशो	-11.4397
हरी	-11.4399
▁जायज	-11.4401
▁आत्मकथा	-11.4405
▁मंे	-11.4407
▁सिरसा	-11.4407
▁माइक	-11.4409
▁चेहरों	-11.4409
▁प्रि	-11.4412
▁गर्ग	-11.4412
▁नमाज़	-11.4415
▁सानिया	-11.4418
म्बर	-11.4418
ूद	-11.4423
58	-11.4423
▁अनुष्ठान	-11.4423
▁it	-11.4426
▁शांतिपूर्ण	-11.4426
▁कॉमेडी	-11.4428
▁सजीव	-11.443
04	-11.4431
▁चतुर्थ	-11.4432
▁स्तरों	-11.4432
▁वसुंधरा	-11.4433
▁हरभजन	-11.4433
▁बुआ	-11.4435
▁कहर	-11.4435
▁बुलाकर	-11.4436
▁बिल्डर	-11.4438
ोवा	-11.444
▁खरे	-11.4441
▁माली	-11.4443
▁छोड़ी	-11.4443
ेन्स	-11.4443
▁घूर	-11.4447
▁गन्ना	-11.4449
दिल	-11.445
▁दीवान	-11.4451
▁बाबूजी	-11.4455
▁आव	-11.4459
▁कारपोरेट	-11.4461
▁लोकायुक्त	-11.4461
क्षी	-11.4462
▁सता	-11.4462
34	-11.4462
▁मददगार	-11.4463
ष्टि	-11.4465
▁कागज़	-11.4467
▁तोमर	-11.4474
▁कभार	-11.4476
▁काटकर	-11.4479
िस्तान	-11.4479
▁रातों	-11.448
▁शासकों	-11.448
▁आभा	-11.448
▁जीती	-11.448
▁पप्पू	-11.4481
▁ऐन	-11.4482
▁बुलाने	-11.4485
▁मिथक	-11.4485
▁नक्सल	-11.4486
▁बनेंगे	-11.4486
▁तनिक	-11.4488
▁नमूने	-11.4489
▁पर्याय	-11.449
▁सर्दियों	-11.4492
▁दुरुस्त	-11.4494
▁लाजवाब	-11.4494
▁तलब	-11.4494
▁कवरेज	-11.4498
▁ब्र	-11.4499
▁→	-11.4499
▁गोल्फ	-11.4501
केट	-11.4502
▁गोपनीयता	-11.4503
▁आजमा	-11.4505
▁रोकथाम	-11.4508
▁वीर्य	-11.451
▁नाता	-11.451
▁चुपके	-11.451
▁वैवाहिक	-11.4513
कार्य	-11.4516
▁पाबंदी	-11.4518
▁स्पा	-11.4518
युग	-11.4519
▁पैरा	-11.4519
▁टिप्स	-11.452
▁पाली	-11.4523
▁कारखाने	-11.4524
▁मुरली	-11.4524
ka	-11.4524
▁नाजुक	-11.4528
▁इन्हे	-11.4528
▁चंदा	-11.453
▁दीवाना	-11.4532
▁सम्बोधित	-11.4537
▁सशस्त्र	-11.4537
▁क्षतिग्रस्त	-11.4537
▁तुलसीदास	-11.4538
▁सरलता	-11.4539
▁कर्नल	-11.4542
▁बकरी	-11.4543
▁खुशियों	-11.4543
▁परिषद्	-11.4544
▁ऊँचे	-11.4549
▁फास्ट	-11.4549
ात्मा	-11.4549
▁प्रख्यात	-11.4551
▁श्रवण	-11.4552
▁सदस्यीय	-11.4553
▁घंटी	-11.4553
त्ता	-11.4554
शंस	-11.4556
▁पात्रों	-11.4559
डिंग	-11.4561
▁संरक्षक	-11.4561
▁जुनून	-11.4561
▁रोष	-11.4561
▁हेम	-11.4562
▁केशव	-11.4563
▁गिरते	-11.4564
G	-11.4564
▁गै	-11.4565
▁कदमों	-11.4566
▁सोन	-11.4566
▁गुजार	-11.4566
▁मौसी	-11.4567
▁विलियम	-11.4568
▁जुटी	-11.4573
▁प्रशंसकों	-11.4577
▁शिवाजी	-11.4578
▁थिएटर	-11.458
रित	-11.458
▁झगड़े	-11.4583
▁जौ	-11.4585
णे	-11.4586
▁जकड़	-11.4588
▁बुंदेलखंड	-11.4594
▁गाजियाबाद	-11.4604
▁जुल	-11.4606
▁तहसीलदार	-11.4609
ाचार	-11.4609
ैस	-11.461
61	-11.4611
▁that	-11.4613
▁रचनाएं	-11.4614
ापन	-11.4615
▁हुनर	-11.462
▁m	-11.4621
▁क़ा	-11.4621
▁गुजरने	-11.4624
ब्ल	-11.4625
▁क्रियान्वयन	-11.4628
▁खुराक	-11.4628
वर्ष	-11.4629
▁कच्चा	-11.4629
्च	-11.4629
कथा	-11.4631
▁aur	-11.4632
▁विचलित	-11.4632
▁तेरह	-11.4633
▁शै	-11.4634
▁मक्का	-11.4636
▁तोड़ा	-11.4638
▁क्षणों	-11.4638
जान	-11.4639
▁साक्षरता	-11.464
▁स्रोतों	-11.4641
मणि	-11.4642
▁सईद	-11.4647
▁लाभदायक	-11.4649
▁सैनी	-11.4649
▁रस्म	-11.4652
52	-11.4654
▁कथाओं	-11.4659
ाड	-11.4661
▁सहाय	-11.4661
ss	-11.4662
▁निभाया	-11.4663
▁लहरों	-11.4663
▁कुलदीप	-11.4665
▁तौल	-11.4666
▁ईरानी	-11.4668
▁लोकार्पण	-11.4671
▁मेघ	-11.4673
▁पूर्वोत्तर	-11.4674
▁अदालतों	-11.4677
वरी	-11.4677
▁अमृता	-11.4677
▁रूह	-11.468
▁pa	-11.4681
▁पिघल	-11.4683
ट्री	-11.4684
▁बाबरी	-11.4686
▁छिपी	-11.4687
▁ब्रह्मांड	-11.4687
▁कबूल	-11.4688
▁मनमानी	-11.4689
▁साक्ष्य	-11.469
▁सिलेंडर	-11.469
▁उलझा	-11.4695
▁वजूद	-11.4695
शाला	-11.4695
▁बिखरे	-11.4699
▁गैंगरेप	-11.47
▁नियामक	-11.47
▁औजार	-11.47
▁कुचल	-11.4704
▁दामाद	-11.4705
▁इस्लामाबाद	-11.4707
▁लक	-11.4708
▁विकृत	-11.4709
▁मरा	-11.4709
▁पेंटिंग	-11.4712
एगा	-11.4713
ऊंगा	-11.4715
▁अवरोध	-11.4715
▁ठेका	-11.4718
▁पटकथा	-11.472
▁उद्धार	-11.4722
▁स्तम्भ	-11.4724
▁चिट्ठ	-11.4725
▁जताते	-11.4727
खाने	-11.4727
▁सिखाने	-11.4728
▁मुर	-11.473
▁अधिकृत	-11.4732
▁शैल	-11.4732
▁उग	-11.4733
▁लगवा	-11.4734
▁वाय	-11.4738
▁स्थानांतरित	-11.4739
▁हॉस्टल	-11.4739
▁तेजपाल	-11.4744
▁अल्पसंख्यकों	-11.4744
▁टिप्	-11.4745
ग्रह	-11.4747
▁एम्	-11.4749
▁do	-11.475
▁मजहब	-11.4753
▁द्वेष	-11.4753
▁गुनाह	-11.4755
▁पीड़िता	-11.4757
▁सुलझा	-11.4757
▁आब	-11.4758
▁लाज	-11.4765
▁सहेली	-11.4768
▁ताक़त	-11.4768
ल्ली	-11.4769
▁फर्श	-11.477
कस	-11.4771
▁मणिपुर	-11.4773
▁एमपी	-11.4777
▁गगन	-11.4777
▁अजनबी	-11.4777
▁परिकल्पना	-11.4777
ण्डा	-11.4778
▁ट्रे	-11.4779
कर्मी	-11.478
▁एफआईआर	-11.4782
▁एकाएक	-11.4783
▁फोर	-11.4787
▁मित्तल	-11.4787
▁यूके	-11.4787
▁चुनें	-11.4789
▁अंसारी	-11.4792
पक	-11.4794
▁माय	-11.4796
▁Full	-11.4802
▁निर्दलीय	-11.4802
▁रोमांस	-11.4802
▁गाव	-11.4802
▁असहाय	-11.4803
▁नीयत	-11.4804
▁दहशत	-11.4814
▁लूँ	-11.4815
▁टेली	-11.4818
de	-11.482
▁क्वा	-11.4821
▁बाक़ी	-11.4822
▁सूजन	-11.4822
▁झूल	-11.4823
▁अहमियत	-11.4823
▁खाए	-11.4823
▁सतर्क	-11.4827
▁वोटों	-11.4827
▁बूँद	-11.4828
▁चुनी	-11.4831
▁निरस्त	-11.4831
▁विराजमान	-11.4831
▁डूबे	-11.4832
▁निर्वाचित	-11.4833
▁मिस्टर	-11.4838
▁हंै	-11.4838
▁रोमांच	-11.484
▁एट	-11.4842
नियम	-11.4844
▁खोद	-11.4846
▁जागृत	-11.485
▁नवजात	-11.4851
ड्र	-11.4852
▁धोने	-11.4854
▁1984	-11.4856
▁शिरकत	-11.4856
▁वरन	-11.4863
▁पहुँचाने	-11.4864
डल	-11.4866
▁फ्र	-11.4866
कृति	-11.4868
ृत	-11.4869
▁बाकि	-11.4871
फ़र	-11.4872
▁थ्री	-11.4873
▁फैक्ट्री	-11.4875
▁दौड़ा	-11.4877
गृह	-11.488
▁ज़िम्मेदारी	-11.4882
▁गान	-11.4885
▁कैटरीना	-11.4885
▁धरातल	-11.4885
▁चप्पल	-11.4885
लिस	-11.4887
▁विलय	-11.4889
▁ज़रिए	-11.489
▁कोण	-11.489
▁ढक	-11.4894
कै	-11.4894
▁बेदी	-11.4895
▁बेचा	-11.4896
▁कुंड	-11.4899
▁तबके	-11.4899
▁बचाओ	-11.4906
▁i	-11.4911
▁महंगे	-11.4915
▁स्वयंसेवक	-11.4915
▁पोंछ	-11.4916
▁होतीं	-11.4916
▁क्वार्टर	-11.492
▁एकांत	-11.4927
▁विफलता	-11.4927
▁मुंशी	-11.4931
▁प्रभार	-11.4935
▁मियां	-11.4936
▁are	-11.4936
▁अर्जी	-11.4936
▁दौड	-11.4939
▁मुलाक़ात	-11.4939
▁परिपूर्ण	-11.4942
▁पीटर	-11.4944
▁शृंखला	-11.4944
▁प्रजनन	-11.4944
▁महारानी	-11.4946
81	-11.4947
▁लिखती	-11.4948
▁नास्तिक	-11.4949
▁निपट	-11.495
▁स्टेज	-11.4951
▁नगरपालिका	-11.4955
▁किशोरी	-11.4956
▁तैयारियां	-11.4957
▁हथेली	-11.4963
▁खासियत	-11.4963
▁सऊदी	-11.4964
▁खजाना	-11.4964
▁सूबे	-11.4967
▁मुन्ना	-11.4969
्ती	-11.4969
▁गांठ	-11.4969
▁टैंक	-11.497
64	-11.4974
▁सोचो	-11.4975
ुत	-11.4977
इल	-11.498
▁ऊँचाई	-11.4983
▁जुड	-11.4985
▁बाण	-11.4985
▁मची	-11.4987
▁घिरे	-11.4988
▁घोड़ा	-11.499
▁गंग	-11.4991
▁स्टैंडर्ड	-11.4992
▁छि	-11.4993
▁प्रभा	-11.4993
▁विनम्र	-11.4994
▁निःशुल्क	-11.4994
▁उनमे	-11.4996
रह	-11.4996
▁डु	-11.4999
▁अन्तर्राष्ट्रीय	-11.4999
▁भग	-11.5004
फिर	-11.5004
▁टपक	-11.5006
▁घटाने	-11.5007
▁इन्तजार	-11.5009
▁प्रिंसिपल	-11.5009
▁शिला	-11.5014
▁खाल	-11.5019
▁गोलीबारी	-11.5019
▁एमएससी	-11.5021
▁बड	-11.5024
▁जैक	-11.5026
▁डिस	-11.5032
▁ख्वाहिश	-11.5034
▁गुमराह	-11.5034
▁जेट	-11.5035
▁खेद	-11.5037
▁जलाने	-11.5038
▁रखेगा	-11.5039
▁संक्षेप	-11.5039
▁मुन	-11.5041
▁शीशे	-11.5042
िज़	-11.5044
▁अवध	-11.5044
ंश	-11.5045
▁प्रतिबद्ध	-11.5046
▁तबाह	-11.5048
डीपी	-11.5048
▁अँधेरे	-11.5049
▁अलविदा	-11.5049
▁ठग	-11.505
▁सरसों	-11.5051
▁राष्	-11.5052
▁बिट	-11.5053
▁दाखिला	-11.5054
▁सादगी	-11.5054
शर	-11.5054
▁खोली	-11.5054
▁कांच	-11.5061
▁दवाई	-11.5063
▁अधिवेशन	-11.5064
▁आवरण	-11.5064
मै	-11.5064
▁चश्मा	-11.5067
▁टिकी	-11.5068
▁वोटिंग	-11.5069
▁हौ	-11.507
▁भंडारण	-11.5073
▁हुड्डा	-11.5074
▁शंख	-11.5075
▁कच्ची	-11.5075
▁गलतियों	-11.5077
ान्त	-11.5078
▁इतर	-11.5081
▁गर्ल	-11.5083
▁सघन	-11.509
▁धुल	-11.509
▁दबे	-11.5091
▁उम्मीदें	-11.5091
▁जोगी	-11.5092
मयी	-11.5093
72	-11.5093
▁कॉपीराइट	-11.5094
▁कैच	-11.5101
▁खडे	-11.5101
▁फेस्टिवल	-11.5104
▁भिखारी	-11.5104
▁संबोधन	-11.5104
▁एकादशी	-11.5105
ah	-11.5106
▁नाप	-11.5112
▁पेस्ट	-11.5113
▁रोमांटिक	-11.5114
▁अक्षरों	-11.5117
▁कुशलता	-11.5118
▁दस्त	-11.5118
▁हिन्	-11.5118
▁भागते	-11.5122
▁पडी	-11.5123
िन्द	-11.5123
▁स्टेशनों	-11.5125
दम	-11.5127
▁बयां	-11.5132
▁सत्तर	-11.5132
▁बढाने	-11.5133
▁सेल्सियस	-11.5134
▁रुपयों	-11.5137
▁बदतर	-11.514
▁1994	-11.5141
▁परोस	-11.5143
56	-11.5144
▁«	-11.5145
▁बीए	-11.5146
्सी	-11.5147
▁बचें	-11.5149
▁दुर	-11.515
िशन	-11.5151
▁अधिवक्ता	-11.5152
▁कराती	-11.5153
▁विस्फोटक	-11.5155
तिया	-11.5155
▁इमारतों	-11.5158
▁एमए	-11.5159
▁अंधकार	-11.516
▁महाजन	-11.5162
▁अनायास	-11.5165
▁यशवंत	-11.5165
किल	-11.5166
▁हकदार	-11.5168
माता	-11.5169
▁नजारा	-11.517
ैट	-11.517
▁चिकित्सालय	-11.5171
लेस	-11.5172
▁वेश्या	-11.5176
▁हराकर	-11.5178
▁नाले	-11.5178
▁पाले	-11.5178
▁आदी	-11.5179
९	-11.518
▁तमन्ना	-11.518
▁बेबी	-11.5182
▁वृक्षों	-11.5187
▁गैलरी	-11.5187
▁तालिका	-11.5189
क्षण	-11.5189
▁कुश	-11.5189
र्त	-11.519
▁बहुगुणा	-11.519
ाता	-11.5192
▁कटे	-11.5192
▁संज्ञान	-11.5193
▁तुला	-11.5194
▁आंधी	-11.5195
▁दूँगा	-11.5201
िना	-11.5201
▁बुकिंग	-11.5202
हिं	-11.5204
सान	-11.5205
▁विमोचन	-11.5205
▁सैद्धांतिक	-11.5205
▁उपायुक्त	-11.5205
▁मुहूर्त	-11.5205
▁कांप	-11.5205
▁स्वाधीनता	-11.5208
▁पूर्णतः	-11.521
▁विज्ञप्ति	-11.521
▁अपार्टमेंट	-11.521
▁लश्कर	-11.521
▁ड्र	-11.521
▁महासभा	-11.5211
▁होठों	-11.5211
▁दिल्	-11.5213
▁बढिया	-11.5214
▁मक्खन	-11.5215
ूम	-11.5217
▁डेट	-11.5219
▁ण	-11.522
▁फ़ायदा	-11.5221
▁अक्षम	-11.5221
▁जमींदार	-11.5221
▁विश	-11.5223
▁बंधु	-11.5223
▁नौकरियों	-11.5225
▁पहुँची	-11.5225
▁संशय	-11.5226
▁कोशिका	-11.5228
▁लहू	-11.5229
▁प्लेयर	-11.5229
▁मोहल्ला	-11.5231
▁छोड़ते	-11.5232
▁माधुरी	-11.5236
▁मूक	-11.5236
▁हिन्दु	-11.5237
▁रस्सी	-11.5237
जाल	-11.5238
▁सौरभ	-11.5238
▁शिकायतों	-11.524
▁औचित्य	-11.5241
मेन्ट	-11.5243
▁ख़ुदा	-11.5245
▁स्कूटर	-11.5246
▁नोबेल	-11.5246
ve	-11.5247
▁नियोजन	-11.5247
▁आधारभूत	-11.525
▁घन	-11.5251
बंदी	-11.5252
▁सुविधायें	-11.5254
▁जुर्म	-11.5254
▁दाद	-11.5257
▁कुक	-11.5258
▁बदलकर	-11.5258
ंव	-11.5259
▁ख़याल	-11.5261
▁अपलोड	-11.5262
▁इंडोनेशिया	-11.5266
▁जेपी	-11.5267
रात	-11.5267
▁कूल	-11.5268
▁मंतर	-11.5269
ात्	-11.5271
▁पन्द्रह	-11.5272
▁सरोज	-11.5272
▁मानों	-11.5273
▁राजद	-11.5277
▁लगें	-11.5278
▁समावेश	-11.5278
▁स्पोर्ट्स	-11.5279
▁सक	-11.5282
▁जयप्रकाश	-11.5283
▁खातों	-11.5283
▁हिचक	-11.5285
▁बरेली	-11.5287
▁लाद	-11.5292
▁रॉबर्ट	-11.5292
▁सभागार	-11.5293
▁आईआईटी	-11.5294
▁सैयद	-11.5297
▁ब्लागिंग	-11.5299
▁लॉस	-11.5299
ाउ	-11.53
▁घुसा	-11.5303
▁पृष्ठों	-11.5304
▁खर्चा	-11.5305
▁सम्बंध	-11.5305
▁राइट	-11.5311
▁इस्लामिक	-11.5311
▁खाती	-11.5312
▁प्रिया	-11.5313
▁राजदूत	-11.5313
लता	-11.5314
▁पकड	-11.5314
▁धरने	-11.5315
▁डालता	-11.5319
▁आभूषण	-11.5319
▁शूट	-11.532
वर्धक	-11.5324
▁पुलिसकर्मियों	-11.5325
▁अलबत्ता	-11.5328
▁पारदर्शी	-11.5329
▁लपक	-11.533
वित	-11.533
▁लगना	-11.5332
▁लंबित	-11.5333
▁बंगला	-11.5334
वाड़ा	-11.5334
▁ट्रैक्टर	-11.5335
▁इंसानियत	-11.5336
▁उत्तेजित	-11.5338
▁एनबीटी	-11.5339
▁नजरिया	-11.534
▁शाश्वत	-11.5343
▁कैम्प	-11.5347
▁यहूदी	-11.5349
▁जायजा	-11.535
▁पिन	-11.535
▁सन्त	-11.535
ाएगा	-11.535
▁रिपोर्टिंग	-11.5352
▁उद	-11.5352
▁चुभ	-11.5353
▁भरते	-11.5354
▁खुर्शीद	-11.5354
▁जुड़ने	-11.5355
▁भाटिया	-11.5356
ोरा	-11.5357
▁बाकायदा	-11.5359
▁रूबरू	-11.5359
नेवाले	-11.5359
▁सातवें	-11.536
▁पुरस्कृत	-11.5364
▁नहाने	-11.5364
▁वर्	-11.5365
मह	-11.5366
▁छुड़ा	-11.5366
▁मप्र	-11.537
▁गवाही	-11.5374
पान	-11.5375
▁अग्रसर	-11.5375
▁चांदनी	-11.5376
▁ग्लास	-11.5376
▁खरा	-11.5377
▁दूषित	-11.538
▁रियासत	-11.538
▁सामरिक	-11.538
▁मनाते	-11.5383
श्च	-11.5387
▁कलंक	-11.5388
▁निकाय	-11.5388
▁मीन	-11.539
▁पैटर्न	-11.539
▁सुरेन्द्र	-11.5391
▁आवारा	-11.5395
्सन	-11.5396
▁गेल	-11.5396
▁निरीक्षक	-11.54
▁con	-11.5402
▁वंदना	-11.5404
▁उर	-11.5404
▁मलेरिया	-11.5406
▁ज़्यादातर	-11.5408
▁मारते	-11.5413
▁अदृश्य	-11.5416
▁नजदीकी	-11.5417
▁किसको	-11.5419
▁नमी	-11.542
▁फारसी	-11.542
रिस	-11.5422
▁भाषी	-11.5424
▁मिलें	-11.5426
▁समंदर	-11.5427
ॉं	-11.5427
▁मरण	-11.5427
▁साबुन	-11.5427
▁थीम	-11.5428
▁सर्जन	-11.543
हां	-11.543
▁कॉन्	-11.5431
▁वर्दी	-11.5432
▁तस्करी	-11.5434
▁आर्मी	-11.5434
र्इ	-11.5436
टेन	-11.5436
▁आरटीआई	-11.5437
धाम	-11.5438
▁दिनचर्या	-11.544
▁मिलान	-11.5443
▁लाभकारी	-11.5445
▁par	-11.5446
▁डिप्टी	-11.5447
▁असलियत	-11.5448
मंद	-11.5452
▁स्वर्गीय	-11.5454
▁पोत	-11.5454
▁कोसी	-11.5456
▁इन्टरनेट	-11.5458
▁आघात	-11.5458
▁नन्द	-11.546
▁रामपुर	-11.546
▁रमा	-11.5462
▁रास्तों	-11.5463
▁व्यवधान	-11.5463
▁पुरे	-11.5464
62	-11.5464
रान	-11.5468
▁इज़	-11.5469
ंख	-11.547
▁सुनाते	-11.547
▁चित्रित	-11.5472
▁टुकड़ों	-11.5473
▁अब्दुल्ला	-11.5475
▁त्यागी	-11.5477
▁चलेगी	-11.5478
▁सोनू	-11.5479
▁अभिभावकों	-11.5481
▁सतर्कता	-11.5483
▁रहस्यमय	-11.5486
▁आंदोलनों	-11.5489
▁असामान्य	-11.5489
▁सवर्ण	-11.549
▁1989	-11.549
▁घिरा	-11.5491
▁अक्	-11.5492
▁दूत	-11.5493
▁सुल्तान	-11.5494
▁बेहोश	-11.5495
▁अध्यापकों	-11.5495
▁उद्देश्यों	-11.5496
▁बहुजन	-11.5496
्फ	-11.5497
▁चढ़कर	-11.5498
▁आयें	-11.5499
क्रिया	-11.5499
▁आवागमन	-11.5499
इयां	-11.55
▁एलबम	-11.5505
▁कराकर	-11.5506
▁शब्	-11.5508
▁महामंत्री	-11.5509
▁मार्मिक	-11.5515
▁रक्षक	-11.5517
▁सर्वथा	-11.5517
▁साले	-11.5517
▁पाएगी	-11.5518
▁बेरोजगार	-11.5523
▁जया	-11.5523
ोव	-11.5524
▁प्रायोजित	-11.5526
शिया	-11.5526
▁फार	-11.5526
ho	-11.5526
शाह	-11.5529
▁श्रृंगार	-11.5531
▁प्रदर्शनकारिय	-11.5536
▁जर्नल	-11.554
▁उत्सर्जन	-11.5541
▁धोखाधड़ी	-11.5541
▁रेगिस्तान	-11.5541
▁चंचल	-11.5546
षी	-11.5546
▁टीमें	-11.5546
▁फोकस	-11.5548
▁प्रविष्टि	-11.5548
▁नेक	-11.555
्दी	-11.5551
▁राउंड	-11.5551
▁प्रतिपक्ष	-11.5552
ॉय	-11.5552
▁बेटों	-11.5552
▁झोंक	-11.5554
▁चौड़ी	-11.5554
▁मुख्यधारा	-11.5554
▁मुखर	-11.5555
िंद	-11.5556
▁About	-11.5557
▁रूठ	-11.556
▁शिवलिंग	-11.556
▁अतिथियों	-11.5562
▁जन्नत	-11.5563
▁फटकार	-11.5566
▁जदयू	-11.5568
▁भोला	-11.5568
▁सचिवालय	-11.5569
ेयर	-11.5569
▁उगल	-11.5569
मात्र	-11.5571
▁रिटायर	-11.5572
▁बंदी	-11.5578
▁विवि	-11.5581
▁देशभक्ति	-11.5581
्श	-11.5582
▁कबूतर	-11.5583
▁सोया	-11.5583
▁छात्रवृत्ति	-11.5584
▁महत्ता	-11.5585
▁गुणा	-11.5589
▁चेष्टा	-11.5589
▁टेक्नोलॉजी	-11.559
▁मूर्तियों	-11.5592
▁दामों	-11.5595
▁संकाय	-11.5595
न्ति	-11.5595
▁अवशेष	-11.5596
▁खोने	-11.5596
क्का	-11.5596
▁पूंजीवाद	-11.5596
▁व्यवसायिक	-11.5598
▁संरक्षित	-11.5599
▁ब्लास्ट	-11.5604
▁गन्ने	-11.5605
वर्ती	-11.5607
ोम	-11.5607
▁उत्सुक	-11.5608
▁बचाना	-11.5609
ाला	-11.5609
▁फौरन	-11.561
▁टाइगर	-11.561
▁कैप	-11.561
▁बिछ	-11.5611
▁ऐश्वर्या	-11.5611
▁बढ़ना	-11.5613
▁नेहा	-11.5614
▁दोहन	-11.5616
▁गोरी	-11.5616
▁स्वीकार्य	-11.5617
▁नानक	-11.5619
▁बाली	-11.562
▁खिंच	-11.5621
ीज़	-11.5624
▁कॉरपोरेट	-11.5626
▁स्त्रोत	-11.5626
▁अज्ञान	-11.5626
▁एकाध	-11.5628
सूत्र	-11.5628
▁विक्रमी	-11.5629
▁९९	-11.5632
▁घटकर	-11.5633
▁तिर	-11.5635
▁काउंटर	-11.5636
▁प्रान्त	-11.5637
▁an	-11.5639
▁आजतक	-11.5639
▁ऎसे	-11.5641
▁सॉ	-11.5641
▁पारदर्शिता	-11.5642
जनक	-11.5643
▁लौटकर	-11.5643
▁प्रचारित	-11.5643
▁पाव	-11.5649
▁सीढ़ी	-11.565
▁कलश	-11.5656
ग्न	-11.5657
▁प्रेरक	-11.5658
▁बैठना	-11.5661
▁बंट	-11.5662
▁रिलीज़	-11.5664
▁बूट	-11.5665
▁क्रय	-11.5665
सेट	-11.5666
▁करवट	-11.5666
▁न्यूयार्क	-11.5668
▁अधिसूचना	-11.5668
▁जनसत्ता	-11.5669
▁पात	-11.5674
▁अर्थों	-11.5674
▁अनुप्रयोग	-11.5676
▁निगल	-11.5676
▁उड	-11.5677
ity	-11.568
har	-11.5683
▁दक्षता	-11.5685
▁दिलाई	-11.5688
▁शह	-11.5692
ट्रिक	-11.5694
▁महमूद	-11.5695
▁फ्रंट	-11.5697
ान्तर	-11.5698
▁ऎसा	-11.5698
वर्ड	-11.5698
▁ठिकाना	-11.5699
▁थान	-11.57
▁चतुर	-11.5701
ist	-11.5708
▁अस्थि	-11.5709
च्छा	-11.571
▁डोल	-11.571
▁इंजेक्शन	-11.5711
▁पूर्वजों	-11.5711
▁More	-11.5711
▁अध्	-11.5712
▁एटीएम	-11.5712
▁घण्टे	-11.5713
▁पोस्	-11.5714
▁कटा	-11.5719
▁नबी	-11.5719
▁आपातकाल	-11.5722
▁ओढ़	-11.5723
▁मुनाफे	-11.5725
▁उल्लास	-11.5727
तल	-11.5728
▁बेसिक	-11.5729
▁मिलाने	-11.5729
▁1970	-11.573
▁गेस्ट	-11.5731
ुए	-11.5732
▁फैक्स	-11.5734
साइन	-11.5737
▁अनोखा	-11.5738
▁नींबू	-11.5738
▁जमीनी	-11.574
▁असंख्य	-11.574
▁ठोक	-11.5741
▁बिताने	-11.5742
▁इस्तीफे	-11.5743
न्य	-11.5745
▁मुस्लिमों	-11.5746
▁दुनियाभर	-11.5746
▁ब्रह्माण्ड	-11.5749
▁हवाओं	-11.5756
▁मॉ	-11.5756
▁हालिया	-11.5756
ज्	-11.5757
ैर	-11.5759
▁असंतोष	-11.5759
मित	-11.5764
▁ठहरे	-11.5765
▁पाठशाला	-11.5765
ूंगी	-11.5767
▁तीखी	-11.577
▁खींचने	-11.5775
िष	-11.5776
▁कवितायें	-11.5779
▁गिफ्ट	-11.5781
▁मुख्	-11.5782
▁दसवीं	-11.5783
▁सजी	-11.5784
▁पहचानने	-11.5786
▁ज़रुरत	-11.5789
▁तार्किक	-11.5791
▁पूर्वाग्रह	-11.5791
▁ओमप्रकाश	-11.5792
▁टोल	-11.5794
▁क्व	-11.5799
▁रक्तचाप	-11.5802
▁हेमंत	-11.5803
▁शॉपिंग	-11.5804
▁मरना	-11.5804
▁रोबोट	-11.5807
▁ट्वीट	-11.5808
▁थोप	-11.5808
म्मा	-11.5809
▁परिपक्व	-11.5813
▁चिट	-11.5815
▁क्रिस	-11.5818
▁रवैये	-11.5818
स्थल	-11.5821
▁यातना	-11.5821
▁बुल	-11.5823
▁माथुर	-11.5824
▁अम्ल	-11.5826
▁अभिन्न	-11.5826
▁मद्रास	-11.5829
▁दरवाज़े	-11.5829
▁आँखे	-11.5831
N	-11.5832
▁अरमान	-11.5834
▁लाइब्रेरी	-11.5835
▁th	-11.5837
मिया	-11.584
▁बुद्धिजीवियों	-11.584
▁मुद्रास्फीति	-11.584
▁छापे	-11.5841
▁रिटेल	-11.5841
सीएल	-11.5842
▁जेटली	-11.5842
▁शब्दावली	-11.5844
ड्स	-11.5845
▁बगीचे	-11.5845
▁डीएनए	-11.5846
▁हिटलर	-11.5847
▁औसतन	-11.5849
▁बागवानी	-11.5851
▁जानकारियां	-11.5854
चक्र	-11.5855
▁दाना	-11.5856
▁प्रकोप	-11.5856
▁व्यथा	-11.5857
ीला	-11.586
▁तत्पर	-11.586
▁नाराज़	-11.5861
▁गोरा	-11.5864
▁पीटा	-11.5864
ूँगी	-11.5864
▁चार्ट	-11.5865
▁आईडी	-11.5867
▁उम्मीदों	-11.5868
▁मोहित	-11.5869
कोई	-11.5871
ts	-11.5871
▁डाक्टरों	-11.5872
ट्टा	-11.5875
▁नवरात्र	-11.5875
▁विस्	-11.588
ment	-11.5883
नीति	-11.5884
▁हिसार	-11.5885
ers	-11.5886
▁दिनभर	-11.5887
▁स्वचालित	-11.5889
▁वेग	-11.589
▁साय	-11.5891
प्रिय	-11.5892
▁राधे	-11.5893
▁कार्यान्वयन	-11.5894
▁देखरेख	-11.5894
▁शिफ्ट	-11.5895
▁अविश्वास	-11.5895
▁कल्चर	-11.5897
▁ग्ल	-11.5901
न्यू	-11.5902
▁नैन	-11.5906
▁पालक	-11.5906
▁साम्राज्यवाद	-11.5906
▁फ़ि	-11.5907
▁जमी	-11.5907
▁होंठों	-11.5908
▁कुपोष	-11.5908
▁जाऊंगा	-11.5909
▁with	-11.5911
▁विशेषताओं	-11.5913
▁108	-11.5914
▁पितृ	-11.5916
▁झंडे	-11.5916
▁प्रजातियों	-11.5918
ent	-11.5921
दर्शन	-11.5923
▁छोड़े	-11.5923
▁अभिभावक	-11.5924
▁अछूत	-11.5924
▁सप्तम	-11.5926
▁ठिकाने	-11.5926
▁पैकेट	-11.5927
▁तानाशाही	-11.5927
▁प्रे	-11.5928
▁रीडर	-11.5931
63	-11.5931
▁हवन	-11.5937
▁अपमानित	-11.5937
▁कट्टर	-11.5938
▁जानकारों	-11.5941
▁नक्शे	-11.5941
▁फ़ोटो	-11.5942
▁खौफ	-11.5943
а	-11.5949
▁फकीर	-11.5949
▁मुहर	-11.5949
▁प्रस्थान	-11.5951
▁वाकिफ	-11.5951
▁दारू	-11.5953
▁or	-11.5954
▁भागे	-11.5954
▁विश्वसनीयता	-11.5961
अन	-11.5964
▁मारना	-11.5967
▁लकीर	-11.5967
जय	-11.597
▁डीवीडी	-11.5971
▁श्राद्ध	-11.5971
्नी	-11.5974
▁वैन	-11.5974
▁गन	-11.5974
▁बुजुर्गों	-11.5974
▁ढूंढ़	-11.5975
▁वहा	-11.5976
धारा	-11.5978
▁वात	-11.5978
▁थाम	-11.5979
▁बीता	-11.5981
▁सवेरे	-11.5982
▁पत्तियों	-11.5982
▁फिल्मकार	-11.5983
▁you	-11.5984
▁नजरों	-11.5985
▁थि	-11.5985
ॉक	-11.5985
▁शहादत	-11.5987
▁कार्ल	-11.5994
▁राष्ट्रमंडल	-11.5994
जनों	-11.5994
ओगे	-11.5996
▁अधार	-11.5996
▁अव्वल	-11.5998
▁ताकतों	-11.5999
▁भगवती	-11.5999
▁गोपनीय	-11.6
▁फ्रेंड	-11.6001
ुल्ला	-11.6002
▁देंगी	-11.6005
▁खुलेआम	-11.601
▁वक्ता	-11.6012
मोहन	-11.6018
▁एंट्री	-11.602
▁गर्भावस्था	-11.6021
▁संघीय	-11.6022
▁इम	-11.6023
▁स्पष्टीकरण	-11.6024
▁शाखाओं	-11.6026
▁इतालवी	-11.6026
▁कैलिफोर्निया	-11.6026
▁द्रव्य	-11.6027
▁bhi	-11.6029
▁जुदा	-11.603
▁हैरत	-11.6031
▁पूज	-11.6032
▁लैब	-11.6034
▁बाव	-11.6035
ख्	-11.6036
▁गुरूवार	-11.604
▁स्पीकर	-11.6041
▁पीर	-11.6047
▁धनुष	-11.6048
▁रखरखाव	-11.6048
▁ब्राउन	-11.6048
▁लड़कियाँ	-11.6048
▁दरार	-11.605
▁साँप	-11.6052
ैक्स	-11.6055
▁बुनियाद	-11.6056
▁वेदना	-11.6057
▁खरीदना	-11.6058
ठ्ठ	-11.6059
वंश	-11.606
▁याहू	-11.6061
▁अब्बास	-11.6062
▁विकल्पों	-11.6062
▁चौके	-11.6065
▁जिम्मा	-11.6066
▁उल्टी	-11.6066
▁अभिमान	-11.607
▁मृग	-11.6073
▁नौका	-11.6074
▁कुश्ती	-11.6076
▁कांटे	-11.6077
▁किससे	-11.6077
▁जख्म	-11.6078
▁क्रूज	-11.6081
▁सुदृढ़	-11.6081
▁ठाक	-11.6082
▁नौबत	-11.6082
▁करवाए	-11.6083
▁पाला	-11.6085
▁मॉड्यूल	-11.6085
▁निः	-11.6086
▁२१	-11.6086
▁रॉयल	-11.6086
▁निष्क्रिय	-11.6087
▁प्लेटफार्म	-11.6087
लीन	-11.6087
▁व्यवसायी	-11.6089
▁पवित्रता	-11.6089
▁आलोचकों	-11.609
▁टीआरपी	-11.6093
▁पीली	-11.6093
▁गरज	-11.6094
▁धर्मनिरपेक्ष	-11.6095
▁स्टिंग	-11.6095
▁दिव्या	-11.6097
▁पेटेंट	-11.6097
▁अप्र	-11.6098
▁एचआईवी	-11.6098
▁जवाहरलाल	-11.6099
▁झारखण्ड	-11.6103
▁सरबजीत	-11.6103
▁नामवर	-11.6104
▁मान्यताओं	-11.6106
▁उमेश	-11.6106
ke	-11.6107
▁सर्किट	-11.6109
▁फायदेमंद	-11.6109
▁राजकुमारी	-11.6114
▁अराजकता	-11.6114
▁करतीं	-11.6114
▁चौपाल	-11.6116
▁डॉन	-11.6118
▁st	-11.612
▁नौसेना	-11.612
▁लूं	-11.6122
▁रुकने	-11.6122
▁डिमांड	-11.6126
▁आवाजें	-11.6126
ous	-11.6127
▁बला	-11.6127
▁जुडे	-11.6128
▁लड्डू	-11.6131
▁सुदूर	-11.6132
▁बटोर	-11.6133
▁विलक्षण	-11.6137
▁कालीन	-11.6137
▁लुप्त	-11.6137
▁क्षेत्रफल	-11.6139
▁खामोशी	-11.6139
मस	-11.6142
▁पाश्चात्य	-11.6142
▁रोजी	-11.6143
▁नौजवानों	-11.6144
▁जुडी	-11.6145
▁बहिन	-11.6146
मुझे	-11.6146
▁बजाने	-11.6149
ढ़ा	-11.6151
▁बसु	-11.6153
▁सनसनी	-11.6154
्ने	-11.6154
▁मार्टिन	-11.6157
▁लैटिन	-11.6159
K	-11.616
▁125	-11.6161
▁गी	-11.6161
▁खानदान	-11.6164
▁प्रोफेशनल	-11.6164
▁मांसपेशियों	-11.6165
▁वीरेंद्र	-11.6166
▁सपोर्ट	-11.6166
▁गोरे	-11.6168
महा	-11.6169
▁कम्प	-11.617
▁पीढी	-11.6172
जीवन	-11.6173
▁साया	-11.6179
▁अश	-11.6179
▁घूस	-11.618
▁माइक्रोसॉफ्ट	-11.6182
▁बरबाद	-11.6182
▁प्रलय	-11.6183
▁nbsp	-11.6187
▁प्रणालियों	-11.6187
▁हुकूमत	-11.6187
▁जासूसी	-11.6187
▁मैसेज	-11.6187
▁लाती	-11.6189
▁इच्छाओं	-11.619
▁लगाती	-11.6192
▁टैगोर	-11.6193
ुष	-11.6194
▁समता	-11.6195
यक	-11.6197
▁गोर	-11.6197
▁तलाशी	-11.6201
▁टिप	-11.6203
▁छे	-11.6204
▁बंबई	-11.6204
▁एनजीओ	-11.6204
▁उतरी	-11.6206
▁मशाल	-11.6209
▁इन्होने	-11.621
राह	-11.621
सीए	-11.6212
▁आहट	-11.6213
▁दुर्दशा	-11.6215
रंजन	-11.6216
▁बढ़ाई	-11.6219
गरी	-11.6221
▁कॉर्पोरेट	-11.6221
▁समकक्ष	-11.6221
▁पहुंचना	-11.6223
▁टावर	-11.6223
▁वाक	-11.6224
ौन	-11.6226
▁बजरंग	-11.6227
▁मादा	-11.6228
▁फिक्र	-11.6228
▁नोकिया	-11.6229
ईं	-11.6232
▁छुट्टियों	-11.6233
▁पोप	-11.6236
▁एव	-11.6237
▁घुम	-11.6246
▁ज़िम्मेदार	-11.6247
▁“”	-11.6248
▁नमस्ते	-11.6249
ci	-11.6254
र्र	-11.6255
▁डेंगू	-11.6255
रुप	-11.6257
▁फेस	-11.626
▁डिवाइस	-11.626
▁निषेध	-11.626
▁चैंपियनशिप	-11.626
▁कचरे	-11.6267
ॉट	-11.6267
▁बेचारी	-11.6268
▁मर्म	-11.6268
▁हनन	-11.6269
ेरे	-11.627
▁दांतों	-11.627
▁रची	-11.6271
▁पठान	-11.6271
▁Story	-11.6272
▁सरोवर	-11.6272
▁कराची	-11.6275
▁नज़्म	-11.6276
▁फरमान	-11.6277
▁जगन्नाथ	-11.6277
▁नारेबाजी	-11.6278
73	-11.6278
▁संवेदनशीलता	-11.6278
▁बहुराष्ट्रीय	-11.6289
▁मंहगाई	-11.6289
▁उज	-11.629
▁खंडन	-11.6294
साल	-11.6296
▁रघु	-11.6299
▁बम्बई	-11.63
▁इसपर	-11.63
▁पिक्चर	-11.6301
▁रीढ़	-11.6301
▁सुदर्शन	-11.6301
चित्र	-11.6304
▁आमने	-11.6304
▁Post	-11.6305
▁एफडीआई	-11.6306
▁जल्दबाजी	-11.6307
▁चकित	-11.631
▁डाउन	-11.6311
▁ब्रिज	-11.6313
▁भूले	-11.6315
▁विमल	-11.6317
▁डीसी	-11.632
▁यंग	-11.6321
ानुसार	-11.6321
▁लंच	-11.6321
▁शुमार	-11.6321
▁राष्ट्रवाद	-11.6322
▁अनूठा	-11.6323
▁ओस	-11.6323
▁मज़ाक	-11.6325
▁हेयर	-11.6325
▁वास्	-11.6327
ान्	-11.6328
▁कारावास	-11.6328
▁बसें	-11.6329
▁शुभकामनाएँ	-11.6329
▁700	-11.633
han	-11.6331
▁भौतिकी	-11.6331
▁अम	-11.6332
▁अह	-11.6334
क्शन	-11.6334
▁क़ी	-11.6335
▁चढ़ने	-11.6337
▁युक्तियाँ	-11.6339
▁कोशिशों	-11.634
▁नेहरु	-11.634
ड़िया	-11.6341
▁शासित	-11.6342
▁अजब	-11.6343
▁सेब	-11.6346
▁लाओ	-11.6346
▁चूसने	-11.6346
▁हीरोइन	-11.6347
▁आरंभिक	-11.6349
▁कोशिशें	-11.6351
विज्ञान	-11.6352
▁अटक	-11.6352
▁पहुँचते	-11.6353
▁मार्शल	-11.6354
▁मकानों	-11.6356
▁पुरातत्व	-11.6357
▁एडिटर	-11.6359
▁पुष्ट	-11.6363
▁महंत	-11.6363
केश	-11.6364
▁होटलों	-11.6368
ब्स	-11.6368
▁पूँजी	-11.6372
▁मिलनी	-11.6374
▁इण्डिया	-11.6374
▁घसीट	-11.6374
▁प्रवाहित	-11.6375
▁बनवाने	-11.6376
▁रिस	-11.6377
▁छोड़ो	-11.6378
▁गोलियों	-11.6379
▁उपेक्षित	-11.638
▁हार्मोन	-11.638
▁दाऊद	-11.638
नेवाला	-11.6384
▁वैष्णव	-11.6385
पै	-11.6386
तिक	-11.6388
▁मीट	-11.6389
▁संवर्धन	-11.6392
▁सभाओं	-11.6392
▁मेयर	-11.6392
▁बेक	-11.6392
▁स्विस	-11.6396
▁ईर्ष्या	-11.6397
▁एनडीटीवी	-11.6397
▁गंदे	-11.6397
▁धु	-11.6399
हाल	-11.64
पूर	-11.6402
▁त्	-11.6402
▁तम्बाकू	-11.6403
▁प्रॉपर्टी	-11.6403
▁फैसल	-11.6407
▁सांग	-11.6409
▁चट्टान	-11.6409
डब्ल्यू	-11.6409
▁आंक	-11.641
▁बूढ़ा	-11.6414
▁गुड़गांव	-11.6414
▁आक	-11.6418
▁जोड़ों	-11.6419
प्ले	-11.6421
▁दोहरी	-11.6421
▁सापेक्ष	-11.6422
▁रिचर्ड	-11.6424
▁संभाग	-11.6426
▁ग़ैर	-11.6426
▁ख़बरें	-11.6426
▁वृ	-11.6426
रल	-11.6429
▁भोर	-11.643
▁अनोखी	-11.6431
▁परीक्षाओं	-11.6433
वर्	-11.6434
▁he	-11.6434
▁बीन	-11.6435
गू	-11.6436
▁लब	-11.6437
▁त्रिवेदी	-11.6437
▁देवनागरी	-11.6437
ोह	-11.6439
▁गुजरते	-11.6442
▁चंद्रशेखर	-11.6443
▁नजरअंदाज	-11.6443
▁जड़ों	-11.6444
man	-11.6447
ुवा	-11.6449
▁तंत्रिका	-11.645
▁चॉकलेट	-11.6454
▁नागार्जुन	-11.6454
▁बीएसई	-11.6456
▁तस	-11.6459
▁यूथ	-11.6461
▁पेशेवरों	-11.6466
▁पण्डित	-11.6467
▁पांचवें	-11.6469
▁रगड़	-11.647
▁अन्तर्	-11.6471
▁लाचार	-11.6473
▁1950	-11.6474
गीत	-11.6476
▁परशुराम	-11.6477
विंदर	-11.6483
▁चारो	-11.6486
लोग	-11.6487
▁तैनाती	-11.6488
▁दुविधा	-11.6489
▁सामंजस्य	-11.6489
▁ब्रांच	-11.649
ावस्था	-11.649
▁खरी	-11.6492
▁कोचिंग	-11.6493
▁वामपंथ	-11.6495
▁कगार	-11.6497
▁भइया	-11.6497
ॉर	-11.6498
▁कमांडर	-11.6499
▁मुंडा	-11.65
▁कांफ्रेंस	-11.65
टिया	-11.6507
म्स	-11.6507
ाश	-11.6508
▁ऑर्डर	-11.6508
▁विद्रोही	-11.6509
्योर	-11.6511
जित	-11.6512
▁हदीस	-11.6514
▁२४	-11.6515
▁गधे	-11.6518
्को	-11.6522
▁शर	-11.6523
▁आश्रित	-11.6524
▁मतों	-11.6524
▁दायरा	-11.6525
टेल	-11.6525
▁प्रेशर	-11.6526
शीलता	-11.6527
▁जाऊँ	-11.6528
▁वांछित	-11.6529
नै	-11.653
▁प्रतिक्रियाएं	-11.6531
▁इट	-11.6532
▁प्रावधानों	-11.6532
▁हटाकर	-11.6534
▁एमएस	-11.6534
▁कलर	-11.6536
▁डू	-11.6538
▁blogspo	-11.6541
▁सन्नाटा	-11.6541
▁माउस	-11.6541
▁बत्ती	-11.6542
ia	-11.6545
▁तिब्बती	-11.6545
▁दृढ़ता	-11.6546
▁पक्षधर	-11.6548
▁साह	-11.6548
▁उतरते	-11.6548
▁गिलानी	-11.6549
▁लुटा	-11.6552
▁एजुकेशन	-11.6553
▁वर्गीकरण	-11.6554
ट्ट	-11.6555
▁आदमियों	-11.6557
स्ती	-11.6558
▁स्लाइड	-11.6559
▁बॉय	-11.6559
▁सिंगल	-11.6563
▁यक्ति	-11.6564
▁तैर	-11.6564
▁बड़ों	-11.6564
▁संगीता	-11.6567
▁फ्रेम	-11.6568
ाहट	-11.6568
लैण्ड	-11.657
▁आजीविका	-11.657
▁गूँज	-11.657
▁निराकरण	-11.657
▁तकनीकों	-11.6572
▁भावनाएं	-11.6574
▁ब्ल	-11.6575
विल	-11.6575
▁गद्दी	-11.6577
▁राघव	-11.6578
▁उमंग	-11.6579
▁कैफ	-11.6579
▁चढ़ाई	-11.6579
▁जनों	-11.6581
▁आठवीं	-11.6582
▁विभूति	-11.6583
ुला	-11.6586
age	-11.6588
▁हीरे	-11.6589
▁नक्शा	-11.659
कुछ	-11.6591
विध	-11.6593
▁ख़ुश	-11.6594
▁मौर्य	-11.6594
▁more	-11.6594
▁mo	-11.6595
▁संभाला	-11.6597
▁जंतर	-11.66
▁ग्राउंड	-11.6601
▁माफ़ी	-11.6602
र्श	-11.6604
कॉ	-11.6606
▁विंडोज	-11.6606
▁सड़	-11.6612
▁स्पिनर	-11.6613
▁साला	-11.6613
▁विरोधाभास	-11.6617
▁पूंछ	-11.6617
गुण	-11.6618
▁उन्हों	-11.6619
▁कीर्ति	-11.6619
▁पीडि़त	-11.6621
▁बर्ताव	-11.6623
▁विडंबना	-11.6623
▁सूचक	-11.6626
▁धू	-11.6627
▁विमानों	-11.6628
▁शंकराचार्य	-11.6629
▁हिंदुत्व	-11.663
रोग	-11.6633
▁दिखला	-11.6634
▁एंव	-11.6638
▁शुभकामना	-11.6638
▁निभाते	-11.6639
ाट	-11.664
शो	-11.664
क्क	-11.6642
कान	-11.6643
▁ख़त	-11.6646
▁फुर्सत	-11.6646
▁टिपण्णी	-11.6652
▁कुमाऊँ	-11.6652
▁h	-11.6652
▁रहिये	-11.6653
▁एप्पल	-11.6653
▁चूहे	-11.6654
लियों	-11.6654
▁सर्वत्र	-11.6655
▁काटा	-11.6657
बत	-11.6658
▁वाद्य	-11.6658
▁In	-11.666
▁पेशाब	-11.6664
▁छलक	-11.6665
द्घ	-11.6665
▁क्रि	-11.6667
रिन	-11.667
ध्य	-11.6671
▁रूपरेखा	-11.6672
▁पत्ता	-11.6672
▁लीबिया	-11.6672
▁क्षमताओं	-11.6674
सिटी	-11.6674
▁फ़्र	-11.6674
▁खाँ	-11.6678
▁अस्वीकार	-11.6683
मती	-11.6685
ee	-11.6688
▁नाटकीय	-11.6688
▁डूबा	-11.6689
गाह	-11.6691
▁ट्रेनों	-11.6692
▁अनुयायी	-11.6693
▁गतिविधियां	-11.6694
▁मिथुन	-11.6699
▁प्रतिभाशाली	-11.6699
▁बहुल	-11.67
▁संतुष्टि	-11.67
ंती	-11.6701
▁पैदावार	-11.6704
▁छठी	-11.6704
▁अरसे	-11.6705
▁इराक़	-11.6705
▁nahi	-11.6705
▁विक्रेता	-11.6708
▁जिन्ना	-11.6708
वुड	-11.671
▁भावार्थ	-11.671
▁मुझमें	-11.6712
▁लड़ना	-11.6712
▁पासवान	-11.6713
▁उबल	-11.6714
▁खींचा	-11.6716
▁पाउंड	-11.6718
▁राष्ट्रवादी	-11.6718
ाइजेशन	-11.6721
▁छात्रावास	-11.6721
▁दंत	-11.6724
▁शासनकाल	-11.6725
▁प्रिंस	-11.6725
८	-11.6726
▁मल्लिका	-11.6727
▁लैंड	-11.6729
▁1500	-11.6731
▁पहनकर	-11.6731
तीं	-11.6731
▁सरिता	-11.6734
▁गुनगुना	-11.6734
▁माटी	-11.6734
▁प्रतिद्वंद्वी	-11.6735
▁इक्विटी	-11.6735
ive	-11.6736
दाता	-11.6739
▁खिलवाड़	-11.6741
▁शीश	-11.6743
▁व्यंग	-11.6743
्फ़	-11.6747
स्तान	-11.6749
▁ताई	-11.675
▁सम्मुख	-11.6753
▁पुराणों	-11.6753
▁लेप	-11.6754
▁सुलझ	-11.676
▁भिजवा	-11.6762
▁झु	-11.6763
▁ड्राई	-11.6767
▁जानबूझकर	-11.6767
▁1857	-11.6768
▁सैम	-11.6769
▁रखनी	-11.6775
पड़	-11.6775
▁बेवजह	-11.6776
▁सद्	-11.6777
ai	-11.678
साई	-11.6782
▁मच्छर	-11.6782
खाना	-11.6784
मूर्ति	-11.6784
▁स्टडी	-11.6788
▁रमण	-11.6789
▁ग्रा	-11.679
▁साज	-11.6792
▁प्रज्ञा	-11.6793
▁यूनाइटेड	-11.6794
▁सुर्खिय	-11.6795
▁शिल्पा	-11.6796
प्ल	-11.6799
▁मानदंड	-11.6801
▁शारदा	-11.6807
▁नग	-11.6813
वों	-11.6814
▁बंधे	-11.6815
▁केतु	-11.6818
▁ताजमहल	-11.6818
▁फ़िल्मी	-11.6822
▁भेजना	-11.6823
▁पढ़िए	-11.6823
▁भारतवर्ष	-11.6824
▁उद्योगपति	-11.6826
▁नीलम	-11.6827
▁us	-11.6827
जिन	-11.6827
▁रिंग	-11.6828
▁सिंहासन	-11.6829
▁पौधा	-11.6831
▁ओझा	-11.6832
▁मनोबल	-11.6836
▁भान	-11.6839
सिस	-11.6841
▁जनमत	-11.6846
▁मौखिक	-11.6848
▁भिक्षु	-11.6848
AR	-11.6849
पुत्र	-11.6849
▁काका	-11.6849
▁रब	-11.685
▁गहने	-11.6852
ूस	-11.6852
▁नॉन	-11.6853
विद	-11.6857
बुक	-11.6857
▁प्रचारक	-11.686
इंग	-11.6861
▁पिस	-11.6861
▁गिरकर	-11.6864
▁बाएं	-11.6865
▁जातीं	-11.6865
▁छद्म	-11.6866
▁पूंजीवादी	-11.6867
▁शील	-11.6867
▁मुश्किलें	-11.6868
▁दबी	-11.6868
53	-11.6871
▁सम्पादन	-11.6872
▁किंग्स	-11.6872
▁आशुतोष	-11.6884
▁बहुमूल्य	-11.6884
▁पायदान	-11.6884
▁बेला	-11.6884
▁उल्लू	-11.6885
▁सुरेंद्र	-11.6885
▁di	-11.6888
▁संवार	-11.6888
▁आसार	-11.6888
▁खरीदे	-11.6891
▁वैश्य	-11.6892
▁शब्दकोश	-11.6892
▁समाहित	-11.6896
▁आइडिया	-11.6898
बुल	-11.6898
गामी	-11.6899
इया	-11.69
▁मिक्स	-11.6901
▁कैप्टन	-11.6902
▁सत्तारूढ़	-11.6902
▁पक्के	-11.6903
▁टटोल	-11.6903
▁टर्म	-11.6905
▁रिया	-11.6906
ाएं	-11.6907
▁इर	-11.6908
▁पुरस्कारों	-11.691
▁मायके	-11.6911
▁दिखाती	-11.6911
▁टाउन	-11.6911
फि	-11.6912
▁गाए	-11.6912
▁शमशेर	-11.6914
▁सहा	-11.6916
▁फेंकने	-11.6919
▁अप्रत्यक्ष	-11.692
▁बेडरूम	-11.692
▁इकलौत	-11.692
▁रविशंकर	-11.692
▁जलने	-11.6924
▁सोची	-11.6924
▁पटल	-11.6928
▁कुएं	-11.6929
▁सेमी	-11.693
गुरु	-11.6932
▁ढ़	-11.6935
▁कैर	-11.6935
▁बृहस्पति	-11.6937
▁बरी	-11.6937
रेन	-11.6939
उन	-11.6941
▁सुई	-11.6943
▁कुछेक	-11.6944
▁औकात	-11.6944
▁सिं	-11.6945
▁सेतु	-11.6947
▁ऊब	-11.6947
▁ठोकर	-11.6948
▁कफ	-11.695
▁ट्रांसफर	-11.695
▁पदोन्नति	-11.6951
▁सेवानिवृत्त	-11.6953
▁न्यास	-11.6955
▁अभ्यर्थियों	-11.6956
▁ha	-11.6961
▁जीवनी	-11.6965
▁गिने	-11.6965
▁लूटने	-11.6968
°	-11.697
ोरी	-11.6971
थो	-11.6972
ख्या	-11.6973
▁सर्टिफिकेट	-11.6974
▁छुआ	-11.6977
▁ra	-11.6978
▁नामी	-11.6982
▁रत	-11.6984
▁अबू	-11.6984
▁चित्रा	-11.6986
▁उपर्युक्त	-11.6986
▁आटे	-11.6987
▁जड़ें	-11.6989
ढा	-11.699
▁देशभक्त	-11.6992
▁भद्र	-11.6993
▁लक्ष्यों	-11.6994
िष्ट	-11.6995
▁जोड़ना	-11.6995
▁विलास	-11.6997
▁अभूतपूर्व	-11.6999
▁तै	-11.7
च्	-11.7001
▁सहसा	-11.7002
▁२०१०	-11.7005
▁मेहमानों	-11.7007
▁चश्मे	-11.7008
▁डालो	-11.7011
▁जगाने	-11.7012
▁धाराओं	-11.7012
▁मज़दूरों	-11.7017
▁so	-11.7018
▁सजाया	-11.7021
▁भागीदार	-11.7023
▁उन्मुक्त	-11.7024
▁मुल्ला	-11.7024
मित्र	-11.7024
▁कारकों	-11.7026
▁ओल्ड	-11.7028
▁चूच	-11.7029
▁आत्मघात	-11.703
शू	-11.703
▁पेस	-11.7031
0000	-11.7031
▁कंप	-11.7031
प्रीत	-11.7031
▁सकूं	-11.7033
▁कूच	-11.7034
▁स्मिथ	-11.7035
▁सरक	-11.7035
▁चने	-11.7045
ाजी	-11.7047
▁फरीदाबाद	-11.7047
▁जरदारी	-11.7048
ारे	-11.7048
वेर	-11.7049
▁बिज	-11.7049
▁कवच	-11.7051
▁लौटना	-11.7057
▁झर	-11.7058
▁post	-11.7058
▁१००	-11.7059
ीत	-11.706
▁बचाए	-11.706
▁अड़	-11.7061
▁पच	-11.7061
मेरे	-11.7062
▁लालसा	-11.7062
▁शर्तें	-11.7063
▁पॉवर	-11.7064
▁1960	-11.7065
▁श्रेणियों	-11.7066
▁टॉम	-11.7067
▁एह	-11.7069
▁युक्ति	-11.7069
▁छानबीन	-11.7072
▁प्रेषित	-11.7072
▁भाग्यशाली	-11.7072
▁कंठ	-11.7073
▁अनुमोदन	-11.7078
▁परिचालन	-11.7078
▁मादक	-11.7078
मां	-11.7078
▁जार्ज	-11.7078
▁मंड	-11.7079
▁बगावत	-11.708
▁पडेगा	-11.7081
पास	-11.7084
▁ताल्लुक	-11.7084
▁काबिज	-11.7086
▁पोकर	-11.7086
ंबर	-11.7089
▁एस्टेट	-11.7091
्यूट	-11.7095
▁दरवाज़ा	-11.7096
▁नज़दीक	-11.7096
▁फीचर	-11.7097
▁चौंकाने	-11.71
▁झट	-11.7106
▁कम्	-11.7106
▁शौकीन	-11.7107
▁पोर्न	-11.7108
▁दवाएं	-11.7109
▁प्रवृति	-11.711
▁दर्शाया	-11.7111
▁धीरज	-11.7113
▁ढह	-11.7114
▁नासा	-11.7114
▁सिकंदर	-11.7115
▁नग्न	-11.7116
ab	-11.7117
▁छपे	-11.7118
▁वेबसाइटों	-11.712
▁अभिवादन	-11.7121
▁टायर	-11.7121
▁pro	-11.7122
▁बुलाई	-11.7123
▁हममें	-11.7123
▁छिन	-11.7126
▁जासूस	-11.7127
▁लेडी	-11.7131
▁थूक	-11.7133
▁तानाशाह	-11.7133
▁थाईलैंड	-11.7133
▁बरत	-11.7135
▁घटनास्थल	-11.7136
▁ऐड	-11.7136
▁स्वतन्त्रता	-11.7137
त्तर	-11.714
▁भैरव	-11.714
▁ज्वाला	-11.7141
बंध	-11.7142
आउट	-11.7142
▁कर्ता	-11.7142
▁जुल्म	-11.7143
▁निकालते	-11.7144
▁इकबाल	-11.7146
▁तबीयत	-11.7149
▁नु	-11.715
▁जनमानस	-11.7152
▁संविदा	-11.7152
nd	-11.7157
▁सूचनाओं	-11.7157
त्न	-11.7158
▁पनीर	-11.7158
▁अधूरे	-11.7158
▁प्रबंधकों	-11.7158
हों	-11.716
▁धीमे	-11.7161
▁प्रमुखता	-11.7164
दारों	-11.7166
▁मिथ्या	-11.7172
▁विंडो	-11.7173
डु	-11.7178
▁सुगंध	-11.718
▁बनावट	-11.7183
▁पराजय	-11.7183
▁अंकुर	-11.7183
▁त्यों	-11.7184
गेट	-11.7184
▁रेफर	-11.7185
▁बर्खास्त	-11.7188
ुं	-11.7188
देख	-11.7188
▁समर्थित	-11.7188
रक	-11.7189
टिव	-11.7193
फ्	-11.7193
▁हिंदु	-11.7194
▁Y	-11.7194
▁मसल	-11.7194
▁भुना	-11.7197
▁पर्सनल	-11.7199
▁फ्लोर	-11.72
▁मारुति	-11.7201
▁मेकअप	-11.7201
▁भूखा	-11.7202
▁अणु	-11.7206
▁इला	-11.7207
▁खिलौने	-11.7207
स्वामी	-11.7208
▁राज्यमंत्री	-11.7209
ion	-11.7215
▁नीतियां	-11.7215
▁110	-11.722
▁उत्तीर्ण	-11.722
ग्रा	-11.722
▁स्टूडेंट	-11.7221
▁बं	-11.7221
▁सुध	-11.7222
▁कस्टम	-11.7223
▁कीड़े	-11.7223
ंटा	-11.7225
▁कब्ज	-11.7227
▁भीष्म	-11.7232
▁निदेशालय	-11.7232
▁गंदा	-11.7233
▁प्रपत्र	-11.7237
ँच	-11.7241
▁अनवरत	-11.7242
▁खिलाडी	-11.7243
▁गुरुजी	-11.7244
▁वेल	-11.7245
भू	-11.7246
▁प्रयाग	-11.7248
▁ट्राई	-11.725
▁मत्स्य	-11.7251
▁प्रोडक्शन	-11.7251
▁मूर्त	-11.7258
ड्	-11.7264
ध्	-11.7264
▁सिडनी	-11.7265
▁छलांग	-11.7265
▁ह्यू	-11.7268
▁प्रयोगों	-11.7268
▁दफा	-11.727
▁फर्स्ट	-11.727
▁बंगले	-11.7271
▁आशिक	-11.7272
▁जाप	-11.7272
▁आड़े	-11.7273
▁जायेंगी	-11.7274
▁स्वदेशी	-11.7275
▁सलामी	-11.7275
▁रोती	-11.7276
▁अमानवीय	-11.7276
▁दशमलव	-11.7276
▁बस्तियों	-11.7277
▁जेहन	-11.7278
▁दिलवा	-11.7279
▁त्रस्त	-11.7279
▁कटु	-11.728
▁जरिया	-11.7281
ोई	-11.7281
▁बंधा	-11.7282
▁अरूण	-11.7283
▁मुफ़्त	-11.7283
रेशन	-11.7285
▁इंक	-11.7287
▁वाजिब	-11.7289
गति	-11.7289
▁परंपराओं	-11.729
▁ट्रेंड	-11.729
▁दक्ष	-11.729
▁व्यस्तता	-11.7293
▁मदिरा	-11.7295
▁लिफ्ट	-11.7296
▁आईना	-11.7297
स्त्र	-11.7298
▁शाकाहारी	-11.7299
▁ज़माना	-11.7301
▁इंगित	-11.7302
इक	-11.7303
बान	-11.7304
▁man	-11.7305
▁किनारा	-11.7306
▁बहुसंख्यक	-11.7307
▁वाल्मीकि	-11.7307
▁चलाता	-11.7308
▁फैलने	-11.7313
▁आकस्मिक	-11.7314
▁बढ़ोत्तरी	-11.7314
▁कहूँगा	-11.7315
▁अड	-11.7319
▁बारूद	-11.7322
▁ओट	-11.7323
▁विवेचन	-11.7323
▁अंबेडकर	-11.7326
▁नामकरण	-11.7333
ज्ञा	-11.7333
▁2352	-11.7334
बेल	-11.7337
▁भत्ता	-11.734
ru	-11.734
▁परवेज	-11.7341
▁डल	-11.7346
▁एमडी	-11.7352
▁लीन	-11.7352
▁अनुभाग	-11.7352
▁तत्	-11.7354
जै	-11.7355
▁आदिम	-11.7357
▁अफ	-11.7357
▁रेस्टोरेंट	-11.736
▁पापों	-11.7361
▁काटे	-11.7361
▁चौथाई	-11.7364
▁गणपति	-11.7366
▁पाचन	-11.7367
▁जलती	-11.7374
▁दर्शा	-11.7376
▁बागी	-11.7378
▁2325	-11.7378
▁निगाहें	-11.7379
▁अपूर्व	-11.7379
▁भेजकर	-11.738
▁कीर्तन	-11.7383
▁बालू	-11.7384
रेट	-11.7387
▁सादा	-11.739
▁पकाने	-11.7391
्छ	-11.7395
▁रोजमर्रा	-11.7396
▁रॉ	-11.7397
ंटी	-11.7398
▁भवनों	-11.7401
डों	-11.7401
▁पाठ्यक्रमों	-11.7402
▁परम्परागत	-11.7404
ंद्र	-11.7405
▁नवभारत	-11.7406
▁भगवा	-11.7407
▁अल्मोड़ा	-11.7408
▁लहसुन	-11.7408
▁आईएसआई	-11.7411
▁संस्थागत	-11.7413
▁no	-11.7413
▁तत्वावधान	-11.7415
▁निविदा	-11.7415
▁वनों	-11.7417
▁विधिवत	-11.7422
▁कुण्डली	-11.7427
▁उन्माद	-11.7427
रहित	-11.743
▁संस्थाएं	-11.7431
▁बन्दर	-11.7431
▁२६	-11.7431
▁Ma	-11.7433
▁रजा	-11.7434
▁जड़ी	-11.7435
▁यूनानी	-11.7442
ल्ले	-11.7443
Y	-11.7445
▁क्रिस्टल	-11.7445
▁खलनायक	-11.7446
▁भरता	-11.7448
▁इस्	-11.7448
खेड़ा	-11.7449
▁बैन	-11.745
▁लेफ्ट	-11.7451
▁स्वार्थी	-11.7451
ant	-11.7451
▁मिर्जा	-11.7452
▁स्मार्टफोन	-11.7453
▁जद	-11.7455
ंसी	-11.7459
▁स्वच्छता	-11.746
▁आसिफ	-11.7461
▁अनुप्रयोगों	-11.7463
▁घुट	-11.7469
▁कोला	-11.7474
▁गौड़	-11.7474
▁अंधा	-11.7475
▁ट्रायल	-11.7476
▁ठेकेदारों	-11.7478
▁चार्ल्स	-11.7478
▁मोनिका	-11.7478
▁शुरूआती	-11.748
िओ	-11.748
▁चुटकी	-11.7484
फुल	-11.7484
▁स्तुति	-11.7485
▁गुजरना	-11.7485
ेंसी	-11.7486
ट्	-11.7486
▁अलीगढ़	-11.7488
▁वियतनाम	-11.7491
▁स्वीडन	-11.7491
▁युग्म	-11.7492
▁नोटों	-11.7493
▁ठप	-11.7493
▁असहमति	-11.7493
▁करिए	-11.7497
▁ऑफिसर	-11.7498
▁लाइनों	-11.7499
▁सोचें	-11.7499
▁जालंधर	-11.7504
▁फ़र	-11.7504
▁स्टै	-11.7504
▁ट्रीय	-11.7505
▁जातिवाद	-11.7507
▁गोला	-11.7507
सम्	-11.7508
▁चूका	-11.7508
▁मनाई	-11.7508
▁मेगा	-11.7509
▁बिल्	-11.7509
▁महाद्वीप	-11.751
▁घुटनों	-11.751
▁हारी	-11.751
▁असुरक्षित	-11.7511
▁सूप	-11.7512
▁इंडस्ट्रीज	-11.7512
▁उथल	-11.7514
ंदी	-11.7516
▁ड्रा	-11.7516
ga	-11.7516
▁अप्रत्याशित	-11.7516
▁फिटनेस	-11.7517
ا	-11.7518
▁एंकर	-11.752
no	-11.7521
▁अनार	-11.7522
▁अँधेरा	-11.7523
▁पीढ़ियों	-11.7523
ut	-11.7524
▁थर	-11.7527
▁चट	-11.7528
ऑ	-11.7528
▁not	-11.7528
▁ब्यौरा	-11.7529
▁बनीं	-11.753
▁रुका	-11.7532
▁पूरब	-11.7535
क्ति	-11.7535
▁नंगी	-11.7537
▁जनसभा	-11.7537
▁उदारता	-11.7538
▁वायरलेस	-11.7542
मण्डल	-11.7543
ेबल	-11.7545
▁खे	-11.7545
▁तुझ	-11.7546
▁कल्याणकारी	-11.7547
▁गुजरे	-11.7548
जाद	-11.7548
▁रिजल्ट	-11.7549
▁कायदे	-11.7549
टीसी	-11.7551
जिया	-11.7551
▁उगा	-11.7552
▁इंसाफ	-11.7552
▁फर्नीचर	-11.7555
▁उल्टे	-11.7555
▁भाप	-11.7556
▁परिधि	-11.7562
्टो	-11.7562
▁जादूगर	-11.7563
▁ठा	-11.7568
▁जन्	-11.7568
डम	-11.757
▁दाँत	-11.757
▁सजावट	-11.757
▁तैसे	-11.7571
▁बनाएँ	-11.7571
▁सिने	-11.7574
▁चूहों	-11.7574
▁पह	-11.7576
्की	-11.7576
सब	-11.7577
▁बर्न	-11.7579
▁धरम	-11.7579
▁ऑयल	-11.7581
▁क्रॉस	-11.7583
र्ब	-11.7583
▁भतीज	-11.7584
नम	-11.7584
अत	-11.7585
▁प्रखर	-11.7588
ot	-11.7589
▁was	-11.7589
▁उषा	-11.759
बिया	-11.7592
▁अभिप्राय	-11.7594
▁गतिशील	-11.7594
▁प्वाइंट	-11.7594
▁परोक्ष	-11.7594
फ्ल	-11.7595
वत्	-11.7595
▁बैठकों	-11.7596
▁पहुंचता	-11.7597
▁टुडे	-11.7597
पुरुष	-11.7598
▁दोस्तो	-11.7598
aa	-11.7603
तरा	-11.7604
▁उन्मूलन	-11.7607
▁विकिरण	-11.7607
▁गीली	-11.7609
▁रोता	-11.7611
▁धक्के	-11.7616
Ó	-11.7616
▁अभियुक्त	-11.7616
▁करायी	-11.7617
▁तोप	-11.7617
▁दरें	-11.7619
▁छान	-11.7619
▁२०११	-11.762
▁व्या	-11.7622
▁ऎस	-11.7623
▁स्विच	-11.7623
▁निर्दिष्ट	-11.7626
▁दुलार	-11.7626
▁चौड़ा	-11.7632
ावत	-11.7633
▁झड़	-11.7635
▁रचनाकारों	-11.7637
▁अनपढ़	-11.7639
▁जलाकर	-11.764
▁कुंवर	-11.7641
▁पागलपन	-11.7644
▁पस	-11.7646
▁चढा	-11.7648
est	-11.7648
▁फोटोग्राफी	-11.7649
▁निरपेक्ष	-11.7652
▁विनम्रता	-11.7652
▁नीचा	-11.7655
अपने	-11.7655
ोश	-11.766
इयाँ	-11.7662
▁भुगत	-11.7667
▁कहेगा	-11.7668
पोल	-11.7668
▁संता	-11.7669
▁थॉमस	-11.7671
▁नाश्ते	-11.7672
▁प्रात	-11.7673
▁दोहरे	-11.7675
▁मदर	-11.7675
▁जाऊँगा	-11.768
सिम	-11.7683
▁हठ	-11.7684
▁तटस्थ	-11.7684
▁अनुपस्थिति	-11.7687
▁उड़ाने	-11.7688
▁दानव	-11.7689
▁एवज	-11.7691
▁खुलासे	-11.7692
▁रतलाम	-11.7692
▁महानगरों	-11.7693
वारा	-11.7694
भेद	-11.7694
▁रोके	-11.7696
▁झुलस	-11.7697
▁युवतियों	-11.7697
▁साधा	-11.7698
▁वृत्त	-11.7699
▁दोहराया	-11.7704
▁कुरआन	-11.7704
▁भरकम	-11.7705
ैक्ट	-11.7705
▁दिशाओं	-11.7706
▁देवर	-11.7706
▁आवश्	-11.7708
▁मांगते	-11.7709
esh	-11.771
▁बांटा	-11.7711
▁बैच	-11.7712
▁ऐंड	-11.7713
▁लेटे	-11.7714
▁मुस	-11.7719
▁1977	-11.772
▁प्लेस	-11.772
▁देहात	-11.7723
▁गुलज़ार	-11.7724
▁जलते	-11.7724
▁अस्त्र	-11.7728
▁पोर	-11.7728
▁चावला	-11.7729
सीसी	-11.773
▁थप्पड़	-11.773
▁चैतन्य	-11.773
जिस	-11.7731
▁एसएसपी	-11.7731
▁भ्रमित	-11.7736
▁जोड	-11.7736
गान	-11.7737
▁चटर्जी	-11.7737
▁सामयिक	-11.7737
▁शल्य	-11.774
▁भीतरी	-11.7747
▁सलिल	-11.7748
▁इजरायल	-11.775
▁तात्कालिक	-11.775
▁विश्वकप	-11.7751
फ्र	-11.7751
▁धोती	-11.7753
ंकर	-11.7753
▁तख्त	-11.7754
पेट	-11.7755
â	-11.7756
▁पंचांग	-11.7757
पुरम	-11.7758
▁पढ़ाया	-11.7758
to	-11.7758
▁नसीहत	-11.7763
▁ग्रसित	-11.7763
ाध	-11.7766
▁सुझा	-11.7767
▁नमाज	-11.7768
▁बौ	-11.7769
▁महाकाव्य	-11.777
▁आईपीओ	-11.7773
▁बांग्ला	-11.7776
▁aap	-11.7776
वेबसाइट	-11.7779
वेन	-11.778
▁सीपी	-11.7781
कुर	-11.7782
▁एकदिवसीय	-11.7783
▁सहकारिता	-11.7783
▁पीपुल्स	-11.7784
मास	-11.7785
▁दिनो	-11.7786
▁लार	-11.7788
▁श्रंखला	-11.7789
▁औलाद	-11.7789
ड़क	-11.779
▁शाला	-11.7794
▁इंट	-11.7795
▁फँस	-11.7796
▁मिजाज	-11.7796
▁विशुद्ध	-11.7796
▁रहन	-11.7798
▁दीर्घ	-11.7799
▁धमाका	-11.78
▁नज़रों	-11.78
▁चिकन	-11.7802
▁मुरैना	-11.7802
▁तूफ़ान	-11.7802
▁रोहतक	-11.7802
▁सुविधाजनक	-11.7805
मोर	-11.7806
▁पंचायती	-11.7807
▁काँप	-11.7809
▁सांसारिक	-11.7809
▁फ्रांसीसी	-11.7809
▁होगे	-11.7813
ंघ	-11.7813
▁पुकारा	-11.7813
▁बेमानी	-11.7816
ण्डी	-11.782
▁कहलाने	-11.7821
▁क्षितिज	-11.7822
▁तहरीर	-11.7822
▁केलिए	-11.7823
▁फेंका	-11.7823
▁गोदाम	-11.7828
▁मसाले	-11.7829
▁ऑस्कर	-11.7829
▁खतरों	-11.783
▁पीएचडी	-11.7831
▁जयराम	-11.7831
भव	-11.7832
ण्य	-11.7832
▁असहमत	-11.7833
▁अचार	-11.7835
▁शाप	-11.7837
▁ग्र	-11.7838
▁जिगर	-11.7841
▁चाणक्य	-11.7842
▁am	-11.7843
▁डीएसपी	-11.7844
ूक	-11.7844
▁ऋषियों	-11.7847
▁डूबने	-11.7847
▁जले	-11.7848
▁साधू	-11.7849
▁सुन्दरता	-11.785
▁जागृति	-11.7851
थर्ड	-11.7852
▁टेर	-11.7855
▁रेशम	-11.7857
ज्य	-11.7857
▁अमूल्य	-11.7857
▁छिड़	-11.7859
▁कौशिक	-11.7862
▁अण्णा	-11.7868
▁हेलीकॉप्टर	-11.7868
▁विस	-11.7872
▁कॉलम	-11.7872
▁शतरंज	-11.7875
▁अनीता	-11.7875
▁खर्चे	-11.7876
▁एनर्जी	-11.7876
ज़न	-11.7879
▁बजाज	-11.7879
▁दून	-11.7881
▁पढना	-11.7883
ज़े	-11.7883
▁बनाओ	-11.7886
▁रवीन्द्र	-11.7888
वली	-11.789
▁पैलेस	-11.7891
op	-11.7892
▁रैना	-11.7893
▁राजनीतिज्ञ	-11.7898
▁प्रभावों	-11.7898
▁मचल	-11.7899
स्सा	-11.7901
▁निरर्थक	-11.7902
▁टिहरी	-11.7902
ायत	-11.7902
▁नजरें	-11.7903
▁तबियत	-11.7904
▁सुनिए	-11.7906
▁ऍ	-11.7907
▁डिपार्टमेंट	-11.7908
▁बर्	-11.7908
om	-11.7909
ौरी	-11.7909
▁मेड	-11.7914
▁स्त्रियाँ	-11.7916
▁२३	-11.7916
▁भंवर	-11.7916
▁परेड	-11.7916
▁लीड	-11.7918
सह	-11.7918
▁स्टीव	-11.7922
100	-11.7923
▁सेवाएँ	-11.7924
▁ji	-11.7924
खान	-11.7924
इन्हें	-11.7925
▁राष्ट्रों	-11.7927
▁ऑक्सीजन	-11.7928
▁एयरलाइंस	-11.7928
▁सीओ	-11.7929
▁देसाई	-11.793
▁भरना	-11.793
▁ताने	-11.793
हीं	-11.7931
▁अफगान	-11.7935
▁रचित	-11.7937
▁जेलों	-11.7937
्टे	-11.7939
▁अनुवादक	-11.7941
ियस	-11.7942
▁पाद	-11.7945
▁रसीद	-11.7947
▁उल्	-11.7949
▁कुम्भ	-11.795
▁1971	-11.795
▁धवन	-11.7951
▁दुनियां	-11.7951
▁बहते	-11.7952
▁संभवत	-11.7954
ट्रा	-11.7955
छे	-11.7955
▁अकाली	-11.7956
धारक	-11.7956
▁घेरा	-11.7956
▁सरहद	-11.7957
▁सेकेंड	-11.796
▁प्राणायाम	-11.7962
▁लुढ़क	-11.7962
ग्ग	-11.7962
▁मशीनरी	-11.7964
▁अंग्रेज़	-11.7964
▁ब्यूटी	-11.7965
▁मिलाया	-11.7968
▁तलाशने	-11.7968
▁अलौकिक	-11.7969
लाइट	-11.797
▁go	-11.797
▁ब्राउज़र	-11.797
ोड़	-11.7973
▁बहता	-11.7973
▁वस्तुएं	-11.7973
▁सुसज्जित	-11.7975
▁नाई	-11.7977
च्चा	-11.7977
▁घुसने	-11.7979
▁विस्थापित	-11.798
▁घो	-11.7983
▁वीणा	-11.7986
▁फ़ल	-11.7987
▁पृथ्वीराज	-11.7988
▁जिंदल	-11.7989
▁भुवनेश्वर	-11.7991
▁दावत	-11.7992
▁उन्होनें	-11.7993
▁180	-11.7994
▁कैलोरी	-11.7995
▁दुहाई	-11.7996
दायी	-11.7998
ाधिकारी	-11.7999
▁बच्चिय	-11.8
▁आदम	-11.8004
▁प्रण	-11.8006
▁द्रव	-11.8008
▁इतिहासकार	-11.8008
▁पार्श्व	-11.8009
▁एक्सपर्ट	-11.8009
▁युनाइटेड	-11.8009
ोलॉजी	-11.8009
▁कटाई	-11.8012
▁ऑपरेटिंग	-11.8016
स्ट्री	-11.8017
▁चित्रकला	-11.8018
▁टल	-11.8019
▁प्रबन्ध	-11.8019
500	-11.8021
▁फोटोग्राफर	-11.8022
फिल	-11.8022
▁किश्त	-11.8024
▁माथा	-11.8026
▁बेबस	-11.8026
▁क्ष	-11.8027
र्प	-11.8027
▁विषम	-11.8028
शाली	-11.8029
▁डाइ	-11.803
▁सकूँ	-11.8031
▁एकाग्रता	-11.8034
mail	-11.8035
्लो	-11.8035
घट	-11.8037
▁v	-11.8037
▁सौम्य	-11.8038
गाँव	-11.804
▁बहाव	-11.8043
▁No	-11.8043
बहुत	-11.8046
▁कतरा	-11.8047
▁निर्मला	-11.8051
▁पात्रता	-11.8054
▁प्रतिष्ठान	-11.8054
▁व्याकुल	-11.8056
▁परिधान	-11.8057
त्रा	-11.8057
▁इन्कार	-11.8059
▁विवेचना	-11.806
▁लिप	-11.8062
▁जानलेवा	-11.8063
▁अध्यादेश	-11.8063
▁निक	-11.8063
एगी	-11.8064
▁चाहो	-11.8065
▁पुरूषों	-11.8066
्ा	-11.8068
▁भुगतना	-11.8069
▁राज़	-11.8069
▁मूल्यवान	-11.807
जार	-11.807
क़ा	-11.8071
▁दरगाह	-11.8071
▁ताड़	-11.8072
▁क़ुरआन	-11.8076
▁दिवंगत	-11.8076
▁प्रदूषित	-11.8076
▁वरन्	-11.8078
▁वनवास	-11.8079
▁तटीय	-11.8079
▁योद्धा	-11.808
▁जिन्	-11.8081
▁रूपांतरण	-11.8081
▁अबतक	-11.8082
▁चिराग	-11.8084
▁तिथिः	-11.8085
▁सोरेन	-11.8085
▁जख्मी	-11.8087
खर	-11.8089
▁इबादत	-11.809
पात	-11.8092
▁कारें	-11.8094
▁ग़ालिब	-11.8097
लोन	-11.8098
साइट	-11.8099
▁मग	-11.8101
▁सिंधिया	-11.8102
किन	-11.8104
▁अनुकूलन	-11.8107
▁कली	-11.8109
▁भरती	-11.8109
▁निचली	-11.811
▁ड्राफ्ट	-11.811
▁1988	-11.8111
▁भवानी	-11.8112
कार्ड	-11.8115
▁डायरेक्ट	-11.8115
▁पहर	-11.8116
▁मौक़ा	-11.8117
▁बाहों	-11.8118
अंदरूनी	-11.8119
खोर	-11.8122
भाष	-11.8122
▁टूल	-11.8123
▁लामा	-11.8124
▁सूचनाएं	-11.8129
▁जबान	-11.8131
▁सार्थकता	-11.8132
▁विरह	-11.8133
▁चाक	-11.8133
राष्ट्र	-11.8134
▁उखड़	-11.8134
▁हस्ती	-11.8135
रियल	-11.8136
▁अनि	-11.8136
▁ट्रेडिंग	-11.8137
▁मार्क्सवादी	-11.8137
▁इनमे	-11.8138
▁दीवाने	-11.8138
▁बिस	-11.8139
त्ती	-11.814
▁विधियों	-11.814
▁मनन	-11.8141
▁वृन्दावन	-11.8144
▁मंगा	-11.8144
▁हवेली	-11.8145
▁उपरान्त	-11.8145
▁सैल	-11.8149
▁पैरवी	-11.8149
ंगर	-11.815
़े	-11.8152
साद	-11.8152
▁तुलनात्मक	-11.8154
▁गिरता	-11.8155
टिन	-11.8155
▁छाई	-11.8159
▁गोत्र	-11.816
▁भस्म	-11.816
▁सरस	-11.8163
पथ	-11.8164
▁धीर	-11.8164
▁भूमिगत	-11.8165
▁किरणों	-11.8165
......	-11.8167
▁हटने	-11.817
फ़े	-11.8171
▁नरसंहार	-11.8171
▁फीड	-11.8171
▁फ़ौज	-11.8172
▁संभोग	-11.8172
िएगा	-11.8174
िकता	-11.8178
▁भौं	-11.8178
▁गाये	-11.8178
▁दार	-11.8181
▁ज़बान	-11.8184
▁डंडा	-11.8184
▁झकझोर	-11.8185
▁वर्जन	-11.8186
▁भरपाई	-11.8187
▁1986	-11.8187
▁गिरीश	-11.8192
▁दरकिनार	-11.8192
▁जगजीत	-11.8193
एक्स	-11.8194
▁स्थितियां	-11.8194
▁जनतंत्र	-11.8196
▁सखी	-11.8197
▁घटने	-11.8197
▁राजवंश	-11.8198
▁इंश्योरेंस	-11.8199
▁हसरत	-11.8199
▁मोटर्स	-11.8201
▁कुदरत	-11.8201
▁घूमती	-11.8202
▁चाही	-11.8206
ï	-11.8206
▁सैमसंग	-11.8206
▁ग्रेटर	-11.8206
▁घूमता	-11.8207
▁अनैतिक	-11.8208
▁जॉ	-11.8209
▁आवेदक	-11.821
▁la	-11.8212
▁उंगलियों	-11.8213
▁तिरंगा	-11.8213
▁माडल	-11.8214
▁दाता	-11.8214
ोत	-11.8215
कॉम	-11.8215
▁भून	-11.8216
▁एडमिशन	-11.8219
▁वंशज	-11.8221
▁शरारत	-11.8222
▁लियोन	-11.8223
▁खाएं	-11.8223
▁गिटार	-11.8226
▁प्रतियोगी	-11.8226
▁हिन्दुत्व	-11.8226
▁रामचंद्र	-11.8231
▁सेल्स	-11.8233
▁vi	-11.8233
▁उत्तराधिकारी	-11.8234
▁बाधाओं	-11.8237
▁सुझावों	-11.8237
▁दुश्मनी	-11.8238
▁फिक्स	-11.824
▁ब्लोगिंग	-11.824
▁राइफल	-11.824
कारक	-11.8243
▁गुजरा	-11.8244
▁जौहर	-11.8245
▁ईश्वरीय	-11.8245
▁बादाम	-11.8246
राष्ट्रीय	-11.8247
▁गाण्ड	-11.8247
▁अतएव	-11.8248
▁उबर	-11.8252
▁करवाते	-11.8253
ेटेड	-11.8254
▁रणनीतिक	-11.8257
प्रद	-11.8258
▁षड्यंत्र	-11.8261
▁जादुई	-11.8261
▁हिंदुस्तानी	-11.8265
▁सीटी	-11.8266
▁क्वालिटी	-11.8268
▁सूचीबद्ध	-11.8271
▁खादी	-11.8272
▁एससी	-11.8272
▁असत्य	-11.8273
सक	-11.8277
▁पीता	-11.8277
▁श्रीमान	-11.8277
वाड़	-11.8279
▁मुज	-11.8279
▁महत्वाकांक्षा	-11.8281
▁पर्वतीय	-11.8282
इत	-11.8282
निष्ठ	-11.8283
▁हाईवे	-11.8287
▁अनाथ	-11.8287
▁लड़ी	-11.8288
▁मटर	-11.8289
▁फ़ैसल	-11.8289
▁कैफे	-11.8289
▁अमीन	-11.829
वद	-11.8291
मद	-11.8292
▁बंदरगाह	-11.8293
▁खिलखिला	-11.8295
▁खाक	-11.8295
▁un	-11.8296
▁साहसिक	-11.8299
▁मैनें	-11.83
▁ट्रॉफी	-11.8302
▁जाग्रत	-11.8304
▁घटती	-11.8305
▁४०	-11.8305
▁डै	-11.8306
▁देशवासियों	-11.8307
▁सपाट	-11.8307
▁साधुवाद	-11.8308
▁महफ़िल	-11.8309
▁गुन	-11.831
▁अंगूर	-11.831
iv	-11.831
▁छापने	-11.8311
▁बहर	-11.8313
▁झंडी	-11.8314
▁ठण्ड	-11.8314
िष्	-11.8315
▁सोंच	-11.8315
पक्ष	-11.8316
▁२००९	-11.8316
▁आंच	-11.8317
▁सुराग	-11.8318
▁गिरती	-11.8318
▁भूलना	-11.8318
▁900	-11.832
▁दयाल	-11.8323
▁छक्के	-11.8323
▁पहचाने	-11.8324
▁शुगर	-11.8331
▁कड	-11.8332
▁स्वतन्त्र	-11.8333
▁ख़तरा	-11.8333
▁सँ	-11.8333
▁एक्सेस	-11.8334
▁मुहल्ले	-11.8334
वेज	-11.8334
खण्ड	-11.8335
वाय	-11.8336
पीसी	-11.8336
▁हस्तांतरण	-11.8337
▁बरतने	-11.8342
▁कॉमनवेल्थ	-11.8344
▁किचन	-11.8345
▁लड़े	-11.8347
▁मंडरा	-11.8349
▁पैठ	-11.8351
▁सावित्री	-11.8351
▁वास्ते	-11.8351
▁जिसपर	-11.8352
▁बहाली	-11.8354
ंजर	-11.8354
▁रुकावट	-11.8358
▁सिंग	-11.8359
▁बिकने	-11.8362
पना	-11.8364
▁गार	-11.8368
▁क्लीन	-11.8368
kar	-11.837
▁स्थूल	-11.8372
▁बेचना	-11.8375
▁लास	-11.838
▁चना	-11.838
थर	-11.8385
▁ड्राइविंग	-11.8385
व्रत	-11.8391
निंग	-11.8392
▁ढूंढने	-11.8392
▁नामित	-11.8392
▁आयरलैंड	-11.8393
▁गंतव्य	-11.8393
▁वार्तालाप	-11.8393
इं	-11.8393
▁विशेषांक	-11.8394
▁लीं	-11.8394
▁सराहा	-11.8397
▁क्लिप	-11.8397
▁धर्मनिरपेक्षता	-11.8397
▁Re	-11.8398
▁कसरत	-11.8399
▁br	-11.84
▁शूद्र	-11.84
▁झांसी	-11.84
▁घटनाएँ	-11.8401
▁रुद्र	-11.8402
▁हं	-11.8404
▁भुट्टो	-11.8404
डेंट	-11.8405
▁असुर	-11.8406
▁बीजों	-11.8406
▁लाभान्वित	-11.8407
▁विलुप्त	-11.8407
▁अफवाह	-11.8408
▁वीरेन्द्र	-11.8409
क्सी	-11.8409
▁मनीषा	-11.8409
▁वादी	-11.841
▁उठाता	-11.841
▁नर्सिंग	-11.8411
नार	-11.8411
सत	-11.8412
▁दोहा	-11.8412
▁अंधे	-11.8413
▁स्मृतियों	-11.8413
▁जायसवाल	-11.8414
ाइज़	-11.8414
ge	-11.8414
▁आमजन	-11.8415
पाठ	-11.8416
काशी	-11.8419
नुसार	-11.8419
▁उत्तरदायित्व	-11.8421
▁स्वायत्त	-11.8425
▁रचने	-11.8428
▁पब	-11.8428
▁पुरातन	-11.8428
ावर	-11.8429
▁स्म	-11.8431
▁ठान	-11.8432
▁चिंताओं	-11.8434
▁बूते	-11.8434
▁उद्धृत	-11.8435
भक्त	-11.8436
▁बजाते	-11.8437
▁दलदल	-11.8438
▁अंगुली	-11.8439
▁शिविरों	-11.8441
▁............	-11.8442
▁हड्डियों	-11.8443
▁1985	-11.8444
▁मिलीं	-11.8444
▁यात्राओं	-11.8446
da	-11.8449
▁लगायी	-11.845
▁प्रभाकर	-11.845
▁हसीन	-11.8452
times	-11.8453
▁लिखवा	-11.8455
हीनता	-11.8455
▁एलान	-11.8456
▁पैड	-11.8457
▁काबुल	-11.8458
▁आनी	-11.8458
▁प्रतिज्ञा	-11.8459
कुंड	-11.846
▁बॉ	-11.8461
▁अमूमन	-11.8463
▁मुस्कुराते	-11.8466
▁शॉप	-11.8467
▁निर्देशिका	-11.8467
▁ऊंट	-11.8469
▁अमुक	-11.8469
▁आमंत्रण	-11.847
▁blog	-11.847
▁रणवीर	-11.847
▁अय	-11.8472
▁कहिए	-11.8475
▁आनन	-11.8475
ल्प	-11.8477
▁चुद	-11.8477
▁पलों	-11.8479
लें	-11.8479
▁समाचारों	-11.848
▁स्कैन	-11.8483
▁समाजसेवी	-11.8484
▁बदबू	-11.8484
▁जुड़ाव	-11.8485
▁गड़	-11.8487
▁कागजात	-11.8487
▁मिठास	-11.8491
▁पक्षपात	-11.8493
▁बर्बादी	-11.8494
▁गालियां	-11.8495
ोसिस	-11.8495
हें	-11.8496
▁राजग	-11.8499
▁चाहेगा	-11.8501
▁जलवा	-11.8501
▁संजो	-11.8502
▁निकासी	-11.8503
▁गठजोड़	-11.8505
▁लुधियाना	-11.8505
▁मंग	-11.8506
▁जवाबदेही	-11.8506
▁कहलाते	-11.8509
▁अनुमानित	-11.851
▁बल्ले	-11.8512
▁आंखे	-11.8512
▁क्रमश	-11.8513
ल्फ	-11.8515
▁विकि	-11.8516
▁आपात	-11.852
▁बान	-11.8521
▁फौजी	-11.8521
▁बोट	-11.8521
▁बैट	-11.8521
▁तेंडुलकर	-11.8526
▁रिकॉर्डिंग	-11.8526
▁अनुपालन	-11.8527
▁मित्रो	-11.8528
▁अज़	-11.8529
▁छड़ी	-11.8529
बस	-11.8533
▁क्षीण	-11.8533
▁प्रजातंत्र	-11.8534
▁बचता	-11.8536
▁बर्थ	-11.8538
▁फ़ीड	-11.854
▁वस्	-11.854
ाधिकार	-11.8542
▁प्राप्	-11.8547
▁रोज़गार	-11.8548
▁पत	-11.8548
▁२००८	-11.8549
▁कर्क	-11.8554
▁विक्रय	-11.8555
▁मर्डर	-11.8555
▁पुत्रों	-11.8556
▁ज्वार	-11.8559
▁स्पेनिश	-11.8564
▁ग्रीक	-11.8565
▁नरसिंह	-11.8565
▁सुस्त	-11.8565
बरी	-11.8566
ांे	-11.8568
▁परिवर्तनों	-11.8568
▁अर्थशास्त्री	-11.8572
ंडे	-11.8572
▁बिर	-11.8573
आें	-11.8574
▁बेचे	-11.8575
▁रजिस्ट्रेशन	-11.8576
िख	-11.8577
▁निखार	-11.8577
▁फहरा	-11.8579
▁5000	-11.858
▁उठना	-11.8581
▁देस	-11.8583
▁हंसा	-11.8583
▁ट्वेंटी	-11.8583
▁वायुसेना	-11.8583
▁चैम्पियनशिप	-11.8583
▁घराने	-11.8584
▁पाय	-11.8584
▁टच	-11.8586
▁भण्डार	-11.8588
▁सुखा	-11.8589
▁सबब	-11.859
▁ग्	-11.8591
▁चक्रवर्ती	-11.8591
▁बारीकी	-11.8592
दरी	-11.8594
▁चिं	-11.8597
▁यौवन	-11.8598
▁असहज	-11.8598
▁शिकारी	-11.8599
▁अलगाव	-11.86
▁रोड़	-11.8601
▁भालू	-11.861
▁तव	-11.861
▁डरता	-11.8611
▁सैट	-11.8612
▁छिपाने	-11.8614
▁छपने	-11.8617
▁क्रियाओं	-11.8618
▁प्रारम्भिक	-11.8618
▁संकलित	-11.8619
▁रौनक	-11.8619
निर्	-11.8622
▁यूसुफ	-11.8623
ki	-11.8625
▁चिप	-11.8625
▁फेडरेशन	-11.8626
▁तसल्ली	-11.8626
▁मातृभाषा	-11.8626
▁नोट्स	-11.8629
▁सिसक	-11.8629
▁डेल	-11.8631
▁चूना	-11.8631
▁अवि	-11.8631
▁प्लानिंग	-11.8633
▁डंडे	-11.8633
ા	-11.8633
▁उभरते	-11.8634
▁शख्सियत	-11.8634
▁इनकम	-11.8636
▁मेष	-11.8638
▁बढे	-11.8639
▁आतुर	-11.864
डीसी	-11.864
▁संक्रमित	-11.864
▁राजनयिक	-11.864
▁अश्विनी	-11.8641
▁पौड़ी	-11.8641
▁इलेक्ट्रानिक	-11.8642
▁अहम्	-11.8644
रूम	-11.8646
▁कार्यलय	-11.8646
▁अनवर	-11.8647
▁गड्ढे	-11.8648
▁from	-11.8648
kh	-11.865
पूर्व	-11.865
▁वॉ	-11.8652
▁प्रशासक	-11.8653
▁चबा	-11.8653
▁टैब	-11.8658
▁वृत्ति	-11.8659
▁महिलाएँ	-11.866
▁189	-11.866
▁शुष्क	-11.8662
▁पकड़ी	-11.8663
▁पूर्णतया	-11.8664
▁बारहवीं	-11.8664
▁बताइये	-11.8665
▁Z	-11.867
▁डाई	-11.867
▁मार्गों	-11.8673
ja	-11.8673
▁पापी	-11.8674
▁मेने	-11.8674
▁एजेंडा	-11.8676
▁एहसान	-11.8676
▁आर्डर	-11.8677
▁हरित	-11.8678
▁मैरी	-11.8681
ंन	-11.8681
▁व्यवहारिक	-11.8683
▁शू	-11.8687
्दा	-11.8687
▁ज्योतिषी	-11.8688
विया	-11.8689
▁प्रदाता	-11.8689
▁ख़ूबसूरत	-11.8691
▁प्रोफ़ेसर	-11.8691
ौड़	-11.8693
▁जाली	-11.8693
▁आईपीएस	-11.8698
फोर्ड	-11.8698
▁अनूठी	-11.8698
ेश्वरी	-11.8699
ach	-11.8701
▁मृतकों	-11.8703
▁आत्मसात	-11.8705
▁उपचुनाव	-11.8705
▁किडनी	-11.8706
▁धमक	-11.8707
▁हमलोग	-11.8707
टेशन	-11.8708
▁नन्हे	-11.8711
▁नियंत्रक	-11.8712
▁शिकागो	-11.8712
्टा	-11.8713
▁जसवंत	-11.8713
▁बनानी	-11.8714
▁दोहे	-11.8717
▁पौने	-11.8718
ेद	-11.8718
▁बरती	-11.8719
▁आदेशों	-11.8719
सभा	-11.872
▁दुर्भाग्यपूर्ण	-11.8722
भार	-11.8722
▁ड्रामा	-11.8723
▁गेहूँ	-11.8727
▁कच	-11.8727
▁नाद	-11.8728
▁नौकरशाही	-11.8728
▁2381	-11.8729
लिटी	-11.8732
▁विद्रोहियों	-11.8734
▁मौक	-11.8735
ag	-11.8735
▁आयरन	-11.8735
▁नट	-11.8737
▁करोड़पति	-11.874
▁सिखों	-11.8742
परस्त	-11.8743
▁कमोबेश	-11.8748
▁कुरुक्षेत्र	-11.8749
ीना	-11.875
▁पिल	-11.8751
▁बेईमान	-11.8753
▁स्याही	-11.8756
▁इलाक़	-11.8758
्शन	-11.8758
▁रट	-11.8759
▁किन्हीं	-11.8759
▁कमिटी	-11.876
कान्त	-11.876
ट्ठ	-11.8761
जात	-11.8761
▁कायर	-11.8764
▁ज़ी	-11.8765
▁परिस्थितियां	-11.8765
ुर्	-11.8765
▁1975	-11.8765
▁सिक	-11.8766
▁खुर	-11.8769
▁गाड	-11.8769
▁असमंजस	-11.877
▁इरफान	-11.877
▁धूमधाम	-11.877
▁बर्लिन	-11.8771
▁पित्त	-11.8771
▁गंदी	-11.8772
200	-11.8773
▁भागा	-11.8775
▁रग	-11.8776
▁अध्यापन	-11.8778
▁मुक्तिबोध	-11.8779
▁हारा	-11.8779
▁पलंग	-11.8781
▁असं	-11.8784
▁गद्दार	-11.8785
▁कनेक्ट	-11.8787
्रि	-11.8787
▁जियो	-11.8788
हद	-11.879
▁रैंक	-11.8791
▁दुहरा	-11.8791
▁सिपाहियों	-11.8792
▁ज्वालामुखी	-11.8792
▁विलंब	-11.8793
▁उड़ने	-11.8794
सै	-11.8794
ैश	-11.8797
▁शिया	-11.8799
▁श्वेता	-11.88
▁लीज	-11.88
▁पालने	-11.88
वॉ	-11.8802
▁विवाहित	-11.8803
▁ऋग्वेद	-11.8807
▁मैगजीन	-11.8807
▁फुटबाल	-11.8807
शियन	-11.8808
दरा	-11.8809
▁संकीर्ण	-11.881
ुरा	-11.8811
▁अंतः	-11.8811
ाएगी	-11.8812
ंजी	-11.8812
▁साइट्स	-11.8812
▁स्टेट्स	-11.8813
▁ज़रिये	-11.8814
▁कालिदास	-11.8814
▁डाॅ	-11.8815
▁डिनर	-11.8815
▁अभिलाषा	-11.8816
▁मेजबानी	-11.8816
▁रखिये	-11.8817
▁डालती	-11.8818
▁खुशियाँ	-11.8819
▁लिनक्स	-11.8821
▁खेमे	-11.8823
▁सेबी	-11.8824
▁अर्द्ध	-11.8831
कृष्ण	-11.8832
स्टिक	-11.8833
▁वाहक	-11.8834
▁बर्बर	-11.8835
▁बाइ	-11.8835
▁अच्छाई	-11.8836
▁बिम्ब	-11.8836
▁शिष्यों	-11.8836
▁डाकू	-11.8837
ऽ	-11.8839
▁जगत्	-11.8841
▁लिपट	-11.8841
▁अन्वेषण	-11.8843
▁जिन्हे	-11.8843
▁कल्प	-11.8843
ay	-11.8847
▁अनाम	-11.8848
▁निशानी	-11.8849
▁1983	-11.885
▁कॉन्फ्रेंस	-11.885
▁शेट्टी	-11.8851
▁बंधी	-11.8851
प्पी	-11.8852
▁अद	-11.8853
▁अहं	-11.8853
▁चुकाने	-11.8856
क्की	-11.8857
▁सरीखे	-11.8858
यं	-11.8861
स्कर	-11.8862
न्नी	-11.8864
ast	-11.8864
▁डेयरी	-11.8865
▁दशरथ	-11.8865
प्रा	-11.8865
▁लिहाज़	-11.8868
▁महिलायें	-11.887
▁रुकी	-11.8871
▁मशक्कत	-11.8872
▁दयनीय	-11.8872
▁जिन्होने	-11.8872
▁गढ	-11.8877
▁जनवादी	-11.8879
▁कैपिटल	-11.888
▁हजरत	-11.888
▁शम	-11.8884
gi	-11.8885
▁खू	-11.8885
▁पहाड़ियों	-11.8886
▁प्रांगण	-11.8887
▁बशर्ते	-11.8887
▁घरानों	-11.8887
▁एलर्जी	-11.8888
▁सिंध	-11.8888
▁हरकतों	-11.889
ुल्लाह	-11.889
▁हफ्त	-11.8891
रियर	-11.8891
▁रहीम	-11.8891
टों	-11.8893
▁फाँसी	-11.8894
▁एसईओ	-11.8894
▁अवस्थी	-11.8894
▁दलाली	-11.8896
▁पाएं	-11.8897
सद	-11.8897
▁मूर	-11.8899
▁संस्कृतियों	-11.8901
▁हबीब	-11.8902
▁जावे	-11.8902
सूर	-11.8903
▁उदारीकरण	-11.8903
ेदार	-11.8906
▁सीए	-11.8907
▁नाली	-11.8908
▁रामविलास	-11.891
▁दूरस्थ	-11.8912
▁पड़ेंगे	-11.8913
▁मूर्खता	-11.8914
▁आवेश	-11.8916
▁सटे	-11.8916
दृष्टि	-11.8916
▁प्रकोष्ठ	-11.8916
▁कूड़ा	-11.8919
▁प्रांतीय	-11.8919
ng	-11.892
▁सोचिए	-11.892
▁महि	-11.8921
पोर	-11.8922
▁भाल	-11.8922
र्ध	-11.8923
िस्	-11.8924
▁असमानता	-11.8924
▁सूझ	-11.8924
▁ग्रैंड	-11.8932
▁रेणु	-11.8937
▁गाड़	-11.8938
▁भीग	-11.8939
▁सूफी	-11.8939
▁प्रसिद्धि	-11.8943
▁भाषाई	-11.8943
▁मालवीय	-11.8946
▁भूनिर्माण	-11.8946
▁अप्रेल	-11.8946
भु	-11.8947
▁कुसुम	-11.8948
षि	-11.8949
▁चटनी	-11.8949
▁ऋ	-11.895
ंजन	-11.895
ियेगा	-11.8951
▁ताव	-11.8951
▁टैबलेट	-11.8954
▁चुनिंदा	-11.8954
▁शक्कर	-11.8956
▁वीरता	-11.8957
▁टाइट	-11.8958
▁मापदंड	-11.896
▁बांधे	-11.8961
▁रोडवेज	-11.8962
▁ग्राफ	-11.8963
▁फ़ाई	-11.8965
ांस	-11.8966
श्र	-11.8966
▁चौटाला	-11.8968
▁तनख्वाह	-11.8968
ंदे	-11.8969
▁गधा	-11.897
्के	-11.8971
▁छन	-11.8973
ाक्षर	-11.8974
▁रौ	-11.8975
▁अनदेखा	-11.8976
▁अदरक	-11.8978
▁प्रस्	-11.898
ाण	-11.8981
नायक	-11.8982
मूल	-11.8982
वारी	-11.8985
ाज़	-11.8987
▁मिनिट	-11.8989
▁ध्येय	-11.899
▁दशहरा	-11.8991
▁प्रीत	-11.8994
▁व्यंजनों	-11.8994
▁असद	-11.8995
▁खुलती	-11.8995
▁ठेस	-11.8998
▁कमलेश	-11.8998
▁ताना	-11.8999
▁पट्ट	-11.9002
बीसी	-11.9003
▁ईयर	-11.9005
कां	-11.9008
▁दमदार	-11.9008
▁महानता	-11.9009
ूत	-11.9009
▁काँग्रेस	-11.9013
ट्रो	-11.9013
▁मिलावट	-11.9015
▁सीना	-11.9019
▁खरीदते	-11.9019
▁कक्षाओं	-11.9019
▁हास्यास्पद	-11.902
▁सिकुड़	-11.902
▁नब्बे	-11.902
षित	-11.902
▁मुग्ध	-11.9021
▁सूर्योदय	-11.9021
▁मल्ल	-11.9023
▁प्रश्	-11.9028
▁महाशय	-11.9028
▁एडी	-11.9029
▁चिन	-11.9031
▁मुद	-11.9033
▁लम्बाई	-11.9035
▁कमांड	-11.9035
▁फ़र्क	-11.9035
▁काउंटी	-11.9036
▁अधिकाधिक	-11.9038
▁एम्स	-11.904
▁निर्धन	-11.9041
▁बखान	-11.9042
▁सर्द	-11.9042
▁अयोग्य	-11.9044
▁कमाया	-11.9045
▁आत्	-11.9046
▁कृतियों	-11.9047
हाट	-11.9049
▁दर्शनीय	-11.9051
करने	-11.9051
ल्लू	-11.9051
▁जामा	-11.9053
मीन	-11.9054
▁विचारक	-11.9055
▁सिफारिशों	-11.9056
▁वर्ड	-11.9057
▁हंसने	-11.9057
▁मायनों	-11.9058
शियल	-11.9059
▁संजीद	-11.9059
सेल	-11.906
िथ	-11.9061
▁भिगो	-11.9062
▁नीर	-11.9064
▁हड़प	-11.9064
▁वेबसाईट	-11.9065
▁कांस्य	-11.9065
▁जोग	-11.9065
▁मुश्किलों	-11.9067
कने	-11.9068
▁नीली	-11.9068
ासी	-11.9069
ुड	-11.9069
▁क्लार्क	-11.9073
▁वक्	-11.9073
▁बेताब	-11.9073
▁ः	-11.9073
▁चालान	-11.9074
द्वार	-11.9078
बीआइ	-11.9078
▁कंधों	-11.908
स्था	-11.9081
▁आईजी	-11.9081
आन	-11.9082
▁आदर्शों	-11.9083
▁मंगवा	-11.9083
▁सोचिये	-11.9083
▁पड़ना	-11.9083
▁पलक	-11.9084
▁महापौर	-11.9087
▁समाजशास्त्र	-11.9088
▁ne	-11.9088
▁विनिर्माण	-11.9088
्सर	-11.9092
सुर	-11.9094
▁रुला	-11.9095
▁विसर्जन	-11.9095
▁आभासी	-11.9095
▁अवॉर्ड	-11.9095
▁रोह	-11.9095
▁हुस्न	-11.9096
▁मैक्स	-11.9096
▁दिलाता	-11.9096
▁नंदन	-11.9098
▁आश	-11.9099
ारण	-11.9099
▁औपचारिकता	-11.9101
▁कंडोम	-11.9102
▁दिमाग़	-11.9103
▁प्रवर्तन	-11.9103
मरी	-11.9109
▁सेमेस्टर	-11.911
स्स	-11.9112
▁दीख	-11.9114
बात	-11.9117
AN	-11.9117
▁प्रतिनिधिमंडल	-11.9118
ud	-11.9119
▁तुच्छ	-11.9119
▁आर्क	-11.912
lu	-11.9121
▁विकट	-11.9121
▁टेंशन	-11.9123
▁कचहरी	-11.9125
▁गुलजार	-11.9125
▁जलाशय	-11.9126
▁महुआ	-11.9128
▁आगाह	-11.9128
हाई	-11.9134
बीएस	-11.9137
▁भिन्नता	-11.9139
▁फैमिली	-11.914
▁जंजीर	-11.914
▁वर्जित	-11.914
▁कोठरी	-11.914
▁प्राइमरी	-11.9141
▁बख	-11.9144
▁प्रद	-11.9147
▁सराय	-11.9147
▁मरता	-11.9149
▁चाबी	-11.915
▁uk	-11.915
▁तबादला	-11.9151
▁झेलना	-11.9152
▁प्रस्तावों	-11.9153
▁बलराम	-11.9153
▁अक्ल	-11.9154
▁प्राध्यापक	-11.9155
▁एक्टर	-11.9155
▁झेलने	-11.9155
▁मिमी	-11.9159
▁डेटिंग	-11.9161
▁जिहाद	-11.9161
▁अरोड़ा	-11.9163
▁त्न	-11.9163
▁हारने	-11.9163
▁बृज	-11.9166
हरे	-11.9167
दर्शी	-11.9169
▁केयर	-11.917
शान	-11.9174
▁ताले	-11.9174
▁जूस	-11.9176
▁निशंक	-11.9178
▁उपद्रव	-11.9178
▁130	-11.9179
▁नहीँ	-11.9179
▁po	-11.9182
▁मनोरंजक	-11.9185
ेक्शन	-11.9187
q	-11.919
▁एसा	-11.9192
▁1987	-11.9193
▁भूरे	-11.9194
फार्म	-11.9195
▁वारंट	-11.9195
▁भरमार	-11.9196
▁सत्ताधारी	-11.9197
▁अनुक्रम	-11.9198
▁नुक	-11.9198
▁संहार	-11.92
▁उकसा	-11.92
▁अत्याधुनिक	-11.92
▁नागरिकता	-11.9203
वय	-11.9204
▁स्वदेश	-11.9204
▁पंचमी	-11.9205
ओँ	-11.9205
▁भेजते	-11.9206
अनु	-11.9206
▁गोप	-11.9206
▁चुनते	-11.9207
श्वर	-11.9207
इट	-11.9208
▁कबाड़	-11.9208
▁चिकनी	-11.9209
▁सोमनाथ	-11.9209
▁जिनमे	-11.921
▁कस्बा	-11.9212
▁मुराद	-11.9212
बिन	-11.9213
▁चिता	-11.9216
▁बन्धु	-11.9217
▁सद्भाव	-11.9218
▁मंज़िल	-11.9223
▁कटी	-11.9224
▁क्रे	-11.9225
ोक	-11.9225
▁साढे	-11.9226
der	-11.9228
रियां	-11.9228
▁फालतू	-11.9231
्ण	-11.9231
▁बीपीएल	-11.9232
▁गाती	-11.9232
▁बेल्ट	-11.9234
ावल	-11.9235
▁दिनकर	-11.9236
न्ज	-11.9236
▁फेरबदल	-11.9238
▁बूढ़ी	-11.9239
▁धूमिल	-11.924
▁news	-11.9242
स्थापित	-11.9243
▁नुक्कड़	-11.9246
ब्रा	-11.9248
▁भौ	-11.9249
▁समस्	-11.9249
▁मैत्री	-11.9249
▁ठेके	-11.925
▁आटो	-11.9251
▁सिह	-11.9252
▁आरबीआई	-11.9254
▁आरुषि	-11.9254
▁सत्यापन	-11.9256
▁छो	-11.9258
▁किस्त	-11.9259
▁पूर्वज	-11.9259
▁वासी	-11.9261
▁शिकस्त	-11.9262
▁1962	-11.9264
▁सेनानी	-11.9264
▁पूर्णता	-11.9266
▁^	-11.9269
▁रफ़्तार	-11.9269
▁साइप्रस	-11.9269
▁ड्रीम	-11.9269
▁दिखावा	-11.927
▁मंचन	-11.9271
▁आयीं	-11.9273
▁जाइये	-11.9273
▁बाग़	-11.9274
स्कोप	-11.9276
▁लन्दन	-11.9276
ँड	-11.9277
▁उद्योगपतियों	-11.9278
▁चलाये	-11.928
▁दृष्ट	-11.9283
▁एपिसोड	-11.9284
▁बंटवारे	-11.9284
▁तोड	-11.9284
▁सुनहरे	-11.9285
▁सिक्का	-11.9286
बोल	-11.9286
▁सिग्नल	-11.9287
▁बसी	-11.9287
ऍन॰	-11.9289
▁एक्टिंग	-11.9292
▁सौंपने	-11.9293
▁विहीन	-11.9294
▁प्रतियोगिताओं	-11.9295
▁अंगूठी	-11.9296
▁फेयर	-11.9297
▁कीट	-11.9298
नाल	-11.93
▁मुन्नी	-11.9302
▁अनन्य	-11.9303
▁आयोजकों	-11.9306
▁राठौर	-11.9307
▁जानकी	-11.931
▁बेह	-11.9311
▁खडी	-11.9311
▁सव	-11.9314
▁इकट्ठे	-11.9315
▁जनसंपर्क	-11.9315
▁भार्गव	-11.9315
▁अयस्क	-11.9315
ार्ड	-11.9315
▁ताली	-11.9317
▁छवियों	-11.9317
्नो	-11.9319
▁अखंड	-11.9319
▁जननी	-11.9319
▁देवेन्द्र	-11.932
▁गिराने	-11.932
▁पहिया	-11.9323
▁रामकृष्ण	-11.9325
▁अष्ट	-11.9325
॰ऍ	-11.9326
▁गीला	-11.9326
ग्राफ	-11.9326
▁पछता	-11.9327
▁पलकों	-11.9329
▁क़ीमत	-11.933
▁निहायत	-11.933
▁महत्वाकांक्षी	-11.933
▁विध्वंस	-11.933
▁नितांत	-11.933
▁पुरुषोत्तम	-11.9331
▁दिलाना	-11.9331
ौत	-11.9333
▁संकेतों	-11.9334
स्ति	-11.9336
▁टोली	-11.9337
लिका	-11.9338
▁प्रशिक्षक	-11.9338
▁सोनम	-11.9341
▁आपमें	-11.9343
▁चाप	-11.9343
▁बिलियन	-11.9343
▁ब्रेड	-11.9344
ن	-11.9344
▁मोम	-11.9345
▁बौछार	-11.9345
▁स्वंय	-11.9346
▁पचा	-11.9348
▁आयुर्वेदिक	-11.9351
▁बोलीं	-11.9352
तियों	-11.9352
▁वास्ता	-11.9353
ेटिव	-11.9353
▁पारम्परिक	-11.9353
▁html	-11.9353
▁सगाई	-11.9354
▁बट्म	-11.9354
▁शोषित	-11.9354
▁मारता	-11.9358
▁नान	-11.9359
▁गाजर	-11.936
▁कदापि	-11.9361
ाणी	-11.9362
▁शाल	-11.9362
कॉन	-11.9362
▁पम्प	-11.9363
▁धोखे	-11.9364
▁डायन	-11.9366
▁भाषाएँ	-11.9367
▁बैक्टीरिया	-11.9369
▁उभरे	-11.9371
ग्री	-11.9372
▁प्रामाणिक	-11.9374
▁परिष्कृत	-11.9376
▁काया	-11.9378
▁अंतत	-11.9382
▁ओं	-11.9382
▁प्रसंस्करण	-11.9384
▁कप्तानी	-11.9384
▁आठवें	-11.9384
▁लम्हे	-11.9384
▁पधारे	-11.9386
▁sh	-11.9387
▁ऐप	-11.939
▁आवृत्ति	-11.939
▁हत्यारे	-11.9391
पित	-11.9391
▁पूछती	-11.9392
▁जिम्मेदारियों	-11.9392
▁गृहस्थ	-11.9393
▁नस	-11.9394
▁फिरते	-11.9394
▁कोठी	-11.9394
▁धीमा	-11.9395
▁पारस	-11.9395
▁सरे	-11.9399
▁लेनदेन	-11.9399
▁ye	-11.9402
▁असुविधा	-11.9405
▁प्राणों	-11.9406
▁तौ	-11.9406
ेह	-11.9407
▁खुजली	-11.9407
▁ट्रांसपोर्ट	-11.9407
▁कंटेंट	-11.9408
▁क्रान्तिकारी	-11.9408
▁सभापति	-11.9409
▁चौंका	-11.941
▁भूतपूर्व	-11.9411
▁मिटटी	-11.9411
▁नगरों	-11.9412
▁आँचल	-11.9412
▁आईने	-11.9414
स॰बी॰	-11.9415
▁रजनी	-11.9415
▁निगाहों	-11.9417
▁ज़िले	-11.9417
▁पतला	-11.9418
▁फलक	-11.942
▁मेहरा	-11.942
▁दीवारें	-11.9421
▁घरवालों	-11.9423
▁राजनीती	-11.9423
कीय	-11.9424
मेव	-11.9424
▁हेमा	-11.9425
▁दहन	-11.9425
▁लक्षित	-11.9426
▁सांझ	-11.9427
▁दश	-11.9428
▁प्रॉ	-11.9429
▁पौष्टिक	-11.943
▁हार्डवेयर	-11.9431
▁पराक्रम	-11.9431
▁इश्वर	-11.9432
ढ़ी	-11.9432
▁चहचहाना	-11.9432
▁आएंगी	-11.9434
▁कट्टरपंथी	-11.9436
फ्त	-11.9437
▁छुपे	-11.9437
▁प्रशस्त	-11.9438
रै	-11.9438
▁अपनाना	-11.944
▁सातवीं	-11.944
▁प्राइस	-11.944
▁देशमुख	-11.944
ten	-11.9443
▁काजल	-11.9444
▁एर	-11.9445
ver	-11.9447
▁टहल	-11.945
थन	-11.9451
▁शक्तियां	-11.9452
▁फुटपाथ	-11.9454
पीएस	-11.9454
▁पंक्तियां	-11.9456
▁राही	-11.9457
जन्य	-11.9457
▁प्रतिस्पर्ध	-11.9458
▁वक्र	-11.9459
▁नायडू	-11.9461
विद्या	-11.9462
▁बेईमानी	-11.9465
▁सेनाओं	-11.9465
▁लह	-11.9467
▁पाइ	-11.9467
ष्य	-11.9468
▁पुष्कर	-11.9469
मति	-11.9469
▁ज़िंदा	-11.947
▁हस	-11.947
हरण	-11.9471
▁क्षय	-11.9471
▁उर्वरक	-11.9471
▁लडाई	-11.9472
लग	-11.9473
वर्धन	-11.9474
▁संघर्षों	-11.9476
▁जेड	-11.9476
▁आध	-11.9476
ُ	-11.9477
▁शॉर्ट	-11.9477
▁गोवर्धन	-11.9478
▁बेटियां	-11.9478
▁Sa	-11.9481
▁कृषक	-11.9481
▁फैट	-11.9482
per	-11.9483
▁दुकानदारों	-11.9483
▁क्रूरता	-11.9484
ll	-11.9484
▁महाकाल	-11.9484
▁मज़े	-11.9484
▁चाव	-11.9485
▁ज्वाइन	-11.9485
▁तौबा	-11.9486
▁उदासीनता	-11.9486
▁कथ्य	-11.9487
▁भगवन	-11.9487
▁डीलर	-11.9488
▁जीवाणु	-11.949
श्व	-11.9491
▁ज़हर	-11.9493
▁वास्तुकला	-11.9493
गुरू	-11.9493
म्बा	-11.9495
▁रामा	-11.9495
▁अधर्म	-11.9496
करी	-11.9499
▁गुटों	-11.95
▁le	-11.95
▁फाइबर	-11.95
▁अलंकार	-11.9501
▁उदासीन	-11.9504
▁140	-11.9506
▁कमियों	-11.9506
▁झोली	-11.9508
▁पद्य	-11.951
▁टर्न	-11.951
▁सहगल	-11.9511
▁सिंधु	-11.9512
▁महासंघ	-11.9512
डिस	-11.9513
▁भात	-11.9513
▁वीरान	-11.9515
गुल	-11.9516
▁मांसाहार	-11.9516
▁स्ट्रोक	-11.9516
▁सेव	-11.9517
▁कठ	-11.9519
▁क्ला	-11.952
▁रिज	-11.952
▁हीन	-11.9522
▁साहित्	-11.9522
▁विज	-11.9523
▁संचित	-11.9523
▁story	-11.9524
▁जंक्शन	-11.9524
▁सब्र	-11.9524
im	-11.9524
▁संबन्ध	-11.9525
ियार	-11.9528
▁मूर्तियां	-11.9529
▁अला	-11.9529
▁अन्ध	-11.9529
▁बढ़ाता	-11.9529
▁हताश	-11.9531
▁bbc	-11.9532
▁सुनामी	-11.9533
▁नेताओ	-11.9535
क्रा	-11.9535
▁रोप	-11.9537
ॉस	-11.9537
बोर्ड	-11.9537
▁थिरक	-11.9539
▁बलवान	-11.954
▁जर्जर	-11.954
▁बेनी	-11.954
फू	-11.954
▁खी	-11.9542
▁1982	-11.9542
▁वाइस	-11.9544
▁पेंच	-11.9546
ेरिया	-11.9546
▁सिक्किम	-11.9547
▁गायों	-11.9548
▁सुर्ख	-11.955
ंका	-11.9551
▁रामेश्वर	-11.9552
▁प्लाट	-11.9553
▁पड़ोसियों	-11.9554
▁ललक	-11.9555
▁दुष्प्रभाव	-11.9555
▁प्रभाग	-11.9557
औ	-11.9561
फ़्ट	-11.9562
▁विडम्बना	-11.9563
वृत्त	-11.9563
▁टेंडर	-11.9564
वर्त	-11.9567
▁सीकर	-11.9569
▁हटाना	-11.957
▁माउंट	-11.9571
▁क्रा	-11.9571
▁मेक्सिको	-11.9571
▁शुद्धता	-11.9573
▁लेजर	-11.9573
▁आयोजक	-11.9575
▁खतम	-11.9575
मानी	-11.9578
▁दारा	-11.9579
▁३३	-11.9579
▁दर्दनाक	-11.9579
▁नाल	-11.9579
व्यक्ति	-11.9582
▁ठेल	-11.9583
▁शिखा	-11.9584
▁समेटे	-11.9588
▁वित्तमंत्री	-11.9588
▁कुंज	-11.959
▁निम	-11.9592
▁गुजरता	-11.9592
▁कराह	-11.9593
▁अकादमिक	-11.9595
▁निमित्त	-11.9595
▁गश्त	-11.9596
▁सिंघ	-11.9596
▁हिस्	-11.9598
▁रौंद	-11.9599
▁प्रभुत्व	-11.96
्वी	-11.9601
▁तरी	-11.9601
▁सँभाल	-11.9602
▁तांत्रिक	-11.9604
▁विधाओं	-11.9605
▁२७	-11.9606
विहीन	-11.9607
▁मंजर	-11.9609
▁कोयल	-11.9611
▁मर्दों	-11.9611
▁वक्ताओं	-11.9611
▁ज़ु	-11.9612
▁हलके	-11.9614
▁मलाई	-11.9614
डियो	-11.9615
▁सुमित	-11.9616
वर्स	-11.9617
▁कुकर	-11.9617
▁प्रव	-11.9617
▁वेश	-11.9617
▁फ़ैल	-11.9618
▁गुरूजी	-11.9618
▁प्रीतम	-11.9618
▁कारखानों	-11.9618
▁पंछी	-11.9619
▁निष्	-11.9619
▁चलेंगे	-11.962
▁प्रबुद्ध	-11.9621
▁वफ़ा	-11.9621
▁सायं	-11.9623
ख़्त	-11.9624
▁पढ़ती	-11.9625
▁सर्वोपरि	-11.9626
▁चौकीदार	-11.963
▁शिद्दत	-11.9634
▁नोक	-11.9634
oo	-11.9636
▁चलाकर	-11.9637
▁इल्म	-11.9638
▁उलझे	-11.9638
▁विस्थापन	-11.9643
स्तु	-11.9643
▁वर्कर	-11.9646
▁अभिशाप	-11.965
▁रजिस्ट्री	-11.965
▁गर्भपात	-11.965
▁जेहाद	-11.9651
फॉर्म	-11.9657
▁इमरजेंसी	-11.9658
▁सुप्रसिद्ध	-11.9658
▁फू	-11.9659
▁चौबे	-11.966
▁बेचते	-11.9661
▁समझाते	-11.9662
▁लोट	-11.9663
सीआई	-11.9663
▁नर्म	-11.9663
▁उद्यमी	-11.9664
▁जनप्रतिनिधि	-11.9664
▁फ़्ल	-11.9665
▁सकतीं	-11.9666
▁लज्जा	-11.9666
▁दशम	-11.9667
▁पुतला	-11.9667
▁पट्टे	-11.9668
▁दुर्घटनाओं	-11.9669
ash	-11.9672
ana	-11.9672
▁News	-11.9675
ेत	-11.9676
▁राष्ट्रभाषा	-11.9677
▁कोटे	-11.968
▁२८	-11.968
▁झपट	-11.9681
▁साम्राज्यवादी	-11.9681
▁उन्नयन	-11.9682
▁अश्व	-11.9682
▁पहाड	-11.9683
रेज	-11.9684
्यता	-11.9684
▁हसीना	-11.9685
▁छाल	-11.9686
▁अंतरिम	-11.9688
▁खूनी	-11.9689
▁मंगेशकर	-11.969
बन्ध	-11.9694
ऊँगा	-11.9696
ड्ड	-11.9698
▁घबराहट	-11.9698
▁कार्यप्रणाली	-11.9698
▁अजी	-11.9699
▁देय	-11.97
▁हैप्पी	-11.97
िनो	-11.9701
▁अटैक	-11.9702
▁आत्मीय	-11.9703
▁जमाल	-11.9704
▁गुड़िया	-11.9705
▁कारन	-11.9705
▁मज़हब	-11.9706
▁मुआवजे	-11.9706
▁खामियाज	-11.9706
▁किट	-11.9707
जगत	-11.9708
▁उपकार	-11.971
ंडल	-11.9711
▁टाँग	-11.9713
▁350	-11.9713
▁वैश्वीकरण	-11.9714
▁खाप	-11.9717
▁गुजारा	-11.9718
गैर	-11.9718
▁वाइन	-11.9719
▁सामंती	-11.972
▁हांगकांग	-11.9722
डीएस	-11.9722
ंय	-11.9723
्स्	-11.9723
▁सुलग	-11.9724
▁मेम	-11.9724
▁झरने	-11.9724
▁टाई	-11.9725
▁उन्मुख	-11.9726
▁एन्	-11.9726
pa	-11.9727
लेज	-11.9729
न्ह	-11.9734
▁रामचन्द्र	-11.9735
▁ब्रे	-11.9738
▁द्वंद्व	-11.9738
▁किनारों	-11.9738
▁पोलियो	-11.9739
ियान	-11.974
ry	-11.9741
▁पीएच	-11.9742
▁खांसी	-11.9742
▁आदतों	-11.9744
केन	-11.9745
▁ढूँढ़	-11.9745
▁जीतना	-11.9745
बाबू	-11.9746
▁ज्यू	-11.9748
▁समानांतर	-11.9749
▁खाओ	-11.975
▁बांटे	-11.975
▁विजेताओं	-11.9752
▁निपटान	-11.9754
▁झुकाव	-11.9754
▁जहाज़	-11.9755
▁रामजी	-11.9756
▁उत्पादकता	-11.9757
▁बीसवीं	-11.9757
▁फुरसत	-11.9757
▁दरकार	-11.9758
▁ओलिम्पिक	-11.9762
▁समूची	-11.9762
▁बेदखल	-11.9762
▁तीनो	-11.9763
▁कहाः	-11.9764
▁दबाकर	-11.9769
▁वाइ	-11.977
▁धनु	-11.977
▁बत	-11.977
▁चन्दन	-11.9771
▁कृ	-11.9772
दयाल	-11.9773
▁धारक	-11.9776
▁एक्साइटमेंट	-11.9778
▁विदर्भ	-11.9778
▁आवाजाही	-11.9778
अरे	-11.9779
▁कायल	-11.9785
व्या	-11.9789
▁साइज	-11.9791
्हा	-11.9791
▁सत्रह	-11.9792
▁नूतन	-11.9794
▁तोहफा	-11.9794
▁डेवलपमेंट	-11.9794
▁बहुतायत	-11.9794
▁प्रस	-11.9795
▁जींस	-11.9795
▁फ़रमा	-11.9796
चीन	-11.9797
फोन	-11.9798
▁रहिए	-11.98
▁छुपी	-11.98
ग्ल	-11.9801
▁कठिनाइयों	-11.9802
▁परम्पराओं	-11.9803
ंजा	-11.9807
ज़ल	-11.9808
▁योगेश	-11.9809
▁दैत्य	-11.981
▁लौटी	-11.9813
▁विक्टोरिया	-11.9815
ग्राह	-11.9816
▁ऑपरेटर	-11.9817
परि	-11.9817
▁मन्ना	-11.9818
▁निद्रा	-11.9818
▁खिलाने	-11.9822
▁इंज	-11.9823
▁1967	-11.9823
सिद्ध	-11.9824
▁अंडा	-11.9825
▁श्रीनिवासन	-11.9826
विचार	-11.9827
▁ललकार	-11.9829
▁राजनीतिज्ञों	-11.983
सेवक	-11.9831
▁प्रचंड	-11.9834
▁शेखावत	-11.9834
▁बिखरी	-11.9836
▁झड़प	-11.984
यंत्र	-11.9842
▁फाटक	-11.9843
▁२००७	-11.9843
▁पसर	-11.9845
▁हाट	-11.9845
▁बन्धन	-11.9846
▁कतर	-11.9847
▁ऋषिकेश	-11.9851
▁महाशक्ति	-11.9853
▁सिया	-11.9855
▁विशेषाधिकार	-11.9856
▁बचते	-11.9858
▁शोएब	-11.9858
▁रचनात्मकता	-11.9859
▁काण्ड	-11.9864
▁आरके	-11.9865
ْ	-11.9866
▁पहनना	-11.9866
▁इमानदार	-11.9866
▁सीसी	-11.9866
▁भट्टाचार्य	-11.9867
▁संग्रहण	-11.9867
▁अंतरंग	-11.9867
▁पकवान	-11.9868
▁भै	-11.9873
▁महतो	-11.9873
▁मालवा	-11.9873
▁बहला	-11.9874
▁ख़ूब	-11.9875
न्नू	-11.9875
ोच	-11.9877
▁कहूंगा	-11.9879
काय	-11.988
ance	-11.9881
▁ब्रेन	-11.9882
रज	-11.9882
पात्र	-11.9883
▁चेयर	-11.9886
▁बैठती	-11.9886
▁कुट	-11.9886
जीवी	-11.9889
ँद	-11.989
▁su	-11.9891
▁सम्बद्ध	-11.9892
▁बालाजी	-11.9892
मनी	-11.9893
▁उपन्यासों	-11.9894
▁बीयर	-11.9895
▁लिव	-11.9895
▁पुलिसकर्म	-11.9896
▁पहनते	-11.9897
▁स्टेटस	-11.9898
क्री	-11.9899
▁दुराचार	-11.9899
▁सेटिंग	-11.9899
▁प्रोडक्ट	-11.9901
▁चौड़ाई	-11.9903
▁थके	-11.9904
▁आत्मीयता	-11.9909
▁प्रदर्शनों	-11.9913
▁कार्यभार	-11.9913
▁bahut	-11.9915
▁तंबाकू	-11.9915
▁सनसनीखेज	-11.9915
▁बजने	-11.9916
कांड	-11.9917
▁कत	-11.9918
▁एशियन	-11.992
▁गिरफ्त	-11.9923
▁मुरादाबाद	-11.9924
ञ्ज	-11.9924
▁श्रुति	-11.9925
va	-11.9925
▁व्यवस्थाओं	-11.9926
▁हेल	-11.9927
धु	-11.9927
ौरा	-11.9927
▁फन	-11.993
▁रखिए	-11.9931
▁सशक्तिकरण	-11.9931
▁आजमगढ़	-11.9932
ठिया	-11.9934
▁मेह	-11.9936
▁बाबूलाल	-11.9937
▁युगों	-11.9937
▁डच	-11.9938
▁चम	-11.9938
▁फ़ारसी	-11.994
ीद	-11.9941
▁एजेंसियां	-11.9941
▁प्रदत्त	-11.9943
▁वीक	-11.9943
▁शेन	-11.9948
▁कुंठा	-11.9948
▁डुबो	-11.9948
▁प्रणय	-11.9954
गुन	-11.9955
▁कसूर	-11.9956
्हे	-11.9956
▁अवाम	-11.9958
▁भाईयों	-11.9961
▁लूंगा	-11.9961
▁कलाओं	-11.9963
▁कंचन	-11.9965
▁दलालों	-11.9967
▁बेचकर	-11.997
▁लडक़	-11.9971
▁राइ	-11.9972
▁अनुकूलित	-11.9973
▁दराज	-11.9976
▁चिढ़	-11.9976
मीटर	-11.9978
मेरी	-11.9978
▁घमंड	-11.9979
▁गोल्डन	-11.9979
▁मारो	-11.998
▁रेंग	-11.998
▁निष्पादन	-11.998
pe	-11.9981
▁इजहार	-11.9981
▁गुणगान	-11.9981
▁te	-11.9982
लंब	-11.9984
▁नदियां	-11.9985
▁पेशा	-11.9985
▁अपनाते	-11.9986
َ	-11.9987
▁पेर	-11.9988
▁प्ला	-11.9988
▁प्रगट	-11.9989
▁इसराइल	-11.9989
र्जी	-11.9989
▁अश्विन	-11.999
▁कहानीकार	-11.999
▁दिखेगा	-11.9991
▁नवाजा	-11.9992
िकाओं	-11.9995
▁मसौदा	-11.9997
▁पॉइंट	-11.9997
▁फरमा	-11.9997
▁अनिश्चित	-11.9998
pur	-11.9999
▁हॆ	-11.9999
▁रातें	-12.0001
▁अश्लीलता	-12.0001
▁कर्त्तव्य	-12.0005
▁स्वेच्छा	-12.0005
▁पत्ती	-12.0006
▁निर्भरता	-12.0008
▁आरा	-12.001
आरएस	-12.001
रगिल	-12.0011
▁कपट	-12.0011
▁निलंबन	-12.0013
▁उद्यमियों	-12.0014
▁शन	-12.0016
▁धागे	-12.0016
sa	-12.0016
ंदर	-12.0017
▁सन्तान	-12.0018
▁Hindi	-12.0018
▁मेनू	-12.0019
▁विश्लेषक	-12.0019
▁खोजा	-12.002
▁शेड	-12.0021
▁रामदास	-12.0021
▁गुवाहाटी	-12.0021
▁नैसर्गिक	-12.0021
ीब	-12.0021
ौला	-12.0024
▁इंसानी	-12.0025
▁उजड़	-12.0026
▁मोटापा	-12.0028
▁ग़लती	-12.0028
ध्या	-12.0029
▁गुज़ार	-12.0029
▁कस्बों	-12.003
ोत्तर	-12.003
mi	-12.0031
▁प्लीज	-12.0036
▁चैलेंज	-12.0037
सिंग	-12.0038
е	-12.0038
पार्ट	-12.0038
्यान	-12.0043
क्व	-12.0044
▁गर्लफ्रेंड	-12.0046
▁द्विपक्षीय	-12.0046
ोर्	-12.0049
्तर	-12.0049
▁अगवा	-12.005
▁शरमा	-12.0051
▁झंझट	-12.0051
▁comment	-12.0054
▁कैथोलिक	-12.0054
▁सहभागिता	-12.0054
▁प्रक्षेपण	-12.0055
▁नववर्ष	-12.0055
▁ga	-12.0056
ड़ो	-12.0056
▁लेनिन	-12.0058
पिंग	-12.0058
▁करूंगी	-12.0059
▁हुं	-12.0059
▁डूबी	-12.0059
बाज़ी	-12.0061
▁क्लिंटन	-12.0063
ل	-12.0063
▁छिद्र	-12.0063
▁अव्यवस्था	-12.0065
▁डरे	-12.0066
▁कुशवाहा	-12.0069
▁कुख्यात	-12.0071
▁मैथिली	-12.0071
▁प्रतिबन्ध	-12.0075
▁मन्त्री	-12.0076
▁टेलर	-12.0077
▁मियाँ	-12.0078
▁निराशाजनक	-12.008
mp	-12.008
▁कल्	-12.0082
▁प्रजापति	-12.0083
ine	-12.0086
▁डेटाबेस	-12.0087
▁मछलियों	-12.0087
▁कोलंबिया	-12.0088
रोन	-12.0094
▁नैदानिक	-12.0096
▁प्रताड़ित	-12.0096
▁निचोड़	-12.0096
▁सोता	-12.0096
▁पिलाने	-12.0103
▁ठेठ	-12.0104
णि	-12.0104
▁€	-12.0105
▁महानायक	-12.0105
▁खुशहाल	-12.0105
द्दी	-12.0105
▁राडिया	-12.0106
▁htm	-12.0112
▁सब्जियां	-12.0112
▁पैमाना	-12.0112
▁सेक्रेटरी	-12.0112
▁पटियाला	-12.0112
▁मोहाली	-12.0113
▁रिपब्लिकन	-12.0114
▁1972	-12.0114
▁सुनें	-12.0114
▁सूद	-12.0116
▁उड़ते	-12.0117
क्चर	-12.0117
▁खफा	-12.0117
ाें	-12.0119
▁माताजी	-12.0121
▁काज	-12.0123
ph	-12.0124
▁बेघर	-12.0124
▁ठहरने	-12.0126
▁सरोकारों	-12.0128
▁फैन	-12.0128
दों	-12.0128
ैंड	-12.0129
▁बिपाशा	-12.0129
न्या	-12.0133
यद	-12.0133
X	-12.0136
▁जीवनशैली	-12.0137
▁तवज्जो	-12.0137
▁ओलिंपिक	-12.0138
▁बहादुरी	-12.0138
▁मिलों	-12.0139
▁हब	-12.0141
उप	-12.0143
▁फ्लैश	-12.0146
▁पहुंचती	-12.0148
▁अलर्ट	-12.0149
▁चाँदी	-12.0149
आईसी	-12.0152
▁डिवीजन	-12.0154
▁दाहिने	-12.0154
▁कंडीशन	-12.0154
▁हामिद	-12.0154
▁दंपति	-12.0155
ेव	-12.0155
▁सुनती	-12.0155
▁बसने	-12.0155
▁पटाखे	-12.0156
▁ढीला	-12.0156
▁निरोधक	-12.0156
▁गालियाँ	-12.0158
ँध	-12.0158
▁ठगी	-12.016
▁जायगा	-12.0161
▁महज़	-12.0162
▁रेकॉर्ड	-12.0162
▁सिक्योरिटी	-12.0162
▁बियर	-12.0162
▁बनो	-12.0163
▁रेख	-12.0169
▁we	-12.017
▁पढी	-12.017
्वर	-12.0171
जीव	-12.0172
श्याम	-12.0175
▁ब्ला	-12.0176
▁सेंक	-12.0177
▁नासिक	-12.0178
▁आनुवंशिक	-12.0179
▁बढ़ाए	-12.0179
tion	-12.0179
▁हाईस्कूल	-12.0179
ik	-12.0179
ोज़	-12.0182
घोषित	-12.0182
मेरा	-12.0182
▁चमकदार	-12.0184
▁De	-12.0184
तत्व	-12.0185
▁झिझक	-12.0187
▁ऑडिट	-12.0188
▁स्प्रिंग	-12.0188
राई	-12.0188
ाइटिस	-12.0189
▁ऐं	-12.0189
साम	-12.0189
▁पेशी	-12.019
▁कोल्ड	-12.019
ल्क	-12.0191
▁कहलाती	-12.0192
रोज	-12.0192
वेट	-12.0194
्मी	-12.0194
▁अटूट	-12.0196
▁अथॉरिटी	-12.0196
▁घनत्व	-12.0196
▁मचाने	-12.0197
▁खि	-12.0197
▁भाड़	-12.0199
▁लहरें	-12.0202
▁पढें	-12.0202
▁निर्भय	-12.0204
▁ख़ु	-12.0206
वेस्ट	-12.0207
▁प्लेन	-12.0207
ice	-12.0207
▁कैसीनो	-12.0208
▁त्योहारों	-12.0212
▁ओन	-12.0212
▁शराबी	-12.0212
▁फलां	-12.0212
▁चित्रकूट	-12.0213
▁रिले	-12.0214
▁स्मोक	-12.0216
▁पंडितों	-12.0217
▁कायदा	-12.0221
▁स्टॉप	-12.0222
▁चिन्हित	-12.0222
▁गह	-12.0222
▁आत्मिक	-12.0224
▁डायबिटीज	-12.0229
▁भुखमरी	-12.0229
▁नमकीन	-12.0231
▁विषयक	-12.0232
▁विदेशियों	-12.0232
ise	-12.0236
श्त	-12.0236
▁विषमता	-12.0237
▁अविश्वसनीय	-12.0238
▁शिलान्यास	-12.0238
▁÷	-12.0238
▁जमे	-12.0239
▁झुंड	-12.0239
▁101	-12.0242
▁गरमी	-12.0243
▁केदार	-12.0244
и	-12.0246
फो	-12.0246
▁सलामत	-12.0248
▁बाम	-12.025
ियाई	-12.0251
▁बुझाने	-12.0252
▁नीरा	-12.0252
ीराम	-12.0253
▁कलाई	-12.0254
▁प्रोटोकॉल	-12.0254
▁अफ़ग़ानिस्तान	-12.0254
▁गोले	-12.0255
▁आंकलन	-12.0255
▁नायाब	-12.0255
▁तीखे	-12.0255
▁कहिये	-12.0257
▁चट्टानों	-12.0257
▁सिनेमाघर	-12.0257
▁बांधकर	-12.0257
▁अनियमितता	-12.0259
खो	-12.0259
▁घात	-12.026
▁रति	-12.0261
▁राठौड़	-12.0263
▁आगाज	-12.0263
▁यूनिकोड	-12.0263
▁शरीक	-12.0264
▁श्रेष्ठता	-12.0268
▁ड्राइंग	-12.0271
▁नैशनल	-12.0271
▁प्रधानाचार्य	-12.0273
मार्क	-12.0274
▁लेंस	-12.0275
▁बंधुओं	-12.0276
▁छत्तीसगढ	-12.0278
▁अनुयायियों	-12.028
▁बंगलौर	-12.028
▁खदेड़	-12.028
▁जड	-12.0281
▁नवाचार	-12.0282
▁ठोंक	-12.0282
▁हौसले	-12.0287
▁नुस्खा	-12.0288
▁वाष्प	-12.0288
▁सूत	-12.0292
हरि	-12.0292
▁निजीकरण	-12.0296
▁भद्द	-12.0296
▁हिलेरी	-12.0297
▁हताशा	-12.0298
▁नवल	-12.0301
▁रचे	-12.0302
▁समझाना	-12.0303
▁चालाक	-12.0304
▁सिरदर्द	-12.0305
▁कलह	-12.0306
वर्ण	-12.0306
▁अशुद्ध	-12.0306
▁मित	-12.0309
रिटी	-12.031
▁धोकर	-12.0311
▁निकायों	-12.0312
▁लिखो	-12.0312
▁बैतूल	-12.0314
▁वृंदावन	-12.0314
▁अमावस्या	-12.0314
▁मस्तक	-12.0316
os	-12.0317
▁शीट	-12.032
ॉम	-12.0322
▁गिरि	-12.0322
▁रहूँगा	-12.0323
▁चुस्त	-12.0325
▁करप्शन	-12.0327
▁चपरासी	-12.033
▁शाहरूख	-12.0331
▁क्रिएटिव	-12.0331
▁बुढ़ापे	-12.0331
▁दुग्ध	-12.0331
▁स्त्रियां	-12.0331
▁मंडली	-12.0335
▁बदनामी	-12.0338
शल	-12.0338
▁नगरीय	-12.0338
एफसी	-12.0342
▁स्वर्णिम	-12.0343
▁पाओगे	-12.0343
▁केसरी	-12.0347
▁webdunia	-12.0347
▁क्लर्क	-12.0347
▁मुसाफिर	-12.0347
▁सहूलियत	-12.0347
▁निर्वहन	-12.0348
▁पंजीयन	-12.0348
▁बोलबाला	-12.0348
▁एतराज	-12.0348
समय	-12.035
▁मलयालम	-12.0351
प्रे	-12.0352
भ्य	-12.0352
ावा	-12.0355
▁तिहाड़	-12.0356
▁सौजन्य	-12.0358
▁तड़के	-12.0358
ंची	-12.036
▁लूँगा	-12.0361
▁काटते	-12.0361
▁o	-12.0362
▁जताने	-12.0363
▁कणों	-12.0367
▁छिड़क	-12.0367
▁झटक	-12.0367
▁प्रतिलिपि	-12.0368
▁तस्	-12.037
▁कद्र	-12.0371
▁तज	-12.0372
▁विन्यास	-12.0374
फै	-12.0375
▁रामू	-12.0375
mo	-12.0378
पाट	-12.0378
▁मोहताज	-12.0379
▁रॉकेट	-12.0379
रक्षक	-12.0382
▁कच्छ	-12.0382
▁थल	-12.0382
▁सेनापति	-12.0382
▁रीता	-12.0384
▁दौड़ते	-12.0384
बली	-12.0384
▁मिलेंगी	-12.0385
▁दीवानी	-12.0385
▁मूंद	-12.0387
▁सदाचार	-12.0388
▁j	-12.0388
▁बेल्जियम	-12.039
▁तरजीह	-12.039
▁हंगामे	-12.039
▁जागो	-12.0391
▁परोपकार	-12.0392
▁खोलना	-12.0394
▁एवम	-12.0397
पणियां	-12.0398
▁नुक्सान	-12.0399
कृ	-12.04
▁मारक	-12.04
▁खगोल	-12.0402
▁पिरो	-12.0402
▁टिकटों	-12.0402
▁रेन	-12.0403
▁प्रचुर	-12.0406
▁यक़ीन	-12.0407
▁षडयंत्र	-12.0407
▁नन्ही	-12.0407
▁दलाई	-12.0408
▁कुं	-12.0412
▁हाइवे	-12.0414
▁अपनाई	-12.0414
▁अदभुत	-12.0416
[...]
