<unk>	0
<s>	0
</s>	0
__t2en__	0
▁the	-2.77414
.	-3.15068
,	-3.30821
▁of	-3.56798
▁in	-3.89633
s	-3.89733
▁to	-3.9262
▁and	-4.22374
▁a	-4.60058
▁that	-4.60225
▁is	-4.60904
▁on	-4.70486
▁has	-4.91819
'	-5.01339
▁	-5.03517
▁this	-5.10947
▁The	-5.12327
▁was	-5.18505
▁for	-5.21866
▁will	-5.23577
▁be	-5.24602
▁said	-5.32741
▁not	-5.40574
-	-5.41715
▁from	-5.41955
ing	-5.46474
▁also	-5.47278
▁with	-5.63594
▁have	-5.67683
▁are	-5.70585
▁been	-5.73268
▁In	-5.77933
▁it	-5.78093
▁by	-5.79931
▁he	-5.86166
▁government	-5.86804
▁Minister	-5.90941
ed	-5.9535
▁his	-6.00724
▁Delhi	-6.01532
:	-6.01555
▁had	-6.1017
▁people	-6.12851
d	-6.19462
▁were	-6.20398
▁He	-6.24162
▁at	-6.31144
▁there	-6.31223
▁India	-6.34228
▁after	-6.37571
▁Congress	-6.39211
▁(	-6.39541
▁who	-6.39631
▁but	-6.418
▁time	-6.42733
▁which	-6.43236
▁BJP	-6.44782
▁Read	-6.46635
▁Singh	-6.47625
▁can	-6.47769
▁as	-6.50692
▁It	-6.51467
▁By	-6.51973
▁about	-6.54099
▁Modi	-6.54762
▁case	-6.57923
▁police	-6.58074
▁two	-6.62032
▁On	-6.62945
a	-6.63424
▁their	-6.63584
e	-6.66677
ly	-6.68294
▁After	-6.68483
▁against	-6.68969
▁country	-6.70278
▁A	-6.70464
▁This	-6.70998
▁all	-6.71206
▁Chief	-6.72441
▁an	-6.72868
▁go	-6.72993
▁new	-6.73225
)	-6.74213
▁state	-6.75112
▁being	-6.75815
y	-6.78077
▁party	-6.79219
▁news	-6.79829
▁'	-6.8045
i	-6.82514
▁other	-6.83215
▁To	-6.85425
▁made	-6.85591
▁they	-6.86074
▁court	-6.86307
▁see	-6.87566
er	-6.88375
▁m	-6.88569
▁Court	-6.88749
▁only	-6.89405
▁According	-6.90228
▁then	-6.90994
▁them	-6.91077
com	-6.91708
▁given	-6.92289
▁no	-6.93059
▁New	-6.94643
▁should	-6.95046
▁mobile	-6.95595
▁I	-6.95953
▁live	-6.99351
▁him	-6.99483
n	-7.01472
▁its	-7.02968
▁-	-7.0342
▁one	-7.03936
▁such	-7.05733
▁latest	-7.06762
al	-7.06765
▁Prime	-7.07611
▁these	-7.07691
▁photos	-7.08496
▁any	-7.09085
▁three	-7.09579
▁year	-7.10276
▁videos	-7.11255
jagran	-7.1159
▁years	-7.11975
▁scores	-7.12238
t	-7.17287
▁or	-7.17584
▁There	-7.18273
▁Indian	-7.19065
▁[	-7.19177
▁many	-7.19508
in	-7.19556
th	-7.2028
▁now	-7.20591
▁meeting	-7.20884
▁started	-7.21073
▁first	-7.21183
▁more	-7.21872
▁last	-7.21905
▁told	-7.22524
▁so	-7.22859
r	-7.23172
▁due	-7.24974
▁Pradesh	-7.25013
▁accused	-7.25399
▁did	-7.25821
▁Pakistan	-7.26824
▁out	-7.28122
▁President	-7.29138
▁same	-7.29882
▁elections	-7.31904
▁do	-7.32239
▁some	-7.32301
an	-7.32385
▁under	-7.34167
▁But	-7.34349
▁get	-7.34568
▁work	-7.34721
k	-7.359
▁than	-7.35969
▁while	-7.36176
▁At	-7.36299
▁between	-7.36422
▁take	-7.36441
▁when	-7.36519
▁"	-7.3689
▁her	-7.38137
▁taken	-7.39195
▁leader	-7.39793
o	-7.39975
▁information	-7.40408
▁Sabha	-7.41059
▁Gandhi	-7.41332
▁issue	-7.41357
▁Kumar	-7.42645
m	-7.42842
▁if	-7.43549
▁days	-7.43873
▁come	-7.44016
la	-7.44058
▁we	-7.45428
S	-7.45432
▁came	-7.45442
▁during	-7.4615
▁make	-7.49593
▁matter	-7.49721
▁Supreme	-7.49731
▁asked	-7.49894
u	-7.49937
▁Police	-7.50674
▁before	-7.51009
▁here	-7.516
or	-7.52316
ri	-7.5254
▁decision	-7.53413
▁you	-7.54369
M	-7.54729
▁over	-7.55028
▁D	-7.55536
▁Rs	-7.55602
es	-7.55776
▁B	-7.56115
▁Kashmir	-7.56169
▁day	-7.56183
h	-7.56456
▁S	-7.56527
li	-7.56714
▁security	-7.572
A	-7.57352
le	-7.57729
▁P	-7.57875
▁Mumbai	-7.58317
▁They	-7.59495
▁report	-7.60608
▁like	-7.60722
▁got	-7.61195
▁leaders	-7.61644
▁Narendra	-7.62047
▁up	-7.6235
▁including	-7.62786
▁area	-7.63454
ur	-7.63929
▁CBI	-7.64004
▁Government	-7.64746
▁house	-7.65676
▁name	-7.65816
▁district	-7.65885
very	-7.66011
ra	-7.66109
▁five	-7.66466
▁going	-7.66541
▁order	-7.66682
▁number	-7.66813
▁election	-7.67019
▁Ministry	-7.67392
▁give	-7.67593
▁four	-7.67843
▁situation	-7.67939
▁women	-7.68302
▁High	-7.68535
▁family	-7.6857
▁percent	-7.69247
▁rupees	-7.69398
▁done	-7.69446
P	-7.69807
▁village	-7.70184
▁reached	-7.7044
▁Rahul	-7.70467
▁minister	-7.71115
na	-7.71189
▁read	-7.71263
▁10	-7.71479
▁former	-7.71661
D	-7.71821
l	-7.72754
il	-7.7284
▁Yadav	-7.72982
▁would	-7.73774
▁public	-7.74653
ar	-7.74721
▁way	-7.75062
▁political	-7.758
re	-7.76505
]	-7.77209
▁both	-7.77379
▁Lok	-7.77688
▁took	-7.77715
▁incident	-7.77986
▁attack	-7.78061
▁present	-7.78097
ers	-7.78217
▁Gujarat	-7.78297
▁money	-7.78826
▁If	-7.79001
▁crore	-7.79033
I	-7.79203
▁statement	-7.80391
▁lakh	-7.80688
▁re	-7.81102
c	-7.81283
▁sent	-7.81823
▁water	-7.82022
ta	-7.82467
▁even	-7.83127
▁However	-7.83272
▁every	-7.83524
▁arrested	-7.83982
▁action	-7.84428
▁through	-7.84611
▁Dur	-7.84953
▁Uttar	-7.85267
ation	-7.85349
▁thousand	-7.85573
▁states	-7.85742
g	-7.85747
▁countries	-7.86097
▁hand	-7.86133
▁help	-7.86304
▁special	-7.87399
pur	-7.87634
▁filed	-7.87875
am	-7.88007
▁used	-7.88253
▁investigation	-7.88691
ma	-7.88762
se	-7.88855
B	-7.88924
▁terrorists	-7.89876
R	-7.90076
▁Monday	-7.90093
▁till	-7.90117
▁say	-7.90326
▁State	-7.90572
p	-7.90685
▁PM	-7.90935
▁National	-7.91099
w	-7.91109
▁parties	-7.91151
f	-7.9186
▁where	-7.91898
▁C	-7.91932
▁place	-7.92163
▁world	-7.92567
▁p	-7.93302
ti	-7.93386
▁Union	-7.93502
▁Commission	-7.93562
▁Party	-7.93616
▁children	-7.93706
▁says	-7.9397
▁killed	-7.94146
▁China	-7.94195
▁power	-7.9434
▁officials	-7.94537
▁could	-7.9463
▁she	-7.94766
▁Justice	-7.94941
▁SP	-7.96524
▁For	-7.96821
▁land	-7.9763
ul	-7.97699
G	-7.98315
▁Tuesday	-7.99006
▁Ram	-7.99262
▁petition	-7.99394
▁19	-7.99445
di	-7.99535
▁chief	-7.99543
▁found	-7.99711
▁related	-7.99985
▁station	-8.00191
▁become	-8.00196
▁law	-8.00702
▁Dr	-8.00733
▁does	-8.00746
j	-8.00909
sh	-8.01339
▁again	-8.01402
▁Wednesday	-8.01491
8	-8.01598
▁woman	-8.01727
▁Also	-8.01793
).	-8.02442
▁night	-8.02528
▁Central	-8.02546
▁N	-8.02565
N	-8.02873
b	-8.03162
▁army	-8.03453
at	-8.03476
▁Bihar	-8.0348
▁12	-8.03551
▁Jammu	-8.03688
▁post	-8.03929
▁next	-8.03977
▁know	-8.04068
▁gave	-8.04798
▁Friday	-8.0481
▁increase	-8.04981
▁senior	-8.04985
▁R	-8.04999
7	-8.05083
▁When	-8.05146
▁death	-8.05315
ll	-8.05643
▁near	-8.05948
▁life	-8.06274
▁Home	-8.06289
▁development	-8.0669
▁today	-8.06748
▁M	-8.07402
▁support	-8.07436
C	-8.07506
▁Jagaran	-8.07698
ir	-8.07749
▁into	-8.07795
▁assembly	-8.08456
▁team	-8.08668
▁K	-8.08719
▁campaign	-8.08994
ic	-8.09075
▁Thursday	-8.0919
▁son	-8.09212
▁areas	-8.09588
ion	-8.09701
▁important	-8.10346
▁T	-8.1036
▁person	-8.10447
▁15	-8.10864
▁General	-8.11394
▁While	-8.11537
▁media	-8.11923
▁students	-8.1199
▁big	-8.12132
].	-8.12244
▁Now	-8.12358
▁coming	-8.12445
te	-8.12472
▁our	-8.12773
ch	-8.13106
▁20	-8.13113
▁hearing	-8.13264
▁morning	-8.13559
▁issued	-8.13577
ro	-8.13754
▁F	-8.13945
▁per	-8.13991
▁level	-8.14098
▁Kejriwal	-8.1416
▁second	-8.1418
▁So	-8.14262
▁decided	-8.14286
▁opposition	-8.14372
▁G	-8.14436
▁soon	-8.14584
▁because	-8.14764
5	-8.15683
▁sources	-8.15901
it	-8.16093
▁right	-8.16133
old	-8.16553
▁increased	-8.16577
▁central	-8.16602
▁taking	-8.17171
▁members	-8.17455
▁Saturday	-8.1768
▁held	-8.17937
▁injured	-8.18299
▁months	-8.1863
▁Parliament	-8.1864
st	-8.188
▁9	-8.1887
▁far	-8.19504
▁seats	-8.2013
▁11	-8.20343
▁Secretary	-8.20529
▁six	-8.20733
▁called	-8.2076
▁Apart	-8.20829
▁most	-8.20939
▁making	-8.21461
▁letter	-8.21582
▁question	-8.21822
▁system	-8.2203
ya	-8.22543
▁those	-8.22565
▁border	-8.23305
on	-8.2356
en	-8.23654
▁giving	-8.23681
O	-8.24629
▁company	-8.24711
▁committee	-8.24977
▁These	-8.25044
▁wife	-8.25184
ity	-8.25467
ne	-8.25799
▁front	-8.25836
ment	-8.25838
▁We	-8.25864
ni	-8.2652
▁MP	-8.26541
▁seen	-8.26654
▁candidate	-8.26727
▁went	-8.27483
▁why	-8.27523
▁jail	-8.28275
▁Shah	-8.28405
▁long	-8.28429
▁Center	-8.28654
9	-8.28715
T	-8.28728
▁what	-8.28788
▁cases	-8.28858
▁different	-8.2886
6	-8.2896
▁Sunday	-8.29444
▁ago	-8.29669
▁visit	-8.29717
▁de	-8.29753
▁getting	-8.29851
wa	-8.29862
▁girl	-8.30063
▁president	-8.30189
▁E	-8.30205
▁Maharashtra	-8.30475
▁man	-8.30592
▁change	-8.30688
▁Department	-8.30815
ad	-8.31015
▁official	-8.31134
▁regard	-8.31375
▁All	-8.31453
▁program	-8.31678
de	-8.31719
L	-8.31913
el	-8.32007
▁farmers	-8.3223
2	-8.32555
▁companies	-8.32685
▁received	-8.32729
year	-8.32905
1	-8.32983
▁ban	-8.33002
▁social	-8.33251
▁workers	-8.33396
▁May	-8.33518
um	-8.33943
▁With	-8.33991
ent	-8.34089
▁old	-8.34173
▁8	-8.34188
▁able	-8.34305
▁around	-8.3431
ia	-8.34548
▁car	-8.34632
▁good	-8.34729
▁kept	-8.34826
▁hospital	-8.34945
K	-8.35051
▁road	-8.35371
ist	-8.35589
▁officers	-8.35753
▁along	-8.35878
▁clear	-8.361
man	-8.36166
▁father	-8.36251
▁me	-8.36275
▁full	-8.36369
un	-8.36932
ol	-8.36935
3	-8.36955
▁few	-8.37308
▁national	-8.37309
▁bureau	-8.37376
▁politics	-8.37394
▁want	-8.37462
▁e	-8.37649
▁Due	-8.3778
ak	-8.37813
▁left	-8.38445
▁Raj	-8.38544
▁Army	-8.38751
▁Lucknow	-8.38952
▁how	-8.38987
▁As	-8.39294
▁need	-8.3952
▁face	-8.39689
00	-8.39817
id	-8.39924
▁Re	-8.3994
ru	-8.39971
da	-8.40146
▁died	-8.40347
▁Sa	-8.40369
▁Na	-8.40491
▁body	-8.4067
▁basis	-8.41153
▁month	-8.41872
▁part	-8.41974
▁train	-8.42045
▁Sharma	-8.42216
▁corruption	-8.4243
▁demand	-8.42465
▁terrorist	-8.42624
▁officer	-8.42682
▁young	-8.42777
▁Ka	-8.43049
▁process	-8.43071
▁written	-8.43605
▁Ma	-8.43675
▁high	-8.43887
▁my	-8.44042
▁fire	-8.44236
▁An	-8.4428
pa	-8.4452
▁25	-8.44686
▁30	-8.44794
▁14	-8.44828
▁reason	-8.44878
▁organization	-8.45202
▁mother	-8.45238
▁already	-8.45742
▁city	-8.45862
▁victim	-8.46073
▁Bengal	-8.46185
▁several	-8.46299
H	-8.46367
▁c	-8.46386
▁away	-8.46733
▁Shiv	-8.46753
U	-8.46861
▁Bureau	-8.46961
▁Rajya	-8.47096
z	-8.47097
▁Sonia	-8.47133
▁office	-8.47194
▁may	-8.47366
▁bank	-8.47507
▁youth	-8.4754
▁resident	-8.47644
▁whole	-8.47813
▁form	-8.48188
▁daughter	-8.48281
▁considered	-8.48317
▁hours	-8.48419
vi	-8.4847
▁working	-8.48579
▁Committee	-8.48794
▁18	-8.48833
▁US	-8.48977
ja	-8.49015
▁run	-8.49018
▁Khan	-8.4938
hu	-8.49388
▁lot	-8.4949
ant	-8.49562
▁expressed	-8.49689
ted	-8.49797
▁March	-8.49813
▁home	-8.49853
▁b	-8.49892
hi	-8.50148
▁back	-8.50259
▁announced	-8.5028
▁bill	-8.50389
tra	-8.50741
▁Earlier	-8.50839
▁school	-8.5088
▁U	-8.50938
▁stop	-8.51067
▁alleged	-8.5111
▁raised	-8.5113
ha	-8.51395
▁use	-8.51402
▁end	-8.51595
4	-8.51869
et	-8.52227
ka	-8.5236
▁deal	-8.5243
ba	-8.52633
ck	-8.52917
▁16	-8.53011
▁tax	-8.53023
va	-8.53151
▁April	-8.53229
ve	-8.53376
▁involved	-8.53376
▁since	-8.53554
▁seven	-8.53565
▁temple	-8.53686
▁t	-8.53689
▁bench	-8.53768
▁Punjab	-8.53798
▁evening	-8.54178
▁still	-8.54282
▁just	-8.54524
▁Air	-8.54696
▁himself	-8.54883
▁December	-8.5514
▁without	-8.55537
▁forces	-8.55589
E	-8.55678
▁demanded	-8.55715
as	-8.5586
▁meet	-8.55945
▁condition	-8.56087
▁ten	-8.56266
▁too	-8.56307
est	-8.56413
▁local	-8.56503
▁De	-8.56563
▁House	-8.56659
kar	-8.56687
▁J	-8.57144
▁Verma	-8.57236
▁start	-8.57238
▁13	-8.57657
▁2	-8.58007
har	-8.58189
▁murder	-8.58324
▁half	-8.58859
▁entire	-8.58894
▁co	-8.58907
▁June	-8.58967
ive	-8.59133
▁Even	-8.59158
▁50	-8.59252
▁un	-8.59265
▁5	-8.59292
▁general	-8.5942
▁V	-8.5968
▁charge	-8.59777
▁problem	-8.60147
▁million	-8.60174
▁large	-8.60343
▁saying	-8.60529
▁wants	-8.60552
▁amount	-8.60557
▁Act	-8.60745
▁scam	-8.60897
▁ready	-8.61031
▁am	-8.61215
▁us	-8.6129
▁Haryana	-8.61345
▁soldiers	-8.61555
▁much	-8.61664
▁black	-8.6205
▁fact	-8.62203
▁West	-8.62327
ate	-8.62491
able	-8.62716
▁January	-8.62804
▁session	-8.62838
▁railway	-8.63029
▁administration	-8.63031
ver	-8.63376
▁crores	-8.63397
ce	-8.63469
▁notice	-8.63505
x	-8.63694
▁own	-8.63847
▁Man	-8.63982
▁registered	-8.64183
F	-8.64267
▁education	-8.64457
▁child	-8.64473
▁Meanwhile	-8.64524
ter	-8.64535
us	-8.64544
▁July	-8.64694
▁well	-8.64796
▁Pakistani	-8.65278
▁became	-8.65331
▁Anna	-8.65567
▁strong	-8.6571
▁week	-8.65797
▁center	-8.65829
▁eight	-8.65891
▁list	-8.65952
▁foreign	-8.65974
▁Under	-8.66087
▁husband	-8.66434
V	-8.66453
▁included	-8.67214
▁issues	-8.67223
▁role	-8.6727
▁Manish	-8.6733
▁Election	-8.67445
▁Sena	-8.67732
▁His	-8.67758
▁met	-8.67774
▁your	-8.67956
▁sector	-8.67959
im	-8.68176
▁movement	-8.68188
▁November	-8.68347
ary	-8.68462
▁candidates	-8.68521
▁worth	-8.68736
▁con	-8.68804
▁keep	-8.68836
v	-8.69025
▁tell	-8.69052
▁stopped	-8.69287
▁view	-8.69291
▁H	-8.69517
▁Finance	-8.70525
▁24	-8.70683
▁department	-8.70869
▁set	-8.70983
▁leadership	-8.71078
lo	-8.712
▁another	-8.71299
▁open	-8.71307
ty	-8.71497
▁main	-8.71636
▁complaint	-8.71647
▁Prasad	-8.71688
▁poor	-8.71956
▁17	-8.71988
ji	-8.72034
▁Defense	-8.72139
▁down	-8.72454
▁possible	-8.72568
ry	-8.7262
▁member	-8.72632
▁August	-8.72654
▁brought	-8.72777
▁capital	-8.7295
▁o	-8.72955
▁behalf	-8.73046
▁society	-8.73135
▁return	-8.7315
),	-8.73185
▁times	-8.73249
▁Su	-8.73255
ting	-8.73322
▁places	-8.73524
▁living	-8.7363
ga	-8.73637
▁show	-8.7382
▁tried	-8.73905
▁Sachin	-8.73942
▁People	-8.74085
▁released	-8.74189
▁Railway	-8.74265
▁head	-8.74374
▁relief	-8.74454
▁Muslim	-8.74472
▁top	-8.74498
▁Rajasthan	-8.74503
nd	-8.74748
▁major	-8.74979
▁health	-8.75258
▁proposal	-8.7532
day	-8.75389
ci	-8.75535
bo	-8.75729
▁allegations	-8.75884
▁occasion	-8.75928
▁prepared	-8.76067
eet	-8.7609
▁bring	-8.76112
."	-8.76274
▁investigating	-8.76501
▁answer	-8.76552
▁private	-8.76552
▁4	-8.7663
▁Not	-8.76651
▁September	-8.76731
▁Sanjay	-8.76971
▁food	-8.77026
▁7	-8.77033
▁market	-8.77134
▁marriage	-8.77168
to	-8.77191
▁Mishra	-8.77219
ho	-8.77481
mi	-8.77527
du	-8.77663
▁Nitish	-8.77813
▁talk	-8.77904
▁leave	-8.77929
▁accident	-8.77954
ies	-8.7842
ani	-8.78546
▁organized	-8.78734
▁business	-8.78862
▁student	-8.79002
▁dispute	-8.79161
▁arrest	-8.79369
▁budget	-8.79549
▁Tiwari	-8.79616
▁February	-8.79694
▁Jaitley	-8.79813
▁MLA	-8.79889
▁ex	-8.7989
▁policy	-8.79945
▁provide	-8.80192
ness	-8.80256
▁responsibility	-8.80303
▁put	-8.8055
▁Manmohan	-8.80597
▁Rai	-8.80693
▁within	-8.80771
▁scheme	-8.80811
▁Affairs	-8.80862
▁necessary	-8.81035
▁ministers	-8.81069
▁later	-8.8119
▁Ba	-8.81233
▁Vi	-8.81365
▁Assembly	-8.81451
▁MPs	-8.81645
▁film	-8.81755
▁Rajnath	-8.81838
▁Patel	-8.82147
▁Par	-8.82177
▁Do	-8.82336
▁Force	-8.82478
▁spot	-8.82566
▁No	-8.82839
▁non	-8.82845
pal	-8.83016
J	-8.83037
▁financial	-8.83061
ab	-8.8307
▁service	-8.83125
▁Development	-8.83307
▁questions	-8.83455
▁free	-8.83677
▁trying	-8.83781
Jagaran	-8.83836
op	-8.83871
▁Day	-8.83984
▁BSP	-8.84002
ish	-8.84029
▁UPA	-8.84126
▁seat	-8.84184
tion	-8.84288
ut	-8.84376
▁located	-8.8467
▁reach	-8.84814
▁rally	-8.85004
▁Kolkata	-8.85156
▁UP	-8.85157
▁Arvind	-8.85282
▁according	-8.85315
▁known	-8.85574
han	-8.85638
▁bail	-8.85727
▁Jagran	-8.8576
▁3	-8.85815
▁Tamil	-8.85827
ct	-8.85841
▁dead	-8.85878
▁various	-8.8594
co	-8.86279
▁6	-8.86476
▁crime	-8.86503
▁account	-8.86577
ram	-8.86651
▁Bank	-8.86782
▁total	-8.8684
▁behind	-8.86927
▁Although	-8.87055
▁believed	-8.87186
▁O	-8.87274
▁anti	-8.87292
▁conference	-8.87525
▁October	-8.87539
▁L	-8.87623
ance	-8.8773
▁group	-8.87759
▁Vijay	-8.87811
▁side	-8.8796
,000	-8.88017
▁Board	-8.88179
▁brother	-8.88506
lu	-8.88624
▁Ga	-8.88706
▁attacked	-8.88778
▁close	-8.88888
▁great	-8.88889
▁fight	-8.88895
▁towards	-8.8894
▁interest	-8.88952
ot	-8.88978
▁Srinagar	-8.89006
▁mind	-8.89022
▁refused	-8.89214
▁rain	-8.8956
age	-8.89606
▁sought	-8.89658
▁past	-8.8966
▁small	-8.89702
ge	-8.89725
ial	-8.89732
▁Rajesh	-8.89846
▁together	-8.89863
▁GST	-8.89912
▁st	-8.89975
▁Arun	-8.8999
▁Madhya	-8.90038
▁treatment	-8.90042
▁operation	-8.90166
▁21	-8.90187
▁passengers	-8.90193
▁formed	-8.90267
▁Significantly	-8.90302
▁personnel	-8.90331
▁University	-8.90448
fi	-8.90484
▁war	-8.90638
▁Karnataka	-8.90713
clock	-8.9095
▁Ganga	-8.90959
▁violence	-8.91097
▁call	-8.91363
▁passed	-8.91376
▁once	-8.91564
▁22	-8.91585
po	-8.91937
▁aircraft	-8.91945
war	-8.91967
▁third	-8.92036
sa	-8.92149
▁examination	-8.92156
▁plan	-8.92183
▁project	-8.92296
▁further	-8.92391
▁Amit	-8.924
▁Akhilesh	-8.92496
▁happened	-8.92513
▁Baba	-8.92558
▁trains	-8.92567
▁dis	-8.92659
▁South	-8.92736
he	-8.92914
▁message	-8.93069
▁agencies	-8.93369
▁connection	-8.93391
tic	-8.93513
▁districts	-8.9361
▁firing	-8.93748
pe	-8.9381
▁serious	-8.94125
▁problems	-8.94139
▁40	-8.9419
▁admitted	-8.94556
▁response	-8.94847
▁From	-8.95139
▁Kerala	-8.95216
▁ordered	-8.95306
▁wrong	-8.95401
▁agreement	-8.95424
▁pay	-8.95532
▁increasing	-8.9554
▁running	-8.95616
▁outside	-8.95687
▁air	-8.95708
▁pressure	-8.95734
The	-8.95928
▁late	-8.95967
▁26	-8.96092
▁Uttarakhand	-8.96098
▁affected	-8.96262
cu	-8.96288
ah	-8.96462
▁discussion	-8.96536
▁Pratap	-8.96575
▁Council	-8.96612
▁cost	-8.96628
▁Two	-8.96644
▁Mulayam	-8.96753
▁age	-8.96756
ism	-8.96834
▁available	-8.96925
▁Nadu	-8.96937
▁completely	-8.97089
mp	-8.97094
▁Gupta	-8.97113
▁That	-8.97256
esh	-8.97365
ke	-8.97473
▁created	-8.97524
▁economic	-8.97577
ai	-8.97797
▁efforts	-8.97822
▁property	-8.97827
▁Commissioner	-8.97847
▁protest	-8.9803
▁addition	-8.98156
▁District	-8.98187
▁kind	-8.9819
▁yet	-8.98204
▁rape	-8.98297
▁less	-8.98374
▁Be	-8.98381
▁100	-8.98502
▁doing	-8.98685
▁better	-8.98764
▁banks	-8.98841
▁Opposition	-8.99031
▁Kamal	-8.99072
▁named	-8.991
▁Me	-8.99316
▁vote	-8.99401
▁presented	-8.99405
▁among	-8.99647
▁encounter	-8.99738
▁Ha	-8.99795
▁class	-8.99845
ud	-8.99938
▁Many	-9.00196
▁control	-9.00287
▁declared	-9.00292
▁Deputy	-9.00385
▁rules	-9.00394
mo	-9.00904
me	-9.01048
▁closed	-9.0107
wal	-9.01139
▁date	-9.01346
▁rule	-9.01416
▁secretary	-9.01417
▁2016	-9.01435
▁hope	-9.01463
▁cent	-9.01463
▁removed	-9.01472
ard	-9.01556
▁temperature	-9.0156
▁common	-9.01609
▁construction	-9.01909
▁She	-9.02161
less	-9.02299
▁light	-9.02301
▁current	-9.02341
▁Click	-9.02367
▁North	-9.02376
▁Joshi	-9.02421
▁reservation	-9.0245
▁W	-9.02716
▁Bo	-9.02718
▁each	-9.02765
▁believe	-9.02898
▁test	-9.03022
▁Governor	-9.03048
▁Negi	-9.03154
▁Da	-9.03724
▁notes	-9.03785
▁Some	-9.03874
▁handed	-9.03987
▁2017	-9.03993
▁video	-9.04135
▁complete	-9.04161
ang	-9.0417
nagar	-9.04218
▁1	-9.0424
gu	-9.04336
▁evidence	-9.0444
▁future	-9.04474
▁Vice	-9.04937
▁Hindu	-9.05138
▁Cha	-9.05183
▁What	-9.05438
▁discussed	-9.05516
▁Therefore	-9.05544
▁relations	-9.05643
▁Hospital	-9.05664
▁Ja	-9.05769
▁Foreign	-9.05938
▁Mukherjee	-9.05972
▁spokesman	-9.0599
ana	-9.05997
▁Nagar	-9.0603
is	-9.06126
▁agency	-9.06127
▁thing	-9.06129
▁Pa	-9.06255
▁ground	-9.06302
▁bus	-9.06372
▁Special	-9.06428
0	-9.06534
▁recovered	-9.06681
▁steps	-9.06808
▁changed	-9.06837
▁MLAs	-9.06838
▁fast	-9.06937
▁search	-9.07025
▁result	-9.0708
▁things	-9.07179
▁income	-9.07308
ful	-9.0748
▁clean	-9.07488
▁Go	-9.07527
▁questioned	-9.07651
mb	-9.07721
▁completed	-9.07722
▁informed	-9.07868
▁NDA	-9.07983
no	-9.07985
▁Bill	-9.08059
gi	-9.0808
▁book	-9.08097
▁community	-9.08175
▁application	-9.08315
▁step	-9.08446
▁international	-9.08475
▁room	-9.08541
ee	-9.08542
▁Jharkhand	-9.08579
▁La	-9.08618
▁votes	-9.08704
tor	-9.08823
▁forward	-9.08852
▁employees	-9.08863
ated	-9.08875
▁World	-9.09162
▁terrorism	-9.09173
▁girls	-9.09218
▁period	-9.0925
▁28	-9.09268
▁Director	-9.0938
▁phase	-9.09659
▁heavy	-9.09766
▁instead	-9.09819
▁benefit	-9.09845
▁27	-9.10031
▁Patna	-9.10276
▁price	-9.103
▁across	-9.10373
▁names	-9.10448
W	-9.10464
▁Bal	-9.10641
▁One	-9.10683
▁strike	-9.10697
▁23	-9.11004
▁move	-9.11031
▁relationship	-9.1104
▁doctors	-9.11128
▁results	-9.11198
▁Both	-9.11229
▁Bar	-9.11296
▁include	-9.11362
ng	-9.11392
iya	-9.11405
▁villages	-9.11449
▁Kan	-9.1156
▁target	-9.1157
▁suicide	-9.11672
si	-9.11754
▁Sanjeev	-9.11782
▁families	-9.11818
law	-9.1188
▁look	-9.11939
▁effect	-9.12018
gra	-9.12335
ki	-9.12679
▁Mi	-9.12689
▁fake	-9.12952
▁Jan	-9.12973
▁Ko	-9.13034
▁St	-9.13097
ran	-9.13147
▁medical	-9.13155
▁w	-9.1323
▁allowed	-9.13342
▁organizations	-9.13353
▁stand	-9.13359
▁Former	-9.13508
▁United	-9.13616
▁favor	-9.13685
▁expected	-9.13871
ag	-9.13886
▁won	-9.13905
▁military	-9.13913
▁supporters	-9.13966
tri	-9.13968
▁Ta	-9.14262
▁driver	-9.14349
▁hundred	-9.14349
▁Pra	-9.14435
▁claimed	-9.14599
▁Sushma	-9.14602
▁talks	-9.14608
▁release	-9.14661
▁Lo	-9.14671
▁whether	-9.14696
▁commission	-9.14922
pi	-9.15183
raj	-9.1541
▁caught	-9.15485
▁phone	-9.15499
▁ticket	-9.15536
ari	-9.15634
min	-9.15716
▁continue	-9.15773
▁Se	-9.15809
▁Ahmedabad	-9.16004
▁never	-9.16053
▁schools	-9.16068
ence	-9.16202
▁immediately	-9.16222
▁CM	-9.16339
▁Prakash	-9.16357
▁1.	-9.16363
tu	-9.16444
▁pm	-9.16449
▁force	-9.1658
▁save	-9.16592
▁nine	-9.1672
▁sitting	-9.16726
▁Trinamool	-9.16777
▁itself	-9.16815
▁success	-9.16899
▁heart	-9.16912
▁possibility	-9.16968
▁remove	-9.17013
▁Lal	-9.17035
▁pre	-9.17224
▁FIR	-9.17448
▁Al	-9.17522
▁Assam	-9.17527
▁Maha	-9.1754
▁rate	-9.17575
▁vehicles	-9.17585
▁Mo	-9.17666
▁Security	-9.1793
▁dozen	-9.18007
dar	-9.18082
▁preparing	-9.18085
▁inquiry	-9.1822
▁Cabinet	-9.1824
▁direction	-9.18394
▁Road	-9.18476
▁lost	-9.18603
▁Aadmi	-9.18609
▁crowd	-9.18628
▁Ojha	-9.18687
▁decide	-9.18717
▁km	-9.18771
ore	-9.18907
▁Muslims	-9.18937
▁Aam	-9.1896
▁hands	-9.18998
▁k	-9.19001
nt	-9.19108
▁bomb	-9.19312
▁fear	-9.19352
▁victory	-9.19724
▁legal	-9.19757
ca	-9.19897
up	-9.19932
▁recorded	-9.20074
▁cities	-9.20113
▁Goa	-9.20125
▁Ar	-9.2029
▁Express	-9.20292
▁check	-9.20654
van	-9.20714
▁wrote	-9.20853
▁lack	-9.20887
▁activities	-9.20893
▁difficult	-9.20923
▁spread	-9.21108
▁provided	-9.21159
▁everyone	-9.2119
▁speed	-9.21232
▁Hyderabad	-9.21312
od	-9.21456
▁field	-9.21581
▁status	-9.21612
▁Kar	-9.21728
bu	-9.2178
▁camp	-9.2192
▁river	-9.22031
ts	-9.22069
▁conspiracy	-9.22236
▁Reporter	-9.22275
▁Chidambaram	-9.22418
▁Patra	-9.2246
▁claim	-9.22544
▁fixed	-9.22563
▁Pranab	-9.2258
▁terror	-9.22735
▁Lalu	-9.22841
rs	-9.23265
ure	-9.23411
▁Sri	-9.23416
▁Here	-9.2358
▁Po	-9.23633
▁incidents	-9.23725
▁Nepal	-9.23731
▁31	-9.23824
▁join	-9.23825
▁Pak	-9.23828
▁reported	-9.23836
shi	-9.24079
▁etc	-9.2409
▁ministry	-9.24131
▁lawyer	-9.24227
▁Let	-9.24229
▁Law	-9.24256
"	-9.24259
▁Gunat	-9.24283
▁gang	-9.24286
ine	-9.24433
▁board	-9.24481
ling	-9.24508
▁director	-9.24521
▁Bi	-9.24614
▁Wa	-9.24626
▁travel	-9.24696
▁mis	-9.24704
om	-9.24801
▁Then	-9.24876
30	-9.24904
▁line	-9.24907
▁prime	-9.24916
one	-9.25064
▁press	-9.25255
▁Advani	-9.25373
▁rejected	-9.25476
per	-9.25484
▁concern	-9.2553
▁huge	-9.25539
▁send	-9.25596
▁defeat	-9.25635
▁opinion	-9.25832
▁America	-9.25936
▁permission	-9.25986
▁Lokpal	-9.26001
▁Andhra	-9.26002
▁attempt	-9.26083
▁custody	-9.26125
▁Chhattisgarh	-9.26161
▁Since	-9.26272
▁defense	-9.26293
▁documents	-9.26577
▁anything	-9.26759
▁card	-9.26825
▁Ro	-9.26862
▁coal	-9.27137
▁60	-9.27165
▁always	-9.2718
▁judge	-9.2719
▁2011	-9.27197
▁Health	-9.27309
kh	-9.27392
▁Ali	-9.27596
▁file	-9.27635
▁job	-9.27711
av	-9.27851
▁population	-9.27904
ating	-9.28113
▁wanted	-9.28139
go	-9.28245
▁event	-9.2836
▁building	-9.28441
ally	-9.28506
▁becoming	-9.28549
▁Facebook	-9.28697
▁real	-9.28726
▁personal	-9.28981
▁Officer	-9.28988
▁rights	-9.28995
▁Si	-9.29017
q	-9.29129
▁returned	-9.29193
em	-9.29305
▁stay	-9.29347
▁Swaraj	-9.29349
▁jawans	-9.29409
▁illegal	-9.29458
▁sp	-9.29471
▁Bajpai	-9.29497
▁Chinese	-9.29497
▁language	-9.29519
and	-9.29549
▁earlier	-9.29562
▁cold	-9.29563
▁Ni	-9.29582
▁appointment	-9.29589
tan	-9.29625
▁Chennai	-9.29671
▁voters	-9.29716
▁engaged	-9.29758
▁airport	-9.29805
▁Hindi	-9.29824
▁investigate	-9.29924
ber	-9.29968
▁opened	-9.30093
▁peace	-9.30139
▁biggest	-9.3015
bi	-9.30197
▁electricity	-9.30264
▁love	-9.30424
▁point	-9.30445
fa	-9.30904
▁directly	-9.30939
ganj	-9.30988
▁Bas	-9.31036
▁Sinha	-9.31273
▁challenge	-9.31386
▁cabinet	-9.31403
▁strategy	-9.3147
▁record	-9.31511
▁CPI	-9.31643
▁Bharat	-9.31656
▁Banerjee	-9.31669
led	-9.31748
▁eyes	-9.319
▁consider	-9.31952
▁heard	-9.31988
▁despite	-9.32204
▁voting	-9.32248
▁plea	-9.32366
▁Am	-9.32458
▁di	-9.32483
be	-9.3267
▁address	-9.32684
espite	-9.32695
▁married	-9.32739
▁talked	-9.32829
▁prevent	-9.32913
▁region	-9.33014
▁religion	-9.33031
▁Janata	-9.33076
▁prove	-9.33709
▁remained	-9.33871
▁Dal	-9.33974
nk	-9.34152
▁responsible	-9.34185
▁Le	-9.34222
ush	-9.34307
▁create	-9.34339
▁deployed	-9.34351
▁position	-9.34427
▁killing	-9.3443
▁g	-9.34496
▁cut	-9.34528
▁find	-9.34606
▁proposed	-9.34607
▁Gadkari	-9.34641
▁debate	-9.34642
▁Co	-9.347
▁whose	-9.34761
▁announcement	-9.34785
▁built	-9.34801
▁Maoists	-9.34818
▁Ahmed	-9.34976
mar	-9.35007
▁ra	-9.35145
▁2015	-9.35274
▁Mamta	-9.35444
▁arrangements	-9.35623
▁details	-9.35698
hal	-9.35917
iv	-9.36056
JnN	-9.36091
▁29	-9.36141
▁remain	-9.36215
dh	-9.36372
▁Jaipur	-9.36491
▁riots	-9.36547
▁Har	-9.36599
▁judges	-9.36684
▁respect	-9.36861
ig	-9.36996
▁demanding	-9.37035
▁note	-9.3704
der	-9.37164
▁bad	-9.37176
▁comes	-9.37222
▁Along	-9.37222
▁cash	-9.37308
▁villagers	-9.37364
▁blast	-9.37464
▁data	-9.37489
▁threat	-9.37533
▁resignation	-9.37681
▁loss	-9.37742
▁Mar	-9.37759
▁parts	-9.37794
▁Later	-9.37822
▁Mayawati	-9.37844
▁Pal	-9.37866
▁website	-9.37892
▁accept	-9.37927
ning	-9.3807
ect	-9.38107
▁Chand	-9.38167
▁Te	-9.38294
▁Information	-9.38341
▁Mohan	-9.38376
▁Because	-9.38436
▁keeping	-9.38455
▁appeal	-9.38485
▁speech	-9.38548
▁separate	-9.38654
▁kill	-9.3869
▁Devi	-9.38708
▁looking	-9.38727
▁rest	-9.38832
▁services	-9.38921
ow	-9.38938
ali	-9.39001
▁forest	-9.39021
▁launch	-9.39034
▁nor	-9.39069
▁continued	-9.39097
▁Ashok	-9.39247
▁revealed	-9.39249
▁Chaudhary	-9.3927
▁strict	-9.39384
▁Ravi	-9.39405
▁approved	-9.39437
▁research	-9.39486
▁Sangh	-9.39643
▁Krishna	-9.39678
▁International	-9.39775
ff	-9.39887
▁Sources	-9.39918
▁Chandra	-9.40005
▁shown	-9.40091
▁Rajiv	-9.40135
▁formation	-9.40162
▁arrived	-9.40214
▁Shankar	-9.40286
▁think	-9.40317
ay	-9.40416
▁Women	-9.4045
▁Himachal	-9.40474
▁gone	-9.40574
▁training	-9.40613
▁voice	-9.40741
▁Three	-9.40797
▁safe	-9.40917
▁Kha	-9.4106
▁rid	-9.41065
▁path	-9.41069
▁protect	-9.411
▁minutes	-9.41109
ara	-9.41155
▁active	-9.41172
▁implemented	-9.41179
ous	-9.41261
▁talking	-9.41293
▁route	-9.41301
▁missile	-9.41325
▁win	-9.41327
▁birth	-9.41603
▁instructed	-9.41655
▁final	-9.41733
▁normal	-9.4197
cal	-9.41997
▁parents	-9.42036
▁accepted	-9.42061
▁understand	-9.42081
▁controversy	-9.42184
▁newspaper	-9.42505
▁reduced	-9.42624
▁flag	-9.42837
▁External	-9.42876
tt	-9.42907
ach	-9.42939
▁Th	-9.43153
tar	-9.43193
▁caste	-9.4323
▁base	-9.43247
▁successful	-9.43538
▁lives	-9.43663
▁Shi	-9.43683
abad	-9.43726
con	-9.438
par	-9.43912
do	-9.43923
▁break	-9.44078
▁coalition	-9.44125
▁victims	-9.44146
▁attacks	-9.44193
▁prices	-9.44227
▁anyone	-9.44352
▁Mu	-9.44387
ju	-9.44532
▁Allahabad	-9.44553
▁...	-9.44774
▁scandal	-9.44805
ap	-9.44857
▁care	-9.4491
▁tour	-9.44991
▁Lalit	-9.45042
▁charges	-9.45053
▁led	-9.45219
▁Senior	-9.45363
ip	-9.45398
▁comment	-9.45427
endra	-9.45434
▁lodged	-9.45618
▁spent	-9.45646
▁Only	-9.45693
▁Manoj	-9.4572
▁Panchayat	-9.45746
▁joined	-9.45839
▁blood	-9.45899
▁majority	-9.45977
▁management	-9.46052
▁Before	-9.46155
▁hard	-9.46193
tal	-9.46364
▁Pan	-9.46429
▁Chairman	-9.46463
▁survey	-9.4654
ex	-9.46601
▁correspondent	-9.46643
und	-9.46669
ash	-9.46794
▁verdict	-9.46798
▁canceled	-9.46805
sha	-9.46952
▁journey	-9.47186
ree	-9.47237
▁imposed	-9.47315
▁impact	-9.47344
ster	-9.47351
▁human	-9.47394
▁You	-9.47638
▁concerned	-9.47951
▁Rao	-9.47993
▁others	-9.48124
▁mentioning	-9.48132
▁appointed	-9.48297
▁religious	-9.48306
ian	-9.48325
50	-9.48459
▁Abhishek	-9.48463
▁pass	-9.48524
▁degree	-9.48565
▁mentioned	-9.48592
▁Judge	-9.48597
ging	-9.48626
▁bodies	-9.487
▁College	-9.48726
▁Fa	-9.48751
▁abroad	-9.48805
▁track	-9.48832
▁70	-9.48874
▁Guru	-9.48899
▁San	-9.48989
▁constituency	-9.49095
▁angry	-9.49148
▁Bangladesh	-9.49325
▁Varanasi	-9.49412
▁launched	-9.49462
▁criminal	-9.49643
▁themselves	-9.49651
▁crisis	-9.49677
▁Va	-9.49745
▁needs	-9.49767
▁associated	-9.49867
▁500	-9.49959
▁roads	-9.50089
▁recently	-9.50089
pl	-9.50183
▁lakhs	-9.50231
▁35	-9.5035
▁economy	-9.50397
▁afternoon	-9.50397
ANI	-9.50419
▁projects	-9.50514
▁provision	-9.50541
▁School	-9.50584
▁statements	-9.50593
▁self	-9.50692
▁residence	-9.50745
▁share	-9.50758
▁broke	-9.50764
▁weather	-9.50826
▁feet	-9.51167
▁environment	-9.51213
▁1,	-9.51227
▁parliamentary	-9.51237
▁Sha	-9.51262
land	-9.51336
▁currently	-9.5138
▁missing	-9.51511
▁Today	-9.51646
▁highest	-9.51719
▁truth	-9.51743
▁act	-9.51776
▁Corporation	-9.51852
ization	-9.51857
▁sentence	-9.51868
▁opposed	-9.51969
gg	-9.5199
▁Jha	-9.52057
▁men	-9.52106
▁trust	-9.52151
▁v	-9.52242
▁Twitter	-9.52342
▁reaching	-9.52355
▁gas	-9.52372
▁beginning	-9.52428
the	-9.5244
▁Celsius	-9.52478
▁protection	-9.52485
▁houses	-9.52549
▁hour	-9.52614
▁divorce	-9.52615
▁raise	-9.5263
▁intelligence	-9.5267
▁Constitution	-9.52752
rn	-9.52939
▁legislators	-9.52955
▁justice	-9.52959
▁fl	-9.52983
▁Mamata	-9.53053
▁Di	-9.53103
▁history	-9.53171
▁similar	-9.53218
ten	-9.53265
line	-9.53272
ction	-9.53314
ring	-9.53341
▁purpose	-9.53356
▁Dev	-9.53442
wan	-9.53614
▁Bhopal	-9.53667
king	-9.53673
▁freedom	-9.53913
▁Education	-9.53964
▁supply	-9.53964
▁Ad	-9.53984
▁About	-9.54022
▁institutions	-9.5414
▁block	-9.54151
nath	-9.54276
▁Sharad	-9.54296
▁reporters	-9.54324
ight	-9.54444
▁Group	-9.54548
▁technology	-9.54548
▁NIA	-9.54563
▁Railways	-9.54578
We	-9.54673
wi	-9.54691
▁atmosphere	-9.54715
▁Kanpur	-9.54815
▁nothing	-9.54929
▁recent	-9.54946
▁opportunity	-9.55472
▁relatives	-9.55492
▁appealed	-9.55498
▁presence	-9.55501
▁avoid	-9.55551
▁facilities	-9.55557
▁ED	-9.55578
pat	-9.55695
▁oil	-9.55773
▁Public	-9.55952
ph	-9.55991
▁largest	-9.56
▁reply	-9.56009
▁Li	-9.56144
▁minor	-9.56204
▁rains	-9.56211
▁Tax	-9.56233
▁mo	-9.56267
▁ha	-9.56285
▁allow	-9.56307
▁Anand	-9.5643
▁initiative	-9.56462
men	-9.56477
▁advocate	-9.56514
▁identified	-9.56576
lal	-9.56649
▁dream	-9.56747
▁degrees	-9.56836
▁attitude	-9.56918
▁Institute	-9.56946
▁appear	-9.56953
▁policemen	-9.57001
▁described	-9.57032
▁command	-9.57166
▁instructions	-9.57175
▁stone	-9.57262
kha	-9.57353
▁Sar	-9.57357
▁dismissed	-9.57366
▁Shri	-9.57409
che	-9.5741
▁previous	-9.57433
▁Con	-9.57446
▁limit	-9.57576
ical	-9.57687
▁investment	-9.57738
za	-9.57745
red	-9.57785
nder	-9.57975
▁joint	-9.57987
▁Team	-9.58054
▁plane	-9.58057
▁term	-9.58108
▁leaving	-9.58124
▁Hazare	-9.58153
▁2008	-9.58158
▁pollution	-9.58182
▁based	-9.58196
▁conduct	-9.58212
20	-9.58347
out	-9.5838
▁2.	-9.58445
▁Raja	-9.58485
▁pro	-9.58588
▁try	-9.58598
▁changes	-9.58689
▁gold	-9.58696
▁la	-9.58719
▁decisions	-9.58726
▁Y	-9.58839
▁Agra	-9.5884
▁schemes	-9.58844
▁hotel	-9.5889
▁lower	-9.59004
▁preparations	-9.59016
mal	-9.59054
▁helicopter	-9.591
▁flow	-9.59237
▁elected	-9.59247
▁alliance	-9.59258
▁pain	-9.59302
▁British	-9.59316
▁American	-9.5934
ath	-9.59446
▁bar	-9.59509
▁agreed	-9.59512
▁attention	-9.59521
▁nuclear	-9.5955
▁considering	-9.5958
▁Pro	-9.59764
▁Pandey	-9.59785
▁seriously	-9.5985
▁alias	-9.59993
▁weapons	-9.60009
ft	-9.60011
▁Speaker	-9.6005
▁maximum	-9.60057
▁reasons	-9.60239
▁inside	-9.60439
▁Ji	-9.60454
▁hear	-9.60549
▁compensation	-9.60552
▁billion	-9.60643
▁Ri	-9.60749
res	-9.60776
▁Bha	-9.60815
▁Narayan	-9.60878
▁Russia	-9.60903
▁section	-9.60938
ill	-9.60947
▁aware	-9.61046
▁Kashmiri	-9.61236
▁off	-9.61265
▁sa	-9.6127
▁proceedings	-9.61296
▁English	-9.61384
▁monsoon	-9.61384
▁maintain	-9.61396
▁speak	-9.61429
charge	-9.61433
▁sheet	-9.61491
▁Ramdev	-9.61556
mer	-9.61626
▁ahead	-9.61654
▁judicial	-9.62103
▁Ku	-9.62111
▁reduce	-9.62118
▁committed	-9.62203
ities	-9.6221
▁believes	-9.62246
▁Jain	-9.62253
ita	-9.62404
▁affidavit	-9.62405
▁friend	-9.62414
▁Ne	-9.62447
▁vehicle	-9.62461
▁began	-9.62544
▁effective	-9.62677
▁God	-9.62735
rat	-9.6276
▁Bhushan	-9.62769
▁flood	-9.62832
ub	-9.62867
▁improve	-9.62931
▁TV	-9.62998
▁governor	-9.6301
▁Naidu	-9.6304
▁Bangalore	-9.63101
▁earthquake	-9.63161
▁Leader	-9.63283
▁almost	-9.63378
▁owner	-9.63402
▁alert	-9.63418
chi	-9.63434
▁returning	-9.63505
▁80	-9.63525
▁intention	-9.63527
dy	-9.63582
▁standing	-9.63708
▁contest	-9.63761
▁Telangana	-9.63771
art	-9.6383
▁least	-9.63833
▁RSS	-9.63955
▁ho	-9.63969
su	-9.64021
▁Ban	-9.64112
▁tweet	-9.64156
▁happy	-9.64169
▁Noida	-9.64262
▁doctor	-9.64264
▁teachers	-9.64393
▁stations	-9.64468
▁ANI	-9.64488
▁unit	-9.64505
▁Ke	-9.64526
▁RJD	-9.64631
▁headquarters	-9.64656
▁honor	-9.64711
tha	-9.64815
▁3.	-9.64818
▁Salman	-9.64863
▁sentenced	-9.64894
▁targeted	-9.64949
▁Parliamentary	-9.65013
▁moment	-9.65123
▁Ju	-9.65193
▁progress	-9.6525
▁2012	-9.65337
▁delay	-9.65381
▁something	-9.65439
▁image	-9.65499
▁study	-9.6551
▁conversation	-9.65592
▁site	-9.65614
▁review	-9.65644
▁Test	-9.65649
garh	-9.65745
bal	-9.65757
▁pending	-9.65779
▁strength	-9.65781
rr	-9.65802
▁shot	-9.65873
▁story	-9.65878
▁Of	-9.65919
▁Asaram	-9.65935
▁Indira	-9.66123
ast	-9.66136
▁ruling	-9.66405
▁banned	-9.66448
▁sub	-9.66475
▁inflation	-9.66562
act	-9.66604
oo	-9.66614
▁online	-9.66624
▁traffic	-9.6668
▁Mal	-9.66826
▁rural	-9.66845
▁Ramesh	-9.66905
▁seeing	-9.66912
▁direct	-9.6695
▁using	-9.66966
▁seems	-9.66991
▁hanging	-9.66993
▁Thackeray	-9.67034
▁noteworthy	-9.67066
▁growing	-9.6712
▁famous	-9.67129
▁industry	-9.67129
▁violation	-9.67161
ide	-9.67165
▁fall	-9.67249
▁Ho	-9.67315
Jassa	-9.67477
▁sister	-9.67613
▁battle	-9.67668
▁Most	-9.67685
▁reports	-9.67702
az	-9.67712
▁tweeted	-9.67714
▁ask	-9.6785
▁happen	-9.67859
▁deep	-9.68018
▁hit	-9.68029
▁kilometers	-9.68178
gan	-9.68358
▁petrol	-9.68434
▁News	-9.68458
▁play	-9.68491
▁Such	-9.68576
▁posts	-9.68606
▁sc	-9.68641
▁course	-9.68691
▁constantly	-9.68698
▁More	-9.68711
▁Among	-9.6876
▁best	-9.68928
▁plant	-9.68948
▁Ex	-9.68985
▁Medical	-9.69045
▁threatened	-9.6912
▁festival	-9.69141
▁allocation	-9.69206
▁immediate	-9.6921
▁low	-9.69395
▁Jai	-9.69472
▁JDU	-9.69512
▁danger	-9.69553
hy	-9.69713
▁contact	-9.69757
au	-9.69833
▁must	-9.6992
▁trial	-9.69952
▁failed	-9.70116
▁born	-9.70214
▁express	-9.70286
▁Research	-9.7044
▁minimum	-9.7044
ized	-9.70602
▁NCP	-9.70672
cl	-9.70714
▁middle	-9.70735
cy	-9.70792
og	-9.70866
▁example	-9.70868
bha	-9.70873
▁fulfill	-9.70902
▁carrie	-9.70974
ious	-9.70979
▁Additional	-9.70998
os	-9.71108
▁option	-9.71162
▁Monika	-9.71296
▁devotees	-9.7161
▁approval	-9.71624
▁Similarly	-9.71636
▁Manohar	-9.71657
▁nation	-9.71816
▁Das	-9.71839
▁fine	-9.71862
▁accounts	-9.71866
▁Azam	-9.71982
▁Naxalites	-9.72009
▁bridge	-9.72022
▁Tilak	-9.72022
▁democracy	-9.72121
▁imprisonment	-9.72121
▁flight	-9.72234
▁tenure	-9.72252
▁How	-9.72302
▁employment	-9.72307
▁4.	-9.72361
▁warned	-9.72395
▁drug	-9.72454
nu	-9.72576
▁stage	-9.72588
▁purchase	-9.72651
▁Kal	-9.72691
▁Pawar	-9.72748
ala	-9.72791
▁teacher	-9.72794
▁cause	-9.72888
mon	-9.7293
ists	-9.72958
▁trouble	-9.72987
▁weeks	-9.73103
▁ceremony	-9.73157
▁seized	-9.7316
▁color	-9.73164
▁Kiran	-9.73234
▁thinking	-9.73241
▁convicted	-9.73269
▁Mallya	-9.73359
▁buy	-9.73374
▁above	-9.73393
▁facing	-9.73426
ik	-9.73511
▁forced	-9.7353
▁ensure	-9.73593
▁backward	-9.73604
▁college	-9.73627
▁mistake	-9.73628
▁45	-9.73644
▁Digvijay	-9.73696
ator	-9.7372
ac	-9.73729
▁played	-9.7377
▁tickets	-9.73841
▁Meerut	-9.73865
way	-9.7387
▁2013	-9.73906
▁fully	-9.73909
▁tension	-9.74002
▁manner	-9.74024
▁sign	-9.74034
▁Navy	-9.74051
▁showing	-9.74069
▁directed	-9.74075
▁confirmed	-9.74241
▁worship	-9.74475
▁Jayalalitha	-9.74514
▁energy	-9.74544
▁someone	-9.7455
▁deposited	-9.74642
bir	-9.74697
▁electoral	-9.74748
▁Samajwadi	-9.74816
▁waiting	-9.74833
▁Network	-9.74885
▁2014	-9.74913
▁additional	-9.74916
▁AK	-9.74938
▁suspended	-9.74955
sar	-9.74975
▁duty	-9.74988
▁Chauhan	-9.74992
▁category	-9.75159
▁punishment	-9.75165
▁Nehru	-9.75193
▁Indians	-9.75256
lan	-9.7526
▁Association	-9.7533
▁Azad	-9.7533
▁supported	-9.75347
▁paper	-9.75365
▁BSF	-9.75406
▁request	-9.75517
ship	-9.75599
qu	-9.75687
▁worker	-9.75731
mit	-9.75778
▁fe	-9.75791
ual	-9.75895
member	-9.75913
▁amendment	-9.75962
cha	-9.76093
▁distance	-9.76192
are	-9.76293
▁safety	-9.76319
▁advantage	-9.7633
▁Sam	-9.76333
een	-9.76373
▁200	-9.7638
▁Conference	-9.764
row	-9.76434
▁friends	-9.76511
▁joining	-9.76596
▁saw	-9.7673
▁claims	-9.76783
▁Pune	-9.76787
▁app	-9.76803
▁couple	-9.76817
▁enter	-9.76819
ven	-9.76882
▁cooperation	-9.77026
▁Jat	-9.7709
▁Work	-9.77237
▁ch	-9.77255
▁Maharaj	-9.77292
▁CRPF	-9.77411
▁Where	-9.77514
▁Prior	-9.77622
jan	-9.77655
▁Investigation	-9.77656
▁Odisha	-9.77692
▁paid	-9.77693
▁Ajay	-9.77727
▁experts	-9.77751
▁picture	-9.77765
val	-9.77771
▁Station	-9.77826
▁assured	-9.77832
▁discuss	-9.77858
▁Fi	-9.77874
▁guilty	-9.77973
ini	-9.7809
▁whereas	-9.78292
▁fired	-9.78363
▁Nitin	-9.78384
bar	-9.78399
dha	-9.78683
▁broken	-9.78727
▁effort	-9.78859
vo	-9.78916
minal	-9.79053
having	-9.79092
▁rail	-9.79101
ice	-9.79118
▁Section	-9.79121
▁JNN	-9.79286
▁sides	-9.79308
▁hold	-9.79356
▁turn	-9.79379
▁alone	-9.79507
▁loan	-9.79535
▁staff	-9.79572
▁citizens	-9.79632
▁clearly	-9.79632
ability	-9.79648
▁Office	-9.79661
▁patients	-9.79737
▁vice	-9.79759
▁production	-9.79759
ns	-9.7987
▁conducted	-9.79893
▁challenged	-9.79974
lam	-9.80314
▁Magistrate	-9.80399
▁license	-9.80579
▁posted	-9.80722
▁correct	-9.80724
▁resign	-9.80753
▁Income	-9.8084
ner	-9.80852
▁Pat	-9.80878
▁Thakur	-9.81196
▁Control	-9.81322
▁Ravindra	-9.81342
▁objection	-9.81366
▁Left	-9.81389
▁Four	-9.81432
▁90	-9.81433
▁touch	-9.81496
▁chairman	-9.81497
▁Human	-9.81575
▁rescue	-9.81576
▁legislator	-9.81618
▁expenditure	-9.81671
▁raising	-9.81671
oc	-9.8178
▁draft	-9.8178
▁tradition	-9.81794
▁complaints	-9.81873
▁Vajpayee	-9.8189
▁Sharif	-9.81892
▁facility	-9.81964
ite	-9.81998
▁global	-9.82037
▁nomination	-9.82074
▁Will	-9.82079
▁storm	-9.82111
ok	-9.82187
▁Mah	-9.82212
▁round	-9.82248
▁changing	-9.82258
▁withdraw	-9.82304
▁plans	-9.82387
ie	-9.82392
▁denied	-9.82516
▁difference	-9.82593
▁payment	-9.82651
▁platform	-9.82774
▁clarified	-9.82811
▁Mun	-9.82955
▁Lord	-9.83078
▁transfer	-9.83139
▁quite	-9.83139
▁implement	-9.83277
eshwar	-9.83446
▁satellite	-9.83479
▁guard	-9.83479
▁eye	-9.83504
▁Swami	-9.83532
▁youths	-9.83556
▁words	-9.83579
▁door	-9.83604
▁Anil	-9.83695
▁Their	-9.83728
▁Water	-9.83772
hir	-9.83882
▁proved	-9.83894
▁Gu	-9.84012
ery	-9.84097
▁Gopal	-9.8411
▁truck	-9.84114
▁means	-9.8424
▁Last	-9.84268
▁Bharti	-9.84301
▁growth	-9.84308
hil	-9.84317
▁neither	-9.84414
▁sexual	-9.84418
11	-9.84461
▁prisoners	-9.84591
▁deposit	-9.84655
fe	-9.8469
▁identity	-9.84753
▁en	-9.84811
▁fair	-9.84829
▁dialogue	-9.85093
▁visa	-9.85171
▁Bharatiya	-9.85188
▁And	-9.85224
bh	-9.85224
▁transport	-9.85284
▁especially	-9.85396
▁highway	-9.85421
ping	-9.85456
▁Kishor	-9.85457
▁sold	-9.85656
▁disease	-9.85692
dhi	-9.85703
▁idea	-9.85734
▁submitted	-9.8583
lar	-9.85836
▁Abdul	-9.85891
thi	-9.85894
▁2010	-9.86193
▁cleanliness	-9.86273
▁false	-9.8635
gen	-9.86433
▁fourth	-9.86438
ign	-9.86462
▁Che	-9.86647
▁surrounded	-9.86672
▁Parrikar	-9.86695
▁Authority	-9.86772
▁domestic	-9.86772
ug	-9.86891
▁division	-9.86923
▁sharp	-9.87004
tro	-9.87073
▁feel	-9.87133
▁chance	-9.87174
▁headed	-9.87306
▁meters	-9.8735
▁solution	-9.8739
▁blasts	-9.87397
pri	-9.87414
▁communal	-9.87416
▁5.	-9.87552
▁Suresh	-9.87563
▁2009	-9.87568
▁Agency	-9.87651
▁Mufti	-9.877
rit	-9.8773
▁performance	-9.87821
BJP	-9.87826
▁trade	-9.87899
had	-9.88074
▁short	-9.8827
▁Meteorologi	-9.88284
▁2007	-9.88289
▁Chandigarh	-9.88323
▁Legislative	-9.88558
▁gun	-9.88645
▁States	-9.88786
gar	-9.88815
ika	-9.88817
▁advised	-9.88845
▁slogans	-9.88847
▁definitely	-9.88872
▁easy	-9.88872
▁Five	-9.88884
▁affect	-9.88888
▁investigated	-9.88925
▁fund	-9.88989
▁ran	-9.89012
▁match	-9.8903
▁Reddy	-9.89112
▁gets	-9.89182
▁Vishwa	-9.89187
▁policies	-9.89384
▁daily	-9.89384
▁moving	-9.89384
▁remains	-9.89513
char	-9.89573
▁complained	-9.89645
▁Shukla	-9.8974
▁IIT	-9.89808
▁participate	-9.89894
▁model	-9.89899
anand	-9.8992
▁wave	-9.89999
▁premises	-9.90018
▁36	-9.90118
▁tribal	-9.90138
▁Char	-9.90188
▁seeking	-9.90195
son	-9.90214
▁Jam	-9.90248
▁Jail	-9.90287
▁female	-9.90377
▁besides	-9.90426
▁arrival	-9.90496
▁strongly	-9.90533
▁Deepak	-9.90536
▁award	-9.90631
▁town	-9.90711
▁interview	-9.90776
▁Japan	-9.90785
ther	-9.90814
▁Ki	-9.90818
▁Dalit	-9.90845
▁Ajit	-9.9086
▁developed	-9.90914
▁Priyanka	-9.91017
▁implementation	-9.91019
IM	-9.91064
▁contract	-9.91065
bra	-9.91139
▁militants	-9.91154
gram	-9.91161
▁flat	-9.91186
▁Ran	-9.91236
▁bribe	-9.91444
▁Sun	-9.91468
▁entered	-9.91599
▁Swamy	-9.91662
▁passing	-9.91667
▁Asia	-9.91717
▁confidence	-9.91733
▁fighting	-9.91835
▁strengthen	-9.91863
▁products	-9.91975
▁inter	-9.9212
▁terms	-9.92169
▁admission	-9.9219
ton	-9.92319
▁Civil	-9.92351
▁innocent	-9.92351
light	-9.92352
▁Tri	-9.92376
ize	-9.92472
▁meetings	-9.92491
▁Naxal	-9.92494
▁requested	-9.92577
▁points	-9.92578
▁exercise	-9.92636
▁East	-9.92648
chand	-9.92673
▁trapped	-9.92679
▁Actually	-9.92759
▁Ru	-9.92865
▁Trump	-9.92963
▁drinking	-9.93153
▁actor	-9.93173
dia	-9.93218
▁filing	-9.9325
jit	-9.93253
hat	-9.93285
▁addressing	-9.93493
▁Sushil	-9.93539
▁IS	-9.93616
▁prepare	-9.93664
▁Those	-9.93703
election	-9.93723
▁selected	-9.93856
▁beat	-9.93955
▁32	-9.94048
▁polling	-9.94117
dic	-9.94124
uddin	-9.94173
▁Front	-9.94199
▁thought	-9.94228
▁agenda	-9.94324
ron	-9.94354
▁IAS	-9.94411
▁Afghanistan	-9.94531
med	-9.94532
▁funds	-9.94553
▁enough	-9.94614
▁green	-9.94661
▁AC	-9.94662
▁notification	-9.94665
▁Bhavan	-9.94794
▁link	-9.94856
▁civil	-9.94899
▁true	-9.9499
AAP	-9.95181
▁Pandit	-9.95241
In	-9.95242
▁tourists	-9.95302
▁passport	-9.95329
▁Service	-9.9543
▁cow	-9.95499
▁Rawat	-9.95534
▁firm	-9.95534
-20	-9.95546
▁Jo	-9.95559
▁likely	-9.9567
IC	-9.95676
▁Un	-9.9569
pro	-9.95705
▁key	-9.95747
▁remaining	-9.95755
▁higher	-9.95792
▁Ghaziabad	-9.95829
▁belong	-9.96163
▁partner	-9.96189
▁attend	-9.96247
▁measures	-9.96275
▁creat	-9.9628
ura	-9.96313
▁Indore	-9.96335
▁Amar	-9.9644
▁Resource	-9.96463
▁signal	-9.96534
▁Lokayukta	-9.96548
▁red	-9.96649
▁Ranchi	-9.96683
▁discussions	-9.96707
▁importance	-9.96815
based	-9.96855
▁rank	-9.96858
ors	-9.96894
▁mission	-9.96902
▁passenger	-9.96906
▁experience	-9.97101
▁bringing	-9.97112
Y	-9.97121
▁programs	-9.97141
▁Dawood	-9.97146
▁valley	-9.97229
▁needed	-9.97245
▁goal	-9.97272
aw	-9.97276
▁Son	-9.97295
▁Park	-9.97332
ants	-9.97447
▁Roy	-9.97466
▁lo	-9.97522
▁examined	-9.97552
dal	-9.97614
25	-9.97662
▁circumstances	-9.977
▁demands	-9.97725
▁retired	-9.97739
▁anniversary	-9.97743
▁figures	-9.97756
▁begun	-9.97788
▁Sing	-9.97803
▁compared	-9.97915
▁kg	-9.97915
▁Seeing	-9.97943
▁Abdullah	-9.97958
▁oath	-9.97983
▁promotion	-9.98001
▁Organization	-9.98007
▁alive	-9.98017
▁Line	-9.98029
▁game	-9.98047
▁sale	-9.98075
▁DMK	-9.98193
ef	-9.98213
▁Jaya	-9.9826
▁Yamuna	-9.98303
▁Muzaffarnagar	-9.98305
▁Airport	-9.98315
▁invest	-9.9837
▁worked	-9.98507
▁providing	-9.98519
rap	-9.9852
▁debt	-9.9852
tin	-9.98552
▁executive	-9.98692
▁value	-9.98692
▁diesel	-9.98693
▁caused	-9.98722
▁First	-9.98736
▁Yoga	-9.98779
-1	-9.98782
tain	-9.9881
▁Ansari	-9.98824
▁Rajendra	-9.98992
▁Why	-9.99013
▁ended	-9.99044
▁internal	-9.99045
▁statue	-9.99083
▁notable	-9.99094
▁Every	-9.99156
▁RTI	-9.99214
▁urged	-9.99245
▁petitioner	-9.9925
▁technical	-9.99345
▁Pur	-9.99377
▁provisions	-9.99415
▁independence	-9.99432
▁fighter	-9.99533
▁feeling	-9.99611
eep	-9.99636
▁journalists	-9.9977
▁star	-9.99807
▁Nations	-9.99833
▁suffering	-9.9985
▁Lashkar	-9.9987
▁season	-9.99963
▁heat	-9.99969
▁focus	-10
▁initial	-10.0005
▁installed	-10.0006
▁culture	-10.0009
▁independent	-10.0013
▁escaped	-10.0014
▁lines	-10.0023
▁fell	-10.0025
▁let	-10.0026
ade	-10.003
uk	-10.0032
▁channel	-10.0049
▁sell	-10.005
▁neighboring	-10.0052
▁gathered	-10.0055
▁Ranjan	-10.0063
▁continuously	-10.0064
▁Ca	-10.0067
▁Can	-10.0074
▁capacity	-10.0093
▁subject	-10.0093
▁Nav	-10.0094
ada	-10.0102
▁failure	-10.0102
▁Indo	-10.011
▁ongoing	-10.0111
mu	-10.0135
▁natural	-10.0137
▁turned	-10.0139
▁Shinde	-10.014
▁speaking	-10.0141
▁i	-10.0142
▁space	-10.0142
▁questioning	-10.0143
▁overcome	-10.0169
▁Manipur	-10.0174
▁prison	-10.0176
▁weak	-10.0179
▁constitutional	-10.0194
India	-10.0194
▁equal	-10.0197
ral	-10.0199
▁rising	-10.0204
▁NGO	-10.0209
▁Superintendent	-10.0213
▁thousands	-10.0216
▁pension	-10.0222
vis	-10.0227
▁jobs	-10.0227
pt	-10.0227
▁Babu	-10.0228
▁constitution	-10.0233
▁IT	-10.0235
▁ruckus	-10.0236
▁double	-10.0236
ear	-10.0244
▁Rama	-10.0247
▁Through	-10.0249
▁colleagues	-10.025
▁conditions	-10.0251
▁union	-10.0253
▁gr	-10.0258
aya	-10.0259
▁Taj	-10.0259
▁millions	-10.0265
▁Talk	-10.0268
▁teenager	-10.0276
▁Who	-10.0281
40	-10.0282
▁Satya	-10.0284
▁desire	-10.0285
▁7.	-10.0289
▁single	-10.029
▁constituted	-10.0295
lay	-10.0298
▁AIIMS	-10.0299
dev	-10.0305
gal	-10.0307
▁pilgrims	-10.0335
▁Mahatma	-10.0335
▁tea	-10.0345
▁AIADMK	-10.0349
▁assault	-10.0353
▁poverty	-10.0353
▁Mur	-10.0355
▁studying	-10.0356
▁Bedi	-10.0361
▁liter	-10.0372
▁sit	-10.0377
▁sending	-10.0387
▁Om	-10.0387
▁institution	-10.0393
▁network	-10.0393
mat	-10.0395
▁placed	-10.0395
▁solve	-10.0409
▁Reserve	-10.0417
▁reality	-10.0418
▁representatives	-10.0418
▁absence	-10.0426
▁Food	-10.0431
▁Arunachal	-10.0459
▁writing	-10.0459
▁Sal	-10.0465
▁SC	-10.0472
▁rates	-10.0473
pura	-10.0475
▁Sai	-10.0476
▁filled	-10.0482
12	-10.0484
▁lawsuit	-10.0486
▁farmer	-10.0494
▁controversial	-10.0495
AT	-10.0496
▁damage	-10.0499
▁War	-10.053
],	-10.0533
AI	-10.0535
▁JD	-10.0539
termed	-10.0539
▁silent	-10.0542
▁Nar	-10.0542
▁ATM	-10.0551
ob	-10.0557
▁Ayodhya	-10.056
▁Sudhir	-10.056
▁priority	-10.0566
▁cross	-10.0566
▁Prashant	-10.057
▁credit	-10.057
▁doubt	-10.0579
▁Srishti	-10.0583
▁quality	-10.0583
▁minority	-10.0588
▁Jag	-10.0594
▁Korea	-10.0595
▁winning	-10.0599
▁explain	-10.06
▁Hindus	-10.0603
▁average	-10.0607
Jagran	-10.0612
▁regional	-10.0615
▁slogan	-10.0619
▁often	-10.0624
kant	-10.0629
▁eat	-10.063
▁institute	-10.063
▁6.	-10.0631
▁sea	-10.0632
▁felt	-10.0635
▁City	-10.0638
▁fishermen	-10.064
▁sha	-10.0644
▁saved	-10.0648
▁introduced	-10.0648
▁Subhash	-10.0649
▁throughout	-10.066
▁disaster	-10.0677
▁suddenly	-10.0679
▁departments	-10.0685
fer	-10.0686
▁Com	-10.0689
▁rise	-10.0695
▁milk	-10.0696
▁Highway	-10.0698
▁damaged	-10.0703
room	-10.0704
▁visited	-10.0726
▁Bad	-10.0728
▁interrogation	-10.0734
▁Referr	-10.0734
tter	-10.0734
▁Ganges	-10.0736
▁Dikshit	-10.0738
▁Tata	-10.0744
▁Omar	-10.0746
▁machine	-10.0746
▁SSP	-10.075
▁Directorate	-10.0757
ound	-10.076
▁journalist	-10.077
▁showed	-10.0771
▁mental	-10.0773
▁Nand	-10.0775
▁works	-10.0776
▁faith	-10.0786
mail	-10.0799
ban	-10.0805
15	-10.0811
▁stranded	-10.0814
▁VK	-10.0815
▁telling	-10.0818
▁Atal	-10.0822
▁monitoring	-10.083
side	-10.0833
▁invited	-10.0835
if	-10.0851
▁certificate	-10.0853
▁goods	-10.0855
▁bullet	-10.0861
▁spend	-10.0864
▁anger	-10.0874
▁Sur	-10.0879
▁Chi	-10.088
▁Atul	-10.0881
▁33	-10.0884
▁Transport	-10.0886
▁stuck	-10.0887
▁estimated	-10.0888
▁rent	-10.0891
▁removal	-10.0891
▁linked	-10.0892
▁silence	-10.0896
▁mining	-10.0897
▁SIT	-10.09
▁formula	-10.0902
▁Sikh	-10.0904
▁administrative	-10.0905
▁snowfall	-10.0905
▁cell	-10.0912
▁appeared	-10.0915
cess	-10.0917
▁celebrated	-10.0919
yan	-10.0924
▁published	-10.0925
▁lead	-10.0926
▁becomes	-10.0932
▁spreading	-10.094
ture	-10.0948
▁Dainik	-10.0949
▁guest	-10.0958
wala	-10.0961
presidential	-10.0962
▁finance	-10.0963
▁Bhupendra	-10.0973
▁liquor	-10.0973
▁2006	-10.0982
▁closure	-10.0983
▁Bench	-10.099
▁75	-10.1003
▁little	-10.1007
▁laws	-10.1009
▁receiving	-10.1012
▁Social	-10.1012
oli	-10.1015
▁pray	-10.1015
▁2004	-10.1015
▁Given	-10.1031
▁centers	-10.1033
▁membership	-10.1033
▁material	-10.1046
ification	-10.1047
▁Vadra	-10.1055
▁Sat	-10.1058
▁Sector	-10.106
▁blow	-10.1067
▁cancer	-10.107
▁arms	-10.1075
▁winter	-10.1079
▁Nath	-10.1081
▁Obama	-10.109
pp	-10.1091
▁promote	-10.1094
▁decades	-10.11
▁resources	-10.11
▁IPS	-10.11
19	-10.11
▁Bombay	-10.1104
▁Mir	-10.1109
▁Joint	-10.1114
▁scientists	-10.1119
ama	-10.113
▁continuous	-10.1131
▁Yatra	-10.115
▁import	-10.116
▁camps	-10.1162
hra	-10.1168
▁respond	-10.1177
▁added	-10.1179
nam	-10.1187
▁recommended	-10.1187
puri	-10.1195
▁die	-10.1212
▁build	-10.1213
▁2000	-10.1214
ina	-10.1218
▁Sho	-10.1221
▁sensitive	-10.1223
▁else	-10.1223
▁regular	-10.1228
▁Power	-10.1233
▁structure	-10.1238
▁types	-10.1241
▁adopted	-10.1242
ib	-10.1248
▁medicines	-10.1252
gh	-10.1255
▁bilateral	-10.1263
▁48	-10.1264
▁includes	-10.1267
▁struggle	-10.1268
▁wait	-10.127
ified	-10.1273
rup	-10.1308
▁happening	-10.1309
▁Abu	-10.131
▁Irani	-10.1311
▁photo	-10.1315
▁Explain	-10.1318
bit	-10.1318
▁Rural	-10.1318
var	-10.1321
▁page	-10.1323
▁difficulties	-10.1337
▁37	-10.134
▁resigned	-10.1343
ped	-10.1344
▁ji	-10.1349
▁mountain	-10.1352
▁Sunil	-10.1358
ler	-10.1361
▁hurt	-10.1368
▁:	-10.1371
▁2002	-10.1376
▁goes	-10.1377
▁song	-10.1378
▁engineer	-10.1392
▁influence	-10.1398
▁streets	-10.1405
▁Uma	-10.1408
▁positive	-10.1413
▁42	-10.1418
▁gives	-10.142
▁apply	-10.1422
▁allegedly	-10.1422
▁Kam	-10.1422
▁Sub	-10.1426
▁certain	-10.1428
▁urban	-10.1428
▁Sibal	-10.143
▁groups	-10.1431
▁busy	-10.1436
▁dig	-10.1437
▁yesterday	-10.1439
▁leak	-10.1439
▁RBI	-10.1444
▁everything	-10.1444
▁fill	-10.1448
▁Tu	-10.1449
▁Ghulam	-10.1454
▁absconding	-10.1454
▁stock	-10.146
▁acquisition	-10.1464
▁probe	-10.1466
▁wall	-10.1467
▁arrangement	-10.1476
▁submit	-10.1478
▁Dehradun	-10.1479
▁fr	-10.1479
▁though	-10.1481
▁connected	-10.1483
▁write	-10.1488
▁shop	-10.149
▁subsidy	-10.1495
▁salary	-10.1495
app	-10.1497
▁signed	-10.1498
▁branch	-10.1504
▁deceased	-10.1505
▁commander	-10.1505
▁warning	-10.1513
▁contesting	-10.1514
▁shock	-10.1523
▁spectrum	-10.153
▁meantime	-10.153
▁except	-10.1531
▁sad	-10.1539
II	-10.1541
▁established	-10.1549
▁2005	-10.1551
▁existing	-10.1556
▁offered	-10.1564
mortem	-10.1566
▁IG	-10.1566
▁advance	-10.1571
▁benefits	-10.1574
▁Wi	-10.1575
▁supremo	-10.1576
▁Bir	-10.1579
▁brothers	-10.1579
wara	-10.1584
gaon	-10.1588
▁colleges	-10.1592
▁hospitals	-10.1602
▁basic	-10.1607
▁Lanka	-10.1608
▁Inspector	-10.1623
▁delegation	-10.1623
▁continues	-10.1623
▁cheap	-10.1638
▁CAG	-10.1638
▁Saeed	-10.1639
▁commissioner	-10.1643
▁risk	-10.1654
▁raj	-10.1654
cc	-10.1657
▁birthday	-10.1657
▁Principal	-10.1669
ugh	-10.1672
▁Pi	-10.1673
▁se	-10.1674
▁Netaji	-10.1675
▁Metro	-10.1677
▁Niranjan	-10.168
▁corporation	-10.168
▁shared	-10.1689
das	-10.1696
ger	-10.1701
▁spite	-10.1702
▁Manjhi	-10.1711
▁assets	-10.1711
▁operations	-10.1712
▁harassment	-10.1716
eem	-10.1722
shan	-10.1729
10	-10.1736
▁Science	-10.1737
▁ISI	-10.1742
▁Company	-10.1742
▁Municipal	-10.1748
DA	-10.1751
▁Khurshid	-10.1753
▁Officials	-10.1758
▁Border	-10.1769
▁yoga	-10.1774
▁Kapil	-10.1774
▁London	-10.1779
▁Venkaiah	-10.1784
bb	-10.1784
▁Hari	-10.1787
nal	-10.179
▁Agarwal	-10.1795
ium	-10.1799
▁booth	-10.18
▁150	-10.1807
▁pic	-10.1824
▁Amethi	-10.1826
▁Taking	-10.1829
▁begin	-10.1837
▁violent	-10.1837
chan	-10.1837
▁poll	-10.1837
▁papers	-10.1842
twitter	-10.1848
▁Jadhav	-10.1848
▁generation	-10.1848
▁Said	-10.1852
▁Amritsar	-10.1853
▁functioning	-10.1855
▁Bollywood	-10.1858
▁scheduled	-10.1859
▁playing	-10.186
▁suggested	-10.1861
▁celebrate	-10.1864
ko	-10.1865
rd	-10.1888
gam	-10.1895
▁insurance	-10.1901
over	-10.1901
▁register	-10.1901
▁waste	-10.1905
▁auto	-10.1906
▁Gorakhpur	-10.1911
▁Limited	-10.1911
▁symbol	-10.1911
▁extended	-10.1915
▁suspect	-10.1917
▁cover	-10.1918
▁ship	-10.1926
▁computer	-10.1927
▁Right	-10.193
▁trip	-10.1935
istic	-10.1939
▁Our	-10.1945
▁shortage	-10.1956
▁Ambedkar	-10.1964
▁beaten	-10.1968
▁emerged	-10.1973
ue	-10.1978
▁spokesperson	-10.1981
▁Yogi	-10.1981
▁raided	-10.1982
▁spoke	-10.1982
ible	-10.1987
▁mutual	-10.1991
que	-10.1992
▁gate	-10.1996
▁Shivraj	-10.1997
▁welfare	-10.2007
▁Mission	-10.2009
▁suggestions	-10.201
▁floor	-10.2013
dent	-10.2017
shankar	-10.2026
▁coach	-10.2027
▁businessman	-10.2028
▁witness	-10.2029
▁Nag	-10.203
ved	-10.2031
▁riot	-10.2031
▁asking	-10.2032
▁below	-10.2032
▁Just	-10.2034
▁PDP	-10.204
aria	-10.2048
▁DM	-10.2052
▁code	-10.2055
▁criticized	-10.2056
▁elderly	-10.2059
▁emergency	-10.2061
▁airline	-10.2064
▁secret	-10.2065
▁campus	-10.2067
▁shows	-10.207
▁Nawaz	-10.2072
▁Mohammad	-10.2073
▁walk	-10.2073
▁calling	-10.208
▁Bhagwat	-10.2083
▁facts	-10.2085
▁nearby	-10.2086
▁Agriculture	-10.2088
pan	-10.2089
▁revenue	-10.2099
▁exposed	-10.2101
▁Mr	-10.2105
▁Bho	-10.2108
▁scope	-10.211
▁Bihari	-10.2111
▁adopt	-10.2118
▁figure	-10.2125
▁Bagh	-10.2126
ev	-10.2128
▁imp	-10.2131
nan	-10.2134
▁celebration	-10.2137
vati	-10.2144
▁2018	-10.2144
▁daughters	-10.2154
▁items	-10.2155
▁Jal	-10.2163
▁clothes	-10.2166
▁early	-10.217
ung	-10.2179
▁proper	-10.2179
▁municipal	-10.2181
▁park	-10.2182
▁sat	-10.2182
▁Goyal	-10.2186
▁Saudi	-10.2186
▁assistance	-10.2192
▁tremendous	-10.2208
▁Amitabh	-10.2213
ula	-10.2222
▁interests	-10.2224
▁Technology	-10.2224
low	-10.2225
▁Mohit	-10.2225
▁summoned	-10.2231
we	-10.2236
▁issuing	-10.2242
let	-10.2245
▁agree	-10.2246
▁Car	-10.2246
▁Vinod	-10.2246
kal	-10.2258
SC	-10.2259
▁easily	-10.2263
▁planned	-10.2264
▁Iran	-10.2277
▁abuse	-10.2277
tta	-10.2283
▁Kot	-10.2289
vir	-10.229
▁skill	-10.2291
▁Kedarnath	-10.2291
▁citizen	-10.2292
▁hill	-10.2294
▁crop	-10.2299
Ma	-10.2313
▁strategic	-10.2318
▁promise	-10.2322
▁happiness	-10.2329
PC	-10.2332
▁digital	-10.2335
▁welcomed	-10.234
▁agitation	-10.234
▁boat	-10.2341
uri	-10.2355
▁poster	-10.236
▁Know	-10.2368
▁Arabia	-10.2374
▁Executive	-10.2374
▁western	-10.2374
▁Far	-10.2376
IT	-10.238
▁breaking	-10.2384
▁Recently	-10.239
▁Yeddyurappa	-10.239
▁episode	-10.239
▁attract	-10.2396
▁severe	-10.2396
cent	-10.2396
▁dam	-10.2398
▁Gul	-10.2403
▁34	-10.2406
▁Valley	-10.2413
▁Rajan	-10.242
▁worse	-10.2424
▁supporting	-10.2425
▁2,	-10.2425
▁Amarnath	-10.2425
▁Vikas	-10.243
▁Has	-10.2436
end	-10.2441
▁dangerous	-10.2442
▁scale	-10.2452
ny	-10.2455
▁shops	-10.2456
▁Scheme	-10.2458
▁completion	-10.2458
▁equipment	-10.2463
▁gift	-10.2463
▁follow	-10.2464
▁RK	-10.2468
▁Comp	-10.2468
▁promised	-10.2473
▁catch	-10.2474
▁consent	-10.2475
▁Kaur	-10.248
▁sense	-10.248
▁Dar	-10.2482
▁anywhere	-10.2483
▁foundation	-10.2483
▁cr	-10.2483
anga	-10.2488
▁Shashi	-10.249
▁detained	-10.2491
▁longer	-10.2497
▁Raipur	-10.2504
▁App	-10.2507
▁massacre	-10.2508
pati	-10.2514
▁burden	-10.2514
▁fog	-10.2514
▁multi	-10.2514
▁Tan	-10.2524
▁CCTV	-10.2525
▁Kumari	-10.2534
CA	-10.2536
▁Du	-10.254
▁stones	-10.2541
▁openly	-10.2544
▁lawyers	-10.2544
▁hundreds	-10.2545
▁agricultural	-10.2548
ray	-10.2552
▁resolve	-10.2562
▁anand	-10.2566
▁function	-10.2568
▁Pratibha	-10.2571
▁Padma	-10.2572
▁ISRO	-10.2577
▁sun	-10.2585
▁twice	-10.2588
▁opposing	-10.2593
inder	-10.2596
ify	-10.2601
▁LK	-10.2603
▁detailed	-10.2607
▁harm	-10.2608
qui	-10.2617
▁Han	-10.2621
▁expensive	-10.2622
▁method	-10.2633
-2	-10.2634
▁guidelines	-10.2639
▁recommendations	-10.2641
▁Pathankot	-10.265
▁stayed	-10.2656
▁repeatedly	-10.2658
▁65	-10.2661
▁Inter	-10.2662
▁tough	-10.2667
▁transferred	-10.2669
ham	-10.267
45	-10.2673
▁hidden	-10.2673
SP	-10.2675
ghat	-10.2675
▁Swa	-10.2677
▁permanent	-10.2679
▁engine	-10.2684
▁sky	-10.2691
▁rebel	-10.2691
▁cha	-10.2695
▁auction	-10.2696
AC	-10.2706
cor	-10.2716
▁tank	-10.2721
▁white	-10.2725
▁praised	-10.2734
▁Afzal	-10.2737
▁My	-10.2737
▁Je	-10.2737
▁UK	-10.2756
▁planning	-10.2757
▁entry	-10.276
▁Kashi	-10.2763
▁Republic	-10.2771
▁witnesses	-10.2771
ged	-10.2773
▁establishment	-10.2773
▁raped	-10.2778
▁grant	-10.2781
▁Mehbooba	-10.2783
▁films	-10.2785
▁hanged	-10.2787
▁counsel	-10.2789
▁courage	-10.2789
▁Article	-10.2789
▁Sen	-10.2789
ency	-10.279
▁eliminate	-10.2793
▁registration	-10.2795
▁Intelligence	-10.28
▁Temple	-10.2806
▁Child	-10.2818
▁vacant	-10.2818
▁Schedule	-10.2824
▁recruitment	-10.2826
▁learn	-10.2827
▁criminals	-10.2831
▁settled	-10.2833
▁protesters	-10.2834
▁Internet	-10.2835
▁indicated	-10.2835
by	-10.2838
▁0	-10.2845
▁diseases	-10.2848
▁currency	-10.2853
▁protested	-10.2855
▁Sad	-10.2856
▁develop	-10.2864
▁FDI	-10.2865
▁practice	-10.287
Congress	-10.2881
▁university	-10.2882
▁8.	-10.2882
▁involvement	-10.2882
▁Patil	-10.2883
ative	-10.2888
▁art	-10.2894
▁falling	-10.2896
▁plot	-10.2904
ble	-10.2914
▁teach	-10.2916
▁apart	-10.2922
▁mark	-10.2923
▁cleaning	-10.2931
anda	-10.2932
▁burnt	-10.2935
▁manager	-10.2935
▁da	-10.2936
▁buses	-10.2936
▁withdrawal	-10.2937
▁promises	-10.2938
▁chair	-10.2939
▁agriculture	-10.2941
▁Command	-10.2942
▁Mathura	-10.2942
MC	-10.2943
▁disclosure	-10.2947
▁hot	-10.2949
▁recommendation	-10.2952
▁Describ	-10.2953
▁inform	-10.296
▁300	-10.2967
▁flu	-10.297
▁hi	-10.297
ati	-10.2971
▁whom	-10.2971
asi	-10.2978
22	-10.298
▁offer	-10.2981
▁improvement	-10.2981
▁Antony	-10.2982
▁ashram	-10.2982
▁bag	-10.2984
▁counter	-10.2986
▁files	-10.2988
▁Code	-10.299
▁modern	-10.2993
▁listen	-10.2999
▁treated	-10.3007
▁Islam	-10.3009
60	-10.301
aj	-10.3023
▁Upadhyay	-10.3024
▁industrial	-10.303
▁player	-10.3032
cra	-10.3034
▁snow	-10.3042
▁Farooq	-10.3048
▁foot	-10.3067
▁Google	-10.3071
▁France	-10.3071
▁2014,	-10.3072
▁infrastructure	-10.3077
▁Dhan	-10.3085
▁55	-10.3088
▁whatever	-10.3097
▁suffered	-10.3107
pen	-10.3109
▁pilot	-10.3115
▁garbage	-10.3125
▁Crime	-10.3125
▁design	-10.3125
▁preparation	-10.3127
▁condemned	-10.3129
▁province	-10.3131
▁style	-10.3131
▁Environment	-10.3137
▁slow	-10.3139
▁44	-10.314
▁activists	-10.314
▁2012,	-10.3142
▁Mukesh	-10.3144
▁books	-10.3145
▁Bhu	-10.3151
▁demonstration	-10.3155
▁historic	-10.3156
▁boy	-10.3158
graph	-10.316
▁Devendra	-10.3163
▁Gur	-10.3166
Sh	-10.3169
ren	-10.317
her	-10.3171
▁knowledge	-10.3173
▁allegation	-10.3182
▁Mahesh	-10.3189
▁farm	-10.3196
▁sleep	-10.3198
▁politicians	-10.3209
▁table	-10.3213
▁assurance	-10.3216
▁bungalow	-10.3216
▁tonnes	-10.3216
▁Sham	-10.3217
time	-10.3218
meter	-10.3225
▁behavior	-10.3234
ave	-10.3235
▁cancel	-10.3239
▁charged	-10.3239
CI	-10.324
▁soft	-10.324
▁limited	-10.324
▁physical	-10.3246
▁upset	-10.3247
▁marry	-10.3258
▁threatening	-10.3262
ku	-10.3267
▁Pre	-10.3267
▁Sheikh	-10.327
▁fly	-10.3288
▁accidents	-10.329
▁Another	-10.3295
▁plants	-10.3305
▁argued	-10.3307
▁employee	-10.3313
▁fraud	-10.3319
▁export	-10.3327
ami	-10.3327
▁add	-10.333
▁burning	-10.3334
▁selection	-10.3335
:30	-10.3336
▁oppose	-10.3342
▁Trust	-10.335
▁rivers	-10.3351
▁granted	-10.3353
▁governance	-10.3356
▁raid	-10.3368
▁wheat	-10.3368
▁Chowk	-10.3368
▁Pradeep	-10.3375
76	-10.3377
▁unable	-10.3379
▁marks	-10.3379
▁carrying	-10.3396
▁Vihar	-10.3398
▁arise	-10.3423
▁Society	-10.343
▁penalty	-10.343
▁dance	-10.3431
▁Bhardwaj	-10.3436
▁authorities	-10.3437
▁surrounding	-10.3438
▁enthusiasm	-10.3442
▁Paswan	-10.3449
▁Smriti	-10.3455
etween	-10.3459
izing	-10.3461
▁Naxalite	-10.3464
▁staying	-10.3464
▁Mohammed	-10.3466
▁annual	-10.3467
▁Policy	-10.3467
▁Rakesh	-10.3467
▁challenges	-10.3471
den	-10.3473
▁Jodhpur	-10.3474
▁south	-10.3474
▁Maulana	-10.348
ney	-10.3481
▁suspected	-10.3485
PF	-10.3485
▁contribution	-10.3486
▁distribution	-10.3486
tre	-10.3488
▁customers	-10.3488
▁Kat	-10.349
▁Award	-10.3497
▁Youth	-10.35
▁activist	-10.3502
▁Dinesh	-10.3505
▁breath	-10.3511
▁extreme	-10.3511
▁Mujahideen	-10.3513
▁required	-10.3518
TC	-10.352
▁Prem	-10.3521
▁arrive	-10.3522
▁thrown	-10.3528
▁panic	-10.3541
▁Branch	-10.3542
▁Moradabad	-10.3548
▁Other	-10.3551
▁38	-10.3567
▁Political	-10.3567
▁Sea	-10.3567
▁diplomatic	-10.3569
▁bike	-10.357
▁Bengaluru	-10.3574
▁popular	-10.3577
▁NSG	-10.358
▁Land	-10.3585
▁labor	-10.359
▁friendship	-10.3594
▁wearing	-10.3594
▁numbers	-10.3595
▁honored	-10.3601
▁searched	-10.3605
▁bills	-10.3609
oon	-10.3617
▁primary	-10.3618
ple	-10.3618
▁sections	-10.3618
▁port	-10.3619
▁Mother	-10.3619
▁Nam	-10.3623
▁Syed	-10.3624
▁Ab	-10.3627
▁grow	-10.3627
▁Bhai	-10.3628
▁Western	-10.363
▁Tanwar	-10.3632
▁interim	-10.3639
▁martyred	-10.3641
▁Kalam	-10.3643
▁Britain	-10.3643
▁studies	-10.3643
▁educational	-10.3644
▁withdrawn	-10.3645
▁CD	-10.3655
▁Economic	-10.3655
▁Welfare	-10.3655
▁fundamental	-10.3655
▁Up	-10.3659
▁bullets	-10.3664
▁murdered	-10.3664
▁Chha	-10.3666
▁agent	-10.3667
ze	-10.3668
▁Hu	-10.3669
president	-10.3673
▁selling	-10.3678
ology	-10.3679
▁arranged	-10.3708
ell	-10.3708
▁Advisor	-10.3713
▁competition	-10.3713
▁fifth	-10.3713
▁Is	-10.3719
▁wish	-10.3719
▁worried	-10.3719
▁parliament	-10.3724
▁tear	-10.3724
▁advice	-10.3725
▁nature	-10.3725
▁drink	-10.3728
▁Regard	-10.3731
▁saving	-10.3732
▁Tyagi	-10.3738
▁Gurgaon	-10.3739
▁Gha	-10.3739
▁height	-10.3746
▁3,	-10.3753
▁collected	-10.3753
▁Kalyan	-10.3753
▁seek	-10.3756
▁ever	-10.3756
▁warrant	-10.3757
▁stood	-10.3764
▁hunger	-10.377
▁Malik	-10.3772
▁Mani	-10.3776
▁Sahib	-10.3777
▁Ti	-10.3782
mor	-10.3783
▁unknown	-10.3784
▁science	-10.3789
▁surgical	-10.3796
▁King	-10.3807
▁advertisement	-10.3809
▁document	-10.3812
ong	-10.3818
▁Management	-10.3821
▁judgment	-10.3821
our	-10.3825
▁lesson	-10.3826
▁Hurriyat	-10.3828
▁original	-10.3828
▁Engineer	-10.3834
▁retail	-10.3834
oda	-10.3835
ava	-10.3836
▁package	-10.3841
▁forget	-10.3843
▁cap	-10.3846
▁Bareilly	-10.3847
▁suffer	-10.385
▁trend	-10.3854
▁Advocate	-10.386
▁properties	-10.386
▁gangrape	-10.3861
It	-10.3863
▁Shiva	-10.3866
▁badly	-10.3869
▁locked	-10.3869
▁Naik	-10.3871
▁transactions	-10.3874
▁attacking	-10.3877
▁Dutt	-10.388
▁watching	-10.3881
▁associate	-10.3885
▁panchayat	-10.3886
af	-10.3888
▁Mon	-10.389
▁defeated	-10.3895
▁putting	-10.3901
▁copy	-10.3912
▁misuse	-10.3915
▁mandatory	-10.3918
RC	-10.3918
▁mouth	-10.3918
▁drought	-10.3925
▁internet	-10.3925
▁Tharoor	-10.3931
▁continuing	-10.3931
▁understood	-10.3931
▁Shyam	-10.3932
▁stick	-10.3932
▁Pawan	-10.3935
ender	-10.3935
▁soldier	-10.3938
▁rather	-10.3939
▁escape	-10.395
ier	-10.3955
ministerial	-10.3956
▁authority	-10.3959
▁BS	-10.3966
▁Min	-10.3968
▁visible	-10.3971
▁lie	-10.3976
▁twenty	-10.3977
fu	-10.3984
▁donation	-10.399
ED	-10.3991
▁Rail	-10.3993
▁Surat	-10.3995
▁Australia	-10.3997
▁rich	-10.3997
▁Six	-10.4002
▁Major	-10.4002
▁fierce	-10.4004
▁2013,	-10.4004
bhai	-10.4007
▁1000	-10.4009
17	-10.4012
▁postponed	-10.4022
▁resolution	-10.4023
▁Gautam	-10.403
▁Satish	-10.4032
▁Pe	-10.4033
▁insult	-10.4038
chal	-10.4039
▁alcohol	-10.4043
dan	-10.4045
▁DGP	-10.4048
▁holiday	-10.4062
▁Jyoti	-10.4062
▁convened	-10.4063
▁Desk	-10.4064
▁acres	-10.4069
▁campaigning	-10.4083
▁Bahadur	-10.4096
▁particular	-10.4096
▁significant	-10.4096
▁balance	-10.4096
▁carry	-10.4099
▁followed	-10.4106
▁emphasis	-10.4109
▁Professor	-10.4115
▁Durga	-10.4116
▁Rohit	-10.4123
▁units	-10.4127
▁opening	-10.4128
▁Maj	-10.4128
▁Bhan	-10.4131
▁Rana	-10.4135
▁infiltration	-10.4135
▁Myanmar	-10.4162
je	-10.4162
▁Sara	-10.417
35	-10.417
▁mention	-10.4171
▁concrete	-10.4175
▁sharing	-10.4176
▁enemy	-10.4189
▁until	-10.4195
▁sites	-10.4197
▁fought	-10.4202
▁Uddhav	-10.4209
▁nominated	-10.4209
▁telecom	-10.4213
▁quota	-10.4215
▁toilets	-10.4237
▁Chavan	-10.4246
▁declare	-10.4249
▁dropped	-10.4256
▁1.5	-10.4259
▁restriction	-10.4262
ake	-10.4263
▁north	-10.4263
ker	-10.4269
▁wedding	-10.4283
sen	-10.4287
▁Sir	-10.4287
▁spoil	-10.4289
▁39	-10.4291
▁Lt	-10.4306
▁martyrs	-10.4307
▁rumor	-10.431
▁Gang	-10.4311
▁operator	-10.4316
ned	-10.4316
pora	-10.4326
▁decline	-10.433
log	-10.4333
▁Chu	-10.4344
▁possession	-10.4344
▁runs	-10.4346
vin	-10.4352
▁Bhatt	-10.4354
pul	-10.4363
▁monitor	-10.4363
▁Urban	-10.4364
form	-10.4365
▁performed	-10.4366
▁Mala	-10.4369
▁metro	-10.437
▁awareness	-10.4374
75	-10.4377
▁Jitendra	-10.4377
▁trees	-10.438
▁lying	-10.4382
▁Follow	-10.4384
▁challenging	-10.4384
▁reduction	-10.4392
uff	-10.4393
▁reaction	-10.4398
▁differences	-10.4404
▁kilo	-10.4412
▁culprits	-10.4414
▁Whereas	-10.4416
▁Mad	-10.4418
▁Lieutenant	-10.4418
▁remand	-10.4418
▁Muhammad	-10.4425
▁Rup	-10.4428
▁deaths	-10.4432
▁boys	-10.4436
▁watch	-10.4437
▁explosion	-10.4439
▁commit	-10.4441
eer	-10.4445
▁Sheila	-10.4446
▁Hafiz	-10.4452
▁actress	-10.4452
▁dog	-10.4453
▁wake	-10.4454
▁DIG	-10.4459
▁factory	-10.4459
▁stamped	-10.4464
ima	-10.4472
▁Hussain	-10.4473
▁surprised	-10.4476
Special	-10.4477
▁race	-10.4479
▁presenting	-10.4484
▁Bachchan	-10.4487
▁CEO	-10.4487
▁Big	-10.4493
tric	-10.4496
16	-10.4496
▁militant	-10.4498
dri	-10.4504
▁bought	-10.4507
▁Pradhan	-10.4507
jeet	-10.4515
▁Plan	-10.452
▁task	-10.4535
▁crack	-10.4542
tle	-10.4543
port	-10.4547
▁rifle	-10.4549
▁Ghat	-10.4552
▁Gr	-10.4555
▁Fadnavis	-10.4556
▁Nagpur	-10.4562
▁expect	-10.4564
akir	-10.4568
▁Iraq	-10.457
▁communication	-10.457
▁achieved	-10.457
▁meaning	-10.4573
▁starting	-10.4574
▁Cr	-10.4581
▁JNU	-10.4584
▁afraid	-10.4584
▁tomorrow	-10.4584
▁younger	-10.4585
▁Raju	-10.459
▁targeting	-10.4593
hari	-10.4596
▁resentment	-10.4597
▁cyber	-10.4598
▁ruled	-10.4607
cr	-10.4611
IS	-10.4613
▁Per	-10.4616
▁connect	-10.4617
▁accusing	-10.4618
▁Mata	-10.462
▁orders	-10.4623
▁movie	-10.4625
▁lived	-10.463
▁Islamic	-10.4636
▁tourism	-10.4636
▁bath	-10.4638
▁Jay	-10.464
▁faction	-10.4645
▁sex	-10.4645
▁Foundation	-10.4646
▁appropriate	-10.4646
▁separatist	-10.4646
▁flights	-10.4652
▁exchange	-10.4653
cho	-10.4654
▁classes	-10.4656
▁homes	-10.4658
▁Raman	-10.4661
state	-10.4662
▁records	-10.467
▁super	-10.4681
▁Guwahati	-10.4688
▁NGT	-10.4688
▁Gate	-10.4694
▁arguments	-10.4699
▁prosecution	-10.4702
▁fresh	-10.4704
▁helped	-10.4709
▁Singapore	-10.4716
▁Tripathi	-10.4716
▁finally	-10.4717
▁crossing	-10.4724
▁relation	-10.4725
▁writer	-10.4726
▁comments	-10.4727
▁execution	-10.4731
▁responded	-10.4739
▁cricket	-10.4746
▁curb	-10.4752
▁reward	-10.4763
mun	-10.4764
▁destroyed	-10.4764
▁weapon	-10.4768
▁climb	-10.4773
▁kishor	-10.4773
▁lift	-10.4773
▁Students	-10.4775
▁47	-10.4775
▁Dalits	-10.4777
▁martyr	-10.4778
▁laid	-10.4779
put	-10.4782
▁exam	-10.4782
▁expansion	-10.4787
▁judiciary	-10.4787
▁master	-10.4787
▁gathering	-10.4789
▁traveling	-10.479
▁profit	-10.4794
band	-10.4797
▁welcome	-10.4802
▁Speaking	-10.4808
▁eating	-10.4817
▁dismiss	-10.4818
▁Bhawan	-10.482
▁joshi	-10.4823
bul	-10.4823
▁Harish	-10.4844
▁49	-10.4855
▁conflict	-10.4858
▁animals	-10.4859
▁reforms	-10.4865
▁tree	-10.4876
▁era	-10.4878
dhar	-10.4878
▁Shashikala	-10.488
▁rainfall	-10.4887
▁Ten	-10.4892
riya	-10.4892
▁choice	-10.4901
▁music	-10.4902
▁2014.	-10.4904
of	-10.4905
▁shoot	-10.4916
▁corrupt	-10.492
▁pen	-10.4922
▁fan	-10.4925
▁context	-10.493
▁chairmanship	-10.4931
▁blamed	-10.4932
▁aim	-10.4933
▁resolved	-10.4934
▁unique	-10.4937
▁complain	-10.4941
▁Cho	-10.4947
▁Aligarh	-10.4954
▁broadcast	-10.4959
▁Rampur	-10.496
▁winds	-10.4961
▁herself	-10.4966
▁honest	-10.4966
▁Red	-10.4971
hana	-10.4972
▁Shimla	-10.4973
▁43	-10.4975
gad	-10.4975
▁speaker	-10.4976
▁Naqvi	-10.498
▁character	-10.498
▁teams	-10.4987
▁Masood	-10.4988
ock	-10.499
▁implementing	-10.499
▁managed	-10.4995
▁Bala	-10.4995
▁46	-10.5001
▁EVM	-10.5002
▁print	-10.5003
▁crops	-10.5007
▁poison	-10.5009
▁exemption	-10.5009
▁Dubai	-10.501
▁stated	-10.5017
▁peak	-10.5024
▁miscreants	-10.5031
▁congratulated	-10.5032
▁allies	-10.5034
▁Madhu	-10.5036
▁fee	-10.5036
▁range	-10.5038
▁funeral	-10.5038
▁voted	-10.5043
▁displeasure	-10.5046
▁neighbor	-10.5047
▁Ya	-10.5048
▁chit	-10.5055
New	-10.5068
▁indication	-10.5075
▁views	-10.5076
▁traders	-10.5077
▁Hardik	-10.5082
▁elements	-10.5089
▁establish	-10.509
▁feared	-10.5091
70	-10.5092
▁En	-10.5092
▁reviewed	-10.5099
pra	-10.5101
▁word	-10.5106
▁access	-10.5111
▁properly	-10.5121
▁patient	-10.5129
▁Tripura	-10.5134
▁ration	-10.5136
▁paying	-10.5136
▁handle	-10.5148
Against	-10.5148
▁separated	-10.5152
▁quick	-10.5155
▁shocked	-10.5156
ward	-10.5159
▁trans	-10.516
▁helicopters	-10.5166
rao	-10.5187
▁petitions	-10.5188
hara	-10.519
▁remember	-10.5197
▁Gen	-10.5202
▁rob	-10.5205
▁powerful	-10.5207
▁repair	-10.5214
▁farming	-10.5215
▁offices	-10.5215
nar	-10.5221
▁voter	-10.5222
▁PMO	-10.5228
▁constructed	-10.523
▁minorities	-10.5231
▁applied	-10.5237
▁fish	-10.5237
▁Haridwar	-10.5251
▁protesting	-10.5272
▁Eastern	-10.5276
round	-10.5286
tech	-10.5287
▁amend	-10.5289
dge	-10.529
maker	-10.5296
▁procession	-10.5299
▁bit	-10.5301
▁Surendra	-10.5305
▁standards	-10.5306
▁2010,	-10.5308
▁Lakh	-10.5312
deep	-10.5315
▁sacrifice	-10.5326
▁participated	-10.5327
▁disputed	-10.5338
▁addressed	-10.5345
▁tribute	-10.5348
kat	-10.5349
▁stir	-10.535
▁jam	-10.5351
▁Santosh	-10.5356
▁reserved	-10.5359
▁negligence	-10.5363
▁location	-10.5364
▁Sang	-10.5367
▁commercial	-10.5371
▁mosque	-10.5371
▁Kasab	-10.5371
▁PIL	-10.5379
▁Prof	-10.5379
▁traditional	-10.5383
▁Yes	-10.5387
▁fled	-10.5389
▁ideology	-10.5394
▁noise	-10.5394
▁appearing	-10.54
▁Khe	-10.54
▁Col	-10.5404
bri	-10.5412
tory	-10.5413
▁Seven	-10.5413
▁Kushwaha	-10.5416
▁capable	-10.5418
▁2001	-10.5423
▁JP	-10.5427
▁series	-10.5431
▁Hi	-10.5435
▁accepting	-10.5438
▁Near	-10.544
▁2003	-10.5445
▁Address	-10.5446
▁Whe	-10.5447
▁article	-10.5462
▁chargesheet	-10.5462
▁delayed	-10.5464
▁Giri	-10.5468
▁defend	-10.5468
use	-10.5471
▁sisters	-10.5475
▁rallies	-10.5477
▁Cham	-10.5478
cation	-10.5478
▁cast	-10.5481
▁channels	-10.5484
▁mass	-10.5485
▁mine	-10.5495
▁Operation	-10.55
▁Patiala	-10.55
▁referred	-10.55
▁lock	-10.55
▁Keep	-10.5508
▁earning	-10.5512
tation	-10.5513
▁ministries	-10.5515
▁recruit	-10.5527
ullah	-10.553
▁promoting	-10.553
▁determin	-10.553
▁apologize	-10.5533
▁Israel	-10.5533
▁phones	-10.554
▁cards	-10.5556
14	-10.5558
▁Enforcement	-10.5561
▁aggressive	-10.5561
rang	-10.5561
▁Ahmad	-10.5568
▁Badal	-10.5577
▁Lu	-10.5581
▁separatists	-10.5584
▁constable	-10.5584
▁para	-10.5587
▁screen	-10.5591
bat	-10.5593
▁hero	-10.5605
▁Which	-10.5607
▁Mehta	-10.5607
▁pictures	-10.5614
▁northern	-10.5614
▁Action	-10.5624
ever	-10.5626
▁UN	-10.563
▁happens	-10.5634
hwa	-10.5642
▁sanction	-10.5653
▁unfortunate	-10.5653
▁following	-10.5657
▁council	-10.5661
▁speculation	-10.5668
▁Sandeep	-10.5669
▁Sardar	-10.5672
wari	-10.5677
▁Doctor	-10.5684
▁founder	-10.5684
▁extra	-10.5688
▁adequate	-10.5692
▁Holi	-10.5693
▁Member	-10.57
▁weight	-10.5702
▁Uri	-10.5705
▁engineering	-10.571
▁cleared	-10.5718
▁41	-10.5726
▁remarks	-10.5738
▁Vidya	-10.5739
▁400	-10.574
▁cloud	-10.5746
▁Once	-10.5752
SA	-10.5756
pon	-10.5767
▁claiming	-10.5769
▁deputy	-10.5777
▁Khanna	-10.5782
▁Indeed	-10.5786
CC	-10.5791
nic	-10.5792
▁universities	-10.5793
mission	-10.5795
citing	-10.58
▁solar	-10.58
▁cameras	-10.5802
▁Dharma	-10.5802
▁proof	-10.581
jo	-10.5811
▁cylinder	-10.5817
▁Maidan	-10.5817
▁patrol	-10.5817
▁rapidly	-10.5825
▁burn	-10.583
▁entering	-10.5834
▁Bose	-10.5836
▁Dhar	-10.5836
▁blocks	-10.584
▁consecutive	-10.584
▁Italian	-10.584
▁grain	-10.5841
▁Year	-10.5842
▁Kovind	-10.5848
▁manifesto	-10.5848
▁2.5	-10.5851
▁Independence	-10.5856
▁Budget	-10.5864
ero	-10.5866
▁cognizance	-10.5872
▁replace	-10.5875
▁1999	-10.588
▁brain	-10.588
Ja	-10.5896
auli	-10.5903
▁Yogendra	-10.5904
▁environmental	-10.5909
▁occurred	-10.5928
▁Indrani	-10.5929
news	-10.5935
▁Bareli	-10.5935
▁Parishad	-10.5936
▁Mandal	-10.594
mate	-10.5942
▁disturbed	-10.5946
▁allocated	-10.5951
▁Ashram	-10.5959
krishna	-10.5959
▁scared	-10.5962
off	-10.5971
ksha	-10.5977
▁leading	-10.5997
▁2019	-10.6004
▁threw	-10.6007
▁affairs	-10.6011
▁irrigation	-10.6015
▁install	-10.6021
▁Italy	-10.6033
▁Madan	-10.6034
▁crossed	-10.6036
▁toilet	-10.6038
▁Coal	-10.6045
▁brand	-10.6047
Pak	-10.6053
▁assassination	-10.6057
▁violated	-10.6058
▁2009,	-10.6059
▁Bhim	-10.6059
▁Bab	-10.606
▁Jairam	-10.606
▁shift	-10.6063
▁machines	-10.6066
▁ability	-10.6073
▁interesting	-10.6073
▁interaction	-10.6074
▁boycott	-10.6079
▁Mahajan	-10.6082
▁suspension	-10.6088
▁invitation	-10.6088
▁industrialist	-10.6088
▁crash	-10.6089
▁Rab	-10.6094
▁Shan	-10.6103
▁Aadhaar	-10.6104
▁fix	-10.611
▁Like	-10.6115
▁lose	-10.6116
▁wear	-10.6117
▁funding	-10.6118
▁slip	-10.6122
▁fulfilled	-10.6135
▁Class	-10.6136
▁Abbas	-10.6136
▁trained	-10.6141
▁tunnel	-10.6144
▁CP	-10.6148
▁iron	-10.6154
▁Mukul	-10.6156
▁Im	-10.6156
▁technique	-10.616
▁Fund	-10.6162
bin	-10.6163
▁Shar	-10.6169
▁tiger	-10.6169
▁footage	-10.617
▁Mangal	-10.6173
▁essential	-10.6177
13	-10.6185
▁apex	-10.6185
▁allowance	-10.6189
▁Germany	-10.6191
▁raids	-10.6193
▁adjacent	-10.6193
▁unity	-10.6202
▁Bansal	-10.621
▁Tihar	-10.6212
vel	-10.6213
▁Saharanpur	-10.6218
▁formal	-10.6218
▁recover	-10.6221
▁elder	-10.6221
▁sugar	-10.6226
▁achievements	-10.6231
level	-10.6231
▁Tra	-10.6234
▁Project	-10.6234
▁box	-10.6234
▁Times	-10.624
▁identify	-10.6242
▁expert	-10.6245
▁relative	-10.6245
▁grip	-10.6252
kumar	-10.6255
▁either	-10.6263
▁via	-10.627
▁Bel	-10.6278
▁Dis	-10.6279
▁buildings	-10.6279
▁counting	-10.628
▁Javadekar	-10.6283
▁somewhere	-10.6286
▁Tha	-10.6286
▁peaceful	-10.6288
▁approached	-10.6289
pir	-10.6291
▁Captain	-10.6291
▁Out	-10.6292
▁Gaya	-10.6296
▁refuse	-10.6296
▁Dam	-10.6301
RT	-10.6308
▁uncle	-10.6309
party	-10.6313
▁IB	-10.6314
▁Kapoor	-10.6316
▁Guard	-10.6319
▁Muk	-10.6319
▁submarine	-10.6324
▁acquitted	-10.6342
▁sand	-10.6352
There	-10.6356
18	-10.6357
▁ceasefire	-10.6358
▁Everyone	-10.6359
▁reveal	-10.6365
turn	-10.6372
▁collector	-10.6372
avi	-10.6382
▁laptop	-10.6383
▁participation	-10.6383
▁earth	-10.6383
▁treat	-10.6386
▁stomach	-10.6391
▁separately	-10.6393
national	-10.64
itu	-10.6408
▁corridor	-10.6416
▁electronic	-10.6416
▁taught	-10.6416
▁title	-10.6416
▁Kargil	-10.6424
▁Manager	-10.6424
▁confirm	-10.644
▁Vasundhara	-10.6449
▁referring	-10.6449
▁Bapu	-10.6456
PTI	-10.646
▁Africa	-10.6465
▁contacted	-10.6466
▁estimate	-10.6471
▁flying	-10.6474
▁convoy	-10.6474
▁equation	-10.6474
▁Chin	-10.6475
▁Thane	-10.6476
▁Forest	-10.6477
spiration	-10.648
▁Kishore	-10.6495
▁Hizbul	-10.6498
▁120	-10.6503
▁source	-10.6508
▁explosive	-10.6508
▁Earth	-10.6508
▁Arjun	-10.6508
▁Anti	-10.6508
▁mood	-10.6511
▁settlement	-10.6518
▁expectations	-10.6525
▁viral	-10.6525
▁Sc	-10.6532
▁consensus	-10.6533
▁decade	-10.6533
down	-10.6538
▁fail	-10.654
▁Beni	-10.6544
▁Ishrat	-10.655
▁Tir	-10.6554
▁Ben	-10.6556
▁Khu	-10.6558
▁draw	-10.6559
▁wide	-10.6559
▁forum	-10.6571
80	-10.6576
▁Bhutan	-10.6577
▁decreased	-10.6584
▁camera	-10.659
▁knock	-10.6593
▁century	-10.6593
▁Sunanda	-10.6602
▁troops	-10.661
▁secure	-10.661
▁scene	-10.661
▁opponents	-10.661
65	-10.6614
▁strengthening	-10.6622
▁fields	-10.6627
▁fruit	-10.6627
▁Azhar	-10.6635
▁51	-10.6643
▁negotiation	-10.6644
▁uniform	-10.6644
▁rupee	-10.6646
24	-10.6647
▁awarded	-10.6657
▁INS	-10.666
▁finger	-10.6669
▁Pankaj	-10.667
▁audit	-10.667
21	-10.6673
▁reduc	-10.6674
▁56	-10.6686
▁Prevention	-10.6686
▁quarter	-10.6686
uestion	-10.6689
▁Caste	-10.6698
▁fuel	-10.6704
▁Geeta	-10.6704
kot	-10.6708
▁Mahal	-10.671
▁Jawaharlal	-10.6712
▁floods	-10.672
▁punished	-10.672
▁constituencies	-10.6721
▁extent	-10.6721
▁connecting	-10.6721
▁proud	-10.6725
▁CBSE	-10.6729
▁Kailash	-10.6729
▁Vigilance	-10.6729
▁nephew	-10.6729
▁discrimination	-10.6738
▁improving	-10.6738
▁ATS	-10.6738
▁sure	-10.6744
▁paramilitary	-10.6747
▁professor	-10.6747
▁Rashid	-10.6747
▁1993	-10.6755
▁valid	-10.6755
pet	-10.6756
▁deliver	-10.6761
▁opportunities	-10.6764
cept	-10.6777
▁artist	-10.6778
▁laborers	-10.6779
▁wishes	-10.678
▁Planning	-10.6782
▁receive	-10.6787
▁cooperate	-10.679
▁complex	-10.6799
▁cultural	-10.6799
▁infiltrate	-10.6799
▁mechanism	-10.6799
▁investors	-10.68
▁announce	-10.6802
▁Saha	-10.6822
▁kidnapping	-10.6825
▁appreciated	-10.6828
▁looted	-10.6832
▁Poonch	-10.6833
▁Ratna	-10.6833
▁LoC	-10.6839
▁shelter	-10.6842
▁standard	-10.6845
▁Masjid	-10.6851
▁ward	-10.6853
▁purview	-10.6859
▁chaired	-10.6863
▁soil	-10.6868
▁Sisodia	-10.6868
▁Shu	-10.6871
PP	-10.6875
▁operating	-10.6877
▁worry	-10.6877
▁remote	-10.6877
▁Services	-10.688
▁Jantar	-10.6881
▁Dwivedi	-10.6894
▁Instead	-10.6894
▁therefore	-10.6903
▁childhood	-10.6905
▁losses	-10.6906
▁Telecom	-10.6918
▁medium	-10.6921
▁Mukhtar	-10.6929
▁Sikkim	-10.6929
▁survive	-10.6929
▁Rag	-10.6931
▁al	-10.6933
▁bow	-10.6955
▁Assistant	-10.6956
▁ambassador	-10.6956
▁mercy	-10.6956
▁zone	-10.6956
▁emphasized	-10.6958
hur	-10.6961
▁baby	-10.6965
▁bi	-10.6973
▁VHP	-10.6973
▁depend	-10.698
▁Talwar	-10.6984
▁clash	-10.6986
▁warm	-10.6987
▁cutting	-10.6997
▁adjourned	-10.7
▁prominent	-10.7
▁revolution	-10.7
▁Haj	-10.7006
▁reform	-10.7006
▁52	-10.7011
▁Mahendra	-10.7011
▁Aviation	-10.7027
▁inspector	-10.7027
AS	-10.7028
▁pilots	-10.7033
▁studied	-10.7035
▁organ	-10.7047
▁surgery	-10.7054
▁consideration	-10.706
▁Nabi	-10.7063
▁retirement	-10.7063
▁pick	-10.7069
ken	-10.7069
▁ill	-10.707
▁54	-10.707
▁holding	-10.7079
late	-10.7079
▁conclusion	-10.7089
▁Kali	-10.7097
▁Rights	-10.7103
▁veteran	-10.7107
▁Green	-10.7107
▁disclosed	-10.7108
▁panel	-10.7109
▁upper	-10.711
▁Vinay	-10.7116
▁Diwali	-10.7125
▁tolerate	-10.7126
▁principle	-10.7134
▁Father	-10.7135
▁detect	-10.7135
▁hostel	-10.7136
▁divided	-10.7138
long	-10.7141
▁Robert	-10.7142
▁roof	-10.7143
▁distributed	-10.715
▁contested	-10.7156
▁Secretariat	-10.716
▁summer	-10.716
▁aspects	-10.7164
▁inaugurated	-10.7164
▁MNREGA	-10.7166
▁Post	-10.7171
▁Burhan	-10.718
▁occur	-10.7187
try	-10.7188
This	-10.7195
▁Christian	-10.7197
If	-10.7201
▁consult	-10.7202
zz	-10.7207
▁improved	-10.7212
▁DSP	-10.7214
▁troubled	-10.7215
lor	-10.7218
▁pregnant	-10.7224
▁Ambani	-10.7224
ened	-10.7224
▁58	-10.7225
▁coast	-10.723
▁Corruption	-10.7231
▁Jung	-10.7239
▁Ve	-10.724
pre	-10.7241
▁abducted	-10.7242
▁nurse	-10.7251
▁Jahan	-10.7251
▁bride	-10.726
dham	-10.7263
▁Look	-10.7263
▁Moh	-10.7264
▁purchased	-10.727
▁Dig	-10.7276
▁Akbar	-10.7278
▁expand	-10.7278
▁deployment	-10.7279
▁DG	-10.728
Patra	-10.7286
▁fees	-10.7303
▁consumers	-10.7303
▁Virbhadra	-10.7314
▁Dha	-10.7332
▁Dilip	-10.7333
▁hostage	-10.7334
azi	-10.7338
▁serial	-10.7342
▁grand	-10.7343
▁Saini	-10.7347
▁LPG	-10.7351
▁surrender	-10.7353
▁communities	-10.736
▁servant	-10.736
▁wages	-10.736
▁healthy	-10.7369
Taiba	-10.7369
Mantar	-10.7375
▁spoken	-10.7375
▁store	-10.7376
vat	-10.7378
▁convert	-10.7379
▁probably	-10.7388
appa	-10.7393
▁Bag	-10.7394
▁democratic	-10.7397
wani	-10.7397
▁72	-10.7403
▁industries	-10.7406
▁participating	-10.7406
▁loot	-10.7411
▁loans	-10.7412
BC	-10.7413
▁See	-10.7413
▁Rashtrapati	-10.7415
▁Prabhu	-10.7415
▁disrupt	-10.7416
▁Hooda	-10.7426
point	-10.7427
▁Bhagat	-10.7434
▁laundering	-10.7434
▁removing	-10.7434
▁cadre	-10.7434
▁respective	-10.7438
▁drop	-10.7443
PL	-10.7444
▁potential	-10.7452
▁squad	-10.7452
▁upcoming	-10.7453
▁Kotwali	-10.7462
▁Hotel	-10.7462
▁pump	-10.7462
▁Adityanath	-10.7462
▁fun	-10.7468
▁surface	-10.7471
▁Her	-10.7481
▁Shivpal	-10.7485
for	-10.7485
▁Administration	-10.7489
▁Especially	-10.7489
▁Labor	-10.7489
▁Independent	-10.7491
nand	-10.7492
▁tender	-10.7492
▁sudden	-10.7495
▁Sheena	-10.7499
CR	-10.7501
▁Bara	-10.7505
▁stance	-10.7517
▁restaurant	-10.7517
▁suspicious	-10.7517
▁transparency	-10.7517
▁Tourism	-10.7517
▁type	-10.752
▁Aamir	-10.7523
▁siege	-10.7527
▁Farmers	-10.7527
▁objectionable	-10.7531
▁dowry	-10.7536
▁criticism	-10.7537
▁finding	-10.7541
▁Pokhriyal	-10.7545
▁OBC	-10.7547
▁fiercely	-10.7554
▁magazine	-10.7555
▁fate	-10.7555
▁Sarabjit	-10.7564
▁Ibrahim	-10.7573
▁understanding	-10.7575
▁registering	-10.7582
▁Colony	-10.7583
▁Count	-10.7584
▁Sukh	-10.7585
28	-10.7586
▁Space	-10.7592
▁beating	-10.7595
▁Giving	-10.7611
▁Akali	-10.7611
▁Over	-10.7619
▁injuries	-10.762
▁Syria	-10.762
▁Samaj	-10.7621
▁destroy	-10.7623
khi	-10.7625
▁map	-10.7626
▁Mat	-10.7627
▁Karti	-10.7629
▁choose	-10.763
▁ordinance	-10.763
▁Hindustan	-10.7633
▁Soni	-10.7641
▁recovery	-10.7643
▁photograph	-10.7645
▁creation	-10.7665
DF	-10.7668
▁Alam	-10.7679
mini	-10.7681
▁landslide	-10.7696
▁repeated	-10.7697
▁booking	-10.7706
▁Forum	-10.7706
▁Chit	-10.7707
DC	-10.7707
▁magistrate	-10.7715
▁DNA	-10.7715
▁pace	-10.7715
▁tire	-10.7716
▁empty	-10.7724
▁entrusted	-10.7724
▁tested	-10.773
▁refusing	-10.7743
▁approach	-10.7746
▁host	-10.7747
▁representative	-10.7751
▁Nirmal	-10.7762
▁Gram	-10.7762
▁Tribunal	-10.7762
▁suspicion	-10.7762
▁heritage	-10.7762
▁disappeared	-10.777
▁kidney	-10.7772
▁lion	-10.7774
▁satisfied	-10.7782
▁62	-10.7785
▁Examination	-10.7791
▁mill	-10.7798
▁Global	-10.7801
▁Respond	-10.7801
▁intervention	-10.7801
▁plastic	-10.7801
▁baseless	-10.781
▁IANS	-10.7816
▁grenade	-10.782
▁pistol	-10.782
▁prohibit	-10.782
▁residential	-10.7824
▁captured	-10.7825
▁Vaghela	-10.783
▁poet	-10.783
▁Jagan	-10.7831
55	-10.7834
▁spending	-10.7838
ache	-10.7839
▁sick	-10.784
▁mean	-10.7841
ST	-10.7841
▁bottle	-10.7849
▁situated	-10.7849
▁Sangma	-10.7854
▁irregularities	-10.7859
▁convinced	-10.7861
▁serve	-10.7861
▁tied	-10.7862
ological	-10.7862
yu	-10.7865
▁Good	-10.7865
▁Hamid	-10.787
▁fifty	-10.7878
▁forcibly	-10.7878
arpur	-10.7883
▁noon	-10.7886
▁demise	-10.7887
▁dollars	-10.7889
▁exit	-10.7889
▁teaching	-10.7889
▁strictly	-10.789
dom	-10.789
▁shocking	-10.789
▁assess	-10.7895
▁indigenous	-10.7907
▁principal	-10.7907
▁stake	-10.7909
▁Kanda	-10.791
▁condemn	-10.791
▁bigger	-10.7912
press	-10.7918
▁collection	-10.7919
▁SIM	-10.7929
▁businessmen	-10.7931
▁career	-10.7933
▁Expert	-10.7936
▁Neeraj	-10.7936
▁illness	-10.7937
▁Jaiswal	-10.7946
rickshaw	-10.7955
▁torture	-10.7956
▁Tar	-10.7958
▁Reliance	-10.7965
▁photographs	-10.797
▁Karunanidhi	-10.7975
▁expenses	-10.7975
▁Session	-10.7975
▁medicine	-10.7977
▁Sadhvi	-10.7984
▁applicable	-10.7984
▁Mandi	-10.7989
▁learned	-10.7989
everal	-10.799
▁66	-10.7994
script	-10.7995
▁Sahara	-10.7997
mma	-10.8002
Raj	-10.8007
▁tighten	-10.8012
▁Ved	-10.8017
▁ignored	-10.8023
▁Dharmendra	-10.8024
▁Madras	-10.8024
▁employ	-10.8039
▁eastern	-10.8041
▁appoint	-10.8044
▁Energy	-10.8053
term	-10.8058
▁PC	-10.8058
▁Embassy	-10.8063
▁resort	-10.8063
like	-10.8063
▁Art	-10.8064
▁contain	-10.8067
▁Var	-10.807
▁zero	-10.8083
▁Russian	-10.8084
▁losing	-10.8085
▁Press	-10.809
▁Rae	-10.8093
▁Sant	-10.8109
▁racket	-10.8112
▁Panaji	-10.8112
32	-10.812
▁PAC	-10.8121
▁sports	-10.8122
▁Or	-10.8128
▁calm	-10.8132
▁Cell	-10.8138
▁alternative	-10.8142
▁device	-10.8142
SE	-10.815
▁Piyush	-10.8152
▁confidential	-10.8153
hit	-10.8162
▁tobacco	-10.8162
▁batch	-10.8162
▁Tiger	-10.8162
▁achieve	-10.8169
▁System	-10.8172
vent	-10.8175
▁Commander	-10.818
▁existence	-10.8182
pper	-10.8189
▁67	-10.8191
▁curfew	-10.8192
▁circle	-10.8202
▁Ven	-10.8202
▁Keeping	-10.8207
▁struggling	-10.8212
▁throwing	-10.8215
▁Manu	-10.8217
▁Jayalalithaa	-10.822
▁organizing	-10.8222
▁Protection	-10.8232
▁declaration	-10.8232
▁corporate	-10.8242
▁dust	-10.8243
▁jewelery	-10.8244
▁Gowda	-10.8252
veer	-10.8253
▁caus	-10.8255
▁completing	-10.8262
▁York	-10.8262
lon	-10.8268
▁saints	-10.8273
▁Fire	-10.8275
▁Jaish	-10.8277
RO	-10.8277
▁Pulwama	-10.8282
▁SDM	-10.8282
▁looked	-10.8284
▁Shivaji	-10.8285
▁Khat	-10.8291
▁53	-10.8296
▁Panch	-10.8297
▁Terrorist	-10.8302
▁celebrating	-10.8302
▁Adarsh	-10.8302
▁stamp	-10.8305
▁Mill	-10.8311
▁Nir	-10.8313
▁Ranjit	-10.8313
▁85	-10.8316
▁buying	-10.8318
▁porn	-10.8325
▁trap	-10.8325
▁procurement	-10.8332
▁weaken	-10.8335
▁PTI	-10.834
▁decrease	-10.8362
▁compromise	-10.8362
▁tragedy	-10.8362
▁motive	-10.8362
▁Standing	-10.8373
▁armed	-10.8375
▁Rath	-10.8378
▁mid	-10.8378
▁Iqbal	-10.8383
▁obstruct	-10.8383
▁listening	-10.8384
▁Super	-10.8391
▁accelerate	-10.8393
▁beautiful	-10.8393
▁avoided	-10.8395
▁Simultaneously	-10.8403
▁equipped	-10.8403
▁buried	-10.8403
gul	-10.8407
work	-10.841
▁NC	-10.8411
▁Bur	-10.8411
▁Islamabad	-10.8415
▁estate	-10.8417
▁guru	-10.8424
▁Javed	-10.8426
90	-10.8431
▁rejecting	-10.8436
▁Mor	-10.8437
-10	-10.8439
▁assistant	-10.8454
▁Gogoi	-10.8454
▁Madhav	-10.8454
▁pulses	-10.8464
NS	-10.8469
▁driving	-10.8475
▁Hassan	-10.8475
▁---	-10.8476
▁Maoist	-10.8488
▁Lakshmi	-10.8495
▁Film	-10.8495
▁impose	-10.8495
ukh	-10.85
▁constant	-10.8503
▁Saraswati	-10.8505
▁habit	-10.8507
▁hide	-10.8509
▁disturbances	-10.8515
▁Chancellor	-10.8516
wel	-10.8517
▁smart	-10.8526
place	-10.8526
▁57	-10.8529
▁sting	-10.853
▁suit	-10.8535
▁1996	-10.8536
▁rice	-10.8537
▁Naveen	-10.8538
▁developing	-10.8539
▁Raje	-10.854
▁achievement	-10.8543
▁Colonel	-10.8547
▁memory	-10.8547
▁virus	-10.8547
▁Asian	-10.8554
▁companions	-10.8554
▁64	-10.8561
akshi	-10.8565
▁Though	-10.8567
▁interfere	-10.8567
▁transform	-10.8568
▁Trans	-10.8569
▁percentage	-10.8569
▁CO	-10.8572
wada	-10.8572
26	-10.8578
▁successfully	-10.8578
▁250	-10.8582
▁anybody	-10.8588
▁Jagdish	-10.8588
▁Kala	-10.8593
▁El	-10.8593
▁shouting	-10.8598
▁IPL	-10.8599
▁ISIS	-10.8602
▁walking	-10.8607
pping	-10.8608
▁ambulance	-10.8609
▁Gandhinagar	-10.8615
minute	-10.8618
▁Pay	-10.8619
▁Shrivastav	-10.8619
▁experiment	-10.8619
▁simple	-10.8619
27	-10.8621
▁Local	-10.8624
▁IPC	-10.8627
▁ie	-10.8636
prakash	-10.864
▁Commerce	-10.864
▁Petroleum	-10.864
Re	-10.8642
▁policeman	-10.8653
▁Gwalior	-10.8661
▁Fort	-10.8661
▁professional	-10.8661
▁Varun	-10.8664
▁Kur	-10.8666
▁association	-10.8671
▁critical	-10.8679
▁attached	-10.8682
▁square	-10.8682
▁Survey	-10.8682
▁Bai	-10.8685
▁European	-10.8688
▁represent	-10.8688
▁pan	-10.8692
▁Money	-10.8694
▁speeches	-10.8695
▁stress	-10.8698
▁printed	-10.8698
▁wind	-10.8699
▁unconscious	-10.8703
▁Saif	-10.8705
▁gain	-10.8714
▁networking	-10.8716
▁coastal	-10.8723
▁Vikram	-10.8724
agar	-10.8726
▁Village	-10.8734
▁1998	-10.8734
▁Shahid	-10.8745
▁crew	-10.8745
▁Sagar	-10.8746
▁Greater	-10.8748
▁Kund	-10.8757
▁Lankan	-10.8764
05	-10.8765
▁Katju	-10.8767
aries	-10.8774
iruvananthapuram	-10.8776
▁cancellation	-10.8776
▁drain	-10.8776
▁harmony	-10.8776
▁commitment	-10.878
▁Ramlila	-10.8787
▁Harsh	-10.8795
▁Ladakh	-10.8798
▁snatch	-10.8798
▁origin	-10.8808
▁territory	-10.8808
▁discussing	-10.8808
48	-10.8812
gate	-10.8814
▁Mak	-10.8816
▁monitored	-10.8817
▁Emergency	-10.8819
▁kidnapped	-10.8819
▁united	-10.8823
▁detected	-10.8828
29	-10.8831
▁civilian	-10.8831
▁highly	-10.8836
▁Hanuman	-10.884
▁SMS	-10.884
▁Umar	-10.8843
Man	-10.8848
▁detail	-10.8856
▁Division	-10.8861
▁1984	-10.8861
▁enjoy	-10.8861
▁Ganesh	-10.8861
▁Case	-10.8872
▁chemical	-10.8872
▁pressuriz	-10.8872
▁samples	-10.8874
▁Buddha	-10.8883
▁ordinary	-10.8883
▁Clean	-10.8883
▁root	-10.8883
▁Patnaik	-10.8886
▁vegetables	-10.8891
▁confusion	-10.8893
▁worst	-10.8893
▁Saheb	-10.8893
▁cinema	-10.8893
▁Head	-10.8897
▁succeed	-10.8899
▁apologized	-10.89
▁illegally	-10.8902
President	-10.8903
craft	-10.8908
▁setting	-10.8908
taking	-10.8909
09	-10.891
▁Agrawal	-10.8915
▁editorial	-10.8916
▁however	-10.8918
▁Are	-10.8923
▁Attorney	-10.8925
▁dress	-10.8925
▁rocket	-10.8927
▁Karan	-10.893
▁author	-10.8932
▁Bat	-10.8934
▁Rani	-10.8934
▁STF	-10.8938
▁Av	-10.8939
▁covered	-10.8946
▁interact	-10.8946
▁Have	-10.8946
▁Collector	-10.8947
▁Lahore	-10.8947
▁headlines	-10.8947
▁encourage	-10.8948
▁strengthened	-10.8952
▁SS	-10.8953
▁Democratic	-10.8958
▁suppress	-10.8958
▁sometimes	-10.8958
▁clearance	-10.8965
▁Singhvi	-10.8965
▁produce	-10.8969
▁planted	-10.8973
▁LeT	-10.898
▁Govind	-10.899
▁Munde	-10.9007
▁Gita	-10.9009
▁misbehavior	-10.9012
▁software	-10.9012
▁Wani	-10.9014
▁slight	-10.9015
▁prisoner	-10.9017
▁Radha	-10.9023
▁intervene	-10.9023
▁Academy	-10.9033
▁Shastri	-10.9033
▁scar	-10.9035
▁Khar	-10.9038
▁summons	-10.904
▁accompanied	-10.9044
▁Ashutosh	-10.9049
▁Kada	-10.9055
▁lover	-10.9065
▁Bhubaneswar	-10.9066
▁deficit	-10.9066
▁excited	-10.9088
house	-10.909
▁Naresh	-10.9091
▁explained	-10.9094
▁motorcycle	-10.9098
▁Children	-10.9099
▁68	-10.91
▁convicts	-10.9104
▁Shak	-10.9109
▁secretaries	-10.911
▁Within	-10.912
▁Tomar	-10.9127
▁MW	-10.9129
▁banner	-10.9129
23	-10.913
▁Make	-10.913
▁beyond	-10.9131
▁affair	-10.9137
▁crush	-10.9144
▁Vir	-10.9144
▁excuse	-10.9153
▁priest	-10.9153
▁coaches	-10.9153
▁sealed	-10.9155
▁suggestion	-10.9161
▁Ordinance	-10.9164
▁Block	-10.9164
▁users	-10.9166
▁core	-10.917
▁educat	-10.9172
▁Festival	-10.9175
▁climate	-10.9175
▁housing	-10.9175
affected	-10.9176
▁Personnel	-10.9186
▁Yash	-10.919
▁Shab	-10.9192
▁BRICS	-10.9197
hood	-10.9198
indra	-10.92
▁emotional	-10.9208
▁plaintiff	-10.9219
▁wealth	-10.922
▁Siddharth	-10.923
▁Report	-10.9234
▁perform	-10.9243
sharan	-10.9246
▁realized	-10.9248
▁faced	-10.9252
▁thank	-10.9255
▁compulsion	-10.9263
▁obstacle	-10.9263
ick	-10.9266
▁mess	-10.9268
▁Chau	-10.9271
▁crying	-10.9286
▁Yasin	-10.9286
▁operated	-10.9286
▁Salem	-10.9288
▁Laloo	-10.929
▁Tara	-10.9293
▁interference	-10.9297
▁midnight	-10.9297
▁chest	-10.9303
▁collision	-10.9308
▁negative	-10.9308
▁Family	-10.9308
▁annually	-10.9308
▁Hind	-10.9312
book	-10.9314
▁bond	-10.9318
▁sloganeering	-10.9319
▁ruin	-10.932
▁Regional	-10.9323
khar	-10.9339
bai	-10.9347
▁mm	-10.9348
CO	-10.9351
▁woo	-10.9352
▁glass	-10.9353
asim	-10.9353
▁jumped	-10.9359
▁defamation	-10.9364
OP	-10.9366
▁careful	-10.9369
▁deadline	-10.937
▁Dham	-10.9374
▁Bahuguna	-10.9375
▁display	-10.9375
▁fit	-10.9378
▁Shakti	-10.9379
▁secular	-10.9385
▁Owaisi	-10.9386
▁Headley	-10.9386
well	-10.9387
urari	-10.9389
▁blocked	-10.939
▁shooting	-10.9396
▁Steel	-10.9398
▁debris	-10.9398
▁Rang	-10.9404
▁Amendment	-10.9405
Thank	-10.941
▁Tal	-10.942
▁tower	-10.9424
▁popularity	-10.9425
▁Train	-10.9425
▁directive	-10.9427
▁bid	-10.9427
▁expos	-10.943
▁tampering	-10.9431
▁collect	-10.944
▁feature	-10.9443
▁robbery	-10.9443
▁meter	-10.9445
▁acid	-10.9447
▁Vilas	-10.9455
▁Shekhar	-10.9455
Shatrughan	-10.9465
▁throat	-10.9465
▁stolen	-10.9465
▁sound	-10.9467
▁Karachi	-10.9477
▁Vivek	-10.9477
▁Dubey	-10.9488
▁neck	-10.9488
▁Meena	-10.9488
▁Jethmalani	-10.9499
▁elephant	-10.9499
▁Trivedi	-10.9511
▁supervision	-10.9511
▁stream	-10.9511
▁VIP	-10.9511
▁Lama	-10.9511
▁organize	-10.9512
▁contempt	-10.9522
▁micro	-10.9522
▁Van	-10.9527
▁sleeping	-10.9533
▁partnership	-10.9535
▁parade	-10.9538
▁gangster	-10.9538
▁taxi	-10.9538
▁Consumer	-10.9545
▁Anantnag	-10.9545
▁Miss	-10.9545
▁regime	-10.9548
Modi	-10.9553
table	-10.9557
▁Ras	-10.956
▁performing	-10.9566
▁Acharya	-10.9568
▁Donald	-10.9568
▁diplomat	-10.9571
▁moon	-10.9572
▁Siddiqui	-10.9579
▁Staff	-10.9579
▁swearing	-10.9579
▁convener	-10.9584
▁initiated	-10.9585
▁expelled	-10.959
▁pelting	-10.9602
▁entrance	-10.9613
▁quiet	-10.9613
▁cave	-10.9618
▁Military	-10.9625
▁Yechury	-10.9625
cle	-10.9629
▁adopting	-10.9634
▁pronounc	-10.9636
▁specific	-10.9636
▁wire	-10.9638
▁Arti	-10.9639
▁Communication	-10.9651
▁Gehlot	-10.9659
▁coordination	-10.9659
▁dependent	-10.9663
▁succeeded	-10.9664
▁dalit	-10.9671
▁adult	-10.9671
▁Any	-10.9673
37	-10.9675
▁brief	-10.9683
▁singer	-10.9684
▁threaten	-10.9685
▁regret	-10.9694
▁garden	-10.9694
▁march	-10.9694
▁hence	-10.9695
▁Life	-10.9696
▁Judicial	-10.9706
▁Revenue	-10.9706
▁enroll	-10.9706
narayan	-10.9707
▁Azamgarh	-10.9708
▁NCR	-10.9711
▁sixth	-10.972
▁Kochi	-10.9721
▁mouthpiece	-10.9729
▁Shakeel	-10.9729
▁knew	-10.9729
▁shut	-10.9729
dominated	-10.9729
hour	-10.9738
▁Thousands	-10.9741
▁cited	-10.9741
▁Well	-10.9744
face	-10.9745
▁aspect	-10.9748
▁conclud	-10.975
▁Desai	-10.9753
▁Pramod	-10.9764
▁Ramnath	-10.9767
▁justified	-10.9768
▁TMC	-10.977
▁Broadcasting	-10.9776
▁Attack	-10.9776
▁Asked	-10.9776
▁travelers	-10.9777
▁drive	-10.9784
34	-10.9785
▁Hundred	-10.9787
▁clarify	-10.9787
▁gradually	-10.9787
▁French	-10.9799
▁Metropolitan	-10.9799
▁talent	-10.9799
▁Nirmala	-10.9801
▁diamond	-10.9811
▁street	-10.9819
▁revenge	-10.9822
▁bin	-10.9824
94	-10.9826
▁plate	-10.9828
▁Akhtar	-10.9834
▁forthcoming	-10.9834
▁Alliance	-10.9834
▁restored	-10.9834
▁Nagaland	-10.9835
▁Rajput	-10.9838
▁leg	-10.984
▁ancient	-10.9846
▁worsened	-10.9847
▁cheating	-10.9858
▁Sadar	-10.986
,500	-10.9865
▁dark	-10.9869
▁Garg	-10.987
▁Sindh	-10.9872
▁earn	-10.9872
▁hall	-10.9874
38	-10.9879
▁literature	-10.9881
▁Jhansi	-10.9881
▁Airlines	-10.9881
▁prize	-10.9882
▁tourist	-10.9884
▁motion	-10.9887
▁introduction	-10.9893
▁GDP	-10.9893
▁Morcha	-10.9894
▁Tarun	-10.9896
▁Media	-10.9899
power	-10.9901
Pakistan	-10.9911
▁medal	-10.9913
▁contractor	-10.9914
▁finish	-10.9917
▁Patidar	-10.9917
▁Akshay	-10.9917
▁lady	-10.992
▁lowest	-10.9924
▁Wal	-10.9929
▁organizer	-10.993
▁ascertain	-10.994
▁Marg	-10.9941
▁arm	-10.995
▁serving	-10.9952
▁inspire	-10.9958
▁Imam	-10.9961
▁sweet	-10.9964
▁Ltd	-10.9964
back	-10.9968
▁Yashwant	-10.9976
▁accusation	-10.9976
East	-10.9978
▁advocated	-10.9978
▁thanked	-10.9981
▁Term	-10.9983
▁rare	-10.9987
▁abolish	-11
▁Europe	-11.0005
▁email	-11.0006
▁pond	-11.0012
▁Program	-11.0014
▁knife	-11.0024
▁Brahma	-11.0036
▁urge	-11.0039
▁ST	-11.0043
31	-11.0047
▁cab	-11.0047
▁Meghalaya	-11.0048
▁encouraged	-11.0083
ography	-11.0083
▁Maneka	-11.0084
▁Naga	-11.0086
▁unemployment	-11.0096
▁Paris	-11.0103
▁publicity	-11.0104
▁indirectly	-11.0104
responsibilities	-11.0108
▁execute	-11.0108
▁clue	-11.0108
proving	-11.0112
▁activity	-11.012
▁Second	-11.013
uck	-11.0136
▁radio	-11.0144
▁surveillance	-11.0144
▁smoke	-11.0144
▁Ghosh	-11.0144
▁MD	-11.0148
▁1990	-11.0148
▁settle	-11.0149
▁EC	-11.0149
▁ideal	-11.0159
▁commandos	-11.0159
▁construct	-11.0164
▁pulled	-11.0165
▁arising	-11.0181
▁promoted	-11.0183
puram	-11.0191
▁Bundelkhand	-11.0193
▁contribute	-11.0193
▁Kul	-11.0194
▁electric	-11.0205
▁privacy	-11.0205
▁dry	-11.0206
▁Peter	-11.0209
▁hair	-11.0219
▁Training	-11.0226
▁procedure	-11.0229
▁faster	-11.023
▁assessment	-11.0233
▁mislead	-11.0242
▁compensate	-11.0254
▁grade	-11.0255
▁spirit	-11.0266
▁Kanhaiya	-11.0266
▁although	-11.0266
▁Somnath	-11.0266
▁slum	-11.0266
▁strange	-11.0267
▁Ajmer	-11.0291
▁entrepreneur	-11.03
▁Sidhu	-11.0303
▁Hill	-11.0303
42	-11.031
▁difficulty	-11.0311
▁Shahrukh	-11.0315
gon	-11.0321
▁Uday	-11.0324
▁declaring	-11.0328
▁objective	-11.0329
▁MNS	-11.0331
▁Indra	-11.0333
aeda	-11.0338
▁window	-11.0341
▁male	-11.0345
▁Ambassador	-11.0352
▁brigade	-11.0352
▁shadow	-11.0352
▁groom	-11.0355
▁Trade	-11.0362
33	-11.0376
▁memorandum	-11.0377
▁neglect	-11.0377
▁Learn	-11.039
▁Urdu	-11.0391
▁remembered	-11.0396
54	-11.0398
▁Ludhiana	-11.0402
▁naval	-11.0402
▁rehabilitation	-11.0414
▁battalion	-11.0427
▁Housing	-11.0427
▁Sanskrit	-11.0439
▁comfort	-11.0439
▁portal	-11.0444
▁Rakhi	-11.0452
▁deny	-11.0458
▁mafia	-11.0464
▁Northern	-11.0464
▁content	-11.0464
▁Bhatkal	-11.0465
▁Canada	-11.0466
▁branches	-11.0478
▁Gauri	-11.0481
▁Armed	-11.0493
▁Book	-11.0494
▁transaction	-11.05
▁pocket	-11.0502
▁treasure	-11.0502
▁apology	-11.0502
▁rescued	-11.0509
▁Sukma	-11.0514
▁Market	-11.0514
▁Vadodara	-11.0527
▁Jindal	-11.0527
▁blog	-11.0531
▁63	-11.0538
▁Eid	-11.054
▁Tejpal	-11.054
▁crude	-11.054
▁citizenship	-11.0541
▁Israeli	-11.0547
rape	-11.0554
▁Commonwealth	-11.0565
▁Yojana	-11.0565
▁rhetoric	-11.0565
▁Rajouri	-11.0565
▁ensured	-11.0565
four	-11.057
▁roaming	-11.058
56	-11.0587
▁publish	-11.0589
month	-11.0591
preet	-11.0596
▁Business	-11.0603
▁dignity	-11.0603
▁bearers	-11.0604
▁Ur	-11.0606
▁obtained	-11.0615
▁wounded	-11.0615
▁Him	-11.0616
▁Sim	-11.0619
▁Tewari	-11.063
▁Jet	-11.0631
▁Veer	-11.0636
▁scientific	-11.0641
▁Shanti	-11.0648
▁Washington	-11.0654
▁household	-11.0654
get	-11.0654
39	-11.0658
▁Bhad	-11.0666
▁Sitaram	-11.0666
▁Ashish	-11.0666
▁bondage	-11.0668
▁JS	-11.0672
▁GS	-11.0673
▁smuggler	-11.0679
▁belief	-11.0679
▁Rahim	-11.0681
▁eliminat	-11.0682
▁exploit	-11.0688
▁OP	-11.0692
▁thirty	-11.0705
▁guide	-11.0705
▁attended	-11.0706
▁Secondary	-11.0707
▁Doval	-11.071
▁Industry	-11.0718
▁deciding	-11.0718
▁throw	-11.0718
▁Virendra	-11.0719
NCR	-11.0721
▁Campaign	-11.0743
▁extension	-11.0743
▁native	-11.0743
▁product	-11.0743
▁Rajkumar	-11.0747
▁collapsed	-11.075
▁Port	-11.0752
▁cautious	-11.0756
▁ritual	-11.0756
▁praise	-11.0762
▁offering	-11.0762
▁Haji	-11.0769
▁bird	-11.077
▁Dalai	-11.0776
▁Soon	-11.0778
▁Sitharaman	-11.0782
▁corner	-11.0782
▁shoe	-11.0782
▁qua	-11.0793
▁regulator	-11.0795
▁Besides	-11.0795
▁Barack	-11.0798
▁merit	-11.0806
▁rock	-11.0806
36	-11.0811
▁recognized	-11.0811
▁Mahant	-11.0813
▁cook	-11.0815
▁Geelani	-11.0821
▁Private	-11.0821
▁reminded	-11.0823
▁emerge	-11.0827
▁71	-11.0834
▁1997	-11.0834
44	-11.0834
▁Tibet	-11.084
▁Rampal	-11.084
▁370	-11.0843
▁Malaysia	-11.0847
▁Arya	-11.0853
▁size	-11.0854
▁whenever	-11.0857
▁maintenance	-11.086
▁acquired	-11.0861
▁quo	-11.0867
▁Chh	-11.0872
▁RLD	-11.0873
uja	-11.0875
▁jointly	-11.0877
▁collecting	-11.0883
▁custom	-11.0884
▁argument	-11.0892
▁Bangladeshi	-11.0893
▁collaboration	-11.0899
▁passion	-11.0901
▁upload	-11.0912
▁Chhota	-11.0912
▁shutdown	-11.0912
▁dirt	-11.0914
▁trafficking	-11.0915
▁Bastar	-11.0917
▁Naval	-11.0922
▁mob	-11.0922
▁widow	-11.0925
▁abusive	-11.0925
▁seminar	-11.0925
▁Sumit	-11.0927
▁predict	-11.0927
▁Your	-11.0928
▁Sultan	-11.0929
▁BMC	-11.0937
▁Rohingya	-11.0938
▁ignoring	-11.0938
▁memorial	-11.0938
▁Nupur	-11.0938
▁holy	-11.094
▁guarantee	-11.0951
▁reversed	-11.0951
▁Gilani	-11.0951
▁injury	-11.0951
▁Kisan	-11.0952
▁Unit	-11.0955
TO	-11.0959
49	-11.0961
ahid	-11.0962
▁dirty	-11.0963
▁Chaturvedi	-11.0964
▁split	-11.0964
▁74	-11.0974
▁discovered	-11.0977
▁Puducherry	-11.0977
ET	-11.0989
operative	-11.0989
▁confident	-11.0989
▁ASI	-11.0991
▁magic	-11.0991
▁Maken	-11.0996
▁ND	-11.1
▁fiscal	-11.1017
▁mercury	-11.1017
▁drama	-11.1017
▁Jayant	-11.103
▁Legislature	-11.103
▁lobby	-11.103
▁Ocean	-11.103
▁merger	-11.1037
▁expression	-11.1043
▁Tendulkar	-11.1044
▁applicant	-11.1044
swamy	-11.1044
▁reject	-11.1055
▁examine	-11.1057
▁Kupwara	-11.1057
▁Yakub	-11.1057
▁deprived	-11.1057
▁Summit	-11.1057
▁600	-11.1062
▁Jayanti	-11.1065
▁Perhaps	-11.107
66	-11.108
▁editor	-11.1082
▁Industries	-11.1083
▁1991	-11.1083
▁125	-11.109
▁59	-11.1092
▁slaughter	-11.1097
▁transparent	-11.1097
▁nobody	-11.1097
▁Model	-11.1097
▁actually	-11.1106
EC	-11.1107
▁surrendered	-11.1108
▁Obviously	-11.111
▁seal	-11.1116
▁Record	-11.1123
▁departure	-11.1124
▁upheld	-11.1137
▁animal	-11.1149
▁Bulandshahr	-11.115
▁luck	-11.115
▁Bhaiya	-11.1154
hala	-11.1159
▁profession	-11.1163
▁Rijiju	-11.1164
▁Pappu	-11.1164
▁61	-11.1166
▁seventh	-11.1168
▁builder	-11.117
unconstitutional	-11.1177
▁Faizabad	-11.1177
▁SK	-11.118
▁Unti	-11.1182
▁Master	-11.1189
▁scientist	-11.1189
▁beneficial	-11.119
▁concession	-11.119
▁blue	-11.119
▁MM	-11.1203
▁consumption	-11.1204
▁interrupted	-11.1204
▁manufacture	-11.1217
▁Industrial	-11.1217
▁external	-11.1217
▁safely	-11.1219
▁gesture	-11.1231
▁Third	-11.1231
▁divide	-11.1238
▁capture	-11.1238
▁Likewise	-11.1244
▁academic	-11.1244
▁Bhat	-11.1245
64	-11.125
▁councilor	-11.1257
mohan	-11.1257
▁Late	-11.1257
▁Orissa	-11.1258
▁Shopian	-11.1258
▁conversion	-11.1258
▁incomplete	-11.1258
▁dense	-11.1258
ureshi	-11.1265
Pacific	-11.1271
▁objected	-11.1276
singh	-11.1285
▁deliberately	-11.1299
▁Tamilnadu	-11.1299
▁wander	-11.1299
▁Capt	-11.1301
▁equality	-11.1307
▁Sarkar	-11.1308
▁Rohtak	-11.1312
▁leopard	-11.1312
▁recognition	-11.1312
▁superintendent	-11.1312
▁pole	-11.1313
▁surprise	-11.1319
▁Aziz	-11.1326
▁availability	-11.1326
▁UGC	-11.1326
▁holders	-11.1329
▁Abhiyan	-11.1339
▁jurisdiction	-11.1339
▁species	-11.1339
half	-11.1343
▁respectively	-11.1344
▁prior	-11.1351
▁Ratan	-11.1353
▁loud	-11.1357
▁collapse	-11.136
▁Dera	-11.1374
▁clashes	-11.1375
about	-11.1377
▁Reservation	-11.1381
▁signature	-11.1381
▁summit	-11.1381
▁otherwise	-11.1381
▁mandate	-11.1382
▁Agreement	-11.1394
▁Sarpanch	-11.1394
▁scenario	-11.1394
▁restrain	-11.1394
▁disappearance	-11.1395
▁historical	-11.1407
▁aviation	-11.1409
▁Imran	-11.141
khand	-11.1412
▁compete	-11.1412
06	-11.1417
▁Shankaracharya	-11.1422
▁Radhe	-11.1422
▁lathi	-11.1428
46	-11.1431
▁Ramgopal	-11.1435
▁Parivar	-11.1435
▁PK	-11.1436
▁78	-11.1448
▁punish	-11.1448
▁Relief	-11.1449
▁consequences	-11.1449
▁Coast	-11.1453
▁Hisar	-11.1461
▁easier	-11.1463
▁humanity	-11.1463
▁requirement	-11.1465
▁winner	-11.1467
▁Arab	-11.1474
▁Sher	-11.1475
OC	-11.1476
▁discipline	-11.1477
▁pretext	-11.1477
▁vessel	-11.1477
▁refugees	-11.1481
▁Passenger	-11.1491
▁eradicat	-11.1491
▁Sumitra	-11.1496
▁comprehensive	-11.1505
▁precaution	-11.1505
▁spiritual	-11.1505
08	-11.1506
Com	-11.1509
▁Asif	-11.1513
▁unemployed	-11.1519
▁rival	-11.1519
▁700	-11.1521
▁Disaster	-11.1532
▁Taliban	-11.1532
▁dinner	-11.1532
▁manufacturing	-11.1532
▁pride	-11.1533
▁Chakra	-11.1533
▁neighborhood	-11.1533
▁absolutely	-11.1538
▁edge	-11.154
▁dictator	-11.1546
▁legislative	-11.1546
▁violating	-11.1546
▁Puri	-11.1556
▁Garden	-11.156
▁Take	-11.1567
print	-11.1568
▁73	-11.1575
▁Eight	-11.1587
▁Chandrasekhar	-11.1588
▁unhappy	-11.1588
▁infection	-11.1588
▁Games	-11.1589
▁compulsory	-11.1602
free	-11.1607
▁chariot	-11.1616
▁colony	-11.1616
▁Self	-11.1616
▁Regardless	-11.1619
▁patriot	-11.163
▁assuming	-11.163
▁Agni	-11.163
▁outstanding	-11.1644
▁IRCTC	-11.1644
▁conservation	-11.1658
▁extradition	-11.1658
▁lease	-11.1659
▁intact	-11.166
▁Whatever	-11.1661
▁helpful	-11.1661
▁complainant	-11.1668
▁Badrinath	-11.1673
▁Consider	-11.1673
▁served	-11.1674
▁laugh	-11.1675
▁69	-11.1682
07	-11.1686
▁Corps	-11.1687
▁Faridabad	-11.1687
▁intolerance	-11.1687
▁sugarcane	-11.1687
▁Mistry	-11.1687
▁prevention	-11.1692
▁Rashtriya	-11.1701
page	-11.1708
▁ambitious	-11.1715
▁unanimous	-11.1715
▁GRP	-11.1715
▁Solicitor	-11.1729
▁adverse	-11.1729
▁Saradha	-11.173
▁interrogated	-11.1732
▁weakness	-11.1734
▁bicycle	-11.1743
▁clutches	-11.1743
▁Mughal	-11.1743
▁Kho	-11.1753
▁Account	-11.1758
▁fertilizer	-11.1758
▁producer	-11.1758
▁Dab	-11.1761
▁delivery	-11.1762
▁fodder	-11.1772
▁PNB	-11.1772
▁vision	-11.1772
▁Salim	-11.1795
▁bio	-11.1799
▁Auditor	-11.18
▁inauguration	-11.1802
China	-11.1807
▁lake	-11.1807
▁passage	-11.1808
▁saint	-11.1812
pproximately	-11.1815
known	-11.1819
▁Dixit	-11.1829
▁Memorial	-11.1829
▁Black	-11.1829
NIA	-11.1833
04	-11.1841
▁Movement	-11.1843
▁disagree	-11.1843
▁Joseph	-11.1843
▁girlfriend	-11.1845
▁sake	-11.1852
▁Najib	-11.1858
▁captain	-11.1859
▁Aditya	-11.1859
▁marginal	-11.1875
bility	-11.188
▁customer	-11.1882
▁Jabalpur	-11.1887
▁disappointed	-11.1887
▁Nisha	-11.1887
▁Kishan	-11.1895
▁acknowledg	-11.1915
▁convenience	-11.1915
▁Penal	-11.1916
▁stressed	-11.1922
▁Pass	-11.1924
▁followers	-11.1927
▁underway	-11.1929
▁prosperity	-11.193
▁everywhere	-11.1933
▁maid	-11.1937
▁counted	-11.1939
▁mainstream	-11.1944
▁shopkeeper	-11.1944
▁Official	-11.1945
▁friendly	-11.1947
▁fray	-11.1947
fire	-11.1954
▁Jalandhar	-11.1959
▁usually	-11.1959
▁Rather	-11.1959
▁jawan	-11.196
▁Gun	-11.1963
▁Banda	-11.1969
▁Maran	-11.197
▁mischief	-11.1973
▁kin	-11.1985
▁glimpse	-11.1988
▁Nancy	-11.1988
▁cyclon	-11.2003
▁fifteen	-11.2003
▁restricted	-11.2003
▁secretariat	-11.2003
▁inspect	-11.2004
▁monument	-11.2017
▁museum	-11.2017
▁Swiss	-11.2017
▁Menon	-11.2017
▁steel	-11.2017
▁bone	-11.2032
▁poly	-11.2033
▁Rathore	-11.2033
bailable	-11.2034
▁consultation	-11.2038
▁recommend	-11.2046
▁seriousness	-11.2046
▁junior	-11.2046
▁volunteer	-11.2046
▁scream	-11.2046
▁TDP	-11.2047
▁forgotten	-11.2047
afar	-11.2051
▁royal	-11.2061
▁separation	-11.2061
▁Geetika	-11.2061
▁Vasant	-11.2061
▁martyrdom	-11.2062
▁reserve	-11.207
▁VVIP	-11.2076
▁Shaheed	-11.2077
▁conviction	-11.2078
▁Deshmukh	-11.2091
▁unnecessary	-11.2091
▁screw	-11.2091
▁Girl	-11.2091
▁Maurya	-11.2091
▁84	-11.2094
▁tape	-11.2097
01	-11.2098
▁Param	-11.2103
▁jihad	-11.2107
▁consumer	-11.2114
▁Traffic	-11.212
▁tricolor	-11.212
▁hiding	-11.212
▁grave	-11.2122
▁earned	-11.2123
▁Kher	-11.2132
▁Beijing	-11.2135
▁Shahnawaz	-11.2135
▁demolition	-11.2135
▁Rule	-11.2139
▁pull	-11.2141
▁homage	-11.215
▁statistics	-11.215
▁1995	-11.215
▁poisonous	-11.2151
▁Rangers	-11.2155
▁sight	-11.2157
▁CISF	-11.2164
▁conveyed	-11.2164
▁idol	-11.2165
▁quit	-11.2167
▁Mizoram	-11.2179
▁candidature	-11.2194
▁inquiries	-11.2194
▁Howrah	-11.2194
▁southern	-11.2194
▁violate	-11.2203
▁stalled	-11.2205
▁meat	-11.2206
▁Switzerland	-11.2209
▁celebrities	-11.2209
▁destination	-11.2209
▁mixed	-11.2209
▁stories	-11.2209
▁chain	-11.2214
▁reception	-11.2224
▁boundary	-11.2225
▁ASP	-11.2227
▁privilege	-11.2239
▁Sports	-11.2239
Tech	-11.2239
▁silver	-11.2254
▁Narasimha	-11.2254
▁sensational	-11.2257
▁Bhav	-11.2263
▁Together	-11.2269
▁slap	-11.2273
▁Namo	-11.2275
▁flaws	-11.2284
▁undergoing	-11.2284
▁Conduct	-11.2299
▁Sonu	-11.2305
▁Aarushi	-11.2314
▁confrontation	-11.2314
▁storage	-11.2314
▁David	-11.2314
▁blessings	-11.2329
▁adjoin	-11.2329
▁Bijnor	-11.2329
02	-11.2336
▁River	-11.2338
▁intruder	-11.2344
▁Travel	-11.2344
▁ammunition	-11.2359
▁John	-11.2359
▁select	-11.236
▁Murli	-11.2361
▁Dhaka	-11.2366
sufficient	-11.2374
▁finalized	-11.2378
▁praising	-11.2389
▁inquire	-11.2399
▁cattle	-11.2404
▁uncomfortable	-11.2404
▁Kabir	-11.2414
▁Nine	-11.2417
▁Bij	-11.2433
▁tampered	-11.2435
▁venue	-11.2435
▁Raghav	-11.2435
▁produced	-11.2449
▁telephone	-11.245
▁Gorkha	-11.245
▁defame	-11.2465
▁boyfriend	-11.2466
Jabu	-11.2466
▁African	-11.2467
▁German	-11.2469
▁Kulbhushan	-11.2481
▁Udhampur	-11.2481
▁offense	-11.2481
▁Kumbh	-11.2482
▁Banaras	-11.2496
third	-11.251
▁Aurangabad	-11.2511
▁Subramaniam	-11.2511
▁seizure	-11.2511
jee	-11.2525
▁smuggling	-11.2527
▁1992	-11.2527
▁Rifle	-11.2527
▁1971	-11.2527
▁diplomacy	-11.2527
▁invite	-11.2538
▁SAARC	-11.2542
▁imprisoned	-11.2542
▁combine	-11.2542
▁fallen	-11.2555
▁Capital	-11.2557
▁Alok	-11.2562
▁Tell	-11.2571
▁Calcutta	-11.2573
▁sacked	-11.2573
▁beauty	-11.2573
▁cloth	-11.2583
▁abduction	-11.2588
▁prestigious	-11.2588
▁Accus	-11.2588
▁discharged	-11.2588
▁Kohli	-11.2588
▁Japanese	-11.2588
▁tribe	-11.2588
▁chosen	-11.2596
▁Minal	-11.2597
▁transplant	-11.2604
ordinator	-11.2604
▁radar	-11.2611
▁surprising	-11.2619
▁Jundal	-11.2619
▁steal	-11.2619
▁Divya	-11.262
▁advise	-11.2631
▁inaugurate	-11.2633
▁pieces	-11.2635
▁demolished	-11.2648
▁planet	-11.2649
▁Mandir	-11.265
▁Bahujan	-11.265
▁afford	-11.265
▁Hall	-11.2652
▁extend	-11.2656
▁stopping	-11.2659
You	-11.2668
▁Mount	-11.2674
▁Darjeeling	-11.2682
▁Teacher	-11.2682
▁disturbance	-11.2683
▁gender	-11.2684
▁Rajkot	-11.2686
▁advisor	-11.2697
▁meanwhile	-11.2697
▁Imphal	-11.2697
▁Hemant	-11.27
▁Priya	-11.2709
▁cricketer	-11.271
Managing	-11.271
▁realize	-11.2712
▁dedicated	-11.2713
▁horse	-11.2713
▁Old	-11.2715
▁2016-17	-11.2729
▁Personal	-11.2729
▁Please	-11.2729
▁Rav	-11.2729
▁churn	-11.2729
▁negotiate	-11.2744
▁oxygen	-11.2744
▁Anurag	-11.2744
▁politician	-11.2746
▁Plant	-11.2758
▁formally	-11.2769
▁stable	-11.2781
▁clip	-11.2785
▁collided	-11.2791
▁occupation	-11.2791
▁prosecute	-11.2791
▁elect	-11.2794
▁Cup	-11.2805
▁Dargah	-11.2807
▁Marathi	-11.2807
▁Pathak	-11.2807
▁moral	-11.2815
▁drone	-11.2823
▁forensic	-11.2823
▁favorite	-11.2828
▁hang	-11.2829
▁Acquisition	-11.2839
▁Chautala	-11.2839
▁credibility	-11.2839
▁smooth	-11.2839
▁CMO	-11.2845
▁testimony	-11.2855
▁NRI	-11.2855
▁Hira	-11.2862
▁Anita	-11.2866
▁Brahmin	-11.2871
▁Saurabh	-11.2887
▁Ujjain	-11.2887
▁cultivation	-11.2887
▁propaganda	-11.2887
▁factories	-11.2887
▁Dwarka	-11.2887
▁anthem	-11.2887
▁joke	-11.2887
▁evacuated	-11.2895
▁continuation	-11.2903
▁intellectual	-11.2903
▁temporary	-11.2903
▁Mittal	-11.2903
▁Time	-11.2903
▁arrange	-11.2912
▁count	-11.2931
▁Peace	-11.2935
▁brutal	-11.2951
▁drunk	-11.2951
▁mortar	-11.2951
▁bitter	-11.2955
▁warship	-11.2957
▁Minority	-11.2967
▁Pension	-11.2967
▁awaiting	-11.2967
▁decreasing	-11.2967
▁prosecutor	-11.2967
▁Poonam	-11.2967
▁revised	-11.2967
▁Electricity	-11.2968
▁Amarinder	-11.2968
▁Tulsi	-11.2983
▁Pilot	-11.2983
▁1980	-11.299
When	-11.2998
▁Jaswant	-11.2999
▁mobilize	-11.2999
▁donated	-11.3
▁controlled	-11.3008
governmental	-11.3011
▁Togadia	-11.3015
▁Vidhan	-11.3015
▁CID	-11.3015
▁muscle	-11.3031
▁behest	-11.3032
▁concept	-11.3034
▁accountability	-11.3038
corruption	-11.3047
▁Digital	-11.3047
▁legislature	-11.3047
▁withdrew	-11.3047
▁ITBP	-11.3047
▁Demand	-11.3047
▁Area	-11.3052
▁Fatehpur	-11.3055
▁Narmada	-11.3064
▁dissolve	-11.3064
▁bull	-11.3071
▁Headquarters	-11.308
▁Kingfisher	-11.308
▁discount	-11.308
▁yield	-11.308
▁Hindutva	-11.308
▁treaty	-11.3086
▁broad	-11.3096
▁stadium	-11.3096
▁2015-16	-11.3096
▁Jogi	-11.31
▁Indonesia	-11.3112
▁exhibition	-11.3112
▁dump	-11.3112
▁Raza	-11.3117
ologist	-11.312
▁Surjewala	-11.3129
▁emerging	-11.3129
▁profile	-11.3129
▁church	-11.3129
▁midst	-11.3133
▁recognize	-11.3141
▁tehsil	-11.3145
▁Prince	-11.3145
ruled	-11.3146
▁Hav	-11.3158
▁rage	-11.316
▁Mirwaiz	-11.3161
▁dissatisfaction	-11.3161
▁jungle	-11.3161
▁length	-11.3161
▁opposite	-11.3161
▁jump	-11.3168
▁fever	-11.317
▁convince	-11.3174
▁Safety	-11.3178
▁Scindia	-11.3178
▁minus	-11.3178
▁DDA	-11.3178
▁solid	-11.3178
▁Notice	-11.3185
▁culprit	-11.3189
▁Bhattacharya	-11.3194
▁Buddhist	-11.3194
▁perspective	-11.3194
▁Stadium	-11.3211
▁fugitive	-11.3211
▁tractor	-11.3211
▁treasury	-11.3211
▁Ananth	-11.3211
▁350	-11.3214
bagh	-11.3222
▁Hour	-11.324
▁Correspondent	-11.3244
▁Balochistan	-11.3244
▁Dimple	-11.3244
▁Shahjahanpur	-11.3244
▁Lohia	-11.3244
▁blame	-11.3256
▁Gyan	-11.3256
▁Christ	-11.3259
▁Rohini	-11.326
▁Nadda	-11.326
▁representation	-11.3266
▁Agricultural	-11.3277
▁eligible	-11.3277
▁Samba	-11.3279
▁TRAI	-11.3293
▁Bazar	-11.3293
▁salute	-11.3293
▁cooperative	-11.3296
▁Muzaffarpur	-11.3296
▁suggest	-11.3297
▁Goswami	-11.331
▁Solanki	-11.331
▁Blue	-11.3311
▁RPF	-11.3318
▁NCTC	-11.3327
▁qualification	-11.3343
▁quarrel	-11.3343
▁queue	-11.3343
▁interrogate	-11.3356
▁considerable	-11.3357
▁Bhati	-11.3365
GST	-11.3371
▁circular	-11.3377
▁HIV	-11.3377
▁ratio	-11.3384
▁assassin	-11.3389
▁Pollution	-11.3393
▁reconsideration	-11.3397
▁Suraj	-11.3409
▁motivate	-11.341
03	-11.341
▁Change	-11.3412
terror	-11.3412
▁hawala	-11.3413
▁collective	-11.3413
lessness	-11.3432
▁awake	-11.3438
▁Keshubhai	-11.3444
▁pilgrimage	-11.3444
▁Prithviraj	-11.3461
▁greeted	-11.3461
▁Pooja	-11.3461
▁proceed	-11.3477
▁cycle	-11.3477
▁SBI	-11.3478
▁lab	-11.3483
▁load	-11.3488
▁Rah	-11.3491
RF	-11.3499
▁1,000	-11.3509
▁Nobody	-11.3511
▁diabetes	-11.3511
▁BJD	-11.3511
▁Husband	-11.3511
▁painting	-11.3521
▁morale	-11.3525
▁Vehicle	-11.3528
▁casualties	-11.3528
▁legislation	-11.3528
▁sequence	-11.3528
▁simultaneously	-11.3528
▁supplied	-11.3528
▁Kharge	-11.3531
▁counterpart	-11.3531
▁suitable	-11.3531
----------------	-11.3545
▁Secretaries	-11.3545
▁snake	-11.3545
▁wheel	-11.355
▁Bilaspur	-11.3562
▁Bukhari	-11.3562
▁Siddaramaiah	-11.3562
▁ADG	-11.3563
▁categories	-11.3579
▁cigarette	-11.3579
▁blaming	-11.3579
▁Honor	-11.358
State	-11.3583
storey	-11.3595
▁Call	-11.3597
▁Gonda	-11.3603
wood	-11.3606
▁Mathur	-11.361
Kashmir	-11.3617
▁audio	-11.3617
▁Expressway	-11.3619
▁Tibetan	-11.3622
▁Ham	-11.3629
▁grandfather	-11.3631
▁Gaurav	-11.3631
▁Jamia	-11.3639
Terrorism	-11.3648
▁Immediately	-11.3648
▁Vivekananda	-11.3648
▁Subrata	-11.3648
▁gap	-11.3662
▁neutral	-11.3665
▁cartoon	-11.3665
▁examining	-11.3665
▁stepped	-11.3669
▁Fateh	-11.3675
▁singing	-11.3685
▁Etawah	-11.37
▁fellow	-11.3703
▁graduate	-11.3717
▁Bhanwari	-11.3718
▁Order	-11.3719
▁Till	-11.3729
▁Administrative	-11.3734
▁connectivity	-11.3734
▁farewell	-11.3734
▁generate	-11.3734
ordinate	-11.3734
▁Rahman	-11.3737
▁repeat	-11.3743
▁Vishnu	-11.3752
▁background	-11.3752
▁hunt	-11.3752
▁forgive	-11.376
▁Insurance	-11.3769
▁plotting	-11.3774
Agency	-11.3791
▁Cricket	-11.3804
▁Yusuf	-11.3804
▁bunker	-11.3804
▁salaries	-11.3804
▁Motor	-11.3814
▁Saint	-11.382
▁Federation	-11.3821
▁Prajapati	-11.3821
▁comparison	-11.3821
▁fatal	-11.3821
▁Direct	-11.3833
▁automatic	-11.3838
▁underworld	-11.3839
▁Thailand	-11.3839
▁hydro	-11.3839
▁Heavy	-11.3839
▁Jagannath	-11.384
▁Camp	-11.3847
▁congratulate	-11.3854
▁Nawab	-11.3857
▁130	-11.3859
▁Pratapgarh	-11.3864
▁Thana	-11.3867
▁inaugura	-11.3868
▁Brazil	-11.3874
▁England	-11.3874
▁Ganguly	-11.3874
▁blind	-11.3874
▁Kannauj	-11.3892
▁IAF	-11.3892
▁encroachment	-11.3894
▁Giriraj	-11.3894
▁inspection	-11.3895
▁Surya	-11.3904
▁require	-11.3904
▁semi	-11.3906
▁stringent	-11.3909
▁paddy	-11.3909
▁Nashik	-11.3909
▁coins	-11.3912
▁Help	-11.3914
▁Sultanpur	-11.3922
▁transit	-11.3924
▁constitute	-11.3924
▁calculat	-11.3927
▁corpse	-11.3927
▁NDRF	-11.3927
▁empowerment	-11.3929
▁retain	-11.3944
▁Ashwani	-11.3945
▁LJP	-11.3945
▁Memon	-11.3951
▁1989	-11.3962
▁donor	-11.3963
▁acceptance	-11.3973
troller	-11.398
▁accord	-11.3991
▁Gulf	-11.3995
▁Tahrir	-11.3998
▁Bajrang	-11.3998
▁cousin	-11.3998
▁wounds	-11.3998
▁framework	-11.3998
▁hideout	-11.3999
▁Young	-11.4005
▁slave	-11.4012
▁Radhakrishnan	-11.4016
▁placing	-11.4016
▁Journal	-11.4016
▁Club	-11.4016
▁instruct	-11.4026
▁Nirbhaya	-11.4034
▁caution	-11.4034
▁grief	-11.4034
▁pillar	-11.4034
▁allotted	-11.4034
▁Light	-11.4043
▁scholar	-11.4051
▁Backward	-11.4052
▁significance	-11.4052
▁1962	-11.4052
▁grew	-11.4052
▁disposal	-11.4058
▁tight	-11.4069
▁Khemka	-11.4069
▁logic	-11.4077
What	-11.4081
▁confused	-11.4087
▁Preparation	-11.4105
▁Siachen	-11.4105
▁indefinite	-11.4105
▁Mainpuri	-11.4105
▁Kuldeep	-11.4106
▁shape	-11.4107
IANS	-11.4112
▁Ground	-11.4114
▁ballot	-11.4123
▁encouraging	-11.4123
▁receipt	-11.4123
▁Golden	-11.4123
▁frustrated	-11.4141
▁Patanjali	-11.4141
▁Squad	-11.4141
▁brick	-11.4142
▁Dinakaran	-11.416
▁Praveen	-11.416
▁Number	-11.416
▁Airways	-11.416
▁Sunita	-11.4163
Delhi	-11.4167
▁hatred	-11.4178
▁gather	-11.4182
▁luggage	-11.4196
▁straight	-11.4196
▁burst	-11.4196
▁net	-11.4199
▁Tehri	-11.4214
force	-11.423
▁Collegium	-11.4232
▁Kathua	-11.4232
▁Unnao	-11.4232
▁NASA	-11.425
▁Srivastava	-11.425
▁Jamaat	-11.4251
▁yatra	-11.4251
aritime	-11.4259
▁refund	-11.4269
▁Whenever	-11.4276
▁frame	-11.4279
▁cashless	-11.4281
▁Virat	-11.4285
▁schedule	-11.4285
▁Clearly	-11.4287
▁myself	-11.4287
▁persuade	-11.4287
▁trick	-11.4287
▁Mauritius	-11.4305
▁excessive	-11.4305
▁convene	-11.4314
▁identification	-11.4324
▁Pushkar	-11.4324
▁displaced	-11.4324
▁Swachh	-11.4324
▁disperse	-11.4324
▁DCP	-11.4324
▁Tejas	-11.4324
▁1994	-11.4329
▁Point	-11.4344
▁Puja	-11.4351
▁chose	-11.4352
▁actual	-11.4352
▁Rohatgi	-11.4361
Neelu	-11.4363
▁describing	-11.4379
▁Island	-11.4383
▁surround	-11.4385
▁NSA	-11.4387
NCP	-11.4388
▁disclose	-11.4396
▁Telugu	-11.4398
▁cartridges	-11.4398
▁guise	-11.4398
▁heavily	-11.4398
▁indirect	-11.4404
▁pile	-11.4404
▁Representative	-11.4416
▁Subramanian	-11.4416
▁audience	-11.4416
▁incorrect	-11.4416
▁reflect	-11.4416
▁criticizing	-11.4417
▁instance	-11.4417
▁Chatterjee	-11.4435
▁excavation	-11.4435
▁Maggi	-11.4435
▁Srinivas	-11.4453
▁stronghold	-11.4453
▁greed	-11.4454
▁bound	-11.446
▁substance	-11.4472
▁mastermind	-11.4472
▁Sopore	-11.4472
either	-11.4475
▁destruction	-11.4491
▁explanation	-11.4491
▁version	-11.4491
▁disabled	-11.4491
▁Bandra	-11.4491
▁evil	-11.4491
▁mall	-11.45
▁vigilance	-11.451
where	-11.4515
▁obvious	-11.4528
▁Panda	-11.4531
▁Godhra	-11.4531
▁Shobha	-11.4532
▁conferencing	-11.4547
▁prescribed	-11.4547
▁ransom	-11.4547
▁swing	-11.4547
▁Munda	-11.4564
▁practical	-11.4566
▁harmful	-11.457
▁communalism	-11.4572
▁reconsider	-11.4581
▁Irfan	-11.4585
▁Sayeed	-11.4585
▁entitled	-11.4585
▁prospect	-11.4585
▁HRD	-11.4585
▁enemies	-11.4604
▁massive	-11.4608
▁Construction	-11.4623
▁Vietnam	-11.4623
▁prevail	-11.4623
▁fortnight	-11.4642
▁Jaunpur	-11.4642
▁critic	-11.4644
two	-11.4651
▁Relations	-11.4652
Muslim	-11.4652
▁pattern	-11.4661
▁possibilities	-11.4661
▁Hemraj	-11.4661
▁Present	-11.4661
▁exploitation	-11.4666
vardhan	-11.4668
▁lamp	-11.467
▁chairperson	-11.468
▁colonies	-11.468
▁secularism	-11.4682
▁devastation	-11.4699
▁Shivsena	-11.4699
▁Town	-11.4699
▁Darshan	-11.47
▁operate	-11.4717
▁accurate	-11.4718
▁shouted	-11.4718
▁imposing	-11.4718
▁Kurien	-11.4718
▁Mehra	-11.4725
▁Phul	-11.4728
▁Amrit	-11.473
▁resolving	-11.4737
▁measure	-11.4745
▁lunch	-11.4756
▁federal	-11.4756
▁lodging	-11.4756
▁convict	-11.4775
▁integrity	-11.4775
▁misbehaving	-11.4775
▁bright	-11.4775
▁junk	-11.4775
burg	-11.4776
▁merge	-11.4785
▁roam	-11.4811
▁brave	-11.4812
▁Barabanki	-11.4814
▁autonomy	-11.4814
▁enhance	-11.4814
▁explore	-11.4814
▁mourn	-11.4815
▁grandson	-11.4815
▁donate	-11.4832
▁sedition	-11.4833
▁thieves	-11.4833
▁Gangotri	-11.4853
▁abortion	-11.4853
▁furious	-11.4853
▁MBBS	-11.4872
▁hijack	-11.4872
▁1977	-11.4872
▁Bofors	-11.4872
▁relieved	-11.4872
▁shameful	-11.4873
▁darkness	-11.4875
▁relevant	-11.4892
▁intensity	-11.4892
▁JMM	-11.4892
▁Voting	-11.4892
▁Tehsil	-11.4911
▁rebellion	-11.4911
▁Goddess	-11.4911
▁Smart	-11.4911
▁Megh	-11.4938
▁AgustaWestland	-11.495
▁Candidate	-11.497
▁Communist	-11.497
▁Laxman	-11.497
▁definition	-11.497
▁facilitate	-11.497
▁Culture	-11.497
▁poem	-11.497
▁suburb	-11.4971
▁impossible	-11.4989
▁harvest	-11.4989
▁Angry	-11.4989
▁Kirti	-11.499
▁Sadanand	-11.4991
▁object	-11.4998
▁Bahraich	-11.5009
▁Liberation	-11.5009
▁analyst	-11.5009
▁misbehave	-11.5009
▁routine	-11.5009
▁sworn	-11.5009
▁petroleum	-11.5009
▁YSR	-11.5009
▁Marshal	-11.501
▁Umesh	-11.5018
▁disturb	-11.5021
▁argue	-11.5028
▁Vaishno	-11.5029
▁deteriorating	-11.5029
▁distributing	-11.5029
▁partition	-11.5029
▁deploy	-11.504
▁Student	-11.5044
▁Nuclear	-11.5049
▁saffron	-11.5049
▁scholarship	-11.5049
▁refuge	-11.5063
▁Jamshedpur	-11.5068
▁freight	-11.5068
▁kitchen	-11.5068
▁regulation	-11.5068
▁Lodha	-11.5076
▁Chandrababu	-11.5088
▁Employees	-11.5088
▁eclipse	-11.5088
▁influential	-11.5088
▁maternal	-11.5088
▁2017-18	-11.5088
▁sweat	-11.5088
▁addiction	-11.509
▁Raksha	-11.51
▁announcing	-11.5108
▁quantity	-11.5108
▁scrutiny	-11.5108
▁Ambika	-11.5108
▁sample	-11.5125
▁Answer	-11.5128
▁Employment	-11.5128
▁default	-11.5128
▁contrary	-11.5128
▁Constable	-11.5128
▁closing	-11.5148
▁goodwill	-11.5148
▁Benaras	-11.5148
▁Akhara	-11.5148
▁flame	-11.5149
▁bribery	-11.5156
▁sensation	-11.5164
▁Bhagalpur	-11.5168
▁lecture	-11.5168
▁Aadhar	-11.5168
▁melt	-11.5179
▁Chadha	-11.5187
▁extensive	-11.5188
▁Parvez	-11.5188
▁Andaman	-11.5188
▁Tribes	-11.5188
▁modernization	-11.5191
rtificial	-11.5208
▁Malegaon	-11.5208
▁Bhandari	-11.5208
▁Yogesh	-11.5208
▁frequent	-11.5228
▁packet	-11.5228
▁taxpayers	-11.5228
▁Mobile	-11.5228
▁prompt	-11.5228
▁update	-11.5235
▁Saxena	-11.5248
▁Consul	-11.5249
▁disorder	-11.5269
▁livelihood	-11.5269
▁boundaries	-11.5269
▁Open	-11.5274
▁depart	-11.5286
▁desert	-11.5289
▁Northeast	-11.5298
▁yourself	-11.5309
pathy	-11.5317
▁Cyber	-11.533
▁tainted	-11.533
▁defendant	-11.5333
▁George	-11.535
▁Meenakshi	-11.535
▁reshuffle	-11.535
▁UAE	-11.535
▁carbon	-11.535
▁Chopra	-11.5351
▁potato	-11.537
aternity	-11.537
▁Firoz	-11.537
▁vacate	-11.537
▁bypass	-11.5371
▁Interpol	-11.5391
▁client	-11.5391
▁Anupam	-11.5391
▁overall	-11.5391
▁mask	-11.5391
▁forefront	-11.5411
▁Feroz	-11.5411
▁jeep	-11.5411
▁Meera	-11.5415
▁Rajdhani	-11.5432
▁injustice	-11.5432
▁Criminal	-11.5432
▁Palace	-11.5432
▁Church	-11.5432
▁tube	-11.5452
▁setback	-11.5455
AFSPA	-11.5473
▁navy	-11.5473
▁fault	-11.5473
▁Dhawan	-11.5475
▁polluted	-11.5494
▁rites	-11.5494
▁mountainous	-11.5497
▁vegetable	-11.5498
▁Support	-11.5514
▁twelve	-11.5514
▁vaccine	-11.5514
▁Dhanbad	-11.5514
▁Sridevi	-11.5514
▁approve	-11.5515
▁Saroj	-11.5515
▁Geo	-11.5527
▁Shree	-11.5535
▁Keshav	-11.5535
▁anymore	-11.5535
▁combat	-11.5535
▁releasing	-11.5556
▁1947	-11.5556
▁Khalid	-11.5556
▁unrest	-11.5558
▁Spokesperson	-11.5577
▁premium	-11.5577
▁Begum	-11.5577
▁Saket	-11.5579
▁Revolution	-11.5598
▁census	-11.5598
▁luxury	-11.5598
▁Sikri	-11.5598
▁verification	-11.5598
▁Kulgam	-11.5598
▁Aiyar	-11.5598
▁Stalin	-11.5601
▁tune	-11.5604
▁Darbhanga	-11.5618
▁Mallikarjun	-11.5618
▁Sameer	-11.5621
▁emphasiz	-11.5634
▁Waqf	-11.5639
▁buffalo	-11.5639
▁Bridge	-11.5639
▁Uttarkashi	-11.5639
▁excise	-11.5639
▁Teesta	-11.5639
▁pledge	-11.564
▁Admiral	-11.566
▁intersection	-11.566
▁reputation	-11.566
▁2014-15	-11.566
▁absent	-11.566
▁philosophy	-11.5681
▁hoisted	-11.5682
▁Laxmikant	-11.5682
▁shame	-11.5683
▁formalities	-11.5683
▁summon	-11.5685
▁Marriage	-11.5703
▁Kutch	-11.5703
▁Abhay	-11.5703
▁------	-11.5724
▁individual	-11.5724
▁Mysore	-11.5724
▁intense	-11.5724
National	-11.5743
▁skin	-11.5745
▁authorized	-11.5746
▁Hazrat	-11.5766
▁eleven	-11.5766
volving	-11.5787
▁Gajendra	-11.5787
▁bottom	-11.5787
▁parole	-11.5787
▁Kalmadi	-11.5787
shirt	-11.5791
▁Initially	-11.5809
▁Rafael	-11.5809
▁Visakhapatnam	-11.5809
▁atrocities	-11.5809
▁strategist	-11.5809
▁Herald	-11.5809
▁DGCA	-11.581
▁extinguish	-11.583
▁attorney	-11.583
▁wild	-11.583
▁seize	-11.5833
class	-11.5851
▁Malhotra	-11.5852
▁Venugopal	-11.5852
▁White	-11.5852
▁obligation	-11.5873
▁tribunal	-11.5873
▁unauthorized	-11.5873
▁workshop	-11.5873
▁APJ	-11.5873
▁Anyway	-11.5874
▁interrogating	-11.5894
▁reiterated	-11.5894
▁sword	-11.5894
▁Moily	-11.5895
▁Chamoli	-11.5896
▁Building	-11.5916
▁beneficiaries	-11.5916
▁evasion	-11.5916
▁franchise	-11.5916
▁memories	-11.5916
▁Badayun	-11.5916
▁Pvt	-11.5916
▁Indigo	-11.5916
▁Ankit	-11.5928
▁Jawahar	-11.5937
selvam	-11.5938
▁Ajmal	-11.5938
▁ICU	-11.5938
▁managing	-11.5938
▁forgiveness	-11.594
▁kerosene	-11.5959
▁submerged	-11.5959
▁chamber	-11.5959
▁vocal	-11.5959
▁smile	-11.596
▁Babbar	-11.5961
▁Laxmi	-11.5981
▁Kathmandu	-11.5981
▁dengue	-11.5981
▁Nayak	-11.5981
▁shopping	-11.5983
▁Afghan	-11.6003
▁Satyendra	-11.6003
▁marine	-11.6003
▁ignore	-11.6004
▁encroach	-11.6022
▁Bhagwan	-11.6025
▁Sky	-11.6025
▁ASEAN	-11.6046
▁auspicious	-11.6046
▁Raut	-11.6046
▁Ambala	-11.6047
▁weigh	-11.6064
▁Narayanasamy	-11.6068
▁defecation	-11.6068
▁hoarding	-11.6068
servicemen	-11.6089
Author	-11.609
commerce	-11.609
▁Concern	-11.6112
▁borrow	-11.6112
▁barrier	-11.6112
▁Swayamsevak	-11.6134
▁crucial	-11.6134
▁mirror	-11.6134
▁rigging	-11.6134
▁charging	-11.6134
▁legend	-11.6135
▁fashion	-11.6156
▁Gujjar	-11.6178
▁Hamirpur	-11.6178
▁Laundering	-11.6178
▁Animal	-11.6178
▁bravery	-11.618
▁colleague	-11.6198
▁SEBI	-11.6201
▁sympathy	-11.6201
▁waiver	-11.6201
▁clinic	-11.6201
▁Natarajan	-11.6223
▁Pahalgam	-11.6223
▁Thomas	-11.6223
▁malnutrition	-11.6223
▁provoke	-11.6223
▁supplement	-11.6223
▁Sukhoi	-11.6223
▁retire	-11.6245
▁Kannada	-11.6245
▁eager	-11.6245
▁postpone	-11.6247
▁Ahluwalia	-11.6267
▁Udaipur	-11.6267
▁havoc	-11.6267
▁reference	-11.6267
daughter	-11.6269
▁Increasing	-11.629
▁perhaps	-11.629
▁preliminary	-11.629
▁alarm	-11.6292
▁activism	-11.6312
▁consistently	-11.6312
▁palace	-11.6312
▁Sudip	-11.6313
▁sunlight	-11.6314
▁descend	-11.6335
▁Monsoon	-11.6335
▁Deoria	-11.6335
▁Gomti	-11.6335
▁Randeep	-11.6336
▁shortcomings	-11.6357
▁Gurdaspur	-11.638
▁depression	-11.638
▁effigy	-11.638
▁Maratha	-11.638
▁Small	-11.638
▁Hasina	-11.6382
▁Corridor	-11.6402
▁scattered	-11.6402
▁treason	-11.6402
▁Prison	-11.6402
▁Tandon	-11.6402
▁recall	-11.6403
▁Chandrachud	-11.6425
▁Effort	-11.6425
▁Bhullar	-11.6425
▁prince	-11.6425
friend	-11.6425
Mohammed	-11.6428
▁knee	-11.6428
▁flew	-11.6448
Mumbai	-11.6451
▁northeast	-11.6452
▁Bhujbal	-11.647
▁League	-11.647
▁bureaucracy	-11.647
▁swine	-11.6471
▁Panipat	-11.6471
▁remind	-11.6471
▁Sukhdev	-11.6472
After	-11.6474
▁dispos	-11.6485
▁advocating	-11.6493
▁satisfaction	-11.6493
▁Arora	-11.6494
▁horrific	-11.6516
▁stunned	-11.6516
▁club	-11.6516
▁acquir	-11.6536
▁Companies	-11.6539
▁infamous	-11.6539
▁intrusion	-11.6539
town	-11.6547
▁consume	-11.6555
▁Nizam	-11.6562
▁Farrukhabad	-11.6562
▁widespread	-11.6562
▁bread	-11.6562
▁introduce	-11.6565
▁module	-11.6585
▁Osama	-11.6585
▁Satellite	-11.6608
▁mathematics	-11.6608
▁convenor	-11.6608
▁Olympic	-11.6631
▁Sabarmati	-11.6631
▁eyewitness	-11.6631
▁grandmother	-11.6631
▁vacancies	-11.6631
▁curtain	-11.6631
▁insisted	-11.6632
▁Rajeev	-11.6632
▁Associate	-11.6655
▁Himalayan	-11.6655
▁catering	-11.6655
▁Regiment	-11.6655
▁automatically	-11.6656
▁Yemen	-11.6678
▁moderate	-11.6678
▁Neerav	-11.6678
▁Rehman	-11.6678
▁Hegde	-11.6678
▁Nizamuddin	-11.6678
▁Citizen	-11.6701
▁Dantewada	-11.6701
▁Financial	-11.6701
▁fatwa	-11.6701
▁reservoir	-11.6701
▁pipeline	-11.6702
▁Technical	-11.6725
▁frustration	-11.6725
▁Hussein	-11.6725
▁Aarti	-11.6725
▁Increase	-11.6748
▁economist	-11.6748
▁Bikram	-11.6748
▁thick	-11.6748
▁journal	-11.6761
▁naxal	-11.6771
▁accompany	-11.6771
▁ocean	-11.6771
▁Electronic	-11.6795
▁desperate	-11.6795
▁preference	-11.6795
▁airbase	-11.6795
▁Finally	-11.6795
▁Elector	-11.6819
▁salt	-11.682
▁Challenge	-11.6842
▁Gaikwad	-11.6842
▁chapter	-11.6842
▁margin	-11.6861
nefarious	-11.6866
▁conspirator	-11.6866
▁pregnancy	-11.6866
narendramodi	-11.6866
▁Siddhi	-11.6866
▁click	-11.6866
▁joy	-11.6866
CBI	-11.6872
▁empower	-11.6887
▁obscene	-11.689
▁radical	-11.689
▁depth	-11.689
▁Meeting	-11.689
▁Veerappa	-11.689
▁AIDS	-11.6913
▁Kishtwar	-11.6913
▁Kulkarni	-11.6913
▁Nainital	-11.6913
▁Vaidya	-11.6913
▁rope	-11.6914
▁brokerage	-11.6937
▁fireworks	-11.6937
▁Gopinath	-11.6961
▁intensified	-11.6961
▁distribute	-11.6965
▁Rishikesh	-11.6985
▁Safdarjung	-11.6985
▁solidarity	-11.6985
▁BHU	-11.6985
▁Nirupam	-11.6985
▁Auto	-11.699
▁belt	-11.6991
▁Saurashtra	-11.7009
▁Street	-11.7009
▁float	-11.701
▁----------	-11.7033
▁Salahuddin	-11.7033
▁Mandsaur	-11.7058
▁hungry	-11.7058
▁monkey	-11.7058
▁television	-11.7058
▁forecast	-11.7058
▁Rajpath	-11.7062
▁Task	-11.7078
Progressive	-11.7082
▁Ghazipur	-11.7082
▁Juvenile	-11.7082
▁espionage	-11.7082
▁molestation	-11.7082
▁mosquito	-11.7082
▁satisfactory	-11.7082
▁Samiti	-11.7082
▁spared	-11.7082
▁Earthquake	-11.7106
▁Bipin	-11.7106
▁pleasant	-11.7106
related	-11.7114
▁migrant	-11.713
▁Meira	-11.7131
▁infant	-11.7139
▁Bijapur	-11.7155
▁sewer	-11.7155
▁Rudraprayag	-11.7179
▁decorated	-11.7179
▁accuse	-11.7183
▁Sohrabuddin	-11.7204
▁Studies	-11.7204
▁banquet	-11.7204
▁suspend	-11.7227
▁Bhupinder	-11.7228
▁dragged	-11.7228
▁Turkey	-11.7228
▁deadlock	-11.7228
▁Everest	-11.7228
▁tongue	-11.7228
▁trail	-11.7229
you	-11.7235
▁Violence	-11.7253
▁merchant	-11.7253
▁football	-11.7253
▁dharna	-11.7253
▁Short	-11.7278
▁Parents	-11.7278
▁Bikaner	-11.7302
▁declining	-11.7302
▁Mohalla	-11.7302
▁Nigeria	-11.7302
▁dollar	-11.7323
▁Attempt	-11.7327
▁Pilibhit	-11.7327
▁Kashyap	-11.7352
▁anonymity	-11.7352
▁fond	-11.7352
▁patron	-11.7352
▁Rafi	-11.7352
government	-11.7353
▁curriculum	-11.7377
▁feedback	-11.7377
▁frozen	-11.7377
▁impression	-11.7377
▁strategies	-11.7377
▁cotton	-11.7377
▁rose	-11.7378
wheeler	-11.7395
▁surge	-11.7401
▁Champaran	-11.7402
▁coincidence	-11.7402
▁outskirts	-11.7402
▁Continu	-11.7402
▁robbed	-11.7402
▁Madurai	-11.7427
▁avalanche	-11.7427
▁Nobel	-11.7427
▁cremation	-11.7452
▁integral	-11.7452
▁venture	-11.7452
▁misusing	-11.7452
▁roti	-11.7453
▁Place	-11.7477
▁jet	-11.7479
▁replied	-11.7503
▁Angered	-11.7503
▁hurry	-11.7503
▁Harshvardhan	-11.7503
▁pipe	-11.7505
▁Deepawali	-11.7528
▁unexpected	-11.7528
▁repeal	-11.7528
▁agitators	-11.7553
▁criteria	-11.7553
▁Result	-11.7553
▁contender	-11.7553
▁restoration	-11.7553
▁Aircel	-11.7553
▁pursue	-11.7553
▁PSLV	-11.7579
▁collegium	-11.7579
▁Anandiben	-11.7604
▁Otherwise	-11.7604
▁Vidarbha	-11.7604
▁battling	-11.7604
▁fool	-11.7604
▁unaware	-11.7604
bearer	-11.7614
▁Brahmaputra	-11.763
▁reconciliation	-11.763
▁derailed	-11.7655
▁unprecedented	-11.7655
Bharat	-11.7668
▁Vrindavan	-11.7681
rchaeological	-11.7707
▁survivor	-11.7707
▁download	-11.7707
▁Tagore	-11.7707
▁allotment	-11.7707
▁Sometimes	-11.7733
▁glory	-11.7759
▁ethnic	-11.7759
▁crown	-11.7759
▁Vardhan	-11.7759
prasad	-11.7759
▁headquarter	-11.7764
▁renown	-11.7785
▁paise	-11.7785
▁canteen	-11.7785
Srinagar	-11.7798
▁accommodation	-11.7811
▁glacier	-11.7811
▁insistence	-11.7811
▁superstar	-11.7811
▁Brigade	-11.7837
▁Irrigation	-11.7837
▁dargah	-11.7837
▁detention	-11.7837
▁mysterious	-11.7837
▁turmoil	-11.7837
▁Awadh	-11.7838
▁beggar	-11.7838
▁strip	-11.7843
Bihar	-11.7851
Regulatory	-11.7863
troducing	-11.7863
▁Promotion	-11.7863
▁compliance	-11.7863
▁pesticide	-11.7863
▁somehow	-11.7863
▁Latur	-11.7863
▁Bhind	-11.7866
Rahul	-11.7877
▁Chandrashekhar	-11.7889
▁Maldives	-11.7889
▁supervisor	-11.7889
▁centuries	-11.7889
▁Heritage	-11.7889
▁revive	-11.789
▁Treaty	-11.7916
▁helmet	-11.7916
▁Claim	-11.7916
▁amenities	-11.7916
▁repay	-11.7916
▁Decision	-11.7942
▁Politics	-11.7942
▁Tipu	-11.7942
▁rebuke	-11.7942
▁Vipin	-11.7942
▁retreat	-11.7942
▁arson	-11.7943
foot	-11.796
▁http	-11.7968
▁struck	-11.7968
▁Suhag	-11.7969
▁trace	-11.7969
General	-11.7983
▁Panchkula	-11.7995
▁Sharmila	-11.7995
▁Vaishali	-11.7995
▁blanket	-11.7995
▁decisive	-11.7995
▁oppression	-11.7995
▁wives	-11.7995
▁Mahbub	-11.7996
▁Seemandhra	-11.8022
▁gratitude	-11.8022
▁smartphone	-11.8022
▁Sartaj	-11.8022
▁nominee	-11.8022
▁patience	-11.8022
field	-11.8036
▁Investment	-11.8048
▁Registrar	-11.8048
▁dispatched	-11.8048
▁composition	-11.8048
▁devotee	-11.8059
▁Apollo	-11.8075
▁disappointment	-11.8075
▁1987	-11.8075
▁forgot	-11.8075
social	-11.809
▁Ayurveda	-11.8102
▁conspired	-11.8102
▁legacy	-11.8102
▁liberal	-11.8102
▁sanitation	-11.8102
▁Egypt	-11.8102
▁Vohra	-11.8102
▁okay	-11.8102
▁Kamlesh	-11.8102
▁clarification	-11.8129
▁extremist	-11.8129
▁sensitivity	-11.8129
▁relie	-11.8138
▁Muzaffar	-11.8149
▁Gurmeet	-11.8156
▁architect	-11.8156
▁drowning	-11.8156
▁Excise	-11.8156
▁diagnos	-11.8183
▁stroke	-11.8183
▁particle	-11.8183
▁Dhananjay	-11.821
▁Lakhimpur	-11.821
▁uninterrupted	-11.821
▁BCCI	-11.821
political	-11.8226
▁apprehension	-11.8237
▁constituent	-11.8237
▁imagine	-11.8237
▁provocative	-11.8237
▁shook	-11.8237
▁Musharraf	-11.8237
▁behave	-11.8243
▁Region	-11.8256
▁quintal	-11.8264
▁Shaikh	-11.8264
▁Ramzan	-11.8264
inspector	-11.8281
▁addict	-11.8289
▁Standard	-11.8291
▁fabric	-11.8291
▁thorough	-11.8291
▁hub	-11.8294
▁calendar	-11.8319
▁disciple	-11.8319
▁boost	-11.8319
Maxis	-11.8319
▁cooperating	-11.8346
▁Museum	-11.8346
▁revelation	-11.8346
▁untimely	-11.8346
▁Nariman	-11.8346
▁lung	-11.8347
▁Product	-11.8348
▁authentic	-11.8374
▁proportion	-11.8374
▁Swaroop	-11.8374
▁circuit	-11.8374
▁column	-11.8374
▁confessed	-11.8374
▁Malviya	-11.8374
▁sacred	-11.8374
▁Skill	-11.8374
▁Habib	-11.8374
▁Kaveri	-11.8402
▁Bharadwaj	-11.8429
▁Deendayal	-11.8429
▁Discussion	-11.8429
▁Kushinagar	-11.8429
▁embrace	-11.8429
▁forehead	-11.8429
▁trolley	-11.8429
▁reacted	-11.8429
▁Organiz	-11.8453
▁communicate	-11.8457
▁disqualified	-11.8457
▁centenary	-11.8457
▁Thakre	-11.8457
sponsored	-11.8485
▁exploring	-11.8485
▁warehouse	-11.8485
▁YouTube	-11.8485
▁literacy	-11.8485
Eastern	-11.8503
▁achieving	-11.8513
▁Panneerselvam	-11.8513
▁overturned	-11.8513
▁Bathinda	-11.8541
▁ambition	-11.8541
▁entertainment	-11.8541
▁womb	-11.8541
▁Maulvi	-11.8541
▁Ramayana	-11.8541
▁Dattatreya	-11.8569
▁calamity	-11.8569
▁collusion	-11.8569
▁vicious	-11.8569
▁millionaire	-11.8569
▁Bhaskar	-11.8569
▁Hizb	-11.8573
▁relat	-11.8592
ticipatory	-11.8597
▁landlord	-11.8597
▁copies	-11.8597
Rajkishore	-11.8625
▁BSNL	-11.8625
▁Shiromani	-11.8625
▁eldest	-11.8625
▁Dattu	-11.8625
Padmavat	-11.8647
▁Factory	-11.8654
▁advertising	-11.8654
▁enhancing	-11.8654
▁geographical	-11.8654
▁penalties	-11.8654
▁terminal	-11.8654
▁heinous	-11.8654
▁ULFA	-11.8682
▁analysis	-11.8682
▁cruise	-11.8682
▁nursing	-11.8682
▁producing	-11.8682
▁provoking	-11.8682
▁2012-13	-11.8682
▁DLF	-11.8682
▁Ashraf	-11.8682
▁bounce	-11.871
▁Navnirman	-11.871
▁metropolis	-11.871
▁injection	-11.8711
▁Khadse	-11.8711
Hindu	-11.8731
▁Exchange	-11.8739
▁glance	-11.8739
▁Janmabhoomi	-11.8768
▁Resident	-11.8768
▁Pillai	-11.8768
▁everybody	-11.8796
▁Monitoring	-11.8825
▁ancestral	-11.8825
▁vendor	-11.8825
▁thief	-11.8825
▁interpret	-11.8825
▁Ayush	-11.8826
▁Suddenly	-11.8854
▁dimension	-11.8854
▁nowadays	-11.8854
▁Pushpa	-11.8854
▁Daughter	-11.8883
▁Purohit	-11.8883
▁barracks	-11.8883
▁illusion	-11.8883
▁irresponsible	-11.8883
▁arbitrary	-11.8912
▁orphan	-11.8912
▁Large	-11.8912
▁fame	-11.8913
▁Jaisalmer	-11.8941
▁Jyotiraditya	-11.8941
▁counterfeit	-11.8941
▁foiled	-11.8941
▁trading	-11.8941
▁Gurjar	-11.8941
▁Rape	-11.8942
reliant	-11.8943
▁fragile	-11.8971
▁hindrance	-11.8971
▁Sajid	-11.8971
▁attachment	-11.9
▁engagement	-11.9
▁harassed	-11.9
▁jacket	-11.9
▁supposed	-11.9
▁gross	-11.9
▁subsidized	-11.9029
▁Amroha	-11.9029
▁Rushdie	-11.9029
▁Tariq	-11.9029
▁Prabhat	-11.9029
▁Pragya	-11.9029
▁administered	-11.9059
▁disappointing	-11.9059
▁excitement	-11.9059
▁uncontrollable	-11.9059
▁clerk	-11.9059
▁Brother	-11.9059
▁Tehelka	-11.9088
▁bogus	-11.9088
▁cultivate	-11.9088
▁airplane	-11.9118
▁library	-11.9118
▁2013-14	-11.9118
▁Strike	-11.9118
▁Vikramaditya	-11.9148
▁battery	-11.9148
▁excellent	-11.9148
▁Complex	-11.9148
▁sensor	-11.9148
▁drill	-11.9148
▁Cooperation	-11.9178
▁amazing	-11.9178
▁Price	-11.9178
▁acquit	-11.9206
▁grievance	-11.9208
▁implicate	-11.9208
▁Prize	-11.9208
▁Shetty	-11.9208
▁Atomic	-11.9208
Narendra	-11.9233
▁Convention	-11.9238
▁Jinnah	-11.9238
▁Shailendra	-11.9238
▁tragic	-11.9238
▁Binny	-11.9238
▁Strict	-11.9238
▁Southern	-11.9238
▁companion	-11.9246
CBDT	-11.9268
▁scooter	-11.9268
▁Great	-11.9288
Mohammad	-11.9293
▁component	-11.9298
▁inadequate	-11.9298
▁overwhelmed	-11.9298
▁Riyaz	-11.9298
▁carriage	-11.9298
SGPC	-11.9299
▁Chhatrapati	-11.9328
▁Doordarshan	-11.9328
▁Kanimori	-11.9328
▁altitude	-11.9328
▁ethics	-11.9328
▁fraudulent	-11.9328
▁physician	-11.9328
▁Anushka	-11.9328
▁underground	-11.9328
murthy	-11.9328
▁Maderna	-11.9328
▁Janardhan	-11.9328
▁Preeti	-11.9329
▁demolish	-11.9333
▁taste	-11.9335
▁Purvanchal	-11.9359
▁Sahitya	-11.9359
▁biometric	-11.9359
▁grabbed	-11.9359
▁Richter	-11.9359
▁revolt	-11.9359
▁Confirm	-11.9359
▁Azmi	-11.9359
▁vacation	-11.9359
▁spark	-11.9359
▁Coimbatore	-11.9389
▁Instructions	-11.9389
▁parallel	-11.9389
▁Avinash	-11.9389
▁Neelam	-11.9389
▁impressed	-11.942
▁Anuj	-11.9441
▁schoolgirl	-11.945
▁voluntary	-11.945
▁Natural	-11.945
▁CJI	-11.9451
▁Badaun	-11.9451
▁blew	-11.9451
▁Integrated	-11.9481
▁Rajinikanth	-11.9481
▁embarrassing	-11.9481
▁Sawant	-11.9481
▁Important	-11.9512
▁familiar	-11.9512
▁1951	-11.9512
▁Baloch	-11.9512
▁Namdhari	-11.9543
▁Philippines	-11.9543
▁Sajjad	-11.9543
▁instrument	-11.9543
▁unmanned	-11.9543
▁occupy	-11.9543
▁pandey	-11.9543
▁Valmiki	-11.9574
▁dynasty	-11.9574
▁goddess	-11.9574
▁variety	-11.9574
▁Editor	-11.9574
▁Renuka	-11.9574
▁Devyani	-11.9574
Jammu	-11.9603
▁embassy	-11.9605
▁infected	-11.9605
▁uncertainty	-11.9605
▁Gurudwara	-11.9605
▁Living	-11.9605
▁hesitate	-11.9605
▁Pachauri	-11.9637
▁Representation	-11.9637
▁deteriorate	-11.9637
▁retaliation	-11.9637
▁Kaushal	-11.9637
Credit	-11.9641
▁Dokalam	-11.9668
▁analyze	-11.9668
▁lifestyle	-11.9668
▁symptoms	-11.9668
▁irregular	-11.9699
▁Jubilee	-11.9699
▁Property	-11.9699
▁Siliguri	-11.9699
▁cottage	-11.9699
▁devotion	-11.9699
▁Bachao	-11.9699
▁cubic	-11.9699
▁stature	-11.9699
▁thirst	-11.9699
▁Jafri	-11.9699
▁overseas	-11.9699
▁censor	-11.9731
▁Mahasabha	-11.9731
▁deferred	-11.9731
▁efficiency	-11.9731
▁ideological	-11.9731
▁Sangeeta	-11.9731
▁Sanitation	-11.9731
▁retiring	-11.9731
cluding	-11.9755
▁Choudhary	-11.9763
▁Purushottam	-11.9763
▁Territory	-11.9763
▁disadvantage	-11.9763
▁homosexual	-11.9763
▁Famous	-11.9763
▁unturned	-11.9763
▁disappear	-11.9767
▁Subsequently	-11.9794
▁dilemma	-11.9794
▁emotions	-11.9794
▁outbreak	-11.9794
▁vivek	-11.9794
▁Weather	-11.9794
▁Milk	-11.982
Dainik	-11.9825
▁Anuradha	-11.9826
▁Bishnoi	-11.9826
▁unilateral	-11.9826
▁Balrampur	-11.9826
▁Video	-11.9837
▁absolute	-11.9846
▁Bhiwani	-11.9858
▁Shatabdi	-11.9858
▁Sudhakar	-11.9858
▁Yojna	-11.9858
▁interfering	-11.9858
▁settling	-11.9858
▁Imtiaz	-11.989
▁competitive	-11.989
▁duties	-11.989
▁firecrackers	-11.989
▁sovereignty	-11.989
lmost	-11.9891
▁Chakraborty	-11.9922
▁Mansarovar	-11.9922
▁Nicobar	-11.9922
▁worrisome	-11.9922
▁Deoband	-11.9922
▁Hardoi	-11.9922
utonomous	-11.9955
▁Kaushik	-11.9955
▁consignment	-11.9955
▁laboratory	-11.9955
▁sweep	-11.9955
▁ventilator	-11.9955
▁MBA	-11.9955
▁Akademi	-11.9987
▁Parganas	-11.9987
▁Twenty	-11.9987
▁terrible	-11.9987
▁territories	-11.9987
▁Recall	-11.9987
▁subscribe	-12.0019
▁Mercury	-12.0019
▁champion	-12.0019
▁Anjali	-12.0019
▁ICJ	-12.0019
▁Dharamsala	-12.0052
▁Dialogue	-12.0052
▁Ralegan	-12.0085
▁polarization	-12.0085
▁tremors	-12.0085
▁plaza	-12.0085
▁worn	-12.0085
▁Faiz	-12.0085
▁kidnap	-12.0116
▁Shillong	-12.0117
▁immense	-12.0117
Chancellor	-12.0118
▁refut	-12.0119
Uttar	-12.012
▁Radio	-12.0132
▁embarrassed	-12.015
▁grassroots	-12.015
▁madarsas	-12.015
▁synergy	-12.015
▁Launch	-12.015
Harikishan	-12.015
▁Empowerment	-12.0183
▁pedestrian	-12.0183
▁narrow	-12.0183
▁Lamba	-12.0184
▁Chelameswar	-12.0216
▁Diamond	-12.0216
▁Taslima	-12.0216
▁preferred	-12.0216
▁somebody	-12.0216
▁Appointment	-12.025
▁Conflict	-12.025
▁Emirates	-12.025
▁Gulmarg	-12.025
▁inflammatory	-12.025
▁mortgage	-12.025
▁quantities	-12.025
▁unsuccessful	-12.025
▁ninth	-12.025
Bureau	-12.0251
therapy	-12.0252
▁opponent	-12.0281
▁drowned	-12.0283
▁inclusion	-12.0283
▁1974	-12.0283
▁Vidyalaya	-12.0283
▁fury	-12.0283
[	-12.3792
(	-15.0495
