▁hanging 1
▁സെക്രട്ടേറിയറ്റ 1
గే 1
मा 1
▁பேராசிரியர் 1
▁پہلے 1
▁Farooq 1
খ্রিস্টপূর্বাব্দ 1
এস 1
▁travel 1
▁அய்யனார் 1
▁Parliamentary 1
▁কর্মজীবন 1
▁عظیم 1
▁अखिल 1
▁നിന്ന 1
▁represent 1
▁राहत 1
▁চলাকালীন 1
ுநர் 1
▁গুরুত্বপূর্ণ 1
्र 1
▁சேவை 1
▁قصور 1
▁മറ്റും 1
▁ধার 1
▁सुंदर 1
▁மீது 1
▁Amethi 1
▁നെ 1
▁independent 1
▁এমন 1
రియల్ 1
▁মৌসুমে 1
▁মর্যাদা 1
ம 1
▁तलाक 1
জের 1
▁பெண்கள் 1
▁যুক্তরাষ্ট্রের 1
▁گزرے 1
▁संदर्भ 1
▁குளோரைடு 1
▁جھوٹ 1
rit 1
▁statement 1
▁worry 1
ণ্ড 1
হি 1
▁Ashram 1
৯ 1
ர 1
▁انٹرنیٹ 1
মিন 1
▁প্রযোজনা 1
▁അതേ 1
▁പേ 1
▁مفاد 1
وز 1
▁ఇప్పటికీ 1
ദ 1
ेयर 1
▁امین 1
اک 1
▁प्रत्येक 1
▁अध्यादेश 1
▁गंभीर 1
▁করলেও 1
▁కేంద్రంలో 1
▁نوش 1
▁अधिकांश 1
▁নৌবাহিনী 1
▁இச்சேர்மம் 1
▁مزاحیہ 1
പ്പെട 1
▁মু 1
▁ইরান 1
▁ஆளுநர 1
▁خر 1
▁ഒളി 1
▁അബുദാബി 1
▁قسط 1
▁சொ 1
▁Re 1
▁اتفاق 1
▁पहाड़ 1
▁பரப்பு 1
▁സ്ഥാന 1
▁തിരുവനന്തപുരത്ത 1
▁വഴങ്ങ 1
▁അസ 1
াস 1
▁करेंगे 1
▁সমস্ত 1
താണ് 1
▁سج 1
ium 1
ঞ্জা 1
▁হিমালয় 1
▁सर्वोच्च 1
▁ഏതാനും 1
▁ജോലി 1
▁Ambani 1
കൊണ്ടു 1
ிற்கான 1
▁कराए 1
▁केंद्रीय 1
▁लखनऊ 1
▁Keep 1
▁प्रदूषण 1
▁Jammu 1
▁آسانی 1
▁माह 1
డీ 1
▁രഞ്ജി 1
▁আরও 1
৯১ 1
▁ലഹരി 1
▁ছু 1
▁മറ്റുള്ളവര 1
▁নেমে 1
▁సాంఘిక 1
▁جدید 1
ছিল 1
దేశ 1
ப்ப 1
ुर 1
▁உயர்ந்த 1
▁شمشاد 1
▁பொறியியல் 1
▁সূত্র 1
▁కొవ్వు 1
▁ഇതിന് 1
▁closure 1
▁కాంతి 1
▁సూపర్ 1
▁route 1
▁শা 1
▁सेवानिवृत्त 1
▁رہیں 1
▁പരീക്ഷ 1
▁इसका 1
▁ভু 1
▁স্নাতকোত্তর 1
▁اسمبلی 1
▁invest 1
▁other 1
تو 1
▁ہونگے 1
▁जेएनएन 1
তা 1
▁ప్రస్తుతం 1
▁بیروت 1
68 1
▁complete 1
▁شرم 1
قر 1
▁بگڑ 1
▁உண்மையான 1
▁यू 1
▁ब्याज 1
৮৪ 1
▁برقی 1
▁siege 1
نس 1
▁জৈব 1
▁തിരു 1
த்தால் 1
▁trains 1
▁বজায় 1
▁प्रस्ताव 1
▁রস 1
▁আয়ারল্যান্ড 1
▁திசை 1
மண்டல 1
▁వచ్చింది 1
▁spokesperson 1
▁വെറും 1
▁రూప 1
▁ഏറ്റവുമധിക 1
▁عبارت 1
88 1
▁യുഡിഎഫ 1
spiration 1
▁পরাজিত 1
ার 1
▁लिखा 1
▁সন্তান 1
9% 1
ex 1
களா 1
▁ஸ்டா 1
▁যৌথ 1
▁ഡാ 1
▁Pre 1
ഉ 1
பிள் 1
▁পার্ক 1
முடி 1
▁रू 1
▁ہمراہ 1
▁రెడ్డి 1
▁رائ 1
సమీప 1
▁বিশিষ্ট 1
ber 1
▁কমনওয়েলথ 1
art 1
▁గుజరాత్ 1
▁نیوز 1
▁ریاض 1
▁എന്നാൽ 1
▁நினைவாக 1
▁அமைப்பை 1
ஈ 1
▁১৯৭১ 1
▁ഏഴു 1
▁তন্মধ্যে 1
ess 1
्ति 1
्रा 1
▁இதன் 1
▁കർശന 1
மு 1
▁नागरिकों 1
▁Central 1
▁Twitter 1
▁پھیلا 1
▁ഇന്നലെ 1
▁belong 1
▁built 1
ঙ্গল 1
కల్ 1
▁கடல 1
▁sensitive 1
▁প্রকাশিত 1
▁कार 1
▁இளைய 1
▁ஓர் 1
▁عرصہ 1
▁such 1
▁തിരഞ്ഞെടുക്ക 1
▁ഭിന്ന 1
▁धार्मिक 1
▁शेष 1
లా 1
▁সম্বন্ধে 1
യൊക്കെ 1
▁شر 1
▁اختیار 1
ندے 1
▁پھول 1
▁Vivek 1
▁حیران 1
▁گیلانی 1
▁അംഗീകാര 1
▁দেশ 1
▁Let 1
കു 1
▁പ്രവേശിക്ക 1
▁ఆశా 1
▁pay 1
▁টেনিস 1
▁ஆர்வ 1
▁آرہا 1
দ্বীপ 1
▁ఎన్నికలలో 1
▁drinking 1
▁منفرد 1
▁பாதிக்க 1
▁क्लास 1
▁ഇരു 1
▁دعائیں 1
▁form 1
▁எரி 1
▁കഥാപാത്രങ്ങള 1
▁टा 1
▁সেখানে 1
▁പാട്ടുകള 1
▁அறிவு 1
▁দর্শন 1
రాజ 1
প্রকাশ 1
▁భద్రాచలం 1
▁فورسز 1
▁ভ 1
க்கான 1
▁নিরসন 1
▁blow 1
னிய 1
▁گواہ 1
▁മുഖ്യമന്ത്രി 1
▁సంబంధ 1
লিয়া 1
ரீதியான 1
ుకుంటాడు 1
▁பரப்ப 1
nu 1
▁কার্যালয় 1
ा 1
▁ఉండ 1
▁அவரது 1
▁save 1
చై 1
▁வலையமைப்ப 1
ഷ്ട 1
ప్రపంచవ్యాప్తంగా 1
منٹ 1
▁స్థల 1
▁సమితి 1
गा 1
▁వి 1
▁رکن 1
▁അപ്രതീക്ഷിത 1
▁போல 1
▁ताज 1
▁ووٹ 1
▁திரை 1
▁अच्छे 1
ഗ്ര 1
ట్టు 1
▁പ്രധാനമന്ത്രി 1
▁யு 1
▁issues 1
▁operating 1
▁చెన్న 1
▁ఆలోచన 1
▁গাছ 1
▁فہرست 1
▁صحیح 1
▁عالم 1
▁మిశ్రమ 1
▁ايک 1
కపోతే 1
▁ஐதர 1
తీ 1
▁ఔ 1
▁గుణ 1
▁বিহার 1
▁never 1
▁శిల్ప 1
▁যেমন 1
▁मौत 1
িং 1
ക്കാല 1
▁നിക്ഷേപ 1
▁large 1
को 1
mal 1
دو 1
▁تیز 1
▁பழ 1
▁خیالات 1
வாத 1
▁अमीर 1
خت 1
ایک 1
▁کنارے 1
▁హైదరాబాదు 1
ian 1
▁ഡയ 1
▁মহ 1
▁নেয় 1
മുഖ 1
▁প্রভাব 1
▁बॉ 1
െല്ലാ 1
▁first 1
▁कर्नल 1
ங்கை 1
রক্ষক 1
▁வரை 1
▁گزارش 1
▁ఇంటింటిక 1
▁எழுதியுள்ளார் 1
வ 1
cha 1
▁تشریح 1
▁எழுதி 1
▁மலையாள 1
▁Supreme 1
▁ആദ്യമായി 1
▁பட்டியல் 1
▁উল্লেখ 1
▁పారిశుధ్య 1
৪৩ 1
operative 1
▁view 1
▁প্রেক্ষিতে 1
▁রায় 1
▁ഭാഗമായി 1
▁লাল 1
▁ഒരേ 1
▁तरह 1
▁ஆ 1
ു 1
▁constable 1
▁विकल्प 1
▁নিম্ন 1
బెర్ 1
▁മദ്യ 1
▁জানা 1
▁നിരീക്ഷണ 1
▁మరింత 1
▁নেটওয়ার্ক 1
▁क्षमता 1
▁ദൈവ 1
▁നടക്കുന്ന 1
ായിട്ടാണ് 1
▁முயன்ற 1
▁خلیفہ 1
বছর 1
മാക്കി 1
▁2011 1
▁തുടർന്ന 1
▁فطرت 1
▁ஊரில் 1
▁പോസ്റ്റ് 1
▁riots 1
ോട് 1
▁सुप्रीम 1
▁लगता 1
▁سیٹ 1
▁பழைய 1
▁देता 1
র্ড 1
▁رسائی 1
▁absconding 1
▁Congress 1
▁مسائل 1
61 1
ூரில் 1
▁रिहाई 1
R 1
ப்போ 1
బె 1
▁ബഹ 1
▁বেশ 1
▁মুক্ত 1
▁സ്ഥിതി 1
▁گیارہ 1
യുമായി 1
పం 1
▁ارب 1
ோ 1
ப் 1
▁സുപ്രീം 1
▁investigating 1
▁बीएस 1
▁ম্যাক 1
▁റെക്കോ 1
க்கப்படும் 1
▁فرماتے 1
▁وزیراعظم 1
▁बाबत 1
▁அறிவித்த 1
▁प्रवेश 1
యి 1
▁ঋতু 1
▁কবিতা 1
▁చూస్త 1
▁साधा 1
▁ఛాంపియన్ 1
▁തടവ 1
▁മാസം 1
பகுப்பு 1
▁নমুনা 1
▁مستحق 1
▁qua 1
▁இக் 1
▁പ്രസവ 1
▁இது 1
▁செயல்பட்ட 1
லின் 1
▁பிறந்தார் 1
பட்டி 1
▁பல் 1
▁ट्र 1
కర్ష 1
▁Bareilly 1
▁செல் 1
▁attacked 1
పొ 1
▁குன்ற 1
▁Department 1
नो 1
▁आसान 1
▁সেন্টিমিটার 1
▁دعا 1
▁correspondent 1
▁துறவி 1
യിലാണ് 1
▁അവിടെ 1
▁সাক্ষরতা 1
▁القادری 1
▁अरविंद 1
গার 1
▁Sang 1
▁ہستی 1
▁সদস্য 1
▁വർധന 1
▁சார்பாக 1
ന്ന് 1
▁رکھیں 1
▁அழக 1
▁கார்பன் 1
ുകാരന 1
▁बलात्कार 1
29 1
▁అడవి 1
▁انگلش 1
▁సరి 1
▁اجر 1
ளவு 1
▁drought 1
▁অপারেশন 1
ி 1
▁শিরোনাম 1
▁موجودگی 1
Manish 1
▁Sikh 1
▁शहीद 1
▁వనరుల్లోకి 1
▁सिरे 1
▁വിജിലൻസ് 1
പരിമിത 1
▁managed 1
▁মাংস 1
▁మీ 1
▁கண்டுபிடிக்க 1
▁Ro 1
ோட்ட 1
▁एसपी 1
▁കണക്കാക്ക 1
▁আরবি 1
▁مچ 1
▁খোলা 1
▁Bharatiya 1
ুজ্জামান 1
95 1
▁কল 1
▁साजिश 1
्रि 1
▁కామ 1
▁Valley 1
ధ్ 1
▁क्राइम 1
▁বিন 1
ன் 1
▁ডিজাইন 1
▁இருந்தார் 1
▁Mohit 1
െത്തുന്ന 1
M 1
▁ஆதார 1
▁జూనియర్ 1
▁develop 1
హ 1
▁ജീ 1
▁గురించి 1
▁पढ़ने 1
▁অবস্থা 1
▁गुरुवार 1
ഗന്ധ 1
▁குறு 1
▁fact 1
▁చేస 1
▁shop 1
▁যানবাহন 1
▁వేయ 1
விட்டு 1
▁கொழுப்பு 1
▁Ministry 1
▁کشمیر 1
▁రహదారి 1
▁পুনঃ 1
த்திலிருந்து 1
▁we 1
শীল 1
ியலில் 1
সাগর 1
ी 1
▁মোহাম্মদ 1
▁House 1
▁തുടക്ക 1
▁cent 1
▁تازہ 1
ుకున్నారు 1
▁निरोधक 1
▁Respond 1
▁پاگل 1
ரிடம் 1
▁ملالہ 1
▁ശരിയായ 1
▁उच्च 1
▁మరుగుదొడ్డి 1
▁road 1
▁థియేటర్ 1
▁Uma 1
تھے 1
▁ఉత్తర్వులు 1
েন 1
▁مبارک 1
▁നേരെ 1
▁নিজস্ব 1
▁দাস 1
హీ 1
▁باغیوں 1
కర 1
▁ദോഷ 1
▁మిరప 1
▁வாய்ந்த 1
▁శుద్ధి 1
▁வட்டார 1
▁செலவ 1
▁हिस्सा 1
▁యూనివర్శిటీ 1
▁মুখোপাধ্যায় 1
জার 1
▁অত্যন্ত 1
▁پنجاب 1
▁शाखा 1
▁അരുണ 1
ിയിരുന്നു 1
▁پچھلی 1
▁நடை 1
▁கிறித்தவ 1
ائل 1
▁फिर 1
▁మనిషి 1
▁ندیم 1
▁കോളജ 1
▁കഠിന 1
▁ministers 1
▁जोड़ने 1
▁meeting 1
బడిన 1
েন্ট 1
▁کچھ 1
▁آور 1
ism 1
▁സീസണ 1
▁new 1
▁இதனால் 1
▁परिजन 1
▁लोगों 1
▁2003 1
▁مغ 1
▁ஹோ 1
▁ഓണ 1
▁చెప్ప 1
▁reach 1
കൂള 1
▁presence 1
▁achieve 1
ম্যা 1
▁పూర్తిగా 1
பதி 1
▁கண்டு 1
ഷന് 1
▁నిర్మించారు 1
▁मिलने 1
▁रंजन 1
▁அடையாள 1
▁ڈرون 1
▁خوشبو 1
▁জিয়া 1
▁കടുത്ത 1
▁مسافر 1
▁पहुंचाने 1
பூர் 1
▁ப 1
కీ 1
▁শু 1
ాలపై 1
▁जिससे 1
బు 1
▁महत्व 1
▁الرحم 1
ట్రిక్ 1
▁questioned 1
▁Sheila 1
▁مبارکباد 1
சேகர 1
ുണ്ടായിരുന്ന 1
▁commercial 1
▁நிற 1
▁struggling 1
▁ഉത്തരവ 1
▁نصب 1
▁அடுத்த 1
▁... 1
▁రామచంద్ర 1
▁حس 1
▁rights 1
▁দূর 1
▁extended 1
▁روشن 1
عا 1
▁தென் 1
▁അപേക്ഷ 1
▁இருப்பதால் 1
ది 1
▁حصہ 1
▁آس 1
▁پي 1
▁عظمت 1
▁பல 1
▁சரியான 1
జూన్ 1
▁ద్వార 1
▁খেলেন 1
أ 1
▁child 1
ബ 1
ശൈലി 1
▁stock 1
▁হতো 1
▁ഹൃദ്രോഗ 1
▁बिना 1
▁आई 1
▁పంజాబ్ 1
ওয়ে 1
▁repeatedly 1
ঁচ 1
নাল 1
▁উন্মুক্ত 1
▁बापू 1
ஷன் 1
▁উইন্ডোজ 1
▁میچ 1
ാഴ്ച 1
പെട്ട 1
▁arrived 1
ক 1
▁تی 1
▁జన్మ 1
സാക്ഷി 1
▁রুশ 1
▁അഭിമുഖ 1
▁श्रद्धांजलि 1
▁താരതമ്യ 1
▁martyr 1
▁biggest 1
▁60 1
▁قابل 1
▁ఉత్పత్తి 1
▁മനോഹരമായ 1
উই 1
মের 1
▁दूरी 1
▁ক্ষুদ্র 1
രാഗ 1
▁अनुरोध 1
▁ترے 1
PC 1
▁Prakash 1
சக்தி 1
▁పాడేరు 1
▁நகரில் 1
வற்றை 1
▁قدرت 1
احت 1
▁کفر 1
▁रमेश 1
▁addition 1
▁இரண்ட 1
రాయ 1
▁شو 1
▁అనకాపల్లిలోను 1
▁అనుకూల 1
X 1
▁പഞ്ചാബ 1
▁மரப 1
▁बिंदु 1
▁திட்ட 1
▁ലഭിക്ക 1
रीबन 1
▁জীবনে 1
▁రావట్లేదు 1
வா 1
ుకొని 1
▁विरोध 1
▁completely 1
▁లక్షణాలు 1
▁لوٹ 1
களாலும் 1
▁ब्रिटेन 1
▁اصرار 1
▁Those 1
▁उठा 1
▁நெடு 1
▁साढ़े 1
കെ 1
▁praise 1
▁T 1
▁person 1
▁உடற் 1
▁مجبور 1
▁അവകാശ 1
টি 1
▁विधि 1
▁دوسرے 1
▁కళ 1
▁ന്യൂസ 1
▁నెల 1
▁couple 1
ంచు 1
▁indicated 1
▁firm 1
▁tragedy 1
▁মুখ্য 1
▁కలుప 1
▁ఉపయోగిస్తారు 1
▁అభ్యర్థి 1
▁जाते 1
▁صل 1
رو 1
▁சீன 1
▁رنج 1
दू 1
ദാസ 1
৮৮ 1
▁آنسو 1
রু 1
▁دلی 1
ious 1
▁এখন 1
▁appeal 1
▁மக்களவை 1
▁सदन 1
ഡ 1
▁குடிமக்கள 1
മൂ 1
লের 1
▁challenged 1
▁Indore 1
▁തമിഴ്നാട് 1
▁టీ 1
നിയ 1
▁gathered 1
▁Shinde 1
రియన్ 1
▁கலை 1
▁நடிப்ப 1
▁निदेशालय 1
▁खरीद 1
భ 1
▁கதிர் 1
یے 1
▁மன்றத் 1
▁said 1
ণের 1
▁p 1
▁দ্রাঘিমাংশ 1
▁ചൈന 1
▁22 1
ب 1
ర్యా 1
▁says 1
▁నరసింహ 1
▁موصوف 1
▁സംഭവിച്ച 1
▁نایاب 1
▁छुट्टी 1
▁Am 1
िका 1
▁देर 1
ప్రాథమిక 1
▁تفسیر 1
▁বিশ্ববিদ্যালয় 1
▁ఆది 1
▁जयललिता 1
▁employees 1
▁পূজা 1
▁ 1
▁மட்டுமே 1
നട 1
▁பிர 1
ात 1
ఛ 1
शि 1
▁اظہار 1
▁بلوچستان 1
▁ஆண்டு 1
▁കഴിഞ്ഞ 1
ின்றார் 1
சின் 1
▁policy 1
▁بیماری 1
़़ड 1
▁بیک 1
▁پھٹ 1
▁വീട്ടില് 1
త్యా 1
▁తెలుగు 1
▁ട്രഷറ 1
ச்செ 1
▁आवंटित 1
▁ഉദ്യോഗസ്ഥർ 1
▁সিটি 1
▁കണ്ടെത്ത 1
▁பேருந்து 1
ंडे 1
டீ 1
ue 1
▁रहे 1
▁समिति 1
▁మారింది 1
▁بھرپور 1
▁തുടർ 1
েক্ট 1
സംവിധായക 1
▁மி 1
mon 1
▁తాలూకా 1
ence 1
▁मी 1
▁చా 1
ഡബ്ല്യു 1
▁आइएसआइ 1
৪৬ 1
நிகழ் 1
▁இசை 1
▁സമ്മാന 1
▁మొక్క 1
▁இத்தாலிய 1
ెదరు 1
▁ں 1
▁ഇപ്പോൾ 1
jha 1
▁పారుదల 1
▁মুক্তিযুদ্ধ 1
▁രാവിലെ 1
▁تھی 1
▁দোকান 1
▁ఏర్పాటు 1
▁உலகில் 1
▁section 1
▁వ్యతిరేకంగా 1
▁ট্যা 1
▁చెన్నై 1
▁കഴിക്കുന്ന 1
▁कब 1
or 1
▁ছবির 1
▁വീതം 1
মা 1
▁Kapil 1
കുള 1
▁ക്ല 1
▁కళ్యాణ 1
▁गवाह 1
▁১৯৪৬ 1
▁खातों 1
▁നഗര 1
▁let 1
റ്റ 1
யக 1
ٹا 1
▁সর্ব 1
▁സ 1
ক্তি 1
▁پکار 1
▁जाएगा 1
▁താരം 1
▁ബീ 1
▁جل 1
▁இவருக்கு 1
▁over 1
ിച്ച 1
డ్ 1
పడ్డారు 1
▁ایجاد 1
▁Institute 1
పిన్ 1
▁కుమార 1
▁طالب 1
▁حقائق 1
▁ఇంకా 1
ধান 1
కంటే 1
▁Kerala 1
▁पढ़ा 1
▁అందుబాటులో 1
▁আইসিসি 1
മാര് 1
▁லா 1
▁సందర్భంగా 1
▁പ്രത്യേകത 1
▁stamp 1
▁پوری 1
ஞ்சு 1
▁సముద్ర 1
▁व्यवस्था 1
▁ওঠে 1
▁भविष्य 1
▁నేషనల్ 1
৮৬ 1
▁താഴ 1
বোধ 1
▁license 1
▁య 1
▁வருகின்றன 1
داری 1
డమే 1
মে 1
ைச் 1
▁چیخ 1
ৈ 1
▁post 1
▁کہتا 1
ning 1
ానిక 1
ोज 1
ുമ 1
▁بٹیا 1
கோவில 1
ഷന 1
▁دیں 1
▁বোঝায় 1
மார் 1
▁lodged 1
▁नतीजा 1
▁سال 1
▁ஸ்ரீ 1
ாட்சி 1
▁கடைசியாக 1
▁তৈরি 1
▁बिगड़ 1
▁تیزی 1
▁इन्हें 1
▁called 1
▁সফলতা 1
ైతే 1
▁వైద్యశాలలో 1
▁विनोद 1
ుకొన 1
▁ఎన్ 1
▁ఫ్రాన్స్ 1
▁വിവാദ 1
▁महंगाई 1
ित 1
▁தற்கால 1
▁রীতি 1
▁മുതല 1
▁ওয়াশিংটন 1
▁نگار 1
▁گجرات 1
▁एजेंसी 1
▁नायडू 1
தமிழ் 1
▁ഉണ്ടെന്ന 1
வரின் 1
▁absence 1
▁వచ్చి 1
▁জো 1
▁ജാതക 1
▁उत्पादन 1
▁வருகின்றது 1
കളില് 1
लिंग 1
▁Reserve 1
▁பங்க 1
▁টুয়েন্টি২০ 1
▁వ్యవస్థ 1
▁सका 1
▁കോടി 1
▁பொறுப்ப 1
▁தமிழ்த் 1
▁متفق 1
▁கருவறை 1
▁ഘട്ട 1
വുമായ 1
▁லீ 1
Sub 1
▁دکھائی 1
▁তাদের 1
▁سکیں 1
▁cut 1
▁ग्राहक 1
▁ड्यूटी 1
▁طریقہ 1
▁పాటలు 1
▁সমিতি 1
▁பர 1
களோடு 1
▁అనంతరం 1
▁soon 1
য 1
▁تہذیب 1
▁staff 1
▁Abhishek 1
ధ్య 1
யாளராக 1
33 1
▁கிராம 1
▁सब 1
▁giving 1
▁कैद 1
ടക്കമുള്ള 1
పెట్ట 1
றும் 1
▁পুলিশ 1
ویں 1
▁ট্রে 1
▁considering 1
▁build 1
▁গণিত 1
▁கிடைக்கும் 1
adav 1
▁الزامات 1
ध्यक्ष 1
ത്ത് 1
పర్ 1
▁एनजीटी 1
▁گردی 1
▁మంది 1
▁সাং 1
▁اعل 1
▁এখানকার 1
▁লীগ 1
▁യൂ 1
டு 1
▁আলোচনা 1
৬৭ 1
▁کن 1
▁ప్రభావం 1
▁என்பது 1
▁Arun 1
▁وادی 1
▁அறிவ 1
▁Bhavan 1
▁രാത്രി 1
▁ജനറല് 1
ിലാണ് 1
▁పొ 1
▁afraid 1
▁நிறுவனம் 1
▁million 1
▁లింగ 1
▁दफ्तर 1
▁ডিজিটাল 1
భ్య 1
▁पटना 1
▁gave 1
▁o 1
▁ترکیب 1
ুক 1
എൻ 1
▁دیکھیں 1
െന്നു 1
▁غالب 1
▁கட்டுப்பாட்டில் 1
80 1
▁دراصل 1
ங்களுக்கு 1
▁ان 1
▁अस 1
▁மாற்றி 1
▁تعمیر 1
▁strengthen 1
▁ইউনাইটেড 1
য়ে 1
▁مغل 1
▁പി 1
ദ്ദ 1
▁انشاءاللہ 1
▁தோன்ற 1
▁काम 1
▁Ramdev 1
▁double 1
▁अवकाश 1
▁संपर्क 1
▁आवश्यकता 1
స్థి 1
ిస్తాయి 1
▁கொல்ல 1
▁وفاقی 1
வாறு 1
▁come 1
ாா் 1
ப்பொருள 1
▁terrorist 1
▁সংস্থা 1
▁writing 1
৷ 1
▁acres 1
▁پانی 1
സമയ 1
▁సహా 1
▁हजार 1
یم 1
బడింది 1
ः 1
▁চট্টোপাধ্যায় 1
▁contest 1
ுவர் 1
▁सिस्टम 1
താക 1
▁কৃষ্ণ 1
▁ব্যবধানে 1
बल 1
▁ماد 1
▁Chhattisgarh 1
▁located 1
▁हंगामा 1
▁కొ 1
▁ঐতিহ্য 1
▁আবদুল 1
▁സാങ്കേതിക 1
▁സുനി 1
g 1
ാത 1
സർ 1
▁കുരു 1
▁संजय 1
வினை 1
▁மஞ்சள் 1
▁মার্চ 1
நூல் 1
▁सिंगापुर 1
▁दिशा 1
ബോ 1
▁جماعتوں 1
▁voting 1
▁देव 1
সাই 1
▁ٹیگ 1
ட்டை 1
▁കേരളത്തിലെ 1
▁சமண 1
▁இறைவன 1
▁ആനുകൂല്യ 1
▁கீழ் 1
▁Mo 1
ங்களைப் 1
ட்டர் 1
▁ആഴ്ച 1
▁dark 1
മാണെന്ന് 1
▁مقدمے 1
▁এটা 1
▁అక్షర 1
र्ज 1
▁हुर्रियत 1
▁শতাব্দীর 1
چر 1
ింది 1
▁ചെയ്യുന്നത് 1
ుతుంది 1
▁അതുകൊണ്ട് 1
▁रैली 1
हम 1
▁آتی 1
▁بچانے 1
▁ধারণা 1
▁مزار 1
▁عیسی 1
▁Jam 1
▁additional 1
കാര 1
▁தமிழ 1
ం 1
tic 1
▁محفلین 1
▁لیجیے 1
অ 1
▁Western 1
▁ചൂണ്ടിക്കാട്ടി 1
ഃ 1
ম্ 1
▁Two 1
▁جیت 1
▁মে 1
▁கேட்க 1
▁कृषि 1
▁இயங்க 1
ئیے 1
▁influence 1
▁আফ্রিকা 1
▁ডিসেম্বর 1
▁বিদ্রোহ 1
▁موج 1
▁మే 1
▁குளோ 1
▁স্ট্র 1
৩৮ 1
▁ஆவார் 1
য়ো 1
▁oil 1
দি 1
▁भेजे 1
▁பதிப்ப 1
▁உயிரின 1
▁நினைவு 1
__t2ta__ 1
▁இலக்கு 1
gu 1
സ്വാമി 1
▁پڑھا 1
it 1
▁കേട്ട 1
▁لیگ 1
▁जताते 1
▁होने 1
▁অনুযায়ী 1
ഭ 1
▁धमाके 1
ാനും 1
▁கோபுர 1
▁బాగా 1
ेज 1
ब्ल 1
▁ڈب 1
▁صفحہ 1
▁ایچ 1
▁ڈرامہ 1
▁సూర్య 1
▁വിദ്യാഭ്യാസ 1
▁وغیرہ 1
▁மட்ட 1
▁ముఖ్య 1
▁खास 1
▁আম্পায়ার 1
▁வீரர் 1
▁notification 1
▁hearing 1
রাই 1
▁அவர்கள் 1
▁plastic 1
▁குல 1
▁preparing 1
யீ 1
గం 1
▁పనిచేసి 1
▁ఉందని 1
▁കലക്ടർ 1
৬৪ 1
▁دنوں 1
ധാരണ 1
▁खतरनाक 1
▁যত 1
▁নভেম্বর 1
▁নো 1
▁نیند 1
▁ശ്രമിച്ച 1
▁শ 1
బ్బ 1
▁ہائی 1
▁সম্পন্ন 1
▁دفاع 1
▁Captain 1
▁ని 1
▁ప్రత్తి 1
▁option 1
ach 1
▁convoy 1
▁firing 1
▁పరపతి 1
▁నే 1
▁سنبھال 1
رم 1
▁Co 1
▁হলুদ 1
▁ஆண்கள் 1
▁റെയില 1
▁தனிப்பட்ட 1
തെന്ന് 1
▁సౌకర్యం 1
▁बायो 1
▁ടെസ്റ്റ 1
റും 1
▁University 1
ఇ 1
▁పశు 1
▁कदम 1
▁निकट 1
ശേഖര 1
வழி 1
▁ہی 1
দ্বন্দ্ব 1
▁উপস্থিতি 1
▁जीत 1
▁clothes 1
اہ 1
▁போராட்ட 1
ബ് 1
ద్దు 1
CA 1
▁hours 1
▁ఆస్ట్రేలియా 1
▁धारा 1
▁ఎర్ర 1
വേലി 1
▁شیئر 1
▁इतना 1
▁హిందువుల 1
▁مطالعہ 1
▁retirement 1
▁told 1
▁نسل 1
▁قلب 1
▁కొంతకాలం 1
এনএ 1
▁जु 1
▁നേതാക്കള 1
▁bullet 1
▁செலுத்த 1
▁অতিক্রম 1
▁allowed 1
த்திலும் 1
▁దేవ 1
▁দিন 1
ப்பிரிவு 1
ప్రైవేటు 1
▁पंजीकरण 1
৮৭ 1
▁ڈاک 1
▁ATS 1
▁வட 1
▁interview 1
▁ഗവേഷണ 1
گاہ 1
▁గురు 1
▁അന 1
▁مچھلی 1
சம் 1
▁आकलन 1
▁അവര 1
▁ذوالفقار 1
▁മനസില 1
▁இதுவே 1
ചര 1
▁budget 1
ங்களை 1
▁रिकॉर्ड 1
த்த 1
▁ممنون 1
ير 1
▁موبائل 1
▁റിലീസ 1
Al 1
▁قاف 1
▁আবেদন 1
▁থাকে 1
ാണെങ്കിൽ 1
▁தற்போது 1
▁আদর্শ 1
▁पु 1
லீ 1
স্থায়ী 1
▁বরিশাল 1
▁தனக்கு 1
வான 1
▁self 1
▁একাদশ 1
▁இறுதியில் 1
ారు 1
ధాన 1
▁വിമർശന 1
▁ലി 1
▁ചാ 1
val 1
అ 1
▁उठाते 1
▁శుద్ధ 1
▁coach 1
▁கீழே 1
ाय 1
▁உப்பு 1
▁Significantly 1
▁لیٹ 1
▁suspicious 1
▁lost 1
▁ম্যানেজার 1
▁र 1
▁বক্তব্য 1
▁ഗൗരവ 1
ன்ற 1
▁दहशत 1
▁पानी 1
▁alert 1
hit 1
రి 1
മാക്ക 1
▁லெ 1
ില്ലെന്നും 1
im 1
▁Dr 1
▁ഫലം 1
ടിച്ച 1
▁শতাংশ 1
ভাষা 1
ഭ്യ 1
لا 1
▁அவரை 1
▁குறைவான 1
▁ബ്രഹ്മ 1
களே 1
▁ആറു 1
▁సాంస్కృతిక 1
क 1
شہ 1
▁খাবার 1
صل 1
▁हवाला 1
తి 1
▁because 1
▁عقیدت 1
▁స 1
▁رکھتا 1
মি 1
▁பக்க 1
▁ख 1
ইংরেজি 1
▁বলে 1
▁کمیشن 1
▁అత్యంత 1
క్స్ 1
यी 1
▁पहुंचने 1
లెట్ 1
▁شبہ 1
▁குறைந்த 1
▁దీనిలో 1
വഹിച്ച 1
స 1
ക്കൊണ്ട 1
▁മോഹന് 1
▁নতুন 1
യിട 1
ദീപ 1
▁declaration 1
ത്തിൽ 1
▁অবশেষে 1
▁বংশ 1
িক্যাল 1
▁निपटा 1
वन 1
آ 1
▁ആക്ഷേപ 1
▁சன்னதி 1
▁శనగ 1
▁कर 1
▁দ্বীপপুঞ্জ 1
▁సమీకృత 1
▁கிழக்கில் 1
▁लालू 1
▁عرب 1
▁என்பதாகும் 1
ிட்ட 1
স্তু 1
▁উপলক্ষে 1
▁Colonel 1
▁उपयोग 1
▁പറ്റ 1
తో 1
▁স্থির 1
ലു 1
▁आइएस 1
▁ఏకీకృత 1
▁বিষয়বস্তু 1
▁రకాల 1
▁মেক্সিকো 1
▁মাধ্যমে 1
▁کونسا 1
▁২০০৯ 1
▁ஓர 1
তন্ত্র 1
▁দিল্লি 1
▁এটি 1
▁inaugura 1
தாகும் 1
▁Temple 1
▁লেখেন 1
▁वहां 1
▁रहने 1
തും 1
▁Abdul 1
▁اسلحہ 1
▁युवकों 1
▁আলি 1
▁تجزیہ 1
▁வடிவமைப்பு 1
▁बोर्ड 1
▁আকারে 1
▁saint 1
▁அழுத்த 1
▁১টি 1
▁உருவாகிறது 1
▁கூறப்படுகிறது 1
▁மாலை 1
▁চা 1
േശ്വര 1
▁అంశాల 1
nt 1
▁ഷോ 1
ക്കൂട്ട 1
▁جتنے 1
▁সহকারী 1
وڈ 1
▁পেশা 1
▁ఉర్దూ 1
▁انھیں 1
िट 1
▁مظہر 1
▁வேறுபட்ட 1
▁ఉపయోగ 1
▁providing 1
▁অসাধারণ 1
▁মৃত 1
بھی 1
▁mandatory 1
▁cost 1
▁priority 1
▁ধর্ষণ 1
▁இரத்த 1
▁फ्रांस 1
▁Ran 1
వాగు 1
▁Noida 1
bra 1
ిస్తూ 1
స్తాయి 1
▁மருந்த 1
ric 1
▁word 1
▁ഡീസൽ 1
▁उनमें 1
ികള് 1
▁గో 1
▁యాత్ర 1
▁बेदी 1
▁അന്തരീക്ഷ 1
▁अनशन 1
▁ইন্দো 1
▁നടന 1
▁বেঙ্গল 1
▁বিপরীত 1
ాలకు 1
▁للہ 1
బ 1
▁కేరళ 1
▁uncle 1
▁സാഹചര്യ 1
▁பயணி 1
ള് 1
ుడైన 1
▁खाली 1
▁జనగామ 1
▁ஐரோப்பிய 1
▁ڈی 1
▁Vikas 1
▁യുഎസ് 1
▁മാറ 1
স্ক 1
▁ஜீ 1
▁خوشی 1
▁बुलाई 1
ाइन 1
▁ری 1
▁సీజన్ 1
▁பின்வருமாறு 1
▁खान 1
▁مقصود 1
▁افراد 1
భీ 1
▁ہٹا 1
▁Meerut 1
اح 1
డైరెక్ట 1
కరమైన 1
f 1
▁ہو 1
▁पहचान 1
ঙ্গা 1
ما 1
▁വ്യത്യസ്ത 1
▁Group 1
Sanjay 1
▁শ্রেণি 1
▁ടൈ 1
యా 1
▁steps 1
▁వ్యర్థాలను 1
▁মুক্তিযোদ্ধা 1
▁യാഥാർഥ്യ 1
▁ورنہ 1
▁অফিস 1
ப்படுகின்ற 1
▁ഹാ 1
▁புகழ் 1
▁கூறுகிறார் 1
▁Arjun 1
▁शौचालय 1
▁উপযোগী 1
▁bank 1
గడ 1
▁కనిపిస్తుంది 1
▁Bhar 1
▁వుండును 1
নো 1
▁हस्तक्षेप 1
▁தீர்வு 1
▁மெ 1
▁காவல்துறை 1
▁कामकाज 1
முடைய 1
▁தள 1
ేందుకు 1
▁सूचना 1
28 1
▁പിന്നീട 1
▁స్టా 1
▁ईडी 1
▁నో 1
▁1993 1
▁ஒழுங்கு 1
▁दुनिया 1
ভ 1
▁இணைந்த 1
কর্তা 1
தொ 1
▁हाथ 1
வாய் 1
▁जिंदा 1
▁ഹിന്ദു 1
▁விலக்க 1
▁செயற்கை 1
ء 1
▁ریاست 1
▁হৃদ 1
க்கப்பட்ட 1
▁per 1
வதற்கு 1
anda 1
▁مملکت 1
▁minutes 1
▁अपेक्षा 1
▁విమాన 1
▁वाहनों 1
▁بی 1
صر 1
▁കൊണ്ട് 1
▁امتیاز 1
▁হয়েছিলেন 1
▁ஹா 1
▁announced 1
▁Bachchan 1
▁তুলনা 1
ज्ञ 1
▁ഉണ്ടാവ 1
టే 1
▁జూలై 1
▁opposed 1
ిరెడ్డి 1
மின் 1
ma 1
▁scientist 1
ത്തോട് 1
▁किशोर 1
▁ز 1
తాడు 1
▁கொள்ள 1
▁প্রতীক 1
▁pass 1
யானது 1
▁യോഗ 1
▁വയല 1
గానే 1
ிடையே 1
▁बढ़ावा 1
▁হতে 1
▁রেল 1
▁performance 1
▁செய்த 1
▁മാത്യു 1
▁register 1
▁جہان 1
▁కాబట్టి 1
▁؟ 1
▁نوعیت 1
▁దూరములో 1
▁मिलेगी 1
▁மதிப்பு 1
ide 1
▁সংগঠিত 1
▁services 1
▁جلا 1
গান 1
▁पाटिल 1
^ 1
▁परंतु 1
▁लाने 1
ஹ் 1
▁فراہم 1
▁ദുരന്ത 1
▁అయి 1
▁मुसीबत 1
▁انڈیز 1
▁tank 1
കേന്ദ്ര 1
▁చెందింది 1
▁টেস্টে 1
ഡി 1
نچ 1
▁কোরিয়া 1
▁ट्रक 1
▁సేవ 1
▁கழகம் 1
▁ஆம் 1
▁thousand 1
ക്കും 1
▁train 1
▁സൃഷ്ടിച്ച 1
du 1
▁बर्खास्त 1
▁ظ 1
▁அமைச்ச 1
▁সংস্কৃতি 1
▁രീതി 1
▁जनहित 1
লস 1
▁മൊബൈൽ 1
ven 1
▁ചെയ്തിരുന്നു 1
▁मौ 1
▁অনুসন্ধান 1
▁বর্ণিত 1
▁ఏక 1
▁उमर 1
▁అతని 1
▁দি 1
▁आर्मी 1
▁آپکی 1
▁இடம்பெற 1
tu 1
▁ഏ 1
▁जनता 1
▁कपिल 1
▁ഇറങ്ങ 1
▁మొ 1
▁அதி 1
▁தவிர 1
▁politician 1
▁انگیز 1
▁Click 1
▁पवार 1
ഗ്രസ് 1
▁గ్రూప్ 1
▁नुकसान 1
▁১৯৬৪ 1
▁گپ 1
▁ఉత్పత్తుల 1
மூல 1
▁অব 1
▁Rajasthan 1
வரி 1
▁বহন 1
കളില 1
kha 1
▁تحریر 1
▁poverty 1
▁جمال 1
▁ലഭിച്ച 1
▁യ 1
വും 1
దల 1
ڑ 1
▁সংরক্ষিত 1
ृ 1
▁جس 1
▁లక్ష్య 1
▁arrest 1
ক্রি 1
bl 1
▁विधेयक 1
▁మేనేజిమెంటు 1
▁Kedarnath 1
▁సీ 1
করণ 1
▁বিস্তৃত 1
एस 1
▁গ্রে 1
▁চূড়ান্ত 1
▁شئیر 1
▁మండలం 1
টার 1
▁throw 1
ఎఫ్ 1
▁എന്നാണ് 1
▁रवाना 1
▁अनिल 1
▁نے 1
▁ప్రాంత 1
IM 1
▁हैदराबाद 1
▁इजाजत 1
▁కంపెనీ 1
▁ഉള്ള 1
▁வயதில் 1
▁ഭക്ഷ്യ 1
▁ഒന്നും 1
▁غضب 1
വ്യക്ത 1
▁एशिया 1
ندر 1
లాండ్ 1
▁incident 1
కర్ 1
فت 1
▁చేపట్ట 1
▁ঠাকুর 1
سل 1
▁auction 1
▁എത്തിക്ക 1
▁کارڈ 1
▁administrative 1
▁victims 1
▁expenses 1
▁اسکول 1
▁పాత్ర 1
▁Bareli 1
▁ആന്റി 1
▁അയച്ച 1
ger 1
▁تبدیلی 1
▁सीटों 1
▁ആരോപണ 1
वें 1
▁ప 1
▁மெல்ல 1
▁arrange 1
▁आग 1
▁കയറിയ 1
▁ഇൻഷുറൻസ് 1
▁दया 1
▁ചെയ്ത് 1
▁ദുര 1
▁മുന്നേറ 1
শৈলী 1
▁झूठ 1
തി 1
▁ওষুধ 1
▁सकारात्मक 1
▁ஆராய்ச்சி 1
லிய 1
யிலுள்ள 1
▁आगरा 1
▁നല്ല 1
▁दिए 1
▁കാത്തിരുന്ന 1
ئیں 1
▁choose 1
▁Abdullah 1
▁ஆங்கில 1
৩ 1
▁तिब्बत 1
ப்பட்டு 1
▁উপাধি 1
", 1
കം 1
▁ఏ 1
▁agency 1
▁लाइन 1
▁अंक 1
▁மக்கள 1
▁புதுச்சேரி 1
▁June 1
களைக் 1
▁थाना 1
▁చేతి 1
▁بلاشبہ 1
▁প্রজাতন্ত্র 1
▁राज्यों 1
twitter 1
▁আস 1
▁కొరియర్ 1
▁लेकिन 1
▁ایڈریس 1
േഷൻ 1
▁আগে 1
▁చేసి 1
▁సూచిస్తుంది 1
▁पहला 1
▁আগ্রহ 1
▁உள் 1
▁واسطے 1
▁राहुल 1
▁ஆவர் 1
▁celebrate 1
শক্তি 1
மன் 1
▁Instead 1
▁Lakh 1
सिंह 1
▁Bihar 1
▁చదవ 1
New 1
▁Bureau 1
▁തൃശൂര 1
▁കാര്യം 1
▁رجوع 1
▁poll 1
▁fraud 1
▁சேர்க்க 1
▁సహాయం 1
▁Tanwar 1
▁ڈاٹ 1
ాపక 1
▁ओ 1
▁श्रद्धालुओं 1
▁milk 1
▁western 1
্ব 1
▁மணி 1
▁പേര 1
▁സന്തോഷ 1
▁ஜோ 1
▁കൃത്യ 1
بر 1
▁কথা 1
ാണെന്ന 1
▁டாக்டர் 1
▁ప్యా 1
▁উদ্যোগ 1
▁വ്യാജ 1
▁வழி 1
ங்களுள் 1
▁বিক্রয় 1
ణు 1
▁পার 1
▁കര 1
▁میرا 1
సభ 1
▁లోపు 1
▁கடல் 1
അ 1
▁secretary 1
▁সরকারের 1
▁সংক্রমণ 1
িস 1
াহ 1
▁تا 1
శర్మ 1
▁انٹرویو 1
▁২০১৩ 1
▁آفریدی 1
▁தேர்வு 1
il 1
▁കരാറ 1
▁అధి 1
▁रोज 1
▁فرمائیں 1
▁बैठक 1
രംഗ 1
▁কোড 1
▁പ്രശസ്ത 1
▁आमंत्रित 1
▁എത്തുന്നത് 1
▁کونسی 1
▁வந்தார் 1
জাতি 1
▁జన 1
రువు 1
▁மரியா 1
▁అమెరికా 1
ജ് 1
▁కాదు 1
▁గొప్ప 1
▁ஆட 1
▁ஹெ 1
▁angry 1
▁leg 1
▁بت 1
▁వలన 1
▁Meena 1
▁కార్యకలాపాల 1
▁உணர 1
▁دیتے 1
▁scheme 1
▁ஜனவரி 1
▁மேல 1
ذا 1
▁জনপ্রিয়তা 1
▁दबाव 1
ங்குடி 1
ణీ 1
raj 1
▁হার্ড 1
پل 1
▁interest 1
▁சமன்பாடு 1
▁যশোর 1
▁sacrifice 1
ണിയ 1
▁வங்காளதேச 1
▁مجید 1
▁دبا 1
▁Pat 1
▁இடம்பெற்ற 1
्त 1
▁living 1
▁Wa 1
row 1
▁وجود 1
বাহ 1
▁లేకుండా 1
▁এক্স 1
▁documents 1
▁پاؤں 1
▁উইলিয়াম 1
▁must 1
▁தவிர்க்க 1
▁کھلے 1
▁debt 1
▁ప్రాంతాల 1
ుకోవాలి 1
▁perform 1
▁باپ 1
▁ఎం 1
ோர 1
▁slow 1
▁ভবিষ্যত 1
▁সম্পত্তি 1
▁మాధవ 1
▁Europe 1
▁వ్యాపార 1
▁நிலை 1
▁ক্যান্সার 1
▁ধরে 1
రం 1
▁বড় 1
▁ప్రత్యేక 1
▁ऐलान 1
ड्ड 1
▁وی 1
▁মুজিব 1
▁जवाहर 1
িয়ান 1
▁purview 1
▁ఆక్రమించ 1
▁urban 1
ల్ 1
▁hide 1
▁मेरा 1
▁നടപ്പിലാക്ക 1
▁لہجے 1
கா 1
▁Patiala 1
▁మాత్రమే 1
▁दावा 1
▁एलान 1
▁لفظ 1
▁অর্ 1
▁মৌজা 1
▁தேர்தல் 1
▁ఎక్కువ 1
శ 1
54 1
▁কিমি 1
പിടി 1
▁panic 1
member 1
উল্লাহ 1
▁লুইস 1
▁Speaker 1
పీ 1
స్టర్ 1
ার্ড 1
▁பு 1
▁பற்றிய 1
ദേവ 1
రణ 1
▁they 1
▁ministry 1
▁होनी 1
▁حصے 1
▁ফুল 1
▁সিংহ 1
▁पुत्र 1
▁പ്രാഥമിക 1
▁গণ 1
ശല്യ 1
▁ఉండవచ్చు 1
ലിന്റെ 1
▁മരിച്ച 1
▁నీటి 1
விற்கு 1
धा 1
▁ইন 1
ഷം 1
ধ্য 1
نج 1
ANI 1
▁चढ़ 1
z 1
▁master 1
య 1
▁രംഗത്തെത്തി 1
পে 1
పుడు 1
▁حقیقی 1
▁لگے 1
▁১৯৫৭ 1
மையை 1
▁حراست 1
▁ஒப்பந்த 1
▁دیے 1
াম 1
▁രവി 1
▁ভার্ 1
▁Meteorologi 1
▁వస్తుంది 1
▁স্বাধীনতা 1
▁വച്ച 1
সূ 1
వులు 1
▁ఉన్నత 1
▁ബുധ 1
▁పూ 1
▁जून 1
ിന്റേയും 1
▁investigated 1
▁अं 1
▁ఉంటుంది 1
▁പുറത്തിറക്കിയ 1
▁सुविधाएं 1
చార 1
জে 1
ല്ലേ 1
▁” 1
▁पिछले 1
▁గుడివాడ 1
రె 1
ച്ച 1
▁ఎయిర్ 1
জন্ম 1
दी 1
▁होती 1
▁ধর্ম 1
േജ് 1
▁con 1
▁else 1
▁वकालत 1
▁چاہے 1
▁جنہیں 1
▁பிறப்பு 1
▁স্টুডিও 1
▁గౌ 1
েরা 1
▁തെ 1
▁ஆணைய 1
നോട്ട 1
▁تع 1
▁promotion 1
▁যোগ 1
▁जगदीश 1
mu 1
మంది 1
▁नंबर 1
▁نسخ 1
▁కటక 1
▁മുന്നിൽ 1
ధారణ 1
▁उक्त 1
▁വെള്ള 1
▁সুপার 1
▁پی 1
▁বীজ 1
▁issuing 1
▁छ 1
▁مئی 1
▁یونی 1
▁شاگرد 1
▁కొండ 1
மற்ற 1
चि 1
▁جائے 1
▁கார் 1
క్యూ 1
▁संकेत 1
▁ഇരുപത 1
▁tonnes 1
▁ব্যবহৃত 1
স্টি 1
▁കാണാം 1
▁instructed 1
ی 1
| 1
▁Chidambaram 1
▁మళ్లీ 1
▁m 1
▁हेलीकॉप्टर 1
▁दम 1
▁ஊராட்சித் 1
▁دیکھ 1
▁facilities 1
▁Kotwali 1
▁मारे 1
▁பொருளாதார 1
▁সংঘর্ষ 1
డో 1
▁हा 1
▁authorities 1
एनसीआर 1
స్వామి 1
വര് 1
▁assault 1
▁woman 1
▁Prashant 1
▁ঝ 1
▁سائیٹ 1
▁ஏற்படுத்த 1
పాక 1
ப்படுவதில்லை 1
▁Ki 1
▁వాతావరణ 1
ప్ర 1
▁సాధారణ 1
▁11 1
▁matter 1
▁পুরুষদের 1
▁লি 1
▁প্রতিনিধিত্ব 1
िय 1
▁ختم 1
▁ഇത് 1
▁कारोबार 1
▁നിലവിലെ 1
▁riot 1
▁വിശ്രമ 1
▁এছাড়াও 1
▁ഭർത്താവ 1
▁آپ 1
▁الر 1
▁வரும் 1
▁कक्षा 1
▁इलाज 1
tre 1
▁কা 1
▁تھ 1
▁مہیا 1
اج 1
▁ఇంటర్నెట్ 1
▁زر 1
▁رک 1
▁বাসিন্দা 1
▁परि 1
▁అమలవుతోంది 1
▁ஆகியன 1
▁অভিজ্ঞতা 1
তলা 1
▁corporation 1
▁separatist 1
▁تمھیں 1
एफ 1
▁உள்ளடக்க 1
▁وجہ 1
▁crime 1
▁ارادہ 1
und 1
▁ஆய்வாளர் 1
িত 1
l 1
▁சங்க 1
ുകളുടെ 1
▁आलोचना 1
వలన 1
▁கிராமம் 1
▁আধ্যাত্মিক 1
▁இங்கிலாந்து 1
▁shown 1
▁continued 1
▁उपाध्यक्ष 1
থা 1
▁நான்கு 1
▁Before 1
▁বাহিনীর 1
வும் 1
▁دوسرا 1
▁ഒരാള 1
▁மொழிபெயர்ப்ப 1
▁profit 1
്യം 1
▁वैसे 1
▁रफ्तार 1
▁خل 1
▁ഞാന 1
ش 1
▁అందులో 1
▁সাময়িক 1
▁இலவச 1
▁முன்னேற்ற 1
▁সৈন্য 1
▁కర్నూలు 1
ுகின்றன 1
▁सुरक्षा 1
േക്ക 1
▁आश्रम 1
াঞ্চল 1
▁پیر 1
▁چین 1
▁engaged 1
▁Network 1
എ 1
▁ٹریفک 1
ाबाद 1
▁ব্রু 1
ண்ணி 1
▁புரட்டாசி 1
▁রে 1
గమ 1
▁निर्माता 1
▁കരുത 1
▁அனைத்துலக 1
ले 1
ين 1
▁തൊഴിൽ 1
▁پہ 1
%, 1
াল 1
▁executive 1
▁తూర్పు 1
ാന് 1
▁لائبریری 1
▁അംഗീകരിക്ക 1
▁طیار 1
▁ISRO 1
▁ഇന്ത്യയിലെ 1
▁شراکت 1
▁सब्सिडी 1
▁വ്യക്തമായ 1
▁വികസന 1
▁ஃபி 1
▁പ്ര 1
▁കായിക 1
खा 1
▁തിങ്കളാഴ്ച 1
▁తీసుకు 1
پور 1
▁تصور 1
മെ 1
▁مانگ 1
▁ప్రాతినిధ్యం 1
রী 1
▁পিতা 1
▁পরে 1
ल 1
▁മാധ്യമങ്ങള 1
രാജ് 1
▁principle 1
▁जगहों 1
▁dialogue 1
▁advised 1
▁প্রবর্তন 1
▁শিক্ষক 1
▁ملی 1
▁മനസ്സിലാക്ക 1
مند 1
▁مرتب 1
▁క్రో 1
▁பாக்கித்தான 1
വൈ 1
▁ആക്രമിക്ക 1
▁industries 1
▁اجازت 1
▁- 1
▁సంవత్సరము 1
▁سمندر 1
▁பெயர 1
▁باد 1
▁এলাকায় 1
▁सत्ता 1
▁Ka 1
un 1
▁بزرگ 1
▁സഞ്ചാര 1
▁வளரும் 1
▁man 1
▁പോലുള്ള 1
▁అదనంగా 1
hu 1
ిత 1
ങ്ങളിലൂടെ 1
▁Un 1
▁பார 1
▁మిగతా 1
போர் 1
ാലും 1
▁टु 1
▁زباں 1
▁చిత్ర 1
▁مسئلے 1
వేద 1
▁सिविल 1
र्ट 1
യായി 1
▁தமிழ்நாட்டில் 1
ూ 1
চ্ছেদ 1
▁যুক্তরাষ্ট্রে 1
தோ 1
▁اگلا 1
▁స్థావర 1
▁সাম্রাজ্য 1
▁అదనపు 1
களின் 1
ிலான 1
▁ভোট 1
প্প 1
▁வால் 1
▁future 1
्री 1
▁త 1
▁গানটি 1
▁భారత 1
▁nurse 1
▁వృద్ధి 1
▁कोशिश 1
▁किसी 1
തിനാല് 1
▁ఆకర్షణ 1
ca 1
চরণ 1
▁மாநிலத்தின் 1
▁வல்ல 1
▁വിമാന 1
▁বিজ্ঞান 1
▁Sushma 1
▁নম্বর 1
▁मचा 1
കാ 1
ിക്കാം 1
கல 1
▁Kushwaha 1
▁maximum 1
▁मुलाकात 1
▁నగరం 1
▁فائل 1
▁মহাবিশ্ব 1
▁بتا 1
▁కేంద్ర 1
स्पेशल 1
▁نکلا 1
▁मे 1
বহুল 1
▁ആരാധ 1
▁कर्मचारी 1
▁രീതിയിൽ 1
▁पाक 1
▁مشہور 1
▁నడు 1
▁సహజ 1
▁നേതൃത്വത്തില 1
▁கூறு 1
▁அடங்கிய 1
▁ఊ 1
▁ٹو 1
▁রেলপথ 1
▁कितने 1
పత్రిక 1
fe 1
▁Swami 1
హో 1
▁మార్ 1
▁based 1
▁object 1
▁ఆకాశ 1
os 1
భారత 1
▁విజయవాడ 1
▁नकवी 1
▁అర్బన్ 1
▁chargesheet 1
ভে 1
▁அனுப்ப 1
ச்சை 1
▁രാജ്യാന്തര 1
बंदी 1
▁پڑھیں 1
▁گر 1
▁അവസാനിപ്പിക്ക 1
▁മലപ്പുറത്ത 1
▁کمیٹی 1
▁मुकदमे 1
▁শেষে 1
▁men 1
▁രാജ 1
▁বৈ 1
▁نبیل 1
హెచ్ 1
▁झड़प 1
▁ഓടി 1
▁రైతు 1
দ্দ 1
▁Goyal 1
▁ஒளிபரப்ப 1
▁औद्योगिक 1
▁official 1
▁সমন্বয় 1
दार 1
ട്ട 1
▁রাসায়নিক 1
▁ম্যাগাজিন 1
கட 1
▁एफडीआइ 1
red 1
▁دھماکہ 1
▁समेत 1
▁குறுகிய 1
ফিক 1
اض 1
▁తల 1
▁இக்கோயில் 1
▁मानसिक 1
▁Cho 1
കളായ 1
▁மின்ன 1
ंग 1
కుండా 1
আই 1
▁కార్యాలయ 1
▁شہر 1
▁மண்ண 1
▁included 1
ിനും 1
ఫో 1
▁some 1
▁লেখক 1
▁পুনর্ 1
▁பாராட்ட 1
▁தோற்ற 1
ില്ലെന്ന 1
▁প্রকার 1
▁लगा 1
▁शुरुआत 1
गांव 1
পো 1
ந் 1
▁وقف 1
ড়া 1
▁అన్ని 1
▁ट्वीट 1
▁কার্যকর 1
▁নির্ভর 1
▁പോകുന്ന 1
▁കുറഞ്ഞ 1
నొ 1
▁delegation 1
▁تشدد 1
▁مسلمان 1
▁আওতাধীন 1
രാമ 1
শিল্পী 1
▁ഹൈക്കോടതി 1
শ্ 1
▁रखते 1
జన 1
▁பனி 1
മംഗല 1
▁കമ്മിറ്റി 1
▁தமிழ்நாடு 1
▁اطلاعات 1
▁കിലോ 1
24 1
▁site 1
▁لباس 1
▁मना 1
16 1
েই 1
▁நேரங்களில் 1
▁चाहते 1
मणि 1
ുന്നതും 1
▁തീർത്ത 1
▁Tyagi 1
▁لکھتے 1
ലാ 1
▁తరఫున 1
▁సంబంధం 1
▁എച്ച് 1
▁उतर 1
कर्मी 1
▁ప్రదేశం 1
▁কৃষি 1
▁தொன்ம 1
▁Yamuna 1
▁و 1
▁گرد 1
▁forest 1
▁கொண்டுள்ளன 1
▁ദാ 1
▁సరఫరా 1
▁நிமிட 1
▁Irani 1
ுதல் 1
▁I 1
ിനുള്ള 1
▁సోదర 1
▁বোঝানো 1
▁మెదక్ 1
প্রধান 1
▁செய்யப்பட்ட 1
▁consider 1
गंज 1
▁मगर 1
▁اندر 1
▁وہ 1
▁പരുക്ക 1
▁अधिवक्ता 1
▁Officer 1
▁लिख 1
▁होंगी 1
നീ 1
ചേര 1
పా 1
▁سکوں 1
ുമില്ല 1
▁അദ്ദേഹം 1
ாய் 1
▁आते 1
▁করার 1
▁এমনকি 1
▁అసోసియేషన్ 1
▁நீதிபதி 1
▁ار 1
▁യാദവ 1
▁fruit 1
▁தமிழ்நாட்டின் 1
▁স্বা 1
▁பெற்றார் 1
▁সংবিধান 1
▁മാർ 1
▁బోర్డు 1
▁command 1
▁ஆண்டுதோறும் 1
▁عن 1
▁आवंटन 1
▁proper 1
শিল্প 1
▁চতুর্ 1
▁സംഘടന 1
▁spot 1
▁ఇందులో 1
▁submitted 1
لو 1
▁فلسفہ 1
▁நிற்க 1
▁চ্যানেল 1
ிருந்த 1
▁चंडीगढ़ 1
களாகும் 1
▁متعارف 1
▁سیلاب 1
▁நூற் 1
▁negligence 1
wood 1
▁tea 1
▁இதே 1
▁খবর 1
स्त 1
▁వేల 1
▁ڈیڑھ 1
▁ఎటువంటి 1
▁மிகவும் 1
▁ছা 1
▁گناہ 1
▁Mission 1
▁పెద 1
స్య 1
▁Mal 1
▁Magistrate 1
▁അവ 1
▁ذیل 1
▁زین 1
ব্জাং 1
▁visa 1
▁تیار 1
▁உயிரி 1
▁factory 1
▁प्रदर्शन 1
യം 1
▁ഒന്നു 1
▁کےلیے 1
▁২০০২ 1
దానం 1
▁இங்கே 1
▁Kasab 1
▁पुणे 1
L 1
▁MLA 1
▁అల 1
▁RSS 1
தூ 1
ിട്ടുണ്ട് 1
ிலுள்ள 1
▁v 1
▁निरीक्षण 1
കൊണ്ട് 1
▁പൈപ്പ 1
▁ধর্মীয় 1
யெ 1
ശേഷി 1
▁پ 1
▁लक्ष्य 1
▁تنہائی 1
▁അത 1
▁நாடுகள் 1
▁அமைக்கப்பட்ட 1
பெயர 1
▁விளையாட்டுவீரர் 1
▁আমেরিকা 1
▁people 1
▁ஒத்த 1
▁wife 1
லியா 1
▁متحدہ 1
▁ശ്രീ 1
▁చూడ 1
▁جسے 1
▁হ্রাস 1
▁জলবায়ু 1
വ്വ 1
ിന 1
تم 1
▁उर्फ 1
زی 1
▁ഉയര 1
▁ఇతడు 1
ول 1
co 1
▁और 1
▁গভর্নর 1
▁حال 1
▁acquir 1
వర్ 1
▁rail 1
▁സംഘം 1
▁دربار 1
▁తా 1
▁निर्वाचन 1
াংশে 1
▁தொடங்கி 1
__t2ur__ 1
ঞ্জি 1
▁இல்லை 1
▁മറ്റൊന്ന 1
▁Embassy 1
ധാര 1
گو 1
▁described 1
ുകള് 1
ంతు 1
▁ഒന്ന 1
യുണ്ടായ 1
▁کمپنی 1
மங்கலம் 1
चा 1
▁साबित 1
▁முதன் 1
▁संप्रग 1
▁বিলিয়ন 1
qu 1
▁സർവീസ 1
▁عقل 1
పోర్ట్ 1
▁डिजिटल 1
▁పాల్గొన్న 1
▁கூறினார் 1
▁देहरादून 1
▁ശ്രമം 1
▁தேதி 1
▁light 1
▁او 1
x 1
களு 1
▁मजदूर 1
▁അണിയറ 1
▁forces 1
മാര 1
ee 1
▁മുകളില 1
▁வடிவில் 1
▁اوسط 1
▁مر 1
ിന്റെയും 1
▁उनके 1
▁ചിത്രത്തിൽ 1
▁jail 1
▁उन्हें 1
▁ఆధిపత్య 1
▁ഡിജിപി 1
▁క్రి 1
▁اغوا 1
▁ഷെ 1
▁మొదల 1
▁مالک 1
▁قطع 1
▁ministries 1
▁কিশোর 1
യില്ല 1
▁ஒரு 1
▁ஒன்றியத்தில் 1
▁ফুটবল 1
▁resident 1
▁Project 1
▁பூமி 1
தனை 1
▁تسلیم 1
▁ناشتہ 1
▁vice 1
▁നമ്പർ 1
▁இடை 1
▁हिंसक 1
ভেদ 1
▁خالص 1
্র 1
▁کفار 1
▁ہیں 1
▁మలయాళ 1
▁recovered 1
▁March 1
▁ماسٹر 1
आइसी 1
▁இவ்வூர் 1
▁പ്രദേശ 1
▁nation 1
০০ 1
▁made 1
ெ 1
▁आशंका 1
▁താൽപര്യ 1
ാണെന്ന് 1
▁పరిశోధక 1
▁’ 1
▁ஆசிரியர் 1
விலுள்ள 1
▁கட்டு 1
▁اظہر 1
▁لکھا 1
▁That 1
▁இணைய 1
▁অধ্যাপক 1
▁سفید 1
▁அதிகமாக 1
▁भुगतान 1
▁முழுமையாக 1
▁enter 1
▁പിൻ 1
▁లె 1
▁അതോറിറ്റി 1
▁phase 1
▁کھڑے 1
▁இந்தியத் 1
মান 1
▁ashram 1
▁Santosh 1
▁ऑपरेशन 1
▁সেগুলো 1
▁worse 1
পৃষ্ঠ 1
▁नया 1
▁তবে 1
▁सरकार 1
▁খেলার 1
▁സങ്കട 1
▁ধ্বংস 1
ing 1
ാലോചന 1
▁বর্গ 1
ھو 1
జ్యోతి 1
▁अंजाम 1
▁these 1
▁எண்ண 1
وں 1
▁failed 1
▁Bengaluru 1
▁मांगा 1
சு 1
▁place 1
రామ 1
৮৩ 1
▁যান 1
39 1
▁that 1
▁روایت 1
▁ضبط 1
▁تعصب 1
▁لمبا 1
த்து 1
வாச 1
▁പോലീസ് 1
▁ঐতিহাসিক 1
▁loan 1
▁আদমশুমারি 1
▁مش 1
▁داخلہ 1
▁জানিয়ে 1
▁ذرا 1
▁ചെയ്ത 1
▁मुख्तार 1
▁নবাব 1
▁গড়ে 1
▁series 1
▁संतोष 1
▁চাহিদা 1
▁மூன்ற 1
റ്റിക് 1
▁تجھے 1
▁हमें 1
▁అర్థం 1
▁র 1
▁ماورا 1
వర 1
▁പങ്കാളി 1
▁ص 1
▁Urban 1
▁जोड़ 1
ভী 1
▁فخر 1
▁పాఠశాలలు 1
ండి 1
▁able 1
ரும் 1
-1 1
▁एकजुट 1
▁برآمد 1
களைச் 1
▁فری 1
ेंगे 1
கெ 1
▁பெண் 1
▁Tourism 1
▁സർവകലാശാല 1
▁রহমান 1
▁उपराज्यपाल 1
▁పోల్చ 1
▁మార్చి 1
▁జానపద 1
▁روٹی 1
▁লোকসভা 1
▁பேரும் 1
▁लहर 1
ിക്കുകയായിരുന്നു 1
▁مذکورہ 1
▁Aam 1
▁بھابھی 1
▁معاشی 1
▁ప్రొఫెసర్ 1
▁వ్యతిరేక 1
▁राजनेता 1
▁महत्वपूर्ण 1
▁కడప 1
▁Nav 1
شر 1
▁மிகப் 1
धर 1
▁ഒരാഴ്ച 1
▁ഭാഗ്യ 1
हार 1
▁दिक्कत 1
৪৯ 1
৯৮ 1
▁घुस 1
▁মাঠে 1
▁प्रकरण 1
পুর 1
னி 1
▁Chowk 1
▁संस्कार 1
▁প্রক্রিয়া 1
▁సభ్యుల 1
▁നമ്പറ 1
▁വളര് 1
▁मैंने 1
▁दलील 1
▁ఇవి 1
▁நீர 1
▁us 1
▁அதிகம் 1
ാണി 1
व्रत 1
▁Gurgaon 1
▁అధికార 1
▁അത്യാവശ്യ 1
▁برادر 1
ినేని 1
▁దైవ 1
▁அடை 1
▁एफ 1
▁झटका 1
▁those 1
89 1
▁കൃത്രിമ 1
▁துடுப்பாட்ட 1
▁பட்டம் 1
▁திருநெல்வேலி 1
▁রূপ 1
▁settled 1
ाव 1
▁টেলিভিশন 1
▁വർ 1
▁مشرق 1
ئ 1
▁ఎంతో 1
▁किसानों 1
i 1
58 1
▁محفوظات 1
▁ஆஸ்திரேலியா 1
▁கொள்வத 1
ক্র 1
▁Sharad 1
▁गंभीरता 1
▁शरीफ 1
సూ 1
▁வருகிறது 1
▁ജീവിത 1
▁driver 1
▁గారు 1
age 1
▁سوار 1
▁প্রয়োজন 1
▁चोट 1
اق 1
▁policemen 1
া 1
سٹ 1
മേനോന 1
▁शामिल 1
आइएएनएस 1
▁صاف 1
▁సిటీ 1
▁சிறப்பாக 1
▁नौ 1
▁മാലിന്യ 1
▁আহ 1
▁ഇറക്ക 1
▁essential 1
▁റി 1
রাষ্ট্র 1
భూ 1
▁होते 1
▁போரில் 1
▁Ex 1
ുരു 1
▁پیمانے 1
▁তেমন 1
▁آئین 1
▁கட்டிட 1
▁৪৮ 1
ടങ്ങിയ 1
▁கல் 1
▁பெற்றது 1
प्रेट्र 1
▁decided 1
▁അനുവദിച്ച 1
▁முற் 1
డం 1
▁अध्ययन 1
▁ചെയ്യാന 1
ിത 1
▁অপরাজিত 1
▁برقرار 1
▁اکثر 1
▁కాలువ 1
തല്ല 1
▁bike 1
ദിവസ 1
▁حملہ 1
▁തുടര 1
ഞ 1
▁കാരണം 1
ற்ற 1
▁seven 1
▁पुरस्कार 1
রত 1
ज़ 1
േക്കാൾ 1
தலை 1
லூ 1
▁جلوہ 1
യ 1
▁سیاہ 1
▁আবাস 1
▁കന്നി 1
▁కార్యాలయం 1
▁جسم 1
ിരുന്ന 1
▁reality 1
▁Similarly 1
▁دماغ 1
▁தொடங்கினார் 1
ങ്ങനെ 1
▁Also 1
▁మద్రాసు 1
▁बे 1
తనం 1
▁Income 1
▁मुरादाबाद 1
খ্যাত 1
ാർ 1
▁బోరుబావులు 1
▁క్ల 1
▁ऐसा 1
ൈസ 1
മേഖല 1
▁দ্রব্য 1
▁बदलने 1
ാറില്ല 1
▁ডো 1
▁حم 1
భవ 1
க்கப்பட்டது 1
▁வலை 1
▁Sar 1
▁Court 1
▁مسئلہ 1
▁அனைவர 1
▁Maidan 1
▁నా 1
▁പ 1
▁چاہیے 1
▁காம 1
▁joshi 1
ద్ది 1
ধর্মী 1
▁एनजीओ 1
▁ফলশ্রুতিতে 1
▁கொண்டார் 1
▁करोड़ 1
▁नियुक्त 1
▁ছবিটি 1
▁പുറത്തിറങ്ങിയ 1
▁ஏற்றுக் 1
▁പ്രതീക്ഷ 1
সং 1
▁వాతావరణం 1
▁மாணவர் 1
▁حجاب 1
▁వీడియో 1
▁केवल 1
▁वादे 1
ലോക 1
▁ലക്ഷ 1
▁శబ్ద 1
▁similar 1
یز 1
▁نیچے 1
▁ذوق 1
வர் 1
▁மெய் 1
▁প্রতিরোধ 1
श्व 1
कल 1
▁دعو 1
▁ஆலய 1
మైనది 1
▁ശേഷം 1
▁बन 1
र्स 1
াত্মক 1
▁కనీసం 1
▁formation 1
▁രാജ്യ 1
▁ادھر 1
▁فرحت 1
▁अलर्ट 1
▁వార్త 1
▁ఉండేది 1
▁ఎందుకంటే 1
স্টা 1
▁धमाक 1
▁അധികൃതര 1
▁വീഴ്ച 1
▁آسٹریلیا 1
െണ്ണ 1
▁పెరగ 1
▁agitation 1
▁UP 1
▁مخلص 1
▁ప్రదేశాల 1
വരാണ് 1
▁बंटवारे 1
యో 1
▁కాకతీయ 1
▁పోతున్నాయి 1
▁২ 1
▁வாழ் 1
▁हिस्से 1
▁ادیب 1
▁गर्भ 1
▁अहम 1
▁Leader 1
▁باعث 1
▁പീഡിപ്പിച്ച 1
▁मिली 1
▁সক্ষম 1
▁টাওয়ার 1
▁held 1
▁ح 1
▁strategic 1
यल 1
▁മീ 1
▁Me 1
ज 1
ப்படவில்லை 1
▁تفتیش 1
स्तरीय 1
கீ 1
ிறது 1
▁ഫെയ്സ്ബുക് 1
ത്തിന്റെയും 1
▁لڑ 1
▁ആനന്ദ 1
পরি 1
▁probe 1
▁आंकड़े 1
▁এজন্য 1
▁போன்றவற்ற 1
▁گروپ 1
▁مزید 1
▁गार्ड 1
য়েড 1
▁trust 1
▁پتا 1
▁قرار 1
▁ماہ 1
ഭാവ 1
ுகின்ற 1
▁ज 1
▁అనుగుణంగా 1
▁পরামর্শ 1
▁ஏற்ற 1
▁دیکھتے 1
जे 1
ன்றி 1
▁he 1
▁सकेगा 1
ுறவு 1
▁हड़ताल 1
▁लड़ाकू 1
శు 1
▁కన 1
▁நிருவாக 1
▁దర్శకుడు 1
espite 1
▁వైఎస్ఆర్ 1
▁నుండి 1
▁margin 1
▁সালের 1
വുമാണ് 1
யாளர் 1
▁ഔദ്യോഗിക 1
▁आदर्श 1
▁Azad 1
▁వేడుక 1
▁தொடர்ச்சி 1
▁നിർമിക്ക 1
▁خشک 1
▁పద్ధతుల 1
▁ఆహార 1
▁अंतिम 1
▁ആരും 1
▁অপারেটিং 1
▁రూ 1
െടുത്തു 1
▁بھائ 1
▁தொடங்க 1
oc 1
▁মার্কিন 1
▁রিপোর্ট 1
▁profession 1
▁کروایا 1
▁পেয়েছে 1
▁راست 1
▁சித்த 1
▁கட்சியின் 1
▁PIL 1
▁VHP 1
കിയ 1
▁இரவு 1
▁রকম 1
▁দপ্তর 1
▁కవి 1
▁ప్రామాణిక 1
▁എന്നിവിടങ്ങളില 1
இல் 1
▁తల్లిదండ్రుల 1
ఉంది 1
▁गडकरी 1
▁popular 1
▁exploit 1
▁ধূসর 1
বৃত্ত 1
ند 1
▁எளிதாக 1
▁సాధించింది 1
▁Robert 1
সভা 1
▁अनियमितता 1
53 1
▁gold 1
▁रोजगार 1
▁سعد 1
▁ஆசிரிய 1
▁central 1
▁दलों 1
▁approach 1
▁హక్కు 1
▁കണ്ട 1
▁यूनिवर्सिटी 1
বিষয়শ্রেণী 1
▁പോക 1
▁till 1
do 1
नि 1
▁ഒഴിപ്പിക്ക 1
▁வடக்கில் 1
▁వ్యవహార 1
▁നിര 1
গ্ 1
▁short 1
▁पड़ोसी 1
▁సంస్కరణ 1
▁ചര് 1
ভো 1
▁مخاطب 1
▁बांध 1
▁നിങ്ങളുടെ 1
▁গুরুত্ব 1
▁ব্যাপক 1
▁সংসদ 1
ப்பட்டார் 1
▁মাতা 1
▁ममता 1
ஸ 1
▁scam 1
اد 1
▁১৯৫৬ 1
▁अमिताभ 1
▁சிங்கள 1
gal 1
▁اٹھ 1
ിരിക്കുന്ന 1
▁മറ്റ 1
মেন 1
▁ఐ 1
▁পর্বত 1
▁చోటు 1
▁कर्ज 1
രീതി 1
▁തുടര് 1
▁۔ 1
▁بھیا 1
up 1
▁పరమాణు 1
▁secret 1
ులు 1
పోతున్న 1
ത്തിന 1
ർ 1
▁پڑا 1
▁گلی 1
▁طبع 1
▁मंजिल 1
आर 1
▁১৯৭২ 1
▁ആത്മവിശ്വാസ 1
▁جناب 1
▁రకాలు 1
▁according 1
▁നയ 1
▁building 1
▁হবে 1
▁ধন 1
న్నె 1
▁టాక్సీ 1
▁Meanwhile 1
్ 1
▁حکومت 1
▁ثابت 1
▁துறை 1
▁complained 1
ുന്നതിന് 1
▁परंपरा 1
▁सहायता 1
▁संयोजक 1
▁حسن 1
▁மத 1
▁సంగీతం 1
▁స్త్రీల 1
▁തിരിച്ച 1
పాటి 1
ஸ்ட் 1
▁सुब्रमण्यम 1
েন্দ্রনাথ 1
▁सक्रिय 1
్యం 1
ையில் 1
▁गोलीबारी 1
ப்பாதை 1
ദി 1
J 1
▁ബി 1
▁కుమార్ 1
▁तेलंगाना 1
▁वादा 1
ana 1
▁கொடு 1
▁வெடி 1
▁گھروں 1
▁പിടിക്ക 1
▁माओवादियों 1
▁গ্রাম 1
▁dispute 1
▁കീഴില 1
▁അനുസരിച്ച 1
▁انتقال 1
ിച്ചു 1
▁പൃഥ്വി 1
▁రక్త 1
▁অস্ট্রেলীয় 1
▁مصرع 1
▁बृहस्पतिवार 1
▁மாறுபட்ட 1
▁১৯৬৬ 1
▁வகுத்த 1
▁শ্রমিক 1
▁Paswan 1
▁प्रदर्शनकारियों 1
▁भारी 1
▁కాకినాడ 1
پی 1
▁پلیٹ 1
▁குறிப்பிடத்தக்க 1
▁القرآن 1
▁हाथों 1
▁విద్యుత్తు 1
▁సులభ 1
▁கேள்வி 1
एएनआई 1
▁खंडपीठ 1
▁साइकिल 1
▁यात्री 1
▁रोजाना 1
▁ഇതിനു 1
کر 1
▁درجہ 1
cc 1
▁করেছিল 1
▁draft 1
▁যে 1
▁Ambedkar 1
स्थ 1
▁கொண்டிருக்கும் 1
▁Desk 1
▁వెంకట 1
दा 1
▁उनका 1
ടോബര് 1
▁Director 1
▁যায় 1
ധന 1
▁മുസ് 1
▁నాలుగు 1
ുണ്ടെന്ന് 1
chan 1
▁జె 1
ബി 1
▁Masjid 1
മുണ്ടാ 1
▁గల 1
দিন 1
# 1
▁مسلم 1
▁আকবর 1
▁ആസ്വദിക്ക 1
▁குழு 1
▁transfer 1
▁సంఖ్య 1
▁family 1
garh 1
▁இராஜ 1
ందు 1
▁کہہ 1
▁data 1
▁ఉద్దేశ 1
▁সংখ্যা 1
▁1970 1
▁ہرگز 1
▁சந்திர 1
ndra 1
▁داخل 1
▁खेल 1
▁J 1
press 1
▁institute 1
▁comment 1
▁پرویز 1
▁علی 1
▁బెంగాల్ 1
▁انتظار 1
▁কাম 1
▁ഗ്യാ 1
سٹر 1
▁شاپ 1
▁step 1
▁Inspector 1
ശി 1
▁బ్రిటన్ 1
జం 1
▁വിവര 1
▁रोक 1
▁हार्दिक 1
▁ശക്തി 1
چی 1
▁സംവിധായകന് 1
▁কোন 1
▁मंत्री 1
▁governance 1
ൊപ്പം 1
கொள்ள 1
‍ 1
ராகவும் 1
▁৫২ 1
▁য 1
క్రమ 1
▁ইত্যাদি 1
ములో 1
▁ماہرین 1
▁flood 1
▁সর্বপ্রথম 1
▁मोहम्मद 1
லி 1
▁می 1
▁Dilip 1
▁علم 1
▁भूल 1
▁संभव 1
▁இலக்கண 1
▁తన 1
▁गैर 1
▁کشی 1
▁గణిత 1
▁बैठ 1
▁అమర్చ 1
▁ஆனந்த 1
▁نش 1
▁Afzal 1
▁బహుళ 1
▁would 1
▁گيا 1
आइ 1
▁ప్రాంతాన్ని 1
▁ইংরেজি 1
▁انسانیت 1
▁সরাসরি 1
▁لوگ 1
▁ஜே 1
▁same 1
▁దేశాలలో 1
▁ప్రఖ్యాత 1
▁சாதனை 1
▁ഇനി 1
▁நகராட்சி 1
▁रहा 1
▁केरल 1
▁खारिज 1
वि 1
▁چھوٹی 1
▁اعتماد 1
▁ஆண்ட 1
▁37 1
▁ইসলামী 1
▁defend 1
ங்களின் 1
▁കള്ളപ്പണ 1
▁വീണ്ടും 1
দ্রা 1
▁Nar 1
▁B 1
ष्ट 1
▁ഒരുക്കിയ 1
▁طبیعت 1
▁அலை 1
▁مرتبہ 1
చిత్తూరు 1
▁بھی 1
களை 1
▁moment 1
▁دینی 1
ग्राम 1
▁परियोजनाओं 1
▁তুরস্ক 1
▁উঠে 1
▁കടന്ന 1
▁ورڈ 1
▁వ్యవసాయాధారిత 1
▁session 1
▁allegation 1
▁ആ 1
▁സമയം 1
▁বেঁচে 1
കുട്ടികള 1
▁recruitment 1
సీ 1
ological 1
▁लड़की 1
▁प्रतिशत 1
ിലും 1
▁بکھر 1
ണമെന്ന് 1
▁చూసి 1
▁అనుమతి 1
িকা 1
ন্টা 1
▁থাইল্যান্ড 1
جہ 1
▁நரம்பு 1
ிருக்கலாம் 1
நாயக்க 1
▁رکھے 1
▁अल 1
▁इसे 1
ক্সি 1
▁افتخار 1
من 1
▁നിർത്ത 1
▁اسامہ 1
▁ഒാ 1
▁సొ 1
▁मकसद 1
▁عبور 1
▁নেই 1
ga 1
द्ध 1
మయిన 1
▁അഭിപ്രായപ്പെട്ട 1
▁لندن 1
روں 1
మా 1
▁పైబడిన 1
▁اقوام 1
▁ప్రాథమికోన్నత 1
▁കേള 1
▁పార్టీ 1
▁भाव 1
▁ڈاؤنلوڈ 1
కారుడు 1
േറിയ 1
▁construction 1
ণ্ 1
▁عادت 1
▁பல்ல 1
▁காண 1
06 1
▁অন 1
ڑھ 1
जर 1
shi 1
▁پاس 1
▁रोग 1
స్తుంది 1
ound 1
▁killed 1
▁మచిలీపట్నం 1
▁نمایاں 1
▁تبلیغ 1
▁कहना 1
▁মহাবিদ্যালয় 1
▁عقائد 1
▁गीत 1
▁आपत्ति 1
ാൽ 1
▁ইয়র্ক 1
▁கடை 1
▁গোষ্ঠী 1
▁पूछ 1
ந்தர் 1
▁met 1
▁কর্মকর্তা 1
▁शीला 1
▁عاشق 1
ja 1
▁തീയതി 1
▁സംഭാവന 1
▁ഒപ്പം 1
▁خبر 1
▁دے 1
▁திரும்பி 1
▁जोशी 1
▁सर्विस 1
▁భారతదేశంలో 1
▁Bhu 1
▁Mahatma 1
▁রাজনৈতিক 1
▁বের 1
▁তৃতীয় 1
▁അന്വേഷണ 1
फॉर्म 1
▁மார்ச்சு 1
▁ঘন্টা 1
▁যুক্তরাজ্য 1
▁১৯৫৪ 1
ए 1
▁പോയ 1
▁വിഭാഗം 1
மூர்த்தி 1
▁കൂട്ടായ്മ 1
▁பிரிக்கப்பட்ட 1
▁improving 1
▁பொறுத்து 1
களுள் 1
▁প্রচেষ্টা 1
ப்பிட 1
▁মন্দির 1
▁space 1
▁মারা 1
▁തിരക്ക 1
▁خوا 1
▁பிடித்த 1
▁بي 1
களைப் 1
▁இராக 1
▁January 1
▁قاری 1
presidential 1
▁অক্ষ 1
జిల్లా 1
▁நியமிக்கப்பட்ட 1
00 1
ుతారు 1
را 1
▁బదిలీ 1
▁ভারত 1
▁will 1
▁പുതു 1
▁پایا 1
▁یادگار 1
യാക 1
டுகள் 1
▁ম্যান 1
తె 1
▁اراکین 1
யைத் 1
▁কিলোমিটার 1
పాలెంలో 1
▁যখন 1
▁نومبر 1
▁بخیر 1
▁పూర్తి 1
▁വിദേശ 1
▁दत्त 1
മാണ് 1
سط 1
▁اج 1
▁నివేదిక 1
▁ரோ 1
▁জানুয়ারি 1
▁جذب 1
▁ഇയാള 1
▁फिल्म 1
▁पूरा 1
▁एक्सप्रेस 1
▁ఫ్రెంచ్ 1
▁అందరి 1
ram 1
▁culprit 1
▁فلسطین 1
▁परीक्षण 1
▁వ్యక్తి 1
ిని 1
ंगी 1
▁के 1
▁مک 1
▁significant 1
▁வெளியிட்ட 1
▁पो 1
পত্র 1
▁সমূদ্র 1
స్టే 1
रु 1
▁తమ 1
▁age 1
▁কাগজ 1
▁ചൊല്ല 1
▁toilet 1
മ്മാണ 1
▁Society 1
தை 1
▁فٹ 1
▁دستیاب 1
க்காக 1
▁கன்னட 1
த்துறை 1
▁करने 1
ুল 1
▁آخر 1
▁عوام 1
▁participation 1
▁جائزہ 1
op 1
▁கட்டுரை 1
▁غائب 1
शाला 1
▁at 1
▁ک 1
▁గ్రామంలో 1
▁விஞ்ஞான 1
▁injuries 1
▁दिमाग 1
▁வளிம 1
am 1
▁کمانڈ 1
▁तरफ 1
দেহ 1
▁دیہات 1
▁சிறப்ப 1
▁بھاری 1
నంత 1
ై 1
president 1
▁এফ 1
▁பாறை 1
▁Dev 1
▁సబ్ 1
▁لڑکے 1
▁serious 1
▁చేస్తూ 1
▁خیال 1
▁موسم 1
త్వ 1
▁باس 1
▁ఇ 1
▁కానీ 1
▁पुनर्विचार 1
▁আসলে 1
▁అవసరమైన 1
▁உருவான 1
▁پڑھ 1
▁హైదరాబాద్ 1
▁प्रोफेसर 1
▁কাঁ 1
▁विद्युत 1
▁ছ 1
▁প্রচুর 1
ستان 1
বিন্যাস 1
▁துன்ப 1
▁लेख 1
▁pre 1
▁board 1
ిస్తాడు 1
▁नीतियों 1
▁technique 1
▁punishment 1
▁చూస 1
కుడు 1
ক্ত 1
▁হি 1
َّ 1
▁ظاہر 1
സിന് 1
▁प्रत्याशियों 1
▁جاسوس 1
▁टू 1
శ్ 1
ന്ന 1
▁Ti 1
▁ستمبر 1
ளா 1
▁ट्रैक 1
▁వాస్తవ 1
ంప 1
Districts 1
▁टाइम 1
െന്ന 1
▁बहुमत 1
▁প্রবেশ 1
▁पैदा 1
▁ഫി 1
▁خان 1
▁నిర్వహించారు 1
G 1
▁आश्वासन 1
▁Swamy 1
शन 1
▁వారిని 1
▁frame 1
ged 1
▁பல்கலைக்கழகம் 1
ല്ല 1
▁नाम 1
▁ক্রিকেট 1
▁সার্ 1
▁పొడవు 1
▁इंतजार 1
▁अधीक्षक 1
▁গ্রন্থ 1
▁पढ़ 1
7 1
▁సర్వ 1
ഏ 1
▁আশ্রয় 1
▁বিল 1
▁جنرل 1
మార్చి 1
▁अब्दुल्ला 1
▁ادارے 1
▁সুলতান 1
ত্ 1
▁case 1
ബോളിവുഡ 1
▁नेटवर्क 1
ுடன் 1
▁வான் 1
াইয়ের 1
▁വർഷ 1
▁समर्थन 1
▁২০১০ 1
▁صاحب 1
ത്തേ 1
▁छात्रा 1
▁ব্লা 1
▁சமூக 1
▁سنجیدگی 1
▁stress 1
▁బ్యా 1
down 1
▁रखने 1
▁खबरों 1
কারী 1
▁সমালোচনা 1
di 1
▁ఉత్సవ 1
ரீ 1
▁கிள 1
▁assistant 1
▁স্ত্রী 1
▁عبدال 1
గ్రహ 1
very 1
জী 1
▁లోని 1
▁നവംബര് 1
▁বিজয়ী 1
▁وزیر 1
পত্তি 1
▁Line 1
▁প্রোগ্রাম 1
ధి 1
▁स्थानों 1
▁যুক্ত 1
▁శివ 1
▁preparations 1
ড়ি 1
▁దర్శకత్వం 1
▁impact 1
▁فیصلے 1
▁సో 1
▁മറ്റു 1
▁கொள்கை 1
▁पहुंचा 1
▁পৌর 1
స్తు 1
▁செ 1
▁Ibrahim 1
▁कर्नाटक 1
▁থানা 1
▁26 1
▁علماء 1
▁مٹی 1
▁रे 1
జన్ 1
▁If 1
▁విభిన్న 1
▁سست 1
▁assess 1
▁Gorakhpur 1
தர 1
▁कट 1
▁நம்ப 1
▁کمپ 1
▁ഇവരുടെ 1
▁வாய்ப்பு 1
▁جاسکے 1
▁முதன்மைத் 1
▁രണ്ടാം 1
▁வகையில் 1
लिया 1
▁रिमांड 1
▁remote 1
▁डॉलर 1
▁നമ്മുടെ 1
▁చేయడానికి 1
▁মো 1
▁फ्लाइट 1
▁Earlier 1
▁مشاہد 1
▁trade 1
▁Pawar 1
णी 1
▁स्टार 1
പി 1
▁কখনো 1
লা 1
▁ക്ഷണിച്ച 1
▁समर्थक 1
▁class 1
െക്കുറിച്ച 1
▁স্বীকৃতি 1
ப்பள்ளி 1
ాబాద్ 1
▁परिजनों 1
र्ब 1
▁భార్య 1
▁الیکشن 1
▁আমার 1
বাহিনী 1
నె 1
▁satellite 1
▁उत् 1
▁بہن 1
▁मौके 1
▁ലേ 1
▁செய்ய 1
ल्ला 1
▁f 1
▁தமிழர் 1
▁لگیں 1
▁Min 1
▁సంగీత 1
▁നീങ്ങ 1
▁చెరకు 1
▁தயாரித்த 1
▁difference 1
▁wave 1
पीएफ 1
హు 1
சி 1
▁விட்டு 1
▁చేస్తోంది 1
▁improve 1
ട്യൂ 1
83 1
▁உருவாக்க 1
ఉ 1
▁member 1
ப்பி 1
▁America 1
▁ഡെ 1
▁Sibal 1
▁ചെയ്യുന്നു 1
▁heavy 1
▁متن 1
▁టెక్నాలజీ 1
▁ഡ 1
யினால் 1
▁تنخواہ 1
▁20 1
ஞ்சா 1
ுக்கான 1
▁स्कूलों 1
ാണോ 1
▁మినుము 1
க்கி 1
▁S 1
ita 1
▁ٹ 1
সাহিত্য 1
▁Regard 1
▁لا 1
ഘടന 1
▁نشاندہی 1
▁होटल 1
▁returning 1
▁మార్కాపురం 1
▁मंशा 1
த 1
▁அது 1
▁lawyer 1
▁رخ 1
turn 1
▁آکر 1
ায়ন 1
▁കേന്ദ്ര 1
الی 1
▁किमी 1
▁சங்ககால 1
▁expert 1
സൈറ്റ 1
▁extent 1
▁റിപ്പോർട്ട് 1
களான 1
▁दर्शा 1
ধি 1
▁تصویریں 1
யன் 1
ഘട്ട 1
▁এক 1
▁treat 1
▁تناظر 1
▁पत्र 1
▁غور 1
▁बरत 1
▁రచించిన 1
రవ 1
▁percent 1
▁Priyanka 1
▁सागर 1
▁بیت 1
▁কার্বন 1
▁വയസ്സ 1
▁లండన్ 1
▁డ్ర 1
▁കയറി 1
▁فی 1
▁phone 1
▁গ্রীষ্ম 1
▁নর 1
▁വരെ 1
▁27 1
▁बिजली 1
▁Ni 1
▁رویہ 1
▁ലക്ഷ്യമിട്ട 1
CR 1
▁coal 1
▁ഉടൻ 1
ക്ട 1
▁যাতে 1
निक 1
▁जो 1
▁একসাথে 1
▁ہسپتال 1
▁درود 1
കൊടുത്ത 1
▁snowfall 1
▁Count 1
▁గ్రహించ 1
▁হাসপাতাল 1
▁आनंद 1
సన 1
ath 1
उ 1
▁ഇടവേള 1
▁সরকারি 1
కె 1
▁چلی 1
▁نکتہ 1
▁Will 1
▁ইলেক্ট্র 1
▁வெளிவந்த 1
▁Commission 1
▁آباد 1
▁पहले 1
▁اخبار 1
രാജ 1
▁citizen 1
▁நூற்றாண்டில் 1
▁గౌరవ 1
▁ചെയ്യാൻ 1
▁اللہ 1
▁শুরু 1
▁হলেন 1
▁دئیے 1
▁வேட்பாளராக 1
▁ஆவது 1
▁बुला 1
▁+ 1
▁പ്രകടിപ്പിച്ച 1
ெடுத்த 1
ணக்கெடுப்பின்படி 1
▁క్రమ 1
▁زمیں 1
ടുപ്പ 1
▁country 1
बार 1
▁செய்யப்படும் 1
▁অক্ষাংশ 1
▁ఉపయోగపడ 1
▁اردو 1
▁విశ్వాస 1
▁గవర్నర్ 1
ఆ 1
▁ஜேம்ஸ் 1
▁കുടിവെള്ള 1
▁عليه 1
▁பெருமை 1
▁লাতিন 1
▁தேவாலய 1
▁কো 1
▁एक 1
▁അന്നു 1
▁ഭാവ 1
ٹر 1
▁आप 1
76 1
▁வெளியிடப்பட்ட 1
▁شناخت 1
▁மீனாட்சி 1
ेंट 1
ష్ణ 1
▁খা 1
▁Dal 1
গে 1
▁لمبی 1
▁बुजुर्ग 1
▁കസ്റ്റഡി 1
▁সমষ্টি 1
▁প্রবাহ 1
st 1
▁പ്രീമിയ 1
▁സൂ 1
▁सक्षम 1
▁روزگار 1
ন্দু 1
யுடைய 1
▁manner 1
▁बेटा 1
കര് 1
▁प्रतिबंध 1
▁ഉണ്ടാകും 1
▁lead 1
▁ढांचे 1
نڈے 1
▁संसदीय 1
▁certificate 1
▁ইন্টারনেট 1
▁গেম 1
्मा 1
▁चिदंबरम 1
▁గుర్త 1
▁conference 1
जू 1
▁కోట 1
▁తీర్చ 1
▁സ്വാധീന 1
▁سیاسی 1
▁دروازہ 1
▁مہینے 1
▁Govind 1
▁തോമസ് 1
கோவில் 1
’ 1
cept 1
▁പ്രതി 1
▁remember 1
▁কী 1
▁কার্যক্রম 1
▁காடு 1
▁hunger 1
ுகிறார்கள் 1
ఈ 1
▁ഒരുപാട് 1
▁ফ্রে 1
ட்ட 1
आई 1
▁Trust 1
▁प्रमुख 1
ந்திய 1
ইউ 1
र् 1
▁যারা 1
▁অধিক 1
▁ٹاپ 1
▁இத்திரைப்படம் 1
al 1
▁পরিবর্তে 1
ുന്നതിനിടെ 1
▁మద్య 1
▁இருக்கிறார் 1
اتے 1
▁అమ్మవారి 1
▁कई 1
ியுள்ளார் 1
▁షా 1
▁Ratna 1
▁తూర్పున 1
▁درآمد 1
▁हाई 1
▁ম্যা 1
্স 1
వ్వ 1
▁بتاؤں 1
mp 1
▁समझौता 1
দান 1
▁ব্র 1
▁DMK 1
▁حافظ 1
▁அளிப்ப 1
▁உலகப் 1
▁হাজার 1
▁প্রশিক্ষণ 1
▁రాజకీయ 1
▁లెక్కల 1
▁राज्यसभा 1
▁সোনা 1
▁জ্যাক 1
▁നശിപ്പിക്ക 1
▁Bhim 1
நாள் 1
కాల 1
line 1
▁गतिविधियों 1
▁पंजाब 1
▁எசுப்பானிய 1
ড্র 1
▁medium 1
▁উপজেলা 1
▁ടി 1
wiki 1
▁ভো 1
பொ 1
▁among 1
லர் 1
▁عروض 1
மண 1
நிரல 1
▁انتخابات 1
▁வளாக 1
▁చిన్న 1
ேட்டு 1
▁پیغمبر 1
▁ভূমিকায় 1
▁ठाकुर 1
ন্ন 1
▁উৎসব 1
▁reaction 1
▁جلدی 1
ities 1
200 1
▁अपना 1
▁लगने 1
35 1
con 1
यों 1
▁खबरें 1
▁രാജമൗലി 1
కృత 1
▁ھم 1
▁পুরষ্কার 1
▁നോക്കി 1
▁യുഎഇ 1
▁محبت 1
▁అధికంగా 1
▁মন্তব্য 1
▁അഭിനയ 1
మేనేజ్మెంట్ 1
ভি 1
▁پروف 1
▁बहिष्कार 1
▁available 1
▁কাজে 1
▁బంధ 1
▁third 1
▁चेहरे 1
ഘ 1
char 1
▁അപ 1
ബോധ 1
▁திரட்ட 1
▁দশকে 1
▁इसके 1
▁संभाल 1
▁ترین 1
▁ఎన్నిక 1
▁زیارت 1
▁ക്രിക്കറ്റ 1
▁శ 1
▁আসা 1
ുറപ്പ 1
▁known 1
▁latest 1
ോടും 1
▁संदेश 1
▁பார்க்க 1
റേഷന 1
جد 1
▁مثال 1
▁ആദര 1
റിഞ്ഞ 1
▁send 1
▁contribution 1
▁द्वारा 1
▁കോളജ് 1
▁Le 1
▁अनिवार्य 1
▁திருமால 1
▁ശേഖരിച്ച 1
▁என 1
▁১৮ 1
▁சண்டை 1
त्त 1
▁आज 1
▁കോടതി 1
▁വര് 1
▁പ്രാധാന്യ 1
▁ദുരിത 1
▁పేర్కొన 1
బాల్ 1
▁காவல் 1
▁constituency 1
▁अथवा 1
▁പലപ്പോഴും 1
▁అధ్యయన 1
▁Bharti 1
▁نشر 1
▁समस्याओं 1
▁ഫല 1
▁In 1
▁కారణం 1
▁चेन्नई 1
▁اوپر 1
▁എണ്ണം 1
che 1
32 1
▁பெற்றவர் 1
▁आजम 1
▁விளக்க 1
▁पंकज 1
পার্ 1
▁شاید 1
▁முன்னோடி 1
ഭാഷ 1
وش 1
▁ٹک 1
▁denied 1
▁आधारित 1
▁Address 1
▁establish 1
▁गए 1
▁வர 1
▁পরিচিতি 1
ட்டில் 1
குளோர 1
▁ضرب 1
ுவதில்லை 1
ഗോപാല 1
▁వివాహ 1
▁পানি 1
జ్ 1
▁directed 1
▁നിർത്തി 1
▁كو 1
▁शक्ति 1
▁कॉलेज 1
▁generation 1
ൊന്നും 1
▁شوہر 1
मे 1
ത്തിയ 1
▁देशभर 1
▁കാൻസർ 1
▁پچاس 1
▁செயற்பாடு 1
▁decade 1
▁With 1
▁France 1
▁എന്നിങ്ങനെ 1
▁১৯৪৭ 1
▁অর্জন 1
டெ 1
▁హార్ 1
▁পৃথিবী 1
▁വി 1
▁ముఖ్యంగా 1
▁बढ़ा 1
all 1
▁بہانے 1
▁வளர்ந்த 1
യ്ക്കു 1
క్కు 1
् 1
▁১৪ 1
▁বিষয়ক 1
▁അക്രമ 1
▁टूट 1
▁نگر 1
▁Uttar 1
▁مستقبل 1
▁கூற 1
▁جہاں 1
▁چینی 1
▁నమూనా 1
ठ 1
ాపురం 1
▁కావడం 1
▁పనిచేస్తుంది 1
▁subsidy 1
▁কন 1
Mantar 1
▁മറ്റൊരു 1
മാസ 1
▁రాయ 1
▁directly 1
▁১৯৬১ 1
▁بیشک 1
▁নির্মিত 1
▁تمھاری 1
ந்து 1
ത്തോളം 1
▁சோடியம் 1
▁বোঝা 1
১৫ 1
▁रह 1
▁বেসামরিক 1
िड 1
▁properties 1
ായിരിക്ക 1
▁புராண 1
▁ஆசிரியராக 1
▁సరస్సు 1
▁कुर्सी 1
▁বন 1
▁टी 1
▁விவர 1
ہے 1
▁ত 1
▁క్ర 1
▁बेंगलुरु 1
▁बंधक 1
▁मुझे 1
▁اعمال 1
▁چڑھا 1
▁చేసుకొ 1
▁ముగింపు 1
▁threatened 1
▁حملوں 1
▁బృంద 1
▁Karunanidhi 1
▁payment 1
jagran 1
▁Chaudhary 1
▁స్వీకరించ 1
ിനെയും 1
▁सपना 1
গুলি 1
ধর্ম 1
▁nuclear 1
▁दिलाने 1
▁बुधवार 1
▁یافتہ 1
ించ 1
▁ঠোঁট 1
▁सकता 1
▁युवाओं 1
▁থ 1
▁മണിക്കൂറ 1
▁చీ 1
▁خصوصا 1
▁participating 1
▁আমি 1
▁படுத்த 1
▁മത 1
room 1
▁বিদ্যমান 1
▁చేతిపంపుల 1
▁NGT 1
▁gas 1
▁സ്കൂള 1
▁సృష్టించ 1
▁बलों 1
▁विज्ञापन 1
▁custom 1
తులు 1
വർഷം 1
▁emphasiz 1
▁রেকর্ড 1
lar 1
▁Swaraj 1
▁தூர 1
शे 1
▁എഴുതിയ 1
▁clearly 1
▁جلد 1
्लो 1
▁آفتاب 1
ut 1
िता 1
▁ധരിക്ക 1
▁کردیں 1
▁ഗ്ര 1
▁আদি 1
▁இன்றைய 1
▁& 1
యోధ 1
▁اوہ 1
▁ദുരൂഹ 1
▁एजेंडा 1
▁परीक्षा 1
১০ 1
▁చేస్తారు 1
▁प्राधिकरण 1
▁سنگھ 1
▁नतीजों 1
▁ആൻഡ് 1
▁డాక్టర్ 1
▁കണക്ക 1
ள்ள 1
ంధ 1
జి 1
▁പഠിച്ച 1
▁মীর 1
43 1
▁nine 1
▁RBI 1
▁पटेल 1
/ 1
▁تجربے 1
▁فاروق 1
▁ولی 1
▁پچھلے 1
▁நு 1
▁সরকার 1
patti 1
తా 1
▁Bangalore 1
ത്താവ 1
▁கைப்பற்ற 1
▁छत्तीसगढ़ 1
▁مجرم 1
▁Budget 1
வரான 1
▁خاتمے 1
▁शरद 1
തിനു 1
▁वाड्रा 1
టువంటి 1
ட்டி 1
▁வேதி 1
▁पद 1
▁క్రీ 1
▁بالا 1
▁കിരീട 1
▁విమర్శ 1
▁एम 1
▁episode 1
▁പിന്നാലെ 1
▁নু 1
▁देते 1
lo 1
▁என்பவர் 1
▁छिपा 1
▁ہنگام 1
▁पहुंचाया 1
▁ഗ്ലാസ 1
▁कर्मियों 1
▁garbage 1
▁জানান 1
▁تھر 1
ॉ 1
▁आंकड़ा 1
▁முதல 1
▁Farmers 1
▁free 1
▁കു 1
▁United 1
▁possession 1
▁जाने 1
▁BJP 1
▁ప్రతీ 1
▁سائٹ 1
▁برف 1
సె 1
▁வரைபட 1
▁Reporter 1
▁ہوجاتے 1
▁എതിര് 1
ాన్ 1
▁fulfill 1
ियों 1
▁സമാധാന 1
▁৫৩ 1
▁जताया 1
ుకున్న 1
▁अपराध 1
▁காதல் 1
▁செய் 1
றை 1
▁ഹോട്ടല 1
▁মুঘল 1
▁நிகழ்ச்சி 1
▁পর্তুগিজ 1
▁உள்ளடக்கிய 1
▁معصوم 1
ாகவும் 1
▁be 1
▁प्र 1
▁नियमित 1
ഫോടന 1
▁பெர் 1
▁ఉంది 1
▁ویب 1
▁normal 1
एसटी 1
▁വിളിക്ക 1
▁பல்கலைக்கழக 1
▁అవసర 1
▁کٹ 1
▁కీర్తి 1
▁മല് 1
യുമായ 1
▁قادیانی 1
▁environment 1
ండె 1
▁చర్మ 1
▁वायरल 1
▁বাক্য 1
▁زمین 1
▁كر 1
▁Telangana 1
▁truck 1
فل 1
▁counter 1
▁पार्टियों 1
▁மதிப்ப 1
▁also 1
పోతోంది 1
ங்கி 1
▁تھوڑے 1
▁Shivraj 1
పర 1
▁गये 1
▁উঠেছে 1
▁चाहिए 1
বাংলাদেশ 1
power 1
▁درویش 1
म 1
▁समुद्र 1
▁آئندہ 1
تی 1
▁சிற்ப 1
▁Given 1
వేత్త 1
▁Policy 1
উল 1
▁అత్యధిక 1
▁আনা 1
ళ్ల 1
▁ఉత్తమ 1
సిన 1
▁نواز 1
▁minor 1
వా 1
▁उधर 1
▁அன்ன 1
▁വ്യവസ്ഥ 1
” 1
ంత 1
▁उम्मीदवार 1
లి 1
▁জ্ঞান 1
স 1
▁শাসন 1
▁கடற்படை 1
▁వేగ 1
లుగు 1
▁குறிக்கும் 1
भर 1
▁नितिन 1
▁മുൻ 1
▁സെപ്റ്റംബ 1
▁फरवरी 1
▁نامزد 1
▁ہاتھ 1
▁मुंह 1
▁आरटीआइ 1
এইচ 1
জ্জা 1
▁వచ్చిన 1
ிட 1
▁হল 1
ची 1
ശ്യ 1
▁১০০ 1
வில்லை 1
யற்ற 1
▁کسی 1
▁মহকুমা 1
ক্রম 1
▁প্রাথমিক 1
▁জে 1
▁terrorism 1
▁നാട്ടില 1
▁Dinesh 1
▁கருநாடக 1
ائب 1
ेगी 1
▁ڈرامے 1
▁ചെറു 1
▁Devendra 1
▁காய் 1
▁their 1
▁drug 1
బూ 1
ఫ్ 1
▁curfew 1
സും 1
ow 1
▁மட 1
▁لائق 1
யோ 1
▁स्मारक 1
▁మరో 1
▁Lalit 1
▁سر 1
▁கிரேக்க 1
ন্ 1
▁प्रा 1
▁متحرک 1
▁বিজ্ঞানী 1
▁allegations 1
ংস 1
▁ఐదు 1
▁বানানো 1
▁വെടി 1
▁entry 1
▁रिश्ते 1
▁پوائنٹ 1
மி 1
টা 1
▁సంఘటన 1
▁landslide 1
ങ്ങളാണ് 1
▁It 1
▁ہوئیں 1
▁सत्र 1
বাসী 1
▁സൗന്ദര്യ 1
▁سمجھ 1
▁అప్పటి 1
01 1
▁దారి 1
▁పిన్ 1
রাজ 1
ఆగష్టు 1
▁సమర్పించ 1
வற்ற 1
▁சங்கிலி 1
▁मोर्चे 1
▁April 1
▁শীত 1
▁মধ্যকার 1
৫৮ 1
▁After 1
▁ملا 1
▁سلسلہ 1
▁زینب 1
▁பெற்று 1
▁امی 1
▁ఇచ్చారు 1
గ్రామానికి 1
▁সিস্টেম 1
▁చేపల 1
న్యాస 1
യാ 1
स्क 1
▁تھا 1
▁صرف 1
▁காந்தி 1
ু 1
রণ 1
▁ఆట 1
▁থেকেই 1
சுப்பிரமணிய 1
▁പന്ത 1
▁పరిధిలో 1
ിയും 1
AAP 1
▁appointment 1
▁بنے 1
▁எகிப்த 1
▁ஜெய 1
▁কর্মকাণ্ড 1
ers 1
▁رس 1
▁चिकित्सा 1
▁गुणवत्ता 1
▁لگتا 1
▁सवाल 1
▁इंदौर 1
▁मुखिया 1
▁परिवहन 1
▁Railway 1
হু 1
▁defeat 1
▁leave 1
▁proposed 1
▁প্রাচীন 1
▁హైదరాబాదులోను 1
▁ശനി 1
▁இவரை 1
▁Navy 1
▁مختار 1
▁उत्तराखंड 1
▁പെണ് 1
േയും 1
▁वर्ग 1
▁വെള്ളം 1
▁کمزور 1
▁కల్ప 1
▁கீ 1
▁Tibet 1
▁applied 1
▁आकाश 1
▁পু 1
▁আগস্ট 1
▁പൂർണ 1
V 1
▁நடன 1
ீஸ்வரர் 1
▁professor 1
▁November 1
▁সফর 1
ട്ടോ 1
▁ڈرائیور 1
▁چڑ 1
చర 1
▁विद्यार्थियों 1
▁വൈദ്യ 1
மைப்பு 1
▁अ 1
മായിരിക്കും 1
▁بننے 1
▁তার 1
த்தே 1
▁உலகின் 1
▁নীতি 1
▁मुफ्त 1
▁വിഡിയോ 1
K 1
వే 1
దా 1
షణ 1
▁ലാഭ 1
▁കേസിൽ 1
▁वितरण 1
▁देश 1
▁दावेदार 1
▁বর্তমানে 1
▁why 1
று 1
▁கப்பல் 1
▁সাহায্যে 1
ിട്ടില്ലെന്ന 1
▁இந்திய 1
▁ইবনে 1
ഥികള 1
ക്കേസ 1
▁శాస్త్రవేత్త 1
দ্বয় 1
ിലേക്കുള്ള 1
ugh 1
▁মাসে 1
అద్దంకి 1
▁RTI 1
২৫ 1
▁खुशी 1
▁প্রশাসনিক 1
৪০ 1
▁مزے 1
▁ലുക്ക 1
▁جولائی 1
▁رضا 1
▁Syria 1
▁విగ్రహ 1
देश 1
▁आवेदन 1
▁मंजूरी 1
▁ঘন 1
▁ദൗത്യ 1
▁معاون 1
లుగా 1
▁தமது 1
र 1
▁ഓർ 1
খ 1
▁കഴിയുന്ന 1
▁फिलहाल 1
ములలో 1
ന്യൂഡ 1
▁अच्छी 1
▁நோக்க 1
এফ 1
▁Ganga 1
, 1
▁clash 1
▁బొ 1
▁প্রাণী 1
▁pain 1
▁ট্রফি 1
నూరు 1
▁கால 1
▁smart 1
▁പ്രാ 1
▁آگئے 1
▁अंग्रेजी 1
▁छिड़ 1
▁இதற்கு 1
▁ധനമന്ത്രി 1
▁വിപണിയില 1
▁நடவடிக்கை 1
▁کپ 1
▁கிறிஸ் 1
▁എന്നിവരാണ് 1
▁33 1
▁طاہر 1
▁Shashikala 1
▁दीक्षित 1
▁మూల 1
▁தண்ணீர 1
▁निकल 1
▁وعدہ 1
▁Satya 1
▁പ്രയോജന 1
▁کوریا 1
▁disease 1
▁தானிய 1
▁Man 1
▁appointed 1
▁life 1
েশন 1
▁موجودہ 1
▁ভারতের 1
▁skill 1
▁உண்டாக 1
▁डीजल 1
▁என்பதை 1
കട 1
کس 1
▁fake 1
▁پڑھے 1
▁వై 1
▁tree 1
▁मुजफ्फरनगर 1
▁خیر 1
▁அல்லது 1
▁लोकप्रिय 1
টু 1
ഒ 1
▁یک 1
▁స్వయం 1
▁fierce 1
▁சதுர 1
▁त्रिपाठी 1
▁প্রত্যেক 1
▁கட 1
ించింది 1
▁من 1
▁ജീവനക്കാര 1
লাম 1
▁২০০৫ 1
▁do 1
▁విషయాల 1
৭৮ 1
لت 1
▁অস্তিত্ব 1
▁quite 1
kumar 1
▁जिसमें 1
50 1
▁एनआइए 1
ஸி 1
▁या 1
നാണ് 1
▁put 1
yan 1
▁రకం 1
৬৮ 1
எடுத்துக்காட்டாக 1
▁Madhya 1
▁একে 1
رہے 1
▁২০১৮ 1
▁നാടക 1
▁دیگر 1
প্রসাদ 1
ئر 1
▁ക്രമ 1
▁سہ 1
▁বীর 1
▁daily 1
▁پیچھے 1
tal 1
▁فورا 1
▁Ta 1
▁صفحے 1
▁கடலூர் 1
▁ইরাক 1
▁విధ 1
▁উপত্যকা 1
क्षक 1
▁రాజ్య 1
▁ചികിത്സ 1
▁நிறுத்த 1
▁ఉపగ్రహ 1
▁جانی 1
▁ரா 1
▁பொருட் 1
ിഷ്ട 1
▁চাল 1
ுகின்றது 1
JnN 1
▁রেলওয়ে 1
▁বিশ্বযুদ্ধ 1
▁हुआ 1
▁నాయక 1
▁ഒ 1
▁درج 1
▁بھیجا 1
یت 1
▁تمہارا 1
▁ഉടമ 1
▁ثقافت 1
▁Rural 1
▁స్థానిక 1
▁تذکرہ 1
▁প্রায় 1
த்தன்மை 1
▁വാക്കുകള 1
▁سکرین 1
क्स 1
ే 1
ாத 1
▁మనుషుల 1
▁چاہتا 1
▁వేదిక 1
जन 1
▁پنجابی 1
▁کائنات 1
ஆ 1
▁घटना 1
▁எழு 1
▁আয়তন 1
▁लोकतंत्र 1
▁লিপি 1
▁മുന്നോട്ട് 1
سم 1
▁പ്രത്യക്ഷ 1
▁आखिर 1
▁கருதப்படுகிறது 1
▁சந்திப்ப 1
कार 1
ेश 1
ാര് 1
▁जंगल 1
▁खुफिया 1
▁వంటివి 1
▁டேவிட் 1
▁വയസ 1
▁வெள்ள 1
▁اندازہ 1
▁ஆகியவை 1
▁ঐ 1
▁మధ్య 1
గుప్త 1
▁മുൻപ 1
▁Karnataka 1
▁ആർ 1
▁నటుడు 1
▁ఆంధ్రప్రదేశ్ 1
▁రహస్య 1
▁खुश 1
▁اہل 1
▁நீளம் 1
▁রাজবংশ 1
▁నియోజకవర్గ 1
▁হওয়া 1
ക്കുന്ന 1
வு 1
▁1950 1
▁ഗോ 1
▁അനധികൃത 1
▁محمود 1
ప్రాంత 1
പാല 1
కా 1
▁encourage 1
▁পরিষদ 1
▁നടത്തിയ 1
অ্যা 1
▁శాలలో 1
▁செயலாளர் 1
▁స్థాయిలో 1
త్రి 1
وال 1
▁Justice 1
పడింది 1
gram 1
▁ماحول 1
▁حبیب 1
ుదురు 1
లోని 1
▁हादसा 1
▁health 1
▁them 1
▁پائ 1
▁പ്രത്യേക 1
▁Kha 1
▁attack 1
ishor 1
▁പുറത്തിറക്ക 1
▁तार 1
కోట 1
▁बहस 1
▁اثرات 1
▁کرتا 1
ുവെന്നും 1
చ్చే 1
▁മാതൃക 1
▁டோ 1
▁బాధ 1
▁Ishrat 1
▁جانا 1
▁സ്ഥാപിക്ക 1
▁மண 1
▁فہم 1
▁জনগোষ্ঠী 1
మం 1
▁వార్తాపత్రిక 1
▁പുറത്തുവന്ന 1
▁தன்னுடைய 1
▁पड़ 1
▁পাখি 1
َ 1
▁আন্দোলনের 1
▁abroad 1
▁drink 1
▁ഇന്ന് 1
▁एसएसपी 1
▁صحرا 1
ّ 1
▁نقطہ 1
▁भेज 1
৩৪ 1
▁پرست 1
▁Conference 1
▁ஆர 1
▁উষ্ণ 1
குளம் 1
▁sudden 1
ंट 1
▁coming 1
▁three 1
కారం 1
▁রাজশাহী 1
▁Sources 1
▁கரை 1
▁இருப்பினும் 1
ছড়ি 1
▁سید 1
▁யாழ்ப்பாண 1
▁اخلاقی 1
▁ആര 1
▁முக்கியமான 1
▁পরাজয় 1
▁electricity 1
िए 1
▁leaving 1
ाधिकार 1
▁फीसदी 1
▁آثار 1
▁अनुमति 1
▁remained 1
▁पालन 1
▁implementation 1
▁২০১১ 1
▁துறைமுக 1
▁game 1
ുവെന്ന് 1
▁എയർ 1
▁زیر 1
▁صنعت 1
▁বিদেশী 1
▁نظریات 1
▁تاریک 1
ure 1
▁जाए 1
ഷി 1
▁মি 1
▁expansion 1
▁ഉറപ്പ 1
▁بازی 1
▁girls 1
▁मध्य 1
▁வேதியியல 1
▁अग्रिम 1
▁திசம்பர் 1
▁कड़ा 1
▁बच्ची 1
▁ذریعے 1
▁வகுப்ப 1
▁റൂ 1
▁decide 1
നടപടി 1
▁Wednesday 1
▁ఆధార 1
▁empty 1
▁crisis 1
▁جمعہ 1
ैन 1
▁मेरे 1
▁میڈیا 1
▁میڈ 1
▁وا 1
▁سوالات 1
গী 1
▁ടീമ 1
রূপ 1
▁ہيں 1
ఏప్రిల్ 1
▁Sri 1
▁कीमत 1
▁धमकी 1
▁चयन 1
▁নারায়ণ 1
▁army 1
▁Mohan 1
▁দূতাবাস 1
▁சார்பு 1
▁मुकाबले 1
▁prepared 1
▁nearby 1
▁communities 1
▁ইংরেজ 1
▁দৃষ্টি 1
ఖి 1
▁இராச்சிய 1
ల్ల 1
മാണു 1
এ 1
പറയ 1
▁match 1
ast 1
▁పాల్వంచ 1
t 1
▁1000 1
▁கூட்டணி 1
ெய் 1
▁ঢ 1
▁معذرت 1
▁అనుసంధాన 1
▁రేఖ 1
▁विचारधारा 1
ലിൽ 1
పల్లెలో 1
ఫర్ 1
కర్త 1
▁गुड़गांव 1
▁വള 1
▁మాజీ 1
ంటే 1
പ്രദ 1
▁چراغ 1
▁পশ্চিমবঙ্গের 1
৯৬ 1
▁తండ్రి 1
▁رہنے 1
▁திறன் 1
▁until 1
லிங்க 1
धि 1
▁போன்றவற்றை 1
▁ممبر 1
▁വ്യത്യാസ 1
▁మరణించ 1
▁Jo 1
▁विश्वास 1
▁খুবই 1
▁আওতায় 1
▁मुसलमान 1
)। 1
వారం 1
▁ജില്ലാ 1
▁इसकी 1
▁संघर्ष 1
▁اچھی 1
▁برعکس 1
▁ترجمے 1
▁సాంద్రత 1
▁विधान 1
▁occasion 1
▁১৯৫২ 1
▁अंसारी 1
▁باہمی 1
াদি 1
▁شہری 1
▁जांच 1
టన్ 1
▁جلوس 1
ിട്ടുള്ള 1
▁सूर्य 1
த்துக் 1
▁৩ 1
▁کپڑے 1
▁لڑکا 1
▁ব্ল্যাক 1
যা 1
▁ரி 1
▁debate 1
▁पीढ़ी 1
ലംഘന 1
▁तापमान 1
▁കുറയ 1
▁Abbas 1
▁অক্টোবর 1
▁হলেও 1
▁ప్రోత్సహించ 1
▁कु 1
▁உயிர் 1
घ 1
▁Dawood 1
▁بہت 1
▁Indian 1
▁اشاعت 1
▁تصاویر 1
▁ایک 1
పూ 1
▁തോന്ന 1
▁24 1
▁مطالبہ 1
▁بدعت 1
▁agreement 1
▁ഒരിക്കൽ 1
▁نظم 1
▁است 1
▁இறப்பு 1
னியம் 1
പ്പ് 1
▁پابند 1
▁வாழ்வ 1
▁இருபது 1
▁விமான 1
▁while 1
▁பரந்த 1
▁चोरी 1
▁വളരെ 1
▁జయ 1
▁Dubai 1
▁రాష్ట్రం 1
▁খাল 1
▁பண்பு 1
യില 1
man 1
▁रहता 1
ఆర్ 1
ினுள் 1
▁democratic 1
ty 1
▁ఎదుర్కొ 1
▁தொடர்ப 1
োর 1
। 1
▁কেন্দ্রীয় 1
O 1
ృష్ట 1
▁अनुशासन 1
▁दिवस 1
▁கட்டுப்படுத்த 1
▁भेदभाव 1
▁పరిగణ 1
▁سمجھا 1
▁கிழ 1
ங்களும் 1
▁கட்டுமான 1
▁മുടക്ക 1
▁മൂലമ 1
▁हत्या 1
67 1
পর 1
et 1
▁সময় 1
▁പിന്നിൽ 1
▁തിരിച്ചറിഞ്ഞ 1
▁Muslims 1
▁শেখ 1
▁உப 1
▁இல 1
▁பத்து 1
ళ్ 1
▁compensation 1
Jagaran 1
▁لاکھوں 1
▁கவன 1
▁മല 1
▁தயாரிக்க 1
▁মহাসড়ক 1
▁study 1
▁ক্ষেত্রে 1
▁Kovind 1
▁सै 1
▁حکمت 1
▁Rohit 1
▁execution 1
▁പുസ്തക 1
▁مرکز 1
లను 1
▁sample 1
▁کروا 1
పోయి 1
▁color 1
▁കെട്ടി 1
▁long 1
▁Sukh 1
▁Pradeep 1
▁measures 1
▁ضیاء 1
▁مسٹر 1
▁உயரத்தில் 1
▁కలుగ 1
▁మాస 1
ங்கள 1
▁जिन्हें 1
▁British 1
ുകൾക്ക് 1
▁वोट 1
▁participate 1
▁కళాశాల 1
▁బ 1
▁மலேசியா 1
▁जुड़ी 1
▁علاوہ 1
▁اعتبار 1
ద్రావణ 1
▁வளர் 1
व 1
▁کدھر 1
▁ڈوب 1
▁শিক্ষার্থী 1
▁ము 1
ara 1
▁عندلیب 1
▁Shashi 1
▁রাস্তা 1
ിലേക്ക് 1
▁महसूस 1
▁الح 1
▁باز 1
খা 1
▁پہن 1
‌ 1
வர 1
▁عوامی 1
▁unit 1
▁रैंक 1
داد 1
▁தேவை 1
▁अज्ञात 1
മായും 1
▁ప్రో 1
▁لئے 1
▁दे 1
▁अगस्त 1
▁चलने 1
▁جاری 1
▁ప్రాచీన 1
శైల 1
▁স্বল্প 1
▁পর্যটক 1
▁रक्षा 1
▁సూచించ 1
▁फोन 1
▁చేస్తున్నారు 1
نڈا 1
▁வருவாய் 1
▁मनमोहन 1
▁ఫె 1
▁اپیا 1
▁மீதான 1
▁convert 1
▁സിനിമാ 1
▁اہلکار 1
▁స్థాప 1
▁ఈ 1
-19 1
▁আক্রমণ 1
ఢ 1
▁emergency 1
▁अहसास 1
రాష్ట్ర 1
▁मसौद 1
کٹ 1
▁رہتے 1
▁زندہ 1
▁तु 1
▁معیار 1
▁உறவு 1
▁যাত্রী 1
▁ڈائریکٹر 1
▁تعریف 1
களிடம் 1
▁பின்னர் 1
▁الم 1
▁नजर 1
కోసం 1
▁ধর্মসম্প্রদায় 1
ki 1
▁سپ 1
▁सचिन 1
మర్రి 1
গত 1
▁మారి 1
▁श्रेणी 1
দ্বার 1
ര 1
▁اہمیت 1
▁sister 1
▁foot 1
▁സൂര്യ 1
▁کمال 1
▁ہل 1
▁വ്യാപാര 1
▁فتنہ 1
▁little 1
▁ফ্রাঙ্ক 1
கட்ட 1
▁whole 1
త్తి 1
பே 1
▁चरण 1
▁ஆர் 1
ிறார் 1
ధర్మ 1
▁रखी 1
যুক্ত 1
വെള്ള 1
▁നേതൃ 1
▁கட்டுப்பாடு 1
▁প্রি 1
वाल 1
▁সন্ 1
▁അല 1
▁between 1
▁ഏറ്റുമുട്ട 1
▁മകൻ 1
▁ایڈمن 1
▁کرتی 1
▁காங்கிரஸ் 1
▁भले 1
▁pressure 1
గా 1
▁తమిళనాడు 1
▁భక్తి 1
లీ 1
▁నమ్మ 1
▁ശേഷി 1
▁होंगे 1
▁secure 1
▁संस्कृति 1
▁अभिभावक 1
▁JNU 1
▁പൊളിച്ച 1
ாய்வு 1
▁वीडियो 1
▁चौक 1
ുന്നതിനുള്ള 1
▁डा 1
ং 1
▁పోలి 1
قا 1
▁relief 1
▁கணக்க 1
▁ഭാവി 1
பை 1
▁பொறுத்த 1
▁Sultan 1
▁ఖర్చు 1
▁टीम 1
▁வளைய 1
▁صدیقی 1
సియా 1
▁ప్రధానంగా 1
▁ایم 1
▁వెంటనే 1
▁زائد 1
▁فرزانہ 1
▁என்பத 1
▁Odisha 1
▁അക്കാദമി 1
▁உயிரியல் 1
ال 1
▁ٹیکسٹ 1
▁دھاگ 1
▁ఉదాహరణకు 1
▁மருத்துவ 1
▁திரு 1
புரம் 1
ed 1
▁Explain 1
ௌ 1
ফ্ 1
▁অনুষদ 1
▁উপনিবেশ 1
▁July 1
▁irrigation 1
▁situation 1
▁রাখে 1
▁strongly 1
▁பரப்பளவு 1
▁militant 1
▁arm 1
യുമാണ് 1
▁శ్రీమతి 1
▁लिहाजा 1
chi 1
▁بارہ 1
▁fair 1
▁বিচার 1
▁கண்டறியப்பட்ட 1
▁মূর্তি 1
▁Sur 1
▁आरोपियों 1
▁संपन्न 1
க்கு 1
▁हेड 1
േഷന് 1
port 1
▁रिसर्च 1
▁اسی 1
▁தர்ம 1
▁टकरा 1
▁admitted 1
▁जान 1
▁যাদের 1
▁வழங்கி 1
▁mining 1
▁సందర్భ 1
▁صدی 1
▁క్రింద 1
▁এম 1
▁সমাজ 1
▁फूल 1
▁கூட 1
▁concerned 1
▁silent 1
▁দুর্ 1
▁கற்ப 1
▁বিশ্বের 1
▁شیعہ 1
च 1
▁کروڑ 1
▁दिल 1
▁అందుతుంది 1
▁১৯৬৩ 1
ാലയ 1
▁১ 1
▁مس 1
హె 1
▁ملے 1
▁തട്ടി 1
نیا 1
▁ద్రవ్య 1
▁பாடல்கள் 1
▁انداز 1
▁বিপুল 1
▁instructions 1
▁boat 1
▁Pratap 1
▁ایج 1
▁اتنے 1
ിയുടെ 1
▁issued 1
▁முதலில் 1
লাই 1
▁மையமாக 1
▁வானியல 1
▁உறுதி 1
▁دوسری 1
నే 1
▁তথা 1
శాస్త్ర 1
ப்படுகின்றது 1
▁yoga 1
▁खेत 1
▁மூலம் 1
▁இவற்றின் 1
▁Home 1
హెక్టార్లలో 1
▁അനുകൂല 1
▁കോട്ടയം 1
▁తొలి 1
க்கொ 1
ారం 1
▁நீள 1
▁പ്രവേശിപ്പിച്ച 1
▁ஓ 1
▁প্রার্থনা 1
గ్రీ 1
▁راہ 1
بت 1
▁போர் 1
▁நிறைந்த 1
▁assassin 1
ங்களையும் 1
▁అలా 1
పుర 1
▁पति 1
ാതെ 1
▁সর্বাধিক 1
▁నిర్ణయించ 1
▁ഏറ്റെടുക്ക 1
▁సత్య 1
▁Rakesh 1
গুপ্ত 1
▁নিতে 1
دھ 1
▁may 1
▁പാട്ട 1
▁ప్రాంతాల్లో 1
▁बा 1
▁వ్యక్తుల 1
▁చంప 1
ল্ট 1
▁പുറത്തേക്ക 1
▁இருந்தால் 1
▁ബഹുമാന 1
▁علیکم 1
▁దశాబ్ద 1
விட்ட 1
▁থাকবে 1
▁ध्यान 1
▁జిల్లా 1
నై 1
▁കാത്തിരിക്ക 1
▁culture 1
وری 1
▁एयरलाइंस 1
▁எனினும் 1
▁కష్ట 1
பேட்டை 1
▁செங்க 1
▁گوش 1
▁प्रशांत 1
▁judge 1
▁ஏனெனில் 1
த்தொ 1
पर 1
▁release 1
▁கன்னி 1
▁देगी 1
▁ബാങ്ക 1
ट्री 1
উড 1
കുമാറ 1
▁Amit 1
▁உச்ச 1
▁چھوٹا 1
▁office 1
▁You 1
▁హెక్టార్లలో 1
▁திண்ம 1
ട്ടു 1
▁Indira 1
▁پرہیز 1
▁തീയറ്റ 1
▁ڈسک 1
▁జాతీయ 1
▁నేర్ప 1
▁ప్రముఖ 1
▁पीडि़त 1
▁سلسلے 1
▁Just 1
▁Pa 1
ഫീ 1
▁తయార 1
▁apex 1
▁आंतरिक 1
ডব্লিউ 1
▁லூ 1
▁নির্যাতন 1
ിങ്ങ 1
▁अनुसूचित 1
▁মেয়াদ 1
▁काउंसिल 1
▁மும்பை 1
" 1
▁পর্যায় 1
ోద్యమ 1
▁پڑھنے 1
▁Th 1
வாக்க 1
▁नेतृत्व 1
▁کھیل 1
▁minority 1
ఓ 1
▁కలి 1
ிருந்தது 1
छु 1
ہر 1
▁کيا 1
▁امريک 1
▁సహాయక 1
▁இருக்கின்றன 1
▁سکو 1
ూరు 1
ist 1
▁बनी 1
▁స్థానం 1
▁ഐ 1
▁बॉलीवुड 1
▁behind 1
খ্রি 1
▁কক্সবাজার 1
▁முதன்மையான 1
▁लॉ 1
▁मानें 1
കൂട 1
▁کیا 1
▁कोविंद 1
▁موقف 1
▁అర్ధ 1
▁உலகளாவிய 1
▁മെ 1
▁रूस 1
▁फंसे 1
ുകൊണ്ടിരിക്ക 1
▁लागत 1
▁वार्ड 1
য়ান 1
ڑھی 1
▁மொ 1
▁باؤلر 1
▁సేకరించే 1
▁విషయం 1
யாளர்கள் 1
▁agree 1
▁పర్యాటక 1
round 1
▁automatic 1
ai 1
▁৩০০ 1
లెస్ 1
ர் 1
▁ഷൂട്ട 1
రై 1
▁خ 1
▁ضائع 1
ళ 1
▁माइक्रो 1
▁ஐக்கிய 1
▁நை 1
ഭവ 1
▁বৃদ্ধি 1
பிறப்பு 1
▁सारी 1
▁পরিমাপ 1
▁அழைத்த 1
▁பெரம்பலூர் 1
▁వికారాబాద్ 1
▁भावना 1
▁agencies 1
দে 1
▁rob 1
▁मान 1
▁newspaper 1
▁অর্থ 1
▁हटा 1
▁ఫలితంగా 1
മല്ല 1
▁लड़ने 1
▁کیونکہ 1
▁బ్ర 1
▁बीजेपी 1
▁اساتذہ 1
▁لوگوں 1
▁सवार 1
▁২০১৪ 1
ঊ 1
▁limit 1
▁நான்காம் 1
▁సహకార 1
▁معاف 1
یوں 1
▁செல்ல 1
▁आए 1
kant 1
ময় 1
ன்ன 1
▁kishor 1
▁दवा 1
▁നീള 1
▁പ്രവർത്തിച്ച 1
▁క్లబ్ 1
▁దూరంలోనూ 1
▁چلا 1
▁വീട്ടിൽ 1
தேவி 1
▁فیملی 1
▁news 1
▁بھر 1
▁چھپا 1
▁நடிகர் 1
▁కూడ 1
▁അഭിനയിക്കുന്ന 1
▁check 1
▁دیجئے 1
▁అలోపతి 1
▁ইউরোপীয় 1
▁കുറച്ചു 1
▁خدشہ 1
▁कार्ड 1
▁F 1
▁ஆந்திர 1
▁പോളി 1
போ 1
▁উজ্জ্বল 1
▁چنانچہ 1
▁নিকট 1
▁சிற்றூர்கள 1
ج 1
86 1
▁പരസ്യ 1
▁school 1
▁வேலூர் 1
▁पड़ी 1
▁করছে 1
▁میم 1
▁مط 1
▁محتاج 1
▁wrote 1
▁ഉ 1
▁শ্রেষ্ঠ 1
▁ఒక్క 1
▁వర్గ 1
▁यदि 1
▁کھ 1
▁മനോരമ 1
▁Ju 1
▁रखना 1
▁Due 1
▁धूप 1
▁వెళ్ళి 1
▁స్టేట్స్ 1
▁انسٹال 1
ట్రో 1
ائے 1
▁மீட்டர் 1
▁इंद्राणी 1
▁মনোনীত 1
ினான் 1
▁স্থাপত্য 1
▁saving 1
िंदर 1
ബു 1
▁جاننے 1
▁பற்றி 1
ত্ত 1
صلاح 1
▁dismissed 1
▁شور 1
▁پاکستانی 1
▁துவக்க 1
▁প্রয়োগ 1
▁തലമുറ 1
പോയി 1
▁सियासी 1
▁গ্রীষ্মকালীন 1
▁వీరి 1
▁ইনিংস 1
ుకుంటుంది 1
▁మందుల 1
▁എങ്കിലും 1
▁জিন 1
▁நீதிமன்ற 1
रूप 1
▁వ్యాఖ్యాన 1
▁വീട്ടില 1
▁মানুষের 1
ாமல் 1
▁خوراک 1
▁இந்நகர 1
▁ہتھ 1
</ 1
▁نیاز 1
▁جگر 1
िल 1
▁मानसून 1
▁যুদ্ধ 1
▁ভ্রমণ 1
दर 1
ബര് 1
▁तिहाड़ 1
▁బానిస 1
▁குடியிருப்பு 1
▁পাবলিক 1
▁अवधि 1
▁امریکی 1
فی 1
▁అందు 1
▁সংঘ 1
▁পূ 1
▁پہلا 1
ప్ప 1
▁മിനി 1
లోనే 1
▁సిబ్బంద 1
▁Te 1
▁away 1
▁won 1
▁তৎকালীন 1
ന്റെ 1
▁மாவட்டத்தில் 1
▁forget 1
ொன்ற 1
▁पढ़े 1
▁రెండో 1
▁عصر 1
▁प्रत्याशी 1
▁Padma 1
▁ইন্টারন্যাশনাল 1
▁افسانے 1
▁করেন 1
▁largest 1
▁అనుసంధానమై 1
▁reaching 1
▁விகித 1
▁शैल 1
▁പരിഹരിക്ക 1
▁Pandey 1
▁വെളിച്ച 1
முனை 1
▁ഞ 1
▁اسلامی 1
▁ఒకటి 1
▁പ്രഖ്യാപിക്ക 1
த்தைத் 1
▁লাইন 1
▁रात 1
▁நான்காவது 1
▁مطمئن 1
▁Jump 1
▁వెనుక 1
▁لاپتہ 1
▁జాన్ 1
▁قابو 1
ുള്ള 1
▁دلچسپ 1
കളെയും 1
ছি 1
▁dance 1
▁వ్యవసాయానికి 1
▁claimed 1
▁കൊണ്ടു 1
▁ராஜ 1
▁சிவபெருமான 1
సింగ్ 1
▁വൻ 1
▁சிறு 1
एं 1
▁الب 1
▁உடை 1
సెప్టెంబర్ 1
തിന് 1
▁நகர் 1
▁सामान 1
▁पैकेज 1
▁गतिविधि 1
▁इसी 1
कश्मीर 1
ുണ്ടാക 1
▁Judge 1
▁demonstration 1
ٹو 1
దు 1
ക്കണക്ക 1
▁जिंदगी 1
▁అంతేకాక 1
২৭ 1
▁एजेंसियों 1
▁Science 1
▁हो 1
▁వరి 1
▁முழுமையான 1
▁வே 1
▁ഒൻപത 1
▁വനിത 1
క్షన్ 1
▁quality 1
▁গর্ভ 1
▁ش 1
జే 1
▁ചെയ്തത് 1
PL 1
ുകളിലെ 1
രം 1
▁یونیکوڈ 1
த்தலை 1
ভা 1
ఎన్ 1
ബർ 1
▁still 1
▁چھیڑ 1
ப்படுத்த 1
▁கால்பந்து 1
▁குறியீட்ட 1
▁రాజధాని 1
▁ആഡംബര 1
▁Gunat 1
▁కూరగాయలు 1
्ड 1
▁సమాచార 1
script 1
▁086 1
ల 1
▁പുഴ 1
▁درست 1
நே 1
▁اعظم 1
▁ஆறு 1
▁ইংল্যান্ড 1
▁மாணவ 1
▁مفہوم 1
▁1 1
▁വട 1
? 1
ம்பா 1
▁పోటీ 1
cess 1
▁चार 1
ालय 1
dha 1
৬০ 1
▁अंतर्गत 1
▁আব 1
▁آتا 1
▁লা 1
▁ഇന്ത്യയിൽ 1
▁এখনও 1
bir 1
▁இலங்கையில் 1
▁On 1
▁শিখ 1
▁cloud 1
▁ஒப்பிட 1
▁سیدھا 1
▁জুমলা 1
▁ھے 1
ोर 1
▁indigenous 1
▁పరిధిలోకి 1
▁प्रदान 1
▁আবার 1
ടുക്ക 1
um 1
▁கிடைக்க 1
▁آم 1
പ്രകാരം 1
▁సమయ 1
▁market 1
▁2008 1
▁High 1
▁होता 1
▁اسکا 1
▁growth 1
লিন 1
▁जानिए 1
10 1
▁( 1
▁প্রস্তুত 1
▁تباہ 1
▁Antony 1
▁win 1
▁প্রচলিত 1
▁एल 1
▁মার্ 1
▁संजीव 1
చేయ 1
▁" 1
▁മാതാപിതാക്കള 1
▁కుమారుడు 1
India 1
▁চিহ্নিত 1
▁কমিশন 1
▁இருந்தாலும் 1
▁Actually 1
ోత్సవం 1
▁सख्त 1
▁ഉണ്ടായ 1
▁தொகுதி 1
కార 1
াণু 1
▁IT 1
▁గృహాల 1
രുവ 1
mb 1
ാതിരുന്ന 1
▁بھ 1
▁যাত্রা 1
▁കീ 1
▁الک 1
ച്ച് 1
ിച്ച് 1
▁সং 1
▁খো 1
▁کامران 1
یڈ 1
▁5311 1
▁అంటారు 1
ശ്വ 1
▁నటించింది 1
▁عمومی 1
▁ले 1
ഫോ 1
▁సూక్ష్మ 1
য়াল 1
▁সীমিত 1
▁مغفرت 1
que 1
▁رہے 1
▁मन 1
▁குளிர் 1
▁ప్రజాదరణ 1
▁Day 1
▁بھائی 1
▁late 1
per 1
లంక 1
▁പിന്തുടര 1
▁جھڑپ 1
▁పుస్తకం 1
▁ہوچکا 1
ল 1
▁سفارش 1
राज 1
সো 1
▁OBC 1
▁पीछे 1
▁आह्वान 1
▁വിജയം 1
సారి 1
▁منہ 1
▁Bagh 1
ip 1
▁بچہ 1
Against 1
ియన్ 1
കൂടി 1
▁مشین 1
ంటాడు 1
▁நுண் 1
▁charge 1
▁गिरफ्तार 1
▁ডানহাতে 1
▁তাহলে 1
▁തുറന്ന 1
gi 1
▁खड़े 1
▁वर्षो 1
▁মুহাম্মাদ 1
نڈر 1
▁ज्ञात 1
▁নকশা 1
கில் 1
▁पास 1
▁ഉൾപ്പെടെയുള്ള 1
നുസരിച്ച് 1
▁infiltrate 1
▁பிரதம 1
▁जासूसी 1
నం 1
▁Manmohan 1
▁علمی 1
▁कि 1
▁مخ 1
▁నిజ 1
▁procurement 1
▁محسود 1
▁कथित 1
▁شہ 1
इस 1
▁தே 1
▁বাংলাদেশী 1
গ্র 1
▁प्रभावित 1
గూడెం 1
▁భో 1
తోపాటు 1
▁മുഹമ്മദ് 1
▁باندھ 1
▁மூ 1
▁ஈழ 1
دا 1
▁अनुमान 1
▁जुर्माना 1
▁ట్ర 1
▁അഞ്ച് 1
▁தொழில 1
▁बद 1
▁গোবিন্দ 1
▁ब्यूरो 1
▁சூலை 1
▁పోస్టాఫీసు 1
thi 1
த்தினை 1
মোহন 1
▁കഴുക 1
▁احکام 1
▁कौन 1
▁സ്പോർട് 1
▁ث 1
शी 1
ുക 1
৯৫ 1
▁ক্লো 1
▁మాత్రం 1
▁सुविधा 1
மாகும் 1
▁नौकरशाह 1
▁এপ্রিল 1
▁ऑफिस 1
▁سورۃ 1
▁पोस्ट 1
▁अटल 1
▁تمہارے 1
▁চিত্র 1
▁ഉണ്ടാകുന്ന 1
శ్వ 1
▁উত্তরে 1
▁انتظام 1
ప్పటికీ 1
▁உட் 1
▁কখনও 1
▁Student 1
▁تمھارے 1
▁முதன்மை 1
▁അവൾ 1
▁دیکھا 1
▁నుంచి 1
▁केजरीवाल 1
▁talking 1
৬৩ 1
▁হযরত 1
▁കൊള്ള 1
ുകയെന്ന 1
▁فرق 1
ത്ര 1
▁ایلی 1
▁വളർച്ച 1
யுடன் 1
পা 1
▁یوسف 1
▁ചിത്രത്തില് 1
▁വിൽപന 1
▁AK 1
▁ऐसी 1
▁ক্ষেত্র 1
▁rise 1
▁മാത്രമേ 1
▁duty 1
▁subject 1
▁बच्चा 1
▁சராசரி 1
▁South 1
▁পরিণত 1
▁suspended 1
▁ஒப்ப 1
▁நாட்டின் 1
▁सर्वेक्षण 1
▁मुंबई 1
▁ആകെ 1
▁گیا 1
▁കൗണ് 1
ബ്ബ 1
▁സ്വകാര്യ 1
▁Shah 1
▁भागवत 1
BJP 1
वादी 1
▁ഇതിനായി 1
யிலும் 1
త్ 1
▁தொடங்கியது 1
▁অন্তর্গত 1
பகுதி 1
▁يا 1
▁fire 1
▁क्योंकि 1
▁مذہبی 1
▁ہوکر 1
ল্লা 1
▁തുടർന്നു 1
ముఖ 1
▁قسمت 1
▁political 1
▁घोषणा 1
▁मृत 1
▁ক্যাম্পাস 1
▁எனவும் 1
▁பயன 1
▁MLAs 1
▁आयोजन 1
قہ 1
▁बीएसएफ 1
▁കൂട്ടുകാര 1
▁عابد 1
▁پریس 1
ث 1
ేశ్వర 1
▁ചി 1
க்கா 1
৯৭ 1
ഡോ 1
▁బావుల 1
▁ഇവിടെ 1
▁பிரே 1
▁ऑटो 1
▁بتائی 1
▁యూనివర్సిటీ 1
ைக் 1
ర 1
78 1
▁கோ 1
▁அறிமுகப்படுத்த 1
▁دسمبر 1
തീ 1
▁य 1
ফার 1
▁डी 1
दु 1
▁वह 1
▁تحفظ 1
தும் 1
▁0 1
க்குடி 1
▁పబ్లిక్ 1
▁കൊട 1
సదుపాయ 1
ுவதற்காக 1
▁الحال 1
ിനു 1
▁దక్షణాన 1
▁ശക്ത 1
రత్న 1
▁چاہیں 1
▁আল 1
▁ஹை 1
▁দুর্বল 1
▁Standing 1
▁സമർപ്പിച്ച 1
▁rent 1
സമിതി 1
ത്തിലേക്കു 1
▁معلومات 1
న్ 1
▁read 1
▁زلف 1
▁سبحان 1
ൊ 1
▁پالیسی 1
▁हित 1
ഹി 1
low 1
▁എപ്പോഴും 1
▁بحال 1
ষ্টি 1
▁யோக 1
▁वाहन 1
▁পড় 1
▁മേധാവി 1
দের 1
▁முறை 1
▁பயிர் 1
▁இந்நிறுவன 1
▁Earth 1
بہ 1
▁ஈடுபட்ட 1
▁গড় 1
▁سندھ 1
की 1
▁गेहूं 1
یدہ 1
▁taking 1
▁behavior 1
ంగు 1
▁நாட் 1
▁अमरनाथ 1
ण 1
▁अधिकतम 1
ल्फ 1
▁ఏరియా 1
▁final 1
▁परिवर्तन 1
▁श्रीलंका 1
▁చేత 1
▁பாராளுமன்ற 1
▁Anand 1
▁प्रगति 1
▁بخار 1
▁efforts 1
▁సామ 1
▁സംഭവിക്ക 1
▁പ്രതിഷേധ 1
▁ہدف 1
▁मिल 1
ব্য 1
శ్చ 1
▁حق 1
▁స్టేషను 1
▁day 1
തവണ 1
▁پولیو 1
▁পাশাপাশি 1
دی 1
▁سنیچر 1
▁గ్రంథ 1
प्त 1
▁അഭിനയിക്ക 1
▁দিনাজপুর 1
▁انتہائی 1
▁unknown 1
▁సే 1
▁বর্তমান 1
▁پریشانی 1
▁सीटें 1
▁বেল 1
▁خانہ 1
▁পথে 1
▁Parliament 1
▁வலிமை 1
▁মাহমুদ 1
▁विक्रम 1
▁معیشت 1
▁احادیث 1
time 1
▁രാഷ്ട്രീയ 1
▁ठहरा 1
রিক 1
▁கூட்டு 1
▁பரிசு 1
▁கோயம்புத்தூர் 1
ട്രോ 1
▁താഴെ 1
न्ना 1
পুরুষ 1
க்கொண்டு 1
▁proceedings 1
▁பல்கலைக் 1
▁जे 1
▁ढंग 1
▁స్వా 1
ாசிரியர 1
▁পরিবর্তন 1
బోధ 1
▁சிலை 1
▁Pakistani 1
73 1
▁इससे 1
▁পি 1
▁Why 1
▁సామాన్య 1
▁بادشاہ 1
▁दौड़ 1
▁دیا 1
▁explain 1
▁workers 1
au 1
▁کیمپ 1
গল 1
▁உள்ளார் 1
▁pension 1
▁vehicle 1
▁economy 1
▁وفات 1
▁list 1
▁Vidya 1
▁বুদ্ধ 1
▁aggressive 1
▁70 1
▁proved 1
▁జల 1
▁तब्दील 1
ते 1
▁বিপ্লব 1
▁భిన్న 1
ीय 1
▁ٹانگ 1
ற 1
▁ராம 1
▁امجد 1
ாண்டு 1
▁పాశ్చాత్య 1
য়েন 1
▁ফাইল 1
▁লাভ 1
ளு 1
▁लंबे 1
▁معطل 1
based 1
u 1
▁ضیا 1
▁பிரதேச 1
▁దు 1
ുണ്ടെങ്കിൽ 1
▁value 1
▁பன் 1
26 1
▁ആക 1
▁घट 1
▁नारायण 1
▁सिलसिला 1
▁রাশিয়া 1
▁வேளாண்மை 1
▁বর্ণ 1
▁thinking 1
െടുക്കുന്ന 1
▁పెద్ద 1
▁فعال 1
▁Sushil 1
کھ 1
▁నిల్వ 1
▁விற்பனை 1
▁கணக்கிட 1
▁মূল্য 1
▁کہانی 1
ارے 1
▁فیصل 1
▁طرح 1
▁deal 1
▁১৯৭০ 1
▁സംവിധാന 1
కం 1
▁رضوان 1
▁خود 1
▁pray 1
▁പറഞ്ഞത് 1
minal 1
▁सशक्त 1
கூ 1
▁కొల్ల 1
▁جمہوری 1
▁আক্রান্ত 1
▁मौसम 1
▁సాధారణంగా 1
▁فل 1
▁ഇല്ലാതാക്ക 1
▁مصر 1
▁జా 1
▁సి 1
▁மார்ச் 1
▁నిర్ 1
▁ప్రతిబింబ 1
▁अफगानिस्तान 1
▁केंद्र 1
▁দৈর্ঘ্য 1
▁వ్రాయ 1
▁राजग 1
▁சூழ 1
▁హాస్య 1
▁गया 1
▁وابستہ 1
▁దీనికి 1
தால் 1
▁message 1
72 1
▁সবাই 1
▁Facebook 1
▁একাডেমী 1
▁அழகிய 1
▁ശിശു 1
▁രജിസ് 1
▁താരങ്ങള 1
▁అంటే 1
▁ആവശ്യ 1
▁வழிமுறை 1
▁వివరించ 1
▁മോഡല 1
▁శరీర 1
উ 1
▁سعادت 1
▁حدود 1
▁than 1
▁തൊഴിലാളി 1
▁hurt 1
▁sitting 1
▁Rashid 1
▁ثانی 1
▁Pratibha 1
▁ঘনিষ্ঠ 1
▁کپتان 1
▁impose 1
▁small 1
स्वामी 1
ঞ্জ 1
po 1
▁मुख्यमंत्रियों 1
ങ്ങളിലും 1
ீட்டு 1
▁വസ്ത്ര 1
▁ఆడవారి 1
▁மீன் 1
▁strategy 1
▁اٹھا 1
▁திரவ 1
▁வாழ்க்கை 1
▁నిర్మించిన 1
▁ഞങ്ങൾ 1
▁چیک 1
▁leadership 1
▁రసాయన 1
ావ 1
▁ఖండ 1
▁شوکت 1
▁communal 1
▁దిన 1
▁स 1
▁Agra 1
state 1
▁ബോംബ 1
லும் 1
జీవ 1
ിക്ക 1
▁സൈ 1
▁कसाब 1
▁مطلوب 1
▁initial 1
তত্ত্ব 1
▁Haryana 1
▁ভাষা 1
▁ڈائری 1
▁அறிவிக்கப்பட்ட 1
రీ 1
ొక్క 1
▁لہ 1
▁سائز 1
▁دین 1
▁indirect 1
അബ്ദു 1
▁मनोहर 1
▁১৯৮৭ 1
బీ 1
▁సంబంధించిన 1
्स 1
▁ম্যানচেস্টার 1
▁فوری 1
▁நாளில் 1
▁چالیس 1
▁ھیں 1
▁இருந்தன 1
▁राजनयिक 1
ें 1
▁कलेक्टर 1
▁లెక్క 1
▁ముఖ్యమైన 1
▁উদ্বোধন 1
ায়ণ 1
ified 1
▁निगरानी 1
▁కే 1
▁కీ 1
▁কলেজে 1
▁கலந்து 1
വിള 1
▁വായന 1
கார 1
▁توحید 1
পন 1
▁క్లో 1
▁سل 1
ஒ 1
▁সক্রিয় 1
▁সাংস্কৃতিক 1
▁انسانوں 1
▁कानून 1
স্থ 1
▁বিশেষ 1
ron 1
ढ़ 1
▁ഒക്കെ 1
▁بجائے 1
▁formed 1
డర్ 1
▁డిసెంబర్ 1
▁തികച്ചും 1
▁الاسلام 1
▁عجیب 1
दीप 1
▁رجحان 1
▁बड़ी 1
▁ഗൃഹ 1
▁వాటిని 1
▁அவருடைய 1
యు 1
ോ 1
कारी 1
▁তত্ত্ব 1
▁നടത്തി 1
ിനി 1
▁لکھنے 1
▁میدان 1
▁हालत 1
▁టెలివిజన్ 1
▁चौथे 1
গো 1
کڑ 1
▁দুর্গ 1
▁उसके 1
▁given 1
▁সম্মিলিত 1
▁ফেব্রুয়ারী 1
ంటి 1
▁تقسیم 1
▁मीटर 1
▁vote 1
▁September 1
▁always 1
▁बुरहान 1
▁जेल 1
▁கூ 1
▁নগর 1
த் 1
▁നിലവിലുള്ള 1
▁சிக்கல் 1
▁യഥാർഥ 1
▁No 1
▁दु 1
লাভ 1
▁رواج 1
ழ 1
▁Celsius 1
▁ఒలింపిక్ 1
▁अरब 1
▁கண 1
▁ஜெ 1
▁बड़ा 1
▁निराश 1
▁নিউ 1
▁தயாரிப்ப 1
▁कार्यवाही 1
▁اکثریت 1
రాయి 1
▁ভিয়েতনাম 1
▁কান 1
▁چوہدری 1
ാണെന്നു 1
▁high 1
▁എന്നതാണ് 1
▁ప్రొ 1
▁விஷ்ணு 1
▁साइट 1
മാക 1
▁رابطہ 1
▁पूछे 1
پر 1
▁பரவலாக 1
▁நாவல 1
▁இம்முறை 1
▁رکھنے 1
▁بہترین 1
ڑے 1
▁வைணவ 1
▁সংসদের 1
▁طرف 1
▁సాంకేతిక 1
स्त्र 1
▁Ko 1
▁عاطف 1
▁പതിവ 1
▁দক্ষতা 1
▁சர்வதேச 1
ேசுவர 1
▁ലളിത 1
▁Scheme 1
▁दिया 1
▁పీఠ 1
▁ফাউন্ডেশন 1
▁চে 1
▁مون 1
▁திருவண்ணாமலை 1
▁कल 1
▁গু 1
▁accusing 1
▁sold 1
▁Vigilance 1
▁بن 1
▁کالم 1
▁వీటిలో 1
గడ్డ 1
తే 1
▁مشترکہ 1
▁बिक्री 1
▁পাঁচটি 1
▁दैनिक 1
▁लश्कर 1
▁प 1
▁ঘিরে 1
മാരെ 1
▁लाया 1
▁ఏర్పరచ 1
▁నగర 1
▁flight 1
▁প্রতিষ্ঠাতা 1
ూరులో 1
▁കുടിക്ക 1
▁புத்த 1
انہ 1
N 1
▁ഹൃദയ 1
▁সমতল 1
▁స్నాన 1
▁पहुंच 1
▁বিক্রিয়া 1
ിരുന്നത് 1
▁സിറ്റി 1
▁بیمار 1
▁सहारा 1
ய 1
ക്കുക 1
సర 1
▁நுண்ண 1
റ്ററ 1
▁گو 1
تے 1
ుకోవడం 1
২ 1
▁राशि 1
গ্রন্থ 1
▁செறிவ 1
▁Vasundhara 1
▁మొక్కజొన్న 1
▁জনপ্রিয় 1
▁இவரது 1
▁வடிவ 1
▁منتظر 1
▁جمہوریت 1
রেট 1
▁நுழை 1
▁شا 1
বান 1
▁இருக்கும் 1
দা 1
▁போட்டி 1
▁railway 1
▁ग्राम 1
▁ടോ 1
ভাবে 1
▁لمحے 1
ాయి 1
பா 1
▁برائی 1
১৮ 1
▁Chha 1
▁അന്വേഷണം 1
चर 1
▁story 1
▁அழைக்கப்படும் 1
▁59.5% 1
▁institution 1
▁उपग्रह 1
▁डायरेक्टर 1
▁anniversary 1
▁প্রদর্শন 1
మెంట్ 1
▁ബാക്കി 1
த்திய 1
ھر 1
▁പാരമ്പര്യ 1
▁సంవత్సరంలో 1
▁کنٹرول 1
பர் 1
▁மோ 1
▁മോദി 1
▁face 1
▁குறிக்கிறது 1
▁Bhan 1
▁മുൻപ് 1
▁ജോണ് 1
عت 1
▁وضع 1
▁ഓഫിസ 1
▁میاں 1
গড় 1
▁ఉండాలి 1
▁women 1
▁பால 1
▁मतभेद 1
దర 1
▁தலைமை 1
▁അധികാര 1
▁مناسب 1
▁श्री 1
▁নেতা 1
▁سکون 1
டிய 1
▁नेता 1
▁allow 1
யையும் 1
▁আনন্দ 1
▁رقص 1
ا 1
▁ఆటల 1
రావు 1
▁Examination 1
▁அட்டவணை 1
ization 1
▁سیکھنے 1
▁universities 1
▁sell 1
▁लिखित 1
▁వార 1
▁विशेषज्ञ 1
▁उपचुनाव 1
▁करेगी 1
प्प 1
▁विधानसभा 1
▁পাই 1
▁Here 1
▁practice 1
▁అ 1
▁২০০৬ 1
▁advance 1
▁آگیا 1
▁ফিলিস্তিন 1
▁ہاتھوں 1
▁evidence 1
▁نمائندگی 1
ഭാഗ്യ 1
▁गुजर 1
▁കൊലപാതക 1
▁നേടി 1
गल 1
▁సంస్కృతి 1
▁शव 1
ط 1
▁টি 1
▁নির্বাচনী 1
▁अगुवाई 1
▁आकर 1
ాంశ 1
ുകളും 1
▁చేయబడిన 1
▁মুক্তিপ্রাপ্ত 1
▁విద్యుత్ 1
చరిత్ర 1
▁কম্পিউটার 1
▁பொறி 1
▁caste 1
پورٹ 1
▁اوپن 1
▁സഹോദര 1
▁ع 1
▁எடை 1
▁Vikram 1
▁అంత 1
▁என்னும் 1
దన 1
തിയ 1
▁ഡയറക്ടറ 1
ill 1
▁بل 1
▁constantly 1
ification 1
▁prime 1
▁സ്ത്രീകള 1
▁burn 1
▁x 1
क्ल 1
▁പതിനൊന്ന 1
▁East 1
কর্ম 1
▁relationship 1
▁சுல்தான 1
എഫ് 1
▁సంవత్సరం 1
▁car 1
▁cities 1
▁வேத 1
▁১৯৯২ 1
▁पर्रिकर 1
▁() 1
▁হ্যারি 1
▁താമസ 1
▁move 1
লু 1
ధ 1
▁অভিনেতা 1
▁want 1
▁আছে 1
▁depend 1
ொன்று 1
۔ 1
▁വൈകുന്നേര 1
▁వస్తువు 1
▁सत्तारूढ़ 1
▁بری 1
▁তথ্য 1
▁குழுக்கள 1
▁ఒప్పందం 1
رج 1
వలస 1
பட்ட 1
▁पाठ 1
▁വിജില 1
▁veteran 1
▁canceled 1
▁ప్లే 1
▁unfortunate 1
▁పెంచ 1
▁constituencies 1
▁অ্যান্ড 1
▁ప్రసిద్ధి 1
▁ജനറൽ 1
ন্দি 1
▁مجاہد 1
দীপ 1
▁دس 1
▁सांस्कृतिक 1
▁பேரரச 1
▁திருத்த 1
▁سکتی 1
▁ദി 1
▁അനുഭവപ്പെട 1
▁صحافیوں 1
చన 1
பொழுது 1
pul 1
▁উঠ 1
▁23 1
▁سائنس 1
▁ف 1
▁نیشنل 1
▁پسندیدگی 1
▁அறிந்த 1
▁سفر 1
▁obstruct 1
▁বি 1
▁non 1
গ্রাম 1
▁ஒழுங்க 1
▁పరిశ్రమ 1
▁నియంత్రణ 1
▁टिकट 1
▁অবতীর্ণ 1
ட் 1
▁চৌধুরী 1
▁आधिकारिक 1
var 1
▁সুবিধা 1
▁বিশ্বকাপ 1
ണമെങ്കിൽ 1
▁वायुसेना 1
లతో 1
▁نشانہ 1
▁JD 1
ുവാന് 1
▁கற்ற 1
▁मंत्रियों 1
▁न्यूनतम 1
▁بر 1
▁కోర్టు 1
▁পৌছা 1
▁সম্পাদনা 1
لوں 1
▁விளம்பர 1
▁واسطہ 1
▁ব্যবসা 1
▁اینڈ 1
▁5 1
▁pending 1
টিতে 1
▁pull 1
▁വൈ 1
▁allocated 1
ঁচা 1
▁add 1
▁design 1
▁উপর 1
▁میز 1
எஸ் 1
▁ব্লক 1
▁raise 1
▁মাদ্রাসা 1
▁মালিক 1
స్తుంటారు 1
▁جائز 1
▁நுட்ப 1
పాత్ర 1
▁हस्ताक्षर 1
ड़े 1
▁جعلی 1
▁clean 1
▁NIA 1
pl 1
c 1
▁മടങ്ങ 1
ചിത 1
▁نجی 1
▁K 1
▁ক্র 1
▁ഉറങ്ങ 1
▁done 1
ியம்மன் 1
▁लगातार 1
▁হলো 1
െതിരെ 1
വിരുദ്ധ 1
ं 1
▁elder 1
▁مزدور 1
▁Gowda 1
▁पुरानी 1
▁ഓഹരി 1
ন্ডার 1
യ്ക്കുള്ള 1
▁ഇപ്പോഴും 1
▁కావ 1
▁मित्र 1
▁नियंत्रित 1
▁స్థానాన్ని 1
വർക്ക് 1
▁विदेश 1
ഈ 1
▁എന്നാല് 1
▁youth 1
▁monitor 1
▁आयोजित 1
निर्देश 1
▁হক 1
▁जाएगी 1
▁تعارف 1
▁wall 1
▁സംവിധായകന 1
▁Nations 1
ల్డ్ 1
▁ఆచార్య 1
▁قیصرانی 1
▁தனித்தனி 1
ക്കു 1
▁submarine 1
▁Hussain 1
▁യുവാക്കള 1
▁মন্ত্রণালয় 1
▁వనపర్తి 1
▁ప్రభుత్వం 1
డి 1
▁ডু 1
▁പല 1
gra 1
▁regional 1
దని 1
▁Sanjeev 1
सु 1
▁பிரித்தானிய 1
▁(2011) 1
▁पंडित 1
▁আরব 1
▁ہزاروں 1
ాలయం 1
▁Ali 1
▁റിയാ 1
▁بوجھ 1
ത്തിനും 1
▁അപ്പ 1
▁மு 1
▁15 1
▁سلام 1
▁దేశంలో 1
चार 1
dev 1
▁تکلیف 1
▁does 1
▁কে 1
▁যেহেতু 1
▁വകുപ്പ 1
யர் 1
▁गरीबों 1
▁অবকাঠামো 1
ফ 1
▁बताने 1
▁വിധ 1
▁വിധേയ 1
డు 1
▁चुकी 1
▁ஜெர்மனி 1
▁بڑی 1
க்கொள்ள 1
▁കാട്ട 1
▁രീതിയില 1
▁মৌসুম 1
উদ্দীন 1
on 1
বন 1
▁छोड़ने 1
▁Akbar 1
▁പ്രവർത്തകർ 1
ின்படி 1
▁SSP 1
▁توقع 1
▁പ്രകടിപ്പിക്ക 1
▁سکھ 1
▁অভ্যন্তরে 1
▁কাপ 1
لیس 1
▁பங்கு 1
▁देवी 1
▁ஆண்டுகள் 1
▁റീ 1
▁Jaya 1
▁നി 1
▁നിര് 1
▁سمجھتا 1
▁जन्मदिन 1
▁सुषमा 1
▁گھٹ 1
నాథ 1
▁बराबर 1
▁ممبئی 1
▁R 1
▁சோதனை 1
▁employee 1
▁capital 1
▁ھ 1
ஆம் 1
ീസ് 1
مقابل 1
▁ഗ 1
ென 1
▁बीज 1
▁परिषद 1
▁പ്രതികരിക്ക 1
▁ജയലളിത 1
▁ഞങ്ങളുടെ 1
▁انڈیا 1
▁திருச்சபை 1
വിധ 1
▁இல்லாமல் 1
▁৪ 1
▁১৯৯৮ 1
▁order 1
▁College 1
▁offered 1
84 1
▁Reliance 1
▁பாதுகாப்ப 1
گز 1
▁சீர 1
▁பதிலாக 1
▁2005 1
▁لڑائی 1
▁اعلی 1
▁Bollywood 1
ঁ 1
▁চেয়ারম্যান 1
ানন্দ 1
स् 1
▁جز 1
ment 1
യായ 1
▁مکمل 1
▁யூத 1
▁सप्लाई 1
കയറ 1
నియన్ 1
▁alleged 1
▁booth 1
▁చూ 1
▁نئے 1
▁রবীন্দ্রনাথ 1
▁ആരോപിച്ച 1
▁अरुणाचल 1
▁जि 1
வல் 1
▁ప్రయాణ 1
▁పంచ 1
▁উন্নতি 1
▁stand 1
▁verdict 1
▁body 1
▁CAG 1
▁संवैधानिक 1
ിനോട് 1
▁نثار 1
▁کررہے 1
పోయారు 1
▁return 1
▁قسم 1
▁بلکل 1
ों 1
▁ഉൽപന്ന 1
▁उभर 1
▁رکاوٹ 1
ப்படாத 1
▁जीएसटी 1
▁కామర్సు 1
▁निकालने 1
▁حکام 1
▁അത് 1
▁गांवों 1
▁for 1
▁سوچا 1
ً 1
ుకొన్న 1
▁ആണെന്ന 1
भ 1
▁دی 1
▁BSF 1
മന്ത്രാലയ 1
▁51 1
▁हिंदुस्तान 1
ப்பிர 1
▁شکریہ 1
▁പറയുന്ന 1
▁ملاقات 1
▁நன்மை 1
▁whose 1
▁ఆధ్వర్యంలో 1
മല 1
▁doing 1
▁Jag 1
▁courage 1
▁गठित 1
▁జూన్ 1
▁സ്ഥല 1
▁مبنی 1
▁سینکڑوں 1
ళ్ళు 1
▁রক্ত 1
▁அல் 1
▁সে 1
▁پنج 1
▁অতঃপর 1
▁یہی 1
പോർട്ട 1
▁பாரம்பரிய 1
▁रणनीति 1
▁নাম 1
৯৪ 1
▁रुक 1
▁బహిరంగంగా 1
▁দান 1
▁ناصر 1
వ్యవసాయ 1
▁مجموع 1
▁عناصر 1
ంటు 1
পাত 1
▁मूल्य 1
▁रक्त 1
முறை 1
ின 1
న్స్ 1
▁క్రికెట్ 1
▁بجا 1
వచ్చు 1
▁তরল 1
▁মহাকাশ 1
▁రికార్డు 1
ித்த 1
दास 1
▁नौसेना 1
ചന 1
▁देशों 1
ార్థ 1
▁انہیں 1
▁suit 1
▁பாதிக்கப்பட்ட 1
▁try 1
▁قبضہ 1
സാന്നിധ്യ 1
▁இயற்பியல் 1
▁பணியாற்றினார் 1
▁सहयोगी 1
▁শব্দ 1
▁meet 1
യുടെയും 1
▁মাইক্রো 1
▁गि 1
▁نال 1
▁گل 1
▁ஆப்பிரிக்கா 1
পতি 1
▁শহরের 1
▁کر 1
▁సంతోష 1
▁നിയമസഭ 1
ఫై 1
▁நடைபெற 1
▁காஷ்மீர 1
had 1
மும் 1
ल्स 1
▁চালানো 1
▁سالگرہ 1
▁grant 1
▁தண்டனை 1
▁பூச்சி 1
▁मारपीट 1
▁പുലര് 1
▁are 1
▁కుటుంబ 1
▁குற்ற 1
▁సినిమా 1
▁పునః 1
▁besides 1
▁എറണാകുളം 1
▁రంగ 1
▁নির্বাচিত 1
▁Raja 1
▁కొబ్బరి 1
▁പ്രിയപ്പെട്ട 1
▁کبھی 1
▁جھلک 1
▁ఆంగ్ల 1
దే 1
த்தூர் 1
▁ഗോവ 1
ാത്ത 1
ल्ट 1
▁পৃষ্ঠ 1
ுள்ள 1
▁दूध 1
▁ম 1
▁ബിജെപി 1
▁நூலில் 1
కరణ 1
▁چلے 1
▁మహర్షి 1
▁Four 1
▁जंतर 1
ল্যান্ড 1
▁வந்து 1
Congress 1
▁வடமேற்க 1
▁agriculture 1
▁रेलवे 1
కృష్ణ 1
▁महिलाओं 1
▁آتے 1
har 1
▁প্রেম 1
কার 1
▁পিছনে 1
▁কর্মরত 1
▁শাখা 1
▁सकें 1
▁অ 1
▁ٹائ 1
ள் 1
▁প্রধানত 1
pal 1
▁بھاگ 1
ഭക്ഷണ 1
▁stranded 1
82 1
▁टॉप 1
▁second 1
▁ইস্ট 1
▁research 1
r 1
▁జరుగ 1
మోహన్ 1
▁വിശ്വ 1
ؤں 1
ాల్సి 1
▁রান্না 1
▁തിരുവ 1
▁Economic 1
▁بنیادی 1
▁डूब 1
പ്പാ 1
▁supremo 1
জা 1
▁حاضر 1
▁మానసిక 1
▁കൊള 1
▁ماہر 1
▁தெ 1
▁প্রতিবেদন 1
▁இருக்க 1
▁കിട 1
▁നികുതി 1
ِ 1
▁শৈশব 1
▁لگ 1
▁सपा 1
▁இல்லாத 1
▁துப்பாக்கி 1
▁equipped 1
▁వచ్చే 1
▁வாக்கு 1
▁పసుపు 1
▁చెరువు 1
▁Bad 1
▁prisoners 1
▁सूत्र 1
▁ప్రకటించ 1
▁குறிப்பாக 1
▁सेंटर 1
▁watch 1
ക്കോ 1
▁চ্যাম্পিয়নশিপ 1
▁ওয়েব 1
দক্ষিণ 1
▁പത്ര 1
▁త్రి 1
ா 1
▁എന്തെങ്കിലും 1
▁ഡോ 1
▁اداروں 1
യ്ക്കും 1
▁نازل 1
▁قاتل 1
▁నాణ్యత 1
▁छा 1
గొండ 1
মী 1
▁বোলিং 1
യ്യ 1
▁floor 1
സൂ 1
▁पुलिसकर्मियों 1
▁என்கிற 1
▁രാജ്യത്തെ 1
▁বাণিজ্যিক 1
நேர 1
▁मुख्य 1
ओ 1
तौर 1
▁சிறப்பு 1
▁constitution 1
▁पथराव 1
▁കണ്ണൂര 1
▁اتنا 1
ఖా 1
▁எழுத்து 1
▁नदी 1
ോടു 1
▁دانش 1
▁హరి 1
▁اختلاف 1
▁প্রতিদ্বন্দ্বী 1
▁कमरे 1
▁اصل 1
▁ഡോളറ 1
▁பழமையான 1
▁एटीएम 1
▁بج 1
ദ്ര 1
▁വ്യായാമ 1
▁paramilitary 1
▁செய்யப்பட்டது 1
▁sea 1
▁সাধারণ 1
णा 1
▁عمران 1
ുടേത 1
ൂർ 1
▁War 1
ികൾ 1
▁ফেব্রুয়ারি 1
▁نظریہ 1
ఘ 1
▁دکھا 1
▁ద్వారా 1
▁मई 1
▁fog 1
▁భర్త 1
▁ٹھیک 1
▁امتحان 1
▁मकान 1
श 1
▁ভে 1
ப்படுகின்றன 1
▁اصطلاح 1
▁സൈനിക 1
കരിക്ക 1
▁वक्त 1
হে 1
▁heart 1
ig 1
▁Jan 1
▁واقعہ 1
▁अगर 1
▁ദുബായ 1
▁জু 1
▁ప్రాచుర్యం 1
▁घर 1
▁கர் 1
63 1
▁कार्यकर्ता 1
▁मौजूद 1
▁नजदीक 1
▁নৃত্য 1
▁అభ్యసించ 1
▁labor 1
▁कल्याण 1
কল 1
▁stay 1
▁জীবনের 1
▁ഗു 1
▁liter 1
▁अफसर 1
▁Bench 1
▁سی 1
▁تینوں 1
▁تیر 1
▁[3] 1
ത്വം 1
ang 1
▁சிறிது 1
▁Sunday 1
▁आपदा 1
▁നൽക 1
▁किराया 1
രാത്രി 1
வாதி 1
నుండి 1
▁ورزی 1
▁intention 1
▁Bill 1
নাম 1
സ്ഥാന 1
▁واقف 1
ల్లి 1
ந்திர 1
▁ہن 1
▁அறிவியல 1
▁కూడిన 1
थ 1
▁நடு 1
▁ता 1
▁ఆ 1
▁গঙ্গা 1
▁২৯ 1
▁జరుగుతున్న 1
▁جو 1
▁তারিখ 1
▁ہوسکے 1
▁فرصت 1
ఇతర 1
▁ബോധ്യ 1
জ্জ 1
▁ട്വ 1
▁നായകനായ 1
▁ప్రభావితం 1
▁പുണെ 1
▁பட்டியல 1
▁பாடிய 1
▁Panchayat 1
▁போன்ற 1
▁ഫോൺ 1
▁نئی 1
ى 1
▁করত 1
മുക്ത 1
▁agenda 1
▁நோயாளி 1
▁இப்போது 1
▁Ranchi 1
▁مص 1
▁advertisement 1
▁hand 1
▁storm 1
▁ఉమ్మడి 1
▁తెలుస 1
▁आतंकियों 1
▁बर्दाश्त 1
▁ফুট 1
▁DNA 1
ాలలో 1
▁6 1
▁செம்ம 1
▁इधर 1
▁উচ্চারণ 1
ద్ధ 1
▁دنیا 1
▁प्रवक्ता 1
▁অগ্র 1
▁লিখিত 1
▁తొలగ 1
▁മനോ 1
▁പോരാട്ട 1
▁మాడుగుల 1
▁മോട്ടോർ 1
▁പോഷക 1
▁پور 1
▁dead 1
ফিল্ড 1
▁പരിശോധന 1
▁L 1
ত্রা 1
▁মেঘ 1
▁fought 1
▁Nag 1
వరకు 1
▁ചേർക്ക 1
▁ব্রাজিল 1
▁ఆమదాలవలస 1
▁संदिग्ध 1
▁मंच 1
▁کردہ 1
▁International 1
▁குருதி 1
▁తదితర 1
▁Shi 1
▁بلکہ 1
▁کہیں 1
ted 1
▁নেতৃত্ব 1
ेस 1
கின்றது 1
▁مف 1
▁इजाफा 1
▁fight 1
ப்பட்டுள்ளன 1
ിട്ടും 1
▁এসেছে 1
▁തന്നെയാണ് 1
ine 1
▁പങ്കെടുത്ത 1
▁মৃত্যু 1
▁inflation 1
▁संसाधन 1
ஊ 1
▁बनर्जी 1
▁சுய 1
▁ముస్లిం 1
களி 1
hat 1
▁वसूल 1
k 1
▁പൊ 1
തായും 1
▁احسان 1
വല 1
▁பா 1
▁reduce 1
▁village 1
▁accepted 1
▁বয়স 1
▁االله 1
م 1
▁انشاء 1
▁where 1
▁নির্বাহী 1
▁इंजीनियर 1
▁നേരത്തെ 1
র্ষ 1
▁করতেন 1
▁बताई 1
ated 1
▁രൂപ 1
▁జర్మనీ 1
ారని 1
ரால் 1
▁కొరకు 1
ப்பா 1
▁சந்தித்த 1
▁چل 1
▁இருக்கலாம் 1
స్కో 1
▁నష్ట 1
ப்பட 1
▁broken 1
▁वे 1
▁আরেকটি 1
sh 1
▁ميں 1
▁इमारत 1
▁లేక 1
▁लाइसेंस 1
ہم 1
ഗതി 1
▁زمرہ 1
▁அடிப்படையாகக் 1
▁Talk 1
ష్ఠ 1
▁سروس 1
েশ 1
▁തമ്മിലുള്ള 1
ৃ 1
▁ترجیح 1
▁কর্পোরেশন 1
తుంది 1
മുട്ട 1
స్టా 1
ലോ 1
▁వేసవి 1
త్తు 1
▁बाबू 1
▁चलाया 1
▁இவர் 1
▁సిబ్బంది 1
▁ड 1
▁लिए 1
తు 1
▁कह 1
▁വാഹന 1
▁എഴുതി 1
eep 1
▁पत्रकारों 1
▁মাল 1
ப்புற 1
▁எண்ணிக்கை 1
യിലും 1
▁വിശ്വാസ 1
▁സംഘടിപ്പിക്ക 1
▁arrangements 1
▁ग्रहण 1
▁ठोस 1
▁ഗായിക 1
▁సాధించిన 1
▁বৈশিষ্ট্য 1
ada 1
▁কংগ্রেসের 1
▁Ku 1
▁பொழுது 1
▁தூய்மை 1
కొండ 1
▁ഉണ്ട് 1
▁അടിയന്തര 1
▁वजह 1
▁కం 1
▁ٹائپنگ 1
▁اتنی 1
▁ఏర్పడిన 1
▁పట్టు 1
▁పొగాకు 1
▁चु 1
▁سنی 1
▁റിപ്പോർട്ട 1
▁پارلیمنٹ 1
▁പെട്ടെന്ന് 1
ింప 1
▁دل 1
ങ്ങൾക്ക് 1
▁സൂചന 1
േന്ദ്ര 1
▁फर्जी 1
▁g 1
▁அரு 1
ుతున్నారు 1
ژ 1
si 1
▁तारीख 1
▁১৯৯৫ 1
▁نسبت 1
▁शपथ 1
▁हादसे 1
▁வயத 1
▁घोटाले 1
▁বৈদ্যুতিক 1
ലക്ഷ്മി 1
▁caught 1
▁زمانے 1
ാകട്ടെ 1
▁زخم 1
▁നിറഞ്ഞ 1
▁உறுப்பினர்களைத 1
▁ٹی 1
▁స్థిర 1
▁Advani 1
പ്പ 1
▁ஐந்து 1
्लू 1
▁నిర్మించ 1
ri 1
▁संसद 1
▁خطرناک 1
▁നഗരസഭ 1
▁കയ്യ 1
द 1
▁counsel 1
▁లే 1
▁ধীরে 1
▁பொருட்கள் 1
▁برکت 1
▁ready 1
▁ഹൗസ 1
▁എന്നിവ 1
▁എന്നീ 1
▁దాని 1
▁Lokpal 1
▁distance 1
▁shot 1
ई 1
▁सफल 1
▁పిల్లల 1
▁வாழ்கின்றனர் 1
▁فضل 1
▁బ్యాంక్ 1
ப்படும் 1
▁considered 1
പു 1
▁training 1
▁शुल्क 1
▁रही 1
▁Sahib 1
▁మైదానం 1
▁இயல 1
< 1
తన 1
▁சாதன 1
▁active 1
▁রাজত্ব 1
▁50 1
▁നിത്യ 1
স্টে 1
▁सामना 1
▁অফিসার 1
ہی 1
▁অর্ধ 1
▁তল 1
ర్థ 1
പൊ 1
▁অর্ধেক 1
▁হওয়ায় 1
▁पुरुष 1
▁میٹر 1
▁ടെ 1
سک 1
▁നിർബന്ധ 1
▁ഒടുവില 1
▁పారబోస్తా 1
▁योगदान 1
▁لگانے 1
▁گستاخ 1
▁ആള 1
हर 1
▁شدید 1
▁سا 1
ক্ষিত 1
▁गोली 1
▁মহা 1
▁باغ 1
േയുള്ളൂ 1
▁वंचित 1
▁मुख्यालय 1
▁ఇతర 1
▁பயன்படுகிறது 1
▁کھاتے 1
யிலான 1
▁প্রেসিডেন্ট 1
▁न्यायमूर्ति 1
▁బీ 1
▁അധിക 1
▁முன்னணி 1
▁نور 1
71 1
▁فکر 1
▁آٹھ 1
ഫോണ 1
▁nothing 1
▁مشکلات 1
▁വായിക്കാം 1
▁نواب 1
▁ഹ 1
▁अप्रैल 1
▁കിട്ട 1
▁کے 1
▁বিস্তার 1
▁நிலைய 1
▁शोषण 1
▁اہلکاروں 1
__t2en__ 1
▁கட்ட 1
▁நிறுவ 1
▁account 1
▁संविधान 1
▁छोटे 1
▁കൂടി 1
▁Nirmal 1
▁planned 1
▁محروم 1
கே 1
▁ایشیا 1
▁لادن 1
నైపుణ్య 1
ராஜா 1
पी 1
▁নবী 1
▁एड 1
▁action 1
ിരുന്നു 1
▁امداد 1
మల 1
▁بالکل 1
▁పె 1
কান 1
▁অপরাধ 1
▁नदियों 1
▁রপ্তানি 1
ெழு 1
▁నిపుణ 1
▁జగిత్యాల 1
▁मामलों 1
ுக்கும் 1
పరి 1
▁ഉണ്ണി 1
കുമാര് 1
ts 1
▁things 1
▁सर्व 1
where 1
కార్యక్రమ 1
▁ruckus 1
▁नि 1
ിലേക്ക 1
ham 1
▁تمہیں 1
▁پڑی 1
▁ഇടവക 1
ச்சு 1
tan 1
▁if 1
নং 1
▁مراسلے 1
▁مریض 1
സില് 1
▁২০১৬ 1
▁আসছে 1
▁Andhra 1
▁என்றால் 1
اری 1
▁അവയവ 1
▁neighbor 1
▁உருசிய 1
ম্প 1
▁സൂപ്പ 1
रि 1
లోపు 1
use 1
▁മഞ്ഞ 1
▁பாய் 1
க்கோ 1
▁காற்று 1
▁ঔষধ 1
▁അവസര 1
▁മാവോയിസ് 1
▁پارلیمان 1
▁കുട്ടികളുടെ 1
▁yet 1
▁উচ্চতা 1
▁Da 1
▁suspect 1
▁বাঁধ 1
▁వెలువడ 1
▁so 1
▁അതിന്റെ 1
லால் 1
▁फोर्स 1
▁பிரிவு 1
▁തർക്ക 1
▁continue 1
শী 1
కుంట 1
▁অঙ্গরাজ্য 1
▁प्रत्यक्ष 1
▁സൗദി 1
▁roof 1
ro 1
▁కెఫె 1
గ్రా 1
▁நிகழ்வ 1
ாலேயே 1
▁तीन 1
▁പ്രവർത്തകര 1
▁منتخب 1
▁few 1
▁confirmed 1
▁possibility 1
▁रवि 1
▁मांग 1
▁ہ 1
▁അൽപം 1
क्की 1
ट्र 1
▁saw 1
▁பெண்ண 1
म् 1
▁ھو 1
▁కర్ 1
▁level 1
▁संहिता 1
চন্দ্র 1
▁অ্যাসোসিয়েশন 1
▁প্রযুক্তি 1
த்தது 1
▁کانگریس 1
▁സിങ് 1
▁കൊണ്ട 1
▁തൊഴില 1
▁complain 1
Y 1
▁সমসাময়িক 1
ങ്ങളായി 1
▁மதிப்பிட 1
▁ভক্ত 1
▁জ্বালা 1
▁ব্যান্ড 1
▁ला 1
▁దీనిని 1
ذب 1
▁father 1
യെടുത്ത 1
▁Con 1
ction 1
▁आबादी 1
__t2bn__ 1
ജോ 1
ے 1
▁কাছাকাছি 1
▁विवाद 1
▁زدہ 1
▁بڑھا 1
ுவதை 1
നാരായണ 1
▁கோவில் 1
▁جرائم 1
▁Prasad 1
▁இயல்ப 1
▁ആരോഗ്യ 1
Jagran 1
▁একটি 1
▁கூறிய 1
▁बीच 1
48 1
▁almost 1
▁చౌ 1
▁উসমানীয় 1
▁ശസ്ത്രക്രിയ 1
▁स्वामी 1
ছু 1
▁కొనసాగ 1
▁detained 1
▁அரியலூர் 1
▁call 1
পূর্বাঞ্চল 1
▁بینک 1
▁நடித்துள்ளனர் 1
ঘাট 1
▁ஆண்டுகளில் 1
▁जंग 1
▁கோவில 1
▁abuse 1
ട്രി 1
ju 1
ించు 1
▁Award 1
▁نتائج 1
▁उसी 1
▁आसाराम 1
▁போட்டிகளில் 1
▁कालेधन 1
▁ग्लोबल 1
▁گئی 1
▁آزاد 1
▁धमक 1
ப்பணி 1
ாளராக 1
ക്സ് 1
▁ہڑتال 1
▁گرا 1
டர் 1
▁favor 1
▁छोटा 1
बर 1
▁ஏழு 1
▁হিসাব 1
▁സംഭാഷണ 1
ంగి 1
▁చర్చ 1
▁रोकने 1
▁വ്യക്തമാക്കി 1
ാർഥ 1
▁ജനിച്ച 1
▁16 1
తర 1
▁এশিয়ার 1
▁रखे 1
▁وضاحت 1
▁follow 1
▁১৯৯৩ 1
▁ఎస్ 1
▁সোভিয়েত 1
▁പുരോഗമിക്ക 1
▁advantage 1
▁విషయాన్ని 1
▁ہتھیار 1
▁ఫ్లో 1
▁past 1
سن 1
തായി 1
▁جم 1
▁اڑ 1
▁కా 1
ంతి 1
মণ্ডল 1
ാവുന്നതാണ് 1
▁জামা 1
▁peace 1
▁due 1
ాం 1
▁Islam 1
விட்டார் 1
পূর্ব 1
▁2011. 1
▁பாட 1
▁বিবর্তন 1
ബാധ 1
▁अगली 1
৩০ 1
▁కంది 1
▁সম্ভাবনা 1
▁अकादमी 1
நாட்ட 1
▁നിലപാട് 1
▁Bal 1
ot 1
▁কর্ণাটক 1
▁മാനേജ് 1
ٹس 1
കളും 1
▁বিরুদ্ধে 1
▁अलगाववादियों 1
▁புவியியல் 1
ion 1
▁عقیدہ 1
▁شروع 1
▁قران 1
▁گروہ 1
▁far 1
▁അവസരം 1
▁tourists 1
▁തടയ 1
▁لینا 1
▁మరిన్ని 1
▁शाह 1
▁ناقص 1
आप 1
▁واقعات 1
▁چند 1
▁దక్షిణ 1
সি 1
▁sector 1
▁ஆக்க 1
▁ഇവർ 1
கூற 1
▁عملی 1
யின 1
నా 1
▁महाराष्ट्र 1
▁ജാമ്യ 1
▁सहारे 1
▁स्तर 1
▁prepare 1
ുകൾ 1
▁बदले 1
ള്ള 1
▁بہتر 1
▁പ്രകാരം 1
வசிக்கின்றார்கள் 1
▁طنز 1
▁32 1
▁North 1
▁राजीव 1
▁বইটি 1
▁ఇస్లాం 1
▁നാല് 1
▁डि 1
▁سکی 1
▁கடந்த 1
বী 1
ன்ஸ் 1
▁increase 1
▁ഡി 1
▁മുമ്പ് 1
▁വ്യക്തി 1
पीए 1
▁ചടങ്ങ 1
▁వద్ద 1
▁AIADMK 1
▁فتوی 1
▁வழங்கிய 1
▁journey 1
▁রাজনীতি 1
দ্ 1
▁बीमार 1
▁গিয়েছে 1
▁بد 1
ంలో 1
ായിരം 1
▁गुजरात 1
▁کرلیں 1
▁मुहैया 1
शंकर 1
▁خواہش 1
▁தென்னாப்பிரிக்க 1
▁پناہ 1
▁فراز 1
▁எடுத்து 1
▁کرپشن 1
maker 1
▁एच 1
▁তেল 1
▁mobile 1
▁अग्रवाल 1
▁author 1
▁لیے 1
▁لیا 1
தீ 1
▁సాధ్య 1
▁W 1
▁படை 1
സര 1
னே 1
▁സ്ത്രീകൾ 1
▁অঙ্গ 1
সের 1
ঘ 1
▁সহ 1
▁ചെലവ 1
্যান্ট 1
▁মধু 1
graph 1
▁1960 1
▁نیز 1
നം 1
ിനായി 1
▁అధ్యక్షుడు 1
మ 1
▁मंगल 1
▁ഉദ്യോഗസ്ഥര 1
▁১৯ 1
▁நிலுவையில 1
▁മുപ്പത 1
▁తక్కువగా 1
▁employment 1
.... 1
േണ്ടത് 1
▁கண் 1
▁रहस्य 1
▁ব্যক্তি 1
▁ബ്രാൻഡ 1
▁Lucknow 1
▁മണ്ണ 1
▁సభ్యులు 1
▁राज 1
ப்பட்டுள்ள 1
▁சு 1
படி 1
▁डाला 1
▁ब्लास्ट 1
▁কারিগর 1
▁Sheena 1
▁हों 1
▁JNN 1
▁رفت 1
▁जानकार 1
▁प्रशंसा 1
প্র 1
▁पर्यावरण 1
▁వస్తువులు 1
ക 1
▁కుమార్తె 1
யோடு 1
ীয় 1
▁Cabinet 1
▁টাই 1
▁Li 1
▁১৯৫৮ 1
▁అన్న 1
old 1
ां 1
▁कराया 1
▁వసంత 1
പ്പു 1
जाब्यू 1
▁गुप्ता 1
▁relatives 1
▁लगाने 1
▁உடல 1
▁kilo 1
▁నిబంధన 1
ത്തകര 1
ంద్ర 1
▁ഭീകര 1
▁جہاز 1
ؔ 1
▁காற்ற 1
द्वार 1
▁تیری 1
▁അംഗീകരിച്ച 1
▁హో 1
▁எடுக்க 1
▁వైద్య 1
ైనా 1
ஓ 1
టర్ 1
ല്ലാതെ 1
▁చే 1
▁accident 1
ജാ 1
▁May 1
▁അച്ഛന 1
▁شاعری 1
▁भाषण 1
▁पुलिस 1
▁patient 1
▁വേദന 1
ஆங்கிலம் 1
▁imp 1
▁मह 1
পশ্চিমাঞ্চল 1
▁عمار 1
▁చరిత్ర 1
▁मुश्किल 1
বর্ষ 1
ായാലും 1
▁சமவெளி 1
െത്തിയത് 1
▁Hindu 1
ற்றி 1
▁ফিফা 1
▁హాలు 1
▁मिश्र 1
▁بیگ 1
▁इनकी 1
ുണ്ട് 1
▁ഭാരത 1
▁پورا 1
▁ഓര് 1
m 1
▁వీధుల 1
గీ 1
▁ইউনিয়ন 1
▁বিদ্যুৎ 1
▁అందించ 1
▁గుడి 1
▁स्थगित 1
ப்படுவது 1
▁तैयारी 1
▁از 1
▁समीक्षा 1
▁లైన్ 1
▁قریشی 1
బో 1
सि 1
▁ना 1
▁چکا 1
▁داڑھی 1
▁दिख 1
▁নেতৃত্বে 1
▁விரு 1
▁শীর্ষ 1
▁লাই 1
کھا 1
யான 1
▁خرید 1
خر 1
▁Sabha 1
▁فون 1
▁चालू 1
▁विदेशी 1
স্ত 1
▁மொத்தம் 1
స్తున్న 1
ுவதன் 1
ৌ 1
▁Ad 1
▁fast 1
ஃப் 1
ത്തി 1
▁revenue 1
▁پول 1
പ്പെടുത്തിയ 1
▁Y 1
▁راج 1
▁ஆண்டுகளுக்கு 1
▁اجنبی 1
n 1
▁ریڈ 1
ত্রী 1
▁Sanjay 1
▁तड़के 1
ভাষী 1
▁cover 1
▁उचित 1
▁plant 1
ഫല 1
▁touch 1
▁സീറ്റ 1
▁مہوش 1
ক্ক 1
▁قدر 1
▁فتح 1
▁হ 1
▁পক্ষে 1
▁ప్రకారం 1
▁புதுக்கோட்டை 1
▁স্থান 1
ിറങ്ങ 1
ചെയ്ത 1
▁இளைஞர் 1
▁গির্জা 1
▁గ్రామం 1
▁శాల 1
ൂര് 1
▁group 1
▁Muzaffarnagar 1
▁کردی 1
▁रिश्तेदार 1
▁بگاڑ 1
మే 1
ராக 1
▁अभियान 1
]. 1
▁passengers 1
ay 1
▁चंद्र 1
▁package 1
▁गोरखपुर 1
▁সেন্ট 1
▁পণ্ডিত 1
▁नक्सल 1
▁తారు 1
▁முக 1
▁घंटे 1
▁എന്തിന 1
ുണ്ടാക്കുന്ന 1
▁پھنس 1
▁एंटी 1
▁উপকূল 1
▁relations 1
▁కాగజ్ 1
est 1
▁earn 1
▁कर्फ्यू 1
▁शांत 1
ுவதாக 1
'' 1
▁اقدار 1
▁जाकर 1
▁அருங்காட்சியக 1
▁తమిళ 1
▁بولے 1
▁নেওয়া 1
▁پڑھتے 1
▁ত্রিপুরা 1
▁اسکی 1
లపై 1
▁সৌন্দর্য 1
▁গৃহীত 1
▁जाना 1
▁مصطفی 1
▁প্যারিস 1
om 1
ధాన్య 1
▁প্রতিনিধি 1
▁অভিষেক 1
▁Pankaj 1
▁প 1
▁राय 1
▁जाता 1
பெ 1
ക്കായി 1
▁प्रतिनिधियों 1
ter 1
▁قوت 1
▁क्र 1
চ 1
▁Ayodhya 1
खे 1
point 1
کی 1
▁alliance 1
▁ല 1
▁Bedi 1
▁اطمینان 1
▁கட்டுரைகள் 1
▁distribution 1
▁புலவர் 1
▁संबंधी 1
de 1
▁১৯৫০ 1
out 1
▁غیر 1
▁کام 1
ാക്ക 1
▁ம 1
▁प्रमाण 1
▁चुप्पी 1
tt 1
▁scale 1
വാ 1
▁రె 1
▁ফ 1
▁पत्नी 1
▁پینے 1
▁தமிழக 1
▁material 1
▁टिप्पणी 1
▁उल्लेख 1
▁involved 1
▁ഓട 1
ரின் 1
gan 1
ন্ডা 1
▁south 1
▁பொருத்த 1
▁বর্ষসেরা 1
▁செப்டம்பர் 1
্রো 1
▁نجات 1
രിക 1
▁have 1
ண்டர் 1
▁முதலாம் 1
▁സെറ്റ 1
മ്പ് 1
▁என் 1
▁இடையே 1
▁എന്റെ 1
▁రిపబ్లిక్ 1
▁பிரச்சினை 1
▁வார்த்தை 1
▁प्रदीप 1
ফোর্ড 1
▁दौर 1
▁To 1
বার্গ 1
▁جاؤ 1
▁স্থায়ী 1
▁ఇంటర్ 1
▁பயிற்சி 1
▁മാത്രമ 1
▁जा 1
ിൽ 1
ीन 1
▁മൂന്ന 1
രും 1
▁எல்லை 1
▁పడమర 1
▁సీతారామ 1
▁அரச 1
▁সাথে 1
▁வரையறுக்க 1
தாக 1
▁plot 1
▁using 1
▁பிடிக்க 1
ిక 1
▁মাঝে 1
▁अनदेखी 1
▁आया 1
▁ఆఫ్రికా 1
وس 1
ئیر 1
ন্দা 1
নীয় 1
ക്കിട 1
نی 1
▁ഈടാക്ക 1
▁मौलाना 1
షియ 1
▁सत 1
▁വിഷ്ണു 1
▁തോന്നിയ 1
▁exercise 1
▁earlier 1
▁contract 1
তার 1
▁राजेंद्र 1
▁oath 1
▁ഉമ്മ 1
▁necessary 1
▁effect 1
▁jawans 1
▁മാറ്റിയ 1
▁ఆర్ట్స్ 1
▁চার্চ 1
▁পর 1
▁His 1
▁காலத்தில் 1
ناک 1
▁പദ്ധതി 1
▁కోల్ 1
▁समय 1
▁എഴു 1
▁பாதுகாப்பு 1
গা 1
▁আহমদ 1
ڑا 1
▁ഒറ്റ 1
▁మార్కెట్ 1
& 1
▁expectations 1
▁পূর্বে 1
▁پچھ 1
▁కథ 1
▁NGO 1
▁ജില്ലയിലെ 1
▁پھ 1
krishna 1
ছিলেন 1
▁అర్జున 1
▁അഭിഭാഷക 1
▁పలు 1
லோ 1
▁sense 1
▁سبق 1
▁వదులుతున్న 1
শি 1
گا 1
▁ചിന്ത 1
▁അപകട 1
▁صوبہ 1
హి 1
▁रहती 1
▁ఆయన 1
▁செய்யும் 1
▁বস 1
టై 1
▁সভাপতি 1
ten 1
و 1
▁দিকে 1
ல் 1
▁গান্ধী 1
▁extreme 1
ங்கல் 1
্য 1
▁ঘটনা 1
ft 1
సే 1
കാന് 1
▁transaction 1
স্টার 1
▁Venkaiah 1
▁مہدی 1
▁ల 1
చారు 1
▁শিল্প 1
िज 1
ఫీ 1
▁एफआइआर 1
▁আনোয়ার 1
▁Pra 1
▁যেসব 1
▁মাঝামাঝি 1
▁തന്ന 1
▁ব্রোঞ্জ 1
പരിഹാര 1
▁ఫా 1
▁পোশাক 1
▁ওপর 1
▁മേ 1
▁పనిచేస్తున్న 1
ोल 1
▁പത്തു 1
▁handed 1
▁వర్ 1
▁పొట్టి 1
ியம் 1
▁MP 1
▁Muzaffar 1
ూర్ 1
▁ন্যা 1
▁உறுப்பினர் 1
▁പ്ലാ 1
തിനിടയില് 1
▁ലീ 1
▁অসুস্থ 1
ক্ষেত্রে 1
▁সংগ্রাম 1
▁discuss 1
▁happy 1
▁again 1
▁तीस 1
யைப் 1
▁معروف 1
ூர் 1
▁سرمایہ 1
▁৫৯ 1
▁দেখানো 1
▁दर्द 1
▁کلاس 1
பொருள் 1
▁دب 1
▁Friday 1
▁అదే 1
▁মসজিদ 1
কৃষ্ণ 1
▁बसपा 1
el 1
▁എന്തുകൊണ്ട 1
ന്റേത 1
▁ইতালি 1
▁Abhi 1
▁diesel 1
▁general 1
نوں 1
ുണ്ടാക്കിയ 1
▁सुरक्षाबलों 1
▁வைத்த 1
▁లభించ 1
▁استاد 1
▁جانور 1
▁Kalyan 1
ందుకు 1
▁బయోగ్యాస్ 1
اف 1
از 1
▁క్షీణ 1
മാകും 1
▁বিশ্লেষণ 1
ंडर 1
▁খনন 1
వాద 1
ான் 1
▁سرکاری 1
▁Branch 1
▁डिप्टी 1
மே 1
▁دستاویز 1
▁स्टेशन 1
em 1
धार 1
▁মত 1
▁దేవత 1
▁ശരി 1
ணர் 1
▁young 1
▁بتایا 1
▁लु 1
▁ആഗ്രഹിക്കുന്ന 1
▁তুলে 1
▁சுகாதார 1
▁جادو 1
▁ঠিক 1
▁அல்ல 1
▁External 1
▁జీ 1
▁புனித 1
▁ఉన్న 1
27 1
▁questions 1
▁सईद 1
▁اطاعت 1
▁இச்ச 1
▁after 1
ുമ്പോഴാണ് 1
▁எனக் 1
கொள் 1
ٹنگ 1
▁மகன் 1
▁De 1
స్తంభ 1
▁years 1
▁ప్రయోగ 1
▁সংক্রান্ত 1
pati 1
▁മമ്മൂട്ടി 1
▁నిలిచింది 1
ன 1
▁पहुंचे 1
ంక 1
ఖ్ 1
▁उद्यम 1
▁১৯৯৭ 1
▁तीसरे 1
▁తీసుకొ 1
▁نثر 1
▁aware 1
வ் 1
▁meantime 1
ুদ্ধ 1
▁தொல்காப்பிய 1
▁دلچسپی 1
ിക്കാന് 1
ിലെ 1
▁सर्जिकल 1
രെ 1
ef 1
▁अखिलेश 1
▁نعرے 1
▁செயல்பட 1
▁തീര് 1
▁దొంగ 1
▁എന്നു 1
▁ব্যাটসম্যান 1
▁విధానం 1
▁வாழ்ந்த 1
नईदुनिया 1
▁சிவப்பு 1
▁objection 1
▁எவ்வாறு 1
▁প্রতিষ্ঠান 1
▁শিষ্য 1
▁खोज 1
▁बुरी 1
▁Limited 1
भूत 1
▁अब्दुल 1
▁গ্রা 1
▁உள்ளன 1
▁चौधरी 1
▁room 1
▁শহরটি 1
ம்பர 1
पोषण 1
▁এরফলে 1
▁കൂട 1
▁ٹوئنٹی 1
ఎం 1
▁خودکش 1
▁വിദ്യ 1
ُ 1
▁ہوگی 1
▁அதனை 1
▁Public 1
▁ডেভিড 1
पोर्ट 1
▁ب 1
▁அடர்த்தி 1
▁नियमों 1
র্ট 1
▁gone 1
▁ملتا 1
▁كا 1
▁इराक 1
क्र 1
▁certain 1
▁जगह 1
▁legislators 1
▁அமெரிக்க 1
▁Bhutan 1
▁शास्त्री 1
▁खतरे 1
▁কিন্তু 1
▁அங்க 1
▁বন্দর 1
▁തവണ 1
اں 1
▁سرور 1
▁வழிபாட்ட 1
Z 1
▁দ্বারা 1
▁জা 1
ंत 1
▁ఉంట 1
▁இம்மாவட்டத்தின் 1
▁রাজ্য 1
▁ই 1
యిల్ 1
▁parliamentary 1
▁നാല 1
▁প্রদেশ 1
▁কাজ 1
▁کي 1
▁corruption 1
▁রাজধানী 1
▁daughter 1
▁منصوبے 1
▁മ്യൂസിക് 1
▁ഡ്രൈവ 1
▁തിര 1
▁বিশ্বাস 1
▁प्रेट्र 1
▁قائد 1
▁మరొక 1
▁operator 1
കൾക്കും 1
▁کیسے 1
▁فلاں 1
▁respond 1
▁ഷ 1
टर 1
▁श्याम 1
▁multi 1
▁nominated 1
▁hour 1
▁আবদুল্লাহ 1
▁അയാൾ 1
▁پشاور 1
▁دھاگے 1
▁military 1
re 1
పోషకాహార 1
▁விழு 1
▁ٹارگٹ 1
▁شاہ 1
ப்பின் 1
▁document 1
▁world 1
ിങ് 1
▁There 1
▁तेजी 1
▁మరణ 1
▁Rama 1
▁ரயில் 1
िन 1
▁video 1
▁اضافے 1
ായി 1
െങ്കില 1
▁వృత్తి 1
▁led 1
▁cow 1
▁more 1
rickshaw 1
صلى 1
▁Po 1
▁गोपाल 1
▁di 1
वर्ती 1
ത്തിലൂടെ 1
জি 1
▁ஜூ 1
▁ജസ്റ്റിസ് 1
யி 1
▁عورتوں 1
▁sleep 1
▁Joshi 1
▁যাবে 1
▁ছাড়াও 1
▁యూ 1
me 1
▁ورژن 1
▁भा 1
▁লিমিটেড 1
▁వ్యవహరించ 1
▁సుందర 1
▁इकाई 1
▁প্র 1
▁سونے 1
▁বাড়িতে 1
▁পবিত্র 1
▁থাকলেও 1
▁details 1
▁ভর্তি 1
▁ईवीएम 1
▁தங்கள் 1
40 1
▁గుంటూరు 1
ak 1
▁బై 1
▁پیدائش 1
▁ஒ 1
ऊ 1
ाइ 1
▁बो 1
বন্দ 1
▁باتیں 1
▁മഞ്ജു 1
▁வண்டி 1
▁زکریا 1
▁डोकलाम 1
▁ഭക്ഷണ 1
▁എട്ട 1
▁ஆனது 1
లె 1
▁شاء 1
CI 1
▁leaders 1
▁थ 1
▁उदय 1
▁झेल 1
▁నై 1
▁ആദ്യം 1
▁இறக்க 1
▁ശക്തമായ 1
▁Ganges 1
▁সবচেয়ে 1
▁ملتی 1
▁दखल 1
▁২০১৫ 1
▁conversation 1
▁టెలిఫోన్ 1
ہ 1
▁جھ 1
▁বিবেকানন্দ 1
▁সঠিক 1
▁سیریز 1
లేక 1
▁والدین 1
▁సమ్మేళన 1
▁ഗാനങ്ങള 1
▁eight 1
▁सरकारी 1
▁join 1
▁2013 1
▁வெளியேற்ற 1
▁جیسی 1
ఫిబ్రవరి 1
▁خالد 1
▁हाउस 1
▁Board 1
মহা 1
▁পিএইচডি 1
▁हलफनामे 1
▁دلیل 1
▁आतंकी 1
ుడి 1
র্স 1
▁குறிக்க 1
▁దుకాణాలు 1
▁movie 1
▁തമിഴ 1
▁fan 1
<s> 1
▁আংশিক 1
സ്റ്റ് 1
▁కన్న 1
▁تڑپ 1
த்தொடர் 1
▁অর্থনৈতিক 1
▁கத்தோலிக்க 1
யும் 1
ite 1
▁ట్రాక్టరు 1
▁ইতিহাস 1
కాంత 1
▁അക്കൗണ്ട 1
▁తేడా 1
ங் 1
▁ट्रंप 1
▁ہوسکتا 1
▁side 1
▁conclusion 1
▁మార్గం 1
న 1
కోణ 1
▁fifty 1
▁ফিরে 1
ിനോടു 1
গঞ্জ 1
▁running 1
▁منافق 1
െപ്പോലെ 1
▁c 1
ৃত 1
▁സ്വാഭാവിക 1
▁அதே 1
clock 1
▁വീ 1
▁سنگ 1
തര 1
▁যুক্তি 1
▁వీజీ 1
▁৭ 1
▁মামলা 1
▁बदनाम 1
▁కొట్ట 1
▁meters 1
ग्र 1
▁அதிகரிக்க 1
▁অতিবাহিত 1
ావసరాల 1
ne 1
▁ایف 1
ാർത്ഥ 1
▁son 1
బడే 1
▁தொழிற் 1
▁निर्मल 1
▁سگریٹ 1
▁காவிரி 1
▁image 1
ti 1
▁বাদ 1
▁recently 1
▁पूरे 1
▁वैश्विक 1
মধ্যে 1
▁अशोक 1
కొత్త 1
▁নজর 1
ங்கா 1
মো 1
▁وائرس 1
▁کاپی 1
▁schools 1
▁ഭര് 1
یشن 1
▁கூறி 1
▁مگر 1
ন্দ্র 1
ish 1
क्षा 1
▁உட்பட்டதாக 1
పద 1
▁മാർച്ച് 1
▁एजेंट 1
▁پڑھنا 1
▁గృహాలు 1
▁উদ্ভাবন 1
▁مو 1
▁बाकी 1
▁প্রতিষ্ঠা 1
▁؛ 1
ge 1
▁ملازم 1
▁అగ్రహారం 1
▁இயற்கை 1
▁நடித்திருந்தனர் 1
യോടെ 1
হার 1
▁കള 1
ഖ് 1
मंद 1
° 1
▁పౌర 1
▁বন্ধ 1
▁Na 1
▁കോൺഗ്രസ് 1
▁போன்று 1
▁ہفتے 1
▁సంకలన 1
▁నిజామాబాద్ 1
▁সাহিত্য 1
▁तकनीकी 1
▁பரவ 1
▁বিভাগ 1
▁ప్రి 1
▁வகைப்படுத்த 1
டைந்த 1
▁Advocate 1
▁लो 1
▁جنوبی 1
▁امکان 1
മുണ്ടാക 1
▁दुष्कर्म 1
▁প্রথা 1
▁संज्ञान 1
▁இன்னொரு 1
شن 1
▁گا 1
▁നീര 1
▁جن 1
காளியம்மன் 1
▁वायु 1
▁ट्रैफिक 1
র্ক 1
▁निर्णय 1
നായ 1
▁भय 1
▁മോശ 1
▁ഷാ 1
▁പിന്നെ 1
▁പിടിച്ച 1
▁నివాస 1
▁big 1
▁डेढ़ 1
gov 1
ിലേയ്ക്ക 1
09 1
▁platform 1
▁ক 1
▁ఫ్ర 1
▁Which 1
ুর 1
▁লোক 1
▁چیزوں 1
▁സഞ്ചരിച്ച 1
ుని 1
▁informed 1
▁কারখানা 1
▁తాండూరు 1
▁ഇവ 1
▁گراف 1
తల 1
▁కన్నా 1
▁కూతురు 1
സ്സ 1
▁বর 1
▁Border 1
▁محمد 1
▁refuse 1
▁சுமார் 1
▁താ 1
▁قرآن 1
▁Baj 1
പൂർ 1
▁দেখতে 1
▁گزشتہ 1
▁डॉक्टरों 1
▁జర్మన్ 1
ക്കുന്നു 1
▁Lalu 1
▁നിയമസഭാ 1
▁தீர்மான 1
▁لیڈر 1
▁கீழ 1
ൊരുക്കിയ 1
பொருள 1
▁सम 1
▁शुरू 1
▁തുടരുന്ന 1
ത 1
▁ویڈیو 1
▁وسلم 1
▁सदस्यीय 1
▁செய்கின்றன 1
▁گذار 1
▁పారిశ్రామిక 1
▁जरिए 1
▁< 1
▁Rajesh 1
▁ضروری 1
শ্রেণীর 1
▁scene 1
28& 1
مال 1
▁जैसा 1
▁যথা 1
▁प्ले 1
▁ٹورنامنٹ 1
▁மறை 1
▁రైల్వే 1
▁برابر 1
▁স্ 1
▁complaint 1
▁বিন্দু 1
▁رسم 1
▁সুন্দর 1
യിലേക്കു 1
▁देवेंद्र 1
ద్వారా 1
▁அமெரிக்கா 1
کن 1
▁দ 1
৫৭ 1
ப்பை 1
▁হয়ে 1
▁दिलचस्प 1
▁ആസിഡ 1
dic 1
▁Protection 1
▁এশিয়া 1
▁சுர 1
▁توڑ 1
ala 1
▁വിശേഷ 1
பெரும் 1
▁खुलासा 1
▁solution 1
▁கி 1
▁حمید 1
▁حقیقت 1
ண்மை 1
▁Committee 1
ردو 1
ువు 1
▁தொடர் 1
▁स्थापना 1
ছ 1
▁पेश 1
▁ബസ 1
சர் 1
▁تش 1
▁दिखाई 1
േഷ്യ 1
▁காணப்பட்ட 1
▁தர்மபுரி 1
ఫె 1
▁climb 1
ூர 1
▁आवास 1
▁record 1
▁ठ 1
▁मत 1
▁ఇటలీ 1
▁തോന്നുന്ന 1
▁बदल 1
▁جدا 1
▁خطرے 1
▁attract 1
▁അർ 1
▁എത്തിച്ച 1
▁figure 1
▁হুমকি 1
▁چمک 1
▁दर्जन 1
▁गांव 1
▁Ne 1
▁സംരക്ഷണ 1
▁ارسال 1
ാണു 1
িম 1
▁বিবেচনা 1
▁അതുകൊണ്ടുതന്നെ 1
ുകളിലും 1
▁دریافت 1
குப்பம் 1
▁வளிமண்டல 1
▁அமெரிக்காவின் 1
പാഠ 1
▁നോട്ട് 1
▁ma 1
▁പ്രവൃത്തി 1
▁സിനിമയില് 1
ముల 1
ں 1
్య 1
▁১৯৭৫ 1
து 1
▁fix 1
▁سنت 1
▁ചു 1
▁ஏற்க 1
কৃতি 1
় 1
▁സിനിമ 1
▁அன்ப 1
▁गलत 1
▁items 1
স্তান 1
▁অনুমতি 1
▁banned 1
▁Digvijay 1
▁முருகன் 1
▁बच्चन 1
▁মাইকেল 1
▁ஏற்றுமதி 1
৫ 1
▁വോട്ട 1
▁team 1
యాన్ 1
▁পিটার 1
▁చుట్టూ 1
▁منصور 1
▁கன்னியாகுமரி 1
▁रोहित 1
▁बंसल 1
▁কর্তৃক 1
▁సంతానం 1
ice 1
▁with 1
স্থা 1
▁نوید 1
▁Among 1
ക്കെട്ട 1
▁सो 1
▁எழுதிய 1
▁గె 1
മ 1
▁വര 1
▁Professor 1
▁जाएंगे 1
▁वकील 1
▁پہنچ 1
▁সংযুক্ত 1
▁گھوڑے 1
▁പോയി 1
▁സെ 1
▁چائے 1
▁ارشاد 1
మ్స్ 1
▁پائے 1
▁Ho 1
▁प्रताप 1
േശ 1
▁బ్రహ్మ 1
யிர 1
▁علوی 1
জীবন 1
▁नामांकन 1
▁പണം 1
▁بازار 1
▁Verma 1
▁పుట్టిన 1
▁ശ്രദ്ധേയ 1
▁एक्ट 1
▁పనిచేయ 1
ार 1
▁১৯৯৯ 1
▁exposed 1
▁গ্যাস 1
▁పొందిన 1
ভুক্ত 1
തിനാല 1
▁proof 1
▁புரோ 1
▁শ্রীলঙ্কা 1
▁धूम 1
▁society 1
▁सिंह 1
യിൽ 1
▁ഭാഗ 1
▁اقسام 1
দী 1
▁صادق 1
▁निंदा 1
▁অধি 1
شت 1
▁دھند 1
▁১৯৬৮ 1
▁অনূর্ধ্ব 1
▁ఇదే 1
▁తాను 1
ফট 1
▁گھ 1
▁అయినప్పటికీ 1
▁cleanliness 1
▁मरीज 1
ം 1
पिता 1
▁کیلیے 1
▁Akhilesh 1
▁സൂക്ഷിച്ച 1
▁مرا 1
▁ক্যামেরা 1
▁DIG 1
▁history 1
▁அனைவரும் 1
▁পুরো 1
▁সেপ্টেম্বর 1
▁तेवर 1
দল 1
ചിത്ര 1
▁हंगामे 1
▁सफलता 1
▁সায়েন্স 1
▁வழங்கும் 1
চার 1
▁Kiran 1
▁detect 1
▁एनएसजी 1
▁کھلا 1
▁انھوں 1
▁అనుబంధ 1
the 1
▁భూభాగం 1
▁Bhopal 1
கிறார் 1
▁सि 1
കളുടെ 1
ത്തും 1
▁Army 1
▁گولی 1
ेंस 1
▁wake 1
ങ്ങളെ 1
ులకు 1
▁போக்குவரத்து 1
تر 1
র্ন 1
▁मल 1
▁کرام 1
▁بٹھا 1
▁Lashkar 1
▁ഓട്ടോ 1
▁हकीकत 1
லில் 1
மாகக் 1
▁அமைய 1
▁box 1
ct 1
ே 1
னை 1
బై 1
తెలంగాణ 1
களுக்காக 1
विमर्श 1
iv 1
▁പരിശീലന 1
▁பிரதி 1
▁अहमदाबाद 1
చ్చి 1
▁കറുത്ത 1
నాటి 1
ందని 1
▁நேர 1
▁দক্ষিণ 1
▁அதிக 1
यंत्र 1
▁Rao 1
اعظم 1
▁கலாச்சார 1
▁सदस्यता 1
▁বলতে 1
▁engineer 1
▁अमल 1
▁Park 1
▁स्थानीय 1
▁پا 1
▁ஆட்ட 1
യാണ് 1
▁अमेरिकी 1
యూ 1
ഷ് 1
മാക്കുന്ന 1
▁ഭാര്യ 1
▁வழக்கு 1
▁chair 1
▁രാശി 1
▁நிகழ் 1
▁ഡേറ്റ 1
▁వాయువు 1
▁సాధించ 1
▁easy 1
▁انتہا 1
▁ஆகியோர் 1
▁Sadhvi 1
ింపబడ 1
ుకుంటూ 1
▁बस 1
▁നാള 1
▁পিতার 1
▁சபை 1
▁mutual 1
▁അദ്ദേഹത്ത 1
ദിലീപ 1
▁اسرائیل 1
▁troops 1
▁நியூ 1
৭১ 1
▁آدمی 1
▁வானூர்தி 1
▁நிலையம் 1
▁बढ़ने 1
▁संबंधित 1
▁வழியாக 1
ैक्ट 1
▁യൂണിറ്റ 1
పాలెం 1
▁ఒ 1
he 1
▁Azam 1
▁اقلیت 1
▁rules 1
▁فونٹ 1
ag 1
▁অগ্রসর 1
புளோர 1
▁seat 1
h 1
▁இசையமைத்த 1
▁PM 1
ियर 1
▁ശ്രദ്ധിക്ക 1
▁भू 1
▁controversy 1
▁డబ్బు 1
ഞ്ചി 1
▁ताकत 1
▁पुलिसकर्मी 1
وہ 1
மிக்க 1
▁सकी 1
एल 1
▁अनुसार 1
▁সাংবাদিক 1
att 1
nder 1
▁বোলার 1
▁கிமீ 1
nath 1
▁மாகாண 1
▁संघ 1
▁വിളിച്ചു 1
▁58 1
▁आजादी 1
গ্স 1
▁بورڈ 1
▁coalition 1
▁வெளியிட 1
▁ബ്ല 1
▁அவருக்கு 1
िंद 1
▁One 1
▁पकड़ 1
▁পরিবেশ 1
غیر 1
▁அமைந்துள்ள 1
▁Gandhi 1
▁ফিল্ম 1
▁standing 1
▁২২ 1
▁অন্যতম 1
▁মন্ত্র 1
_ 1
▁জুলাই 1
▁Kamal 1
▁Know 1
▁ইসলাম 1
ുപോയ 1
▁സൂപ്പർ 1
▁missing 1
▁ক্ষতি 1
పోతుంది 1
▁వినోద 1
▁தற்போதைய 1
bha 1
▁സവിശേഷത 1
با 1
ke 1
▁तमिलनाडु 1
▁নোবেল 1
▁बने 1
▁न्यायालय 1
▁விருது 1
▁نعرہ 1
ജെ 1
▁తత్వ 1
लाल 1
▁business 1
▁వృక్ష 1
▁പ്രായ 1
డానికి 1
▁योजना 1
▁মৌল 1
▁Monika 1
▁തയാറ 1
▁கள 1
▁نیک 1
▁விடு 1
▁ഇരുവരും 1
▁സംസ് 1
▁നമ്മള 1
▁تفصیل 1
▁ఎనిమిది 1
▁పైగా 1
▁প্রাসাদ 1
▁warrant 1
▁స్థితి 1
▁தொலைவில் 1
▁its 1
স্কি 1
▁பத்திரிகை 1
▁ధర 1
▁wanted 1
▁earth 1
▁सु 1
▁शांति 1
▁ہوتے 1
▁Arunachal 1
▁channel 1
സ്ട്ര 1
▁بدولت 1
శ్ర 1
▁शर्म 1
▁கட்டப்பட்ட 1
▁الج 1
▁organized 1
▁بہادر 1
ंब 1
▁కలిగి 1
െന്നും 1
▁இயக்குனர 1
▁எளிதில் 1
▁എൻജിന 1
্ৰ 1
ंच 1
▁அரபு 1
ின் 1
▁సమస్య 1
▁నేర 1
கு 1
ம்ப 1
▁मैं 1
▁چلتے 1
க்கிர 1
▁లీగ్ 1
▁राइफल 1
▁സ്റ്റോ 1
▁رانی 1
▁जाति 1
▁அடங்க 1
▁১৯৬০ 1
▁বন্ধু 1
ുകളില് 1
▁மீள 1
▁பிரிட்டிஷ் 1
রো 1
▁മാ 1
▁৬ 1
▁ہار 1
னு 1
ബന്ധ 1
▁వార్షిక 1
▁சீர் 1
▁పోరాట 1
▁சர்க்கரை 1
▁ఆధారంగా 1
▁క్రీడా 1
▁چیف 1
▁وصول 1
▁കല 1
▁इसमें 1
▁সামাজিক 1
▁نکاح 1
குமார 1
ம்மாள் 1
సెస్ 1
పే 1
▁മൂന്ന് 1
▁அறங்காவலர் 1
াই 1
▁happen 1
I 1
▁convict 1
▁criticized 1
▁حامی 1
▁Russia 1
▁MPs 1
▁بنتا 1
▁சிகிச்சை 1
▁ज्योति 1
▁தரை 1
▁आता 1
▁അതി 1
fer 1
ari 1
▁রাস্তাটি 1
ത്തു 1
▁ٹرین 1
▁نوجوان 1
▁लगभग 1
തിരുവനന്തപുരം 1
▁मं 1
▁ISI 1
▁हमारी 1
హే 1
▁Many 1
▁ഉത്തര 1
." 1
▁ऑनलाइन 1
▁Kolkata 1
▁കാരണ 1
▁క్షేత్ర 1
ను 1
▁غربت 1
▁കിലോമീറ്ററ 1
▁solve 1
▁ض 1
▁visit 1
గొట్ట 1
ডা 1
ക്കെതിരെ 1
▁कंपनी 1
▁प्रकाश 1
▁ஈ 1
▁सके 1
▁రెండవ 1
రూప 1
బడ్డ 1
▁யூ 1
▁villagers 1
▁భూగర్భ 1
▁ചർച്ച 1
▁ഇതോടെ 1
▁పరిస్థితి 1
▁names 1
স্ব 1
க்குப் 1
▁শ্রেণী 1
▁అండ్ 1
▁బ్రిటిష్ 1
▁राज्यपाल 1
തോ 1
▁ചെയ് 1
▁செயல் 1
▁شعر 1
▁اوقات 1
▁കർണാടക 1
▁پوچھ 1
▁मुकदमा 1
▁ശിവ 1
▁روپے 1
ك 1
▁যোগাযোগ 1
▁رہنماؤں 1
▁మ్యూజియం 1
▁বিক্রি 1
▁దో 1
पत्र 1
▁பொட்டாசியம் 1
▁இழப்ப 1
▁मुठभेड़ 1
▁سننے 1
▁सलाहकार 1
▁talk 1
▁सीमा 1
▁Subhash 1
▁शिंदे 1
▁ষষ্ঠ 1
▁ఎడమ 1
▁முன் 1
▁നൃത്ത 1
▁سکے 1
▁صوبے 1
▁উইকিপিডিয়া 1
▁వరద 1
▁தலைமையிட 1
▁జాతి 1
▁जाधव 1
▁சொற் 1
ിലൂടെ 1
▁పని 1
बू 1
ப்பான 1
▁season 1
▁এতে 1
▁വിള 1
ச 1
▁പാട 1
▁প্রকৃতপক্ষে 1
▁زید 1
▁surrounded 1
▁എന്ത 1
▁رکھتے 1
క్షేత్ర 1
▁లోపే 1
▁seeking 1
▁स्पीकर 1
▁dis 1
▁महीनों 1
▁तरीका 1
▁ఆధ్యాత్మిక 1
▁insult 1
റ്റർ 1
▁বিভক্ত 1
▁اعوان 1
▁शो 1
▁بین 1
▁বৃষ্টি 1
▁தெலுங்கு 1
▁تعینات 1
▁దేవాలయ 1
▁گیند 1
Population 1
▁V 1
▁Joint 1
ില്ല 1
▁Development 1
दे 1
▁रच 1
▁گی 1
▁நவம்பர் 1
▁فقیر 1
▁adequate 1
റ്റ് 1
▁ابوبکر 1
செயல 1
▁ডানহাতি 1
▁இவ்வாறு 1
▁ഒട്ടേറെ 1
▁संशोधन 1
▁করেছেন 1
▁(" 1
▁بتائیے 1
▁throughout 1
▁recognize 1
▁majority 1
▁मालिक 1
▁വിവരങ്ങൾ 1
শ্ব 1
▁കൃഷ്ണ 1
्यो 1
रोधी 1
▁clarified 1
▁import 1
▁செல்வ 1
▁قد 1
▁बचा 1
▁Article 1
ందే 1
▁कमान 1
▁സംസാര 1
▁সেঞ্চুরি 1
▁நெறிமுறை 1
▁மாரியம்மன் 1
▁کلومیٹر 1
▁സ്ഥാപിച്ച 1
▁شہید 1
ভিয়া 1
▁നടപടിയെടുക്ക 1
చ్ఛ 1
▁development 1
▁వైపు 1
▁ஒருநாள் 1
▁علاقوں 1
வருக்கு 1
పరమైన 1
▁अभिनेता 1
കൾ 1
▁মায়ানমার 1
▁مقصد 1
▁ننھی 1
▁அரை 1
▁currently 1
▁বিখ্যাত 1
▁ദ 1
64 1
▁town 1
▁दायर 1
▁फैसलों 1
▁اعتراف 1
▁ঘরোয়া 1
▁prevent 1
വയ്ക്ക 1
▁স্পি 1
▁تعداد 1
▁సాఫ్ట్ 1
சூ 1
▁విశాఖపట్నం 1
িয়াম 1
▁did 1
▁تیسری 1
▁కుళాయిల 1
ുകാർ 1
▁അന്തിമ 1
▁جسٹس 1
▁మొత్తం 1
▁जैसे 1
▁జై 1
▁ஆயினும் 1
▁గుర్తింపు 1
▁വച്ച് 1
▁నిలువ 1
▁डो 1
▁നിരോധന 1
رہ 1
▁আকর্ষণ 1
▁write 1
▁मच 1
▁خاطر 1
▁సౌకర్య 1
▁این 1
▁কিছুটা 1
▁मध्यप्रदेश 1
▁അവർ 1
▁പട 1
▁మార్గ 1
▁நாள 1
▁പട്ടിക 1
▁తో 1
▁heard 1
▁city 1
జ్ఞాన 1
▁حکم 1
र्थ 1
▁FDI 1
▁টে 1
శా 1
▁விண்வெளி 1
▁ലെ 1
▁അകത്ത 1
▁کتنے 1
▁তোলা 1
▁ہوجاتا 1
ണം 1
▁വിഭാഗ 1
▁మహబూబ్ 1
▁تاکہ 1
▁பார் 1
▁जुड़ 1
ఫ 1
ణం 1
▁अल्पसंख्यक 1
▁ऊर्जा 1
▁നിന്നു 1
▁48 1
৫৬ 1
▁एसआइटी 1
▁రచించ 1
▁lawsuit 1
ళ్లు 1
▁سرگرم 1
▁public 1
▁অস্থি 1
▁സഹായിക്ക 1
▁श्रीनगर 1
▁Kapoor 1
▁ఏనుగు 1
▁పరమ 1
▁நிறுவனத்தின் 1
الہ 1
▁রু 1
▁പ്രവർത്തന 1
മുതൽ 1
▁வேறுபாடு 1
▁বায়ু 1
▁அச்ச 1
▁रेखा 1
▁ریڈیو 1
▁چچا 1
▁సెప్టెంబరు 1
▁പകരം 1
▁தேவி 1
हन 1
വിനെ 1
ராஜ் 1
▁നേടിയ 1
எம் 1
▁kind 1
▁conspiracy 1
▁Sam 1
▁Kar 1
വഴി 1
▁তাঁদের 1
▁ഏക 1
▁அச்சு 1
▁മൊത്തം 1
▁implemented 1
ുമായുള്ള 1
▁موٹر 1
ించాడు 1
▁தனது 1
▁whether 1
▁فوٹو 1
▁அடிப்படை 1
गत 1
▁రంగు 1
▁employ 1
ించిన 1
▁இருப்ப 1
▁A 1
▁গণ্য 1
ஞ்சி 1
▁തയ്യാറ 1
▁decision 1
▁কবি 1
▁چکے 1
▁چاہ 1
▁دباؤ 1
▁project 1
▁വെളിപ്പെടുത്ത 1
▁كى 1
▁നരേന്ദ്ര 1
▁stop 1
▁தட 1
▁കുട്ടികൾ 1
▁শাসক 1
▁bring 1
▁चिकित्सक 1
▁یہ 1
्ता 1
▁സ്ഥാനാർഥി 1
▁బెల్లం 1
▁कोलकाता 1
त 1
▁अन्ना 1
▁ఉత్పాదక 1
मुख 1
▁మండలంలోని 1
▁கோயில் 1
▁রোড 1
▁جھیل 1
▁شکار 1
▁कोतवाली 1
भा 1
▁గూడూరు 1
नर 1
▁ایپل 1
▁حالیہ 1
81 1
ాత్మక 1
शा 1
▁మాదిరిగా 1
▁अफ्रीका 1
शु 1
ాంతర 1
▁ही 1
▁km 1
▁دار 1
▁سائنسدان 1
▁within 1
▁शाम 1
▁mentioning 1
▁ചോദിച്ചു 1
▁দুইটি 1
▁பீ 1
▁എങ്ങനെ 1
▁অ্যালবাম 1
▁concern 1
▁అయ్య 1
▁Child 1
▁ശ്രീനിവാസ 1
▁స్వంత 1
ाई 1
▁near 1
▁بلوچ 1
▁பிறந்தவர் 1
▁১৯৯৬ 1
▁قائم 1
▁రవాణా 1
pe 1
▁உண்ண 1
▁குழந்தை 1
▁முதலான 1
▁குதிரை 1
▁सामग्री 1
न्न 1
▁പശ്ചാത്തല 1
▁অসম 1
ப்படலாம் 1
▁భాగ 1
▁ശമ്പള 1
▁दीपक 1
ുകയാണെന്ന 1
▁பகுதிகளில் 1
ta 1
▁கடுமையான 1
▁খেলোয়াড়ী 1
▁కేంద్రాలు 1
வடிவ 1
▁లోను 1
ென்ற 1
▁நிகழ்வு 1
▁compared 1
▁இந்தியாவின் 1
▁निचल 1
▁নামকরণ 1
▁ایسا 1
േണ്ടതില്ല 1
▁மண் 1
പ്പെട്ട 1
ट 1
▁தேவையான 1
ശ 1
▁become 1
ுமிட 1
▁సంబంధించి 1
▁സിനിമയിലെ 1
ஐ 1
▁ہزار 1
▁infiltration 1
▁Hafiz 1
▁ہجر 1
রে 1
▁पिता 1
▁सोसाइटी 1
களினால் 1
▁Other 1
वा 1
▁పెళ్ళి 1
ராய் 1
▁کس 1
▁نکال 1
▁పొడుగునా 1
▁ترتیب 1
▁question 1
ইল 1
ind 1
▁आंकड़ों 1
▁spend 1
▁పాలన 1
▁പതി 1
▁شخص 1
▁state 1
▁confident 1
▁இலக்க 1
▁مشرقی 1
▁దాడి 1
▁actor 1
നും 1
▁വലുത 1
▁لڑکیوں 1
▁disturb 1
جان 1
▁வட்ட 1
மானது 1
▁ஆலோசனை 1
▁marry 1
▁حذف 1
اش 1
▁অস্বীকার 1
▁কাছে 1
▁memory 1
▁அதிகார 1
▁পরিমাণ 1
▁Tax 1
▁मुकेश 1
▁കറുപ്പ 1
▁چیلنج 1
ങ്ങൾക്കു 1
▁பாக 1
▁थरूर 1
ిస్తున్నారు 1
▁instead 1
▁చిహ్న 1
▁داد 1
▁हु 1
▁हासिल 1
▁నేరుగా 1
▁നൂറ 1
▁tax 1
▁direct 1
▁look 1
ায়িত 1
▁భా 1
श्त 1
▁గ్రామాల 1
▁ছবি 1
एसए 1
▁बनाना 1
cu 1
கி 1
▁நிதி 1
▁সিনেমা 1
▁59 1
▁இக்கோயில 1
▁well 1
▁शिविर 1
ేశ్వరరావు 1
▁സമയത്ത് 1
స్సు 1
▁প্রণয়ন 1
▁Principal 1
▁ഡിസൈന 1
டா 1
ము 1
▁ചെറുപ്പക്കാര 1
▁విజయవంత 1
▁justice 1
گار 1
▁Taj 1
▁রেডিও 1
▁অপেক্ষা 1
▁Reddy 1
▁Rath 1
▁బహు 1
▁அமைந்துள்ளது 1
സിന്റെ 1
▁ইঞ্চি 1
▁ഡോക്ടര് 1
জু 1
▁तूफान 1
▁ప్రాధాన్యత 1
▁आयु 1
▁اداکار 1
▁পাথর 1
దారులు 1
▁தொகுப்பு 1
▁விழுப்புரம் 1
▁dropped 1
▁வெளியேற 1
▁आती 1
▁మొట్టమొదటి 1
ஞ 1
▁తర్వాత 1
▁स्प 1
వరం 1
▁நம்பிக்கை 1
▁जिस 1
▁കുരിശ 1
மூ 1
▁முதல் 1
▁ప్రారంభించ 1
05 1
▁గంగరాజు 1
▁தலைநகர 1
▁retail 1
▁bench 1
▁സ്വർണ 1
▁മണ്ഡല 1
▁ఎంపిక 1
▁இன் 1
▁ব্যক্তিগত 1
ரொ 1
▁நடைபெற்ற 1
▁सही 1
▁فرمان 1
▁Tilak 1
பிரதேச 1
ப்பட்டி 1
▁जहाज 1
▁ജില്ല 1
▁میرے 1
▁நில 1
▁ناز 1
▁judges 1
మాధ్యమిక 1
▁demolish 1
▁নিহত 1
▁back 1
▁Thackeray 1
▁இம்மா 1
▁অন্য 1
▁ابن 1
▁संवाददाता 1
▁catch 1
▁product 1
▁महिला 1
▁عل 1
▁జరుగుతుంది 1
▁Ja 1
▁ബോളിവുഡ് 1
াকার 1
od 1
▁لکھیں 1
▁நடத்தி 1
▁باوجود 1
ப்படு 1
▁लेफ्टिनेंट 1
▁ভূমিকা 1
▁साथ 1
முடியாத 1
وے 1
▁बोल 1
▁ആവശ്യപ്പെട്ട 1
▁شائع 1
▁জাদুঘর 1
▁হাউজ 1
▁പരി 1
▁அரசு 1
▁मनोज 1
▁top 1
জো 1
▁ہوگئے 1
▁గంగ 1
▁vehicles 1
گ 1
fa 1
▁സാധ്യത 1
▁ஆய்வு 1
▁കിട്ടുന്ന 1
▁தென்கிழக்க 1
▁تبصرہ 1
▁including 1
▁हम 1
▁भड़क 1
▁بولی 1
▁رہنا 1
ుకోవచ్చు 1
▁attend 1
▁চুক্তি 1
▁നക്ഷത്ര 1
رس 1
▁নূর 1
▁गाड़ी 1
▁Ram 1
▁ongoing 1
ിനൊപ്പം 1
ial 1
): 1
▁पाटीदार 1
ட்ச 1
▁किए 1
త్ర 1
▁ஜனதா 1
▁സർക്കാരിന്റെ 1
▁مرضی 1
▁ब्रिटिश 1
▁অস্ট্রেলিয়া 1
▁সিন্ধু 1
▁ஒருவர் 1
The 1
வன 1
▁ജയ 1
▁డిస్ 1
▁Investigation 1
నాయుడు 1
▁வகையான 1
னார் 1
Master 1
▁tomorrow 1
▁শিকার 1
▁রেখেছে 1
ந்தோ 1
▁भीतर 1
▁பெயரிடப்பட்ட 1
▁ప్రదర్శ 1
▁condition 1
▁She 1
▁behalf 1
▁search 1
ন্টি 1
▁അച്ഛൻ 1
िग 1
த்தினால் 1
ైన 1
৭০ 1
▁নিয়ম 1
▁আসেন 1
▁चू 1
ید 1
▁నిర్వహించ 1
▁ఆడ 1
▁వీరు 1
▁ఖ 1
സംബന്ധമായ 1
▁పెరుగు 1
▁அந்த 1
▁ஆட்சி 1
▁take 1
▁Mi 1
ल् 1
▁These 1
ுகின்றனர் 1
▁انکے 1
▁ஆவண 1
▁Patra 1
▁মিটার 1
▁উদ্ভিদ 1
▁ناجائز 1
▁সমুদ্র 1
▁تمام 1
▁तैनात 1
ম্যান 1
▁بدن 1
گان 1
▁ملازمت 1
▁প্রত্যা 1
▁संयुक्त 1
▁శ్రీకాకుళం 1
▁காலகட்டத்தில் 1
▁फ 1
യില് 1
▁رھ 1
▁అతను 1
▁ஆரம்பித்த 1
ঘাত 1
▁ടെക് 1
▁false 1
▁చాలా 1
▁తీర 1
▁குடியரசு 1
চে 1
تب 1
▁তা 1
▁ترمیم 1
▁جتنا 1
▁దేశం 1
▁ചുറ്റ 1
▁சடங்கு 1
▁కాలేదు 1
ত 1
▁যিনি 1
▁پہاڑ 1
▁माफी 1
▁నాటక 1
के 1
▁কর্তৃপক্ষ 1
▁पुस्तक 1
ിന്റെ 1
▁सिंचाई 1
▁बाद 1
▁അറിവ 1
13 1
కుల 1
▁दाम 1
▁छोटी 1
▁சுருக்க 1
▁five 1
▁വിൽക്ക 1
▁cabinet 1
▁रै 1
▁స్వామివారి 1
▁electoral 1
▁معاشرتی 1
ద్ద 1
▁কোটি 1
▁resignation 1
▁பயன்படுத்த 1
ரச 1
▁پھیر 1
বর্তী 1
ന്യൂഡൽഹി 1
▁फैसला 1
▁தை 1
▁poison 1
▁పేజీ 1
ھن 1
▁ఎవర 1
▁ahead 1
▁بجھ 1
▁പിടികൂട 1
▁ഉദ്യോഗസ്ഥ 1
▁உதவும் 1
▁लगाए 1
च्छ 1
▁ऊंचाई 1
▁கொடுத்த 1
▁بہرحال 1
▁H 1
▁மலேசிய 1
▁पहन 1
▁it 1
▁article 1
▁رد 1
ப்பு 1
▁അകലെ 1
▁പ്രിയ 1
▁مزاح 1
ঙ্কা 1
▁ബിരുദ 1
▁बल्कि 1
▁Mathura 1
▁धन्यवाद 1
▁తీస 1
▁ধারাবাহিক 1
▁দ্য 1
▁മിഥുന 1
▁جگ 1
▁நினைவ 1
form 1
गो 1
▁টিভি 1
▁పరిశీలించ 1
▁सिनेमा 1
▁সমাধান 1
▁বেসরকারি 1
▁stomach 1
▁തെളിയിക്ക 1
▁వ్యూహ 1
▁কুমিল্লা 1
▁اشیاء 1
▁அயனி 1
▁தொடர 1
▁آرہی 1
▁দেখে 1
▁எட்டு 1
▁स्वयं 1
▁ప్లా 1
▁തെലുങ്ക് 1
▁بنائے 1
▁নাইট 1
രാധ 1
▁குறைபாடு 1
▁عالمی 1
▁पृथ्वी 1
ிருந்தார் 1
▁چو 1
▁অবদান 1
▁கோட்பாடு 1
ளி 1
▁promote 1
ring 1
▁मां 1
▁دیکھو 1
▁കൂടിയ 1
களிலிருந்து 1
▁ढाई 1
▁پریشان 1
▁Di 1
دگی 1
ئي 1
▁నల్గొండ 1
▁കൊല്ല 1
▁برباد 1
▁تاخیر 1
▁সিডনি 1
▁اپڈیٹ 1
▁pm 1
▁பேச 1
▁విశ్లేషణ 1
▁traffic 1
▁சிறிய 1
▁భాషా 1
▁അമ്മ 1
▁[[ 1
▁روکنے 1
▁تعال 1
▁সাবেক 1
▁گوشت 1
న్నా 1
▁auto 1
▁వైవిధ్య 1
▁ജൂ 1
▁حیدر 1
▁کی 1
▁গোল্ডেন 1
▁demanded 1
▁అరణ్య 1
▁squad 1
▁প্লে 1
▁నర్సీపట్నం 1
ff 1
▁بچوں 1
▁हमारा 1
▁വിട്ട 1
▁ڈر 1
▁सैनिकों 1
▁गृह 1
▁తయారు 1
▁ധാരാളമ 1
▁यूरोप 1
రొ 1
మంత 1
▁نظر 1
▁వేరు 1
▁امت 1
▁সিং 1
▁விதை 1
▁చిత్రాల 1
▁സ്റ്റ 1
ృ 1
▁पं 1
றிய 1
▁अमर 1
ক্স 1
▁అయితే 1
▁പാലക്കാട് 1
ாலும் 1
वाई 1
ന്ത 1
▁அவர்களின் 1
ஸ்திர 1
▁சர 1
▁বাধ্য 1
▁வகித்த 1
▁కూ 1
பட்டு 1
▁raised 1
▁भटक 1
▁পদ্ধতি 1
▁ঘট 1
৪৪ 1
▁Section 1
▁next 1
▁ഫെബ്രുവരി 1
▁கட்டமைப்பு 1
▁ব্রহ্ম 1
▁parties 1
▁போற்ற 1
▁ఇది 1
▁बातचीत 1
▁process 1
▁কণ্ঠ 1
BC 1
ിക്കാന 1
▁பிரான்ச 1
▁آنا 1
▁کتابوں 1
▁کئے 1
▁আনুমানিক 1
▁সাই 1
പുര 1
▁పాడేరులోనూ 1
▁वै 1
▁آگاہ 1
▁ప్రకాశం 1
▁പരിഗണിച്ച 1
▁మల్ల 1
▁புதிய 1
▁भूमि 1
▁कैंप 1
വായ 1
▁जय 1
▁पढ़ाई 1
▁ছিলেন 1
▁നൽകി 1
வரை 1
▁அமைப்பால் 1
▁नाराजगी 1
▁நிறுவன 1
▁প্লা 1
▁journalist 1
സ്റ്റ 1
▁কেন্দ্র 1
▁mental 1
▁இனப்பெருக்க 1
▁বিভিন্ন 1
ேற்ற 1
▁گرفتار 1
▁کیں 1
ക്കാർ 1
▁ధరించ 1
ைய 1
▁नियुक्ति 1
▁محفوظ 1
▁सच 1
▁పెట్ట 1
▁అతడు 1
▁காரணமாக 1
▁ٹیسٹ 1
▁डॉ 1
পথ 1
▁பிள்ளை 1
▁Raj 1
▁نذیر 1
▁स्कीम 1
▁খু 1
ഫ 1
▁اسے 1
▁انفارمیشن 1
▁آمد 1
▁సంచార 1
ha 1
▁feet 1
▁منتظم 1
▁ടൂറിസ 1
▁జరగ 1
దేవి 1
▁हवाले 1
▁equation 1
టెక్ 1
ൺ 1
బ్రి 1
▁فائدہ 1
యే 1
▁व्यक्त 1
▁সহযোগিতা 1
▁بیشتر 1
నీయ 1
▁ప్రయోజన 1
മ്പ 1
▁आसपास 1
▁శ్రీనివాస 1
▁بھئی 1
▁پکڑ 1
▁व्य 1
▁ممکن 1
▁Jagran 1
ക്ഷേപ 1
▁بلیک 1
▁নির্দেশ 1
ரசு 1
▁مراسلہ 1
▁ഊർജ 1
▁teach 1
▁ലക്ഷ്യ 1
▁arise 1
no 1
▁சேர்க்கப்பட்ட 1
▁പുലിമുരുകന 1
▁దూరం 1
▁fr 1
IANS 1
▁চলচ্চিত্রে 1
▁answer 1
▁heritage 1
മന 1
ించడం 1
▁அக 1
▁அகில 1
▁सर्जरी 1
স্থল 1
▁இருந்தது 1
▁இரட்டை 1
▁জনগণ 1
▁দেবতা 1
ഭക്ത 1
ార్ధ 1
▁उजागर 1
▁പിടിച്ചു 1
ில்லாத 1
▁स्वरूप 1
▁500 1
வியல் 1
▁आदि 1
▁പരിപാടികള 1
▁ٹائم 1
▁அதிகரித்த 1
नगर 1
▁మి 1
▁fall 1
২৮ 1
able 1
▁வெளியிட்டார் 1
▁தடுப்ப 1
▁மைய 1
বর্ণ 1
▁বৃহৎ 1
▁మరి 1
പൂ 1
▁plane 1
▁వుండ 1
▁उम्रकैद 1
▁difficulties 1
েন্সি 1
▁പൂർണമായ 1
▁మార్పు 1
▁பொருந்த 1
▁বাজার 1
▁പറയുന്നു 1
▁అమెరికన్ 1
▁threw 1
লার 1
▁വർധിപ്പിക്ക 1
▁چا 1
▁ചിരി 1
▁According 1
▁రాక్షస 1
▁లభ్య 1
▁बावजूद 1
▁قبائلی 1
▁സ്ഥലം 1
▁నాటి 1
▁പുറത്ത 1
ట్లు 1
▁மன்னன 1
এন 1
▁Pakistan 1
▁मुलायम 1
▁മുതല് 1
ঙা 1
▁റോഡ് 1
▁రాజా 1
ப்பில் 1
▁விழா 1
রহাট 1
▁स्वच्छता 1
ഖ 1
▁সদর 1
▁கூட்டமைப்ப 1
ழற்சி 1
▁ওয়া 1
▁‘ 1
ని 1
▁பெ 1
▁average 1
▁गैंगरेप 1
పూడి 1
▁اتار 1
▁পয়েন্ট 1
▁നിർമാതാക്കള 1
த்தையும் 1
▁Member 1
சுந்தர 1
▁కంకర 1
▁Vishwa 1
▁ആയി 1
ൾ 1
▁ضرور 1
▁birthday 1
▁எம் 1
▁ওয়ার্ড 1
▁অষ্টম 1
पति 1
▁বিরোধিতা 1
ున్న 1
▁rid 1
▁పార్లమెంటు 1
▁Vaghela 1
▁your 1
▁محنت 1
▁आरोपी 1
క్షేప 1
▁சக்கர 1
▁ప్రవాహ 1
▁श्रम 1
ree 1
▁অসংখ্য 1
▁ذرائع 1
▁महिलाएं 1
▁بیگم 1
সূত্র 1
র 1
▁interrogate 1
▁তরুণ 1
▁তাই 1
▁ব্রাহ্ম 1
▁rich 1
▁کامیابی 1
േഷ 1
▁తొలగించ 1
▁പരിപാടി 1
▁சார் 1
த்தொகுதி 1
▁تعالی 1
ture 1
▁प्रयास 1
▁দ্বি 1
▁శ్రీకృష్ణ 1
বতী 1
▁மாவட்டத்தின் 1
▁సేవల 1
▁ఆకర్షించ 1
▁முறைமை 1
▁আসে 1
▁beautiful 1
▁సంస్థ 1
ണി 1
▁മികവ 1
▁ను 1
▁Session 1
▁মেট্রো 1
് 1
ൈ 1
▁चौ 1
▁தேர்வுத் 1
▁അറുപത 1
▁रिजर्व 1
▁आ 1
▁అధ్యక్ష 1
▁ട്രെയിന 1
▁2017 1
প্রতি 1
▁இறை 1
▁प्रवर्तन 1
▁ব্য 1
▁سچ 1
▁registered 1
മരുന്ന 1
మె 1
▁inspect 1
▁بولا 1
▁مغرب 1
০৬ 1
▁पार्क 1
ித்தார் 1
▁union 1
dh 1
ணு 1
▁കരുതിയ 1
▁মিত্র 1
മാന് 1
▁கு 1
▁کامیاب 1
▁real 1
▁دہلی 1
▁రాజమండ్రి 1
▁వెళ్ల 1
▁స్వల్ప 1
▁struggle 1
▁Madras 1
▁உ 1
▁सकते 1
▁crop 1
▁കണ്ടെത്തി 1
ുന്നതിനും 1
▁దెబ్బ 1
దర్శి 1
▁വാഹനം 1
▁பயண 1
▁கிராமக் 1
▁) 1
▁critic 1
▁فرما 1
▁tenure 1
▁task 1
▁ஜூன் 1
▁therefore 1
▁১৯৮৬ 1
▁വാങ്ങ 1
▁ചിത്രം 1
ত্র 1
▁Test 1
ஜா 1
▁deployed 1
▁முழு 1
ഥ 1
▁ہوگئی 1
్లో 1
ल्प 1
▁کیجیے 1
▁ك 1
▁ముఖ 1
▁போர 1
▁மர 1
▁கிலோமீட்டர் 1
▁सलमान 1
▁کہنا 1
▁অবশ্য 1
▁১৯৭৯ 1
▁ہونی 1
▁governor 1
ంటా 1
ran 1
ুন 1
▁നേതാവ് 1
▁ایوان 1
▁اتر 1
▁مقام 1
نگا 1
▁کار 1
▁خطاطی 1
১৩ 1
▁ra 1
വാഹ 1
▁تشریف 1
ിക്കണം 1
▁प्रचार 1
▁اکتوبر 1
▁आक्रामक 1
దేవ 1
av 1
▁Babu 1
▁ఆసుపత్రి 1
▁সাহেব 1
▁പരമാവധി 1
এল 1
▁सुना 1
▁భూ 1
వు 1
ులతో 1
▁ஓய்வு 1
০৩ 1
▁து 1
▁निवेश 1
▁Khurshid 1
▁திருப்ப 1
▁ইউনিয়নের 1
▁സ്ത്രീ 1
గ్రామంలో 1
ాధికార 1
▁విదేశీ 1
கள 1
land 1
▁ప్రాముఖ్యత 1
മണി 1
പാട 1
▁Kashmir 1
▁సమయంలో 1
▁रोड 1
▁دراز 1
▁উদ্যান 1
▁conflict 1
▁Jayalalitha 1
▁ആരോപണം 1
▁Japan 1
க்கார 1
▁അഖില 1
▁नोटिस 1
வீர 1
▁স্টেডিয়াম 1
▁بناتے 1
▁നമ്മൾ 1
▁വനിതാ 1
▁রাখেন 1
বর্ত 1
▁الجھ 1
ాడని 1
▁മൃഗ 1
▁సొంత 1
ஞ்ச 1
▁house 1
▁expensive 1
▁খ্রিস্টপূর্ব 1
▁দিয়ে 1
▁ബംഗാള 1
▁رکھا 1
▁సంబంధిత 1
▁নেয়া 1
▁can 1
▁press 1
▁बाजार 1
▁rising 1
▁আর্থিক 1
▁ధ్రువ 1
▁used 1
தற்கான 1
▁fired 1
▁क्रांति 1
▁কারনে 1
▁محفل 1
▁দক্ষিণে 1
رب 1
▁ഒരാൾ 1
▁نبھا 1
▁নির্দিষ্ট 1
▁خطوط 1
▁طبقے 1
పోయాయి 1
▁ലീറ്റർ 1
▁آسمان 1
▁بلاگنگ 1
▁جمیل 1
▁ஒன்றான 1
ரி 1
▁बच्चों 1
▁কেউ 1
▁കണ്ടെത്തിയ 1
▁বিভাগে 1
▁उसकी 1
▁अंबानी 1
बाजी 1
▁حزب 1
▁lift 1
▁आठ 1
▁সাধারন 1
ലേറ്റ 1
▁গ্রহ 1
▁بلند 1
ட்டின் 1
சுவாமி 1
▁reporters 1
▁మద్దతు 1
▁वाले 1
▁प्रबंधन 1
▁राष्ट्रपति 1
▁बाधित 1
చు 1
জিত 1
▁ইউরোপ 1
▁సంస్కృత 1
▁വേണം 1
▁सीबीआई 1
దె 1
ేశాడు 1
لی 1
▁IAS 1
മായ 1
ner 1
▁பெருக்க 1
▁फ्लैट 1
▁ক্রীড়া 1
▁পর্ব 1
क् 1
▁উদ 1
▁পরবর্তীতে 1
▁உட்பட 1
war 1
▁afternoon 1
▁میل 1
▁Human 1
▁চিকিৎসা 1
▁ট্রা 1
▁Most 1
▁স্মরণ 1
▁ഉൾപ്പെടുത്ത 1
▁initiative 1
▁இங்கு 1
ഥി 1
▁கார்பன 1
▁نہایت 1
▁بتائیں 1
▁دودھ 1
राष्ट्र 1
▁Chi 1
▁থাকার 1
▁నియమ 1
।' 1
▁పిల్లలు 1
▁సమీప 1
22 1
▁বাতিল 1
▁நீக்க 1
▁transport 1
▁जब्त 1
▁वि 1
▁দর্শক 1
ப்பான் 1
▁district 1
▁कोई 1
▁प्राथमिकता 1
▁کتنی 1
▁సభ 1
ാല 1
▁ফলে 1
య్య 1
ంబు 1
▁روپ 1
▁सुप्रीमकोर्ट 1
▁from 1
▁تیسرے 1
▁ఉద్యమ 1
▁পরমাণু 1
▁प्रथम 1
▁نیٹو 1
▁ചേർന്ന 1
▁എനിക്ക് 1
▁সত্ত্বেও 1
▁waiting 1
▁ലക്ഷം 1
▁അയാള 1
ിനെതിരെ 1
▁بال 1
▁ظفری 1
ति 1
▁ത്രി 1
▁కాలువల 1
▁capacity 1
▁कराई 1
▁gangrape 1
▁دوں 1
▁فیصلہ 1
▁కార్మిక 1
▁জাহাজ 1
▁യുവാവ 1
ू 1
களாக 1
ంది 1
▁مسلسل 1
▁కృషి 1
▁কুমার 1
▁भ्रष्टाचार 1
▁எஸ் 1
▁قدم 1
கிறது 1
▁എത്തിയ 1
১৯ 1
▁স্যা 1
▁کم 1
▁ऑ 1
▁പിണറായി 1
▁నటించ 1
▁১০ 1
▁சேர்ந்து 1
▁కృష్ణా 1
▁کتب 1
▁کوئ 1
▁আওয়ামী 1
▁பரிமாற்ற 1
▁invitation 1
▁जितन 1
ل 1
க்குள் 1
▁മോഹ 1
पूर 1
▁மாத 1
shek 1
യോട് 1
▁پیاس 1
▁कंप्यूटर 1
▁nomination 1
▁যুগের 1
వాడ 1
व्यवस्था 1
யியல் 1
களாகவும் 1
▁రోడ్లు 1
ാണുള്ളത് 1
ాలయ 1
▁സം 1
tri 1
▁ఉపాధ్యాయ 1
▁ఆటో 1
▁বাবা 1
▁नाबालिग 1
▁बिल्कुल 1
▁فلاح 1
▁राजेश 1
▁बाबा 1
▁ফুটবলার 1
ுவதற்கான 1
دار 1
▁തുടങ്ങി 1
▁سزا 1
▁দ্বিতীয় 1
▁প্রশ্ন 1
▁সনে 1
రోజుకు 1
▁ഇക്കാര്യം 1
வார் 1
▁تجویز 1
▁நிருவாகியா 1
▁eyes 1
▁सौंप 1
▁स्पेशल 1
▁صدر 1
▁appealed 1
ச்சேரி 1
▁రూరల్ 1
காலப் 1
మని 1
∙ 1
▁Hizbul 1
బుల్ 1
▁ఫై 1
▁رحم 1
▁remand 1
▁সকল 1
▁ചേർത്ത 1
▁سیاستدان 1
প্ট 1
▁സെക്രട്ടറി 1
▁చదివి 1
▁కామారెడ్డి 1
▁got 1
▁role 1
லூர் 1
யால் 1
▁شاہد 1
▁Africa 1
ரியா 1
▁என்பதற்கு 1
▁কারা 1
▁बरस 1
▁ஆகியவற்றை 1
▁മാധ്യമ 1
▁പങ്കു 1
▁اقتباس 1
▁کیسی 1
▁لاہور 1
▁রুট 1
▁امیر 1
حال 1
gam 1
▁encroach 1
▁गोपनीय 1
▁دبئی 1
▁జరుప 1
▁উপস্থাপন 1
▁खूब 1
ங்கிய 1
స్ 1
▁বছর 1
▁ప్రతిపాదన 1
▁تھیں 1
▁उपस्थित 1
ുന്നുണ്ട് 1
▁لگتے 1
▁مندرجہ 1
▁Dainik 1
▁കേരള 1
▁டாலர் 1
প্ল 1
▁రక్షించ 1
▁স্বাধীন 1
▁வழங்கப்பட்ட 1
ுவதற்கு 1
▁ഇയാൾ 1
▁பார்வை 1
▁Another 1
▁ছাড়া 1
▁মৌলিক 1
▁കൂട്ട 1
کش 1
▁ठुकरा 1
▁மேற்கொள்ள 1
▁பொ 1
▁সহজ 1
ിലേയ്ക്ക് 1
▁sign 1
▁സ്ഥലത്ത 1
▁وفا 1
ि 1
▁பெரும்பாலும் 1
▁কাল 1
▁সঙ্গীত 1
க்கூடிய 1
▁অজানা 1
ப்பாட்ட 1
নৈতিক 1
പ്പെട്ടു 1
▁وآلہ 1
ాలుగా 1
▁CBI 1
▁உறுப்பினர 1
▁शेर 1
▁అప్ప 1
ുമായിരുന്നു 1
వ 1
ട്ര 1
த்தியா 1
▁بیس 1
▁owner 1
▁ഭൂ 1
▁আরেক 1
ത്തില 1
வெ 1
▁പലിശ 1
▁ஆக் 1
▁ticket 1
▁share 1
ler 1
▁అమర 1
▁देखा 1
tric 1
▁fuel 1
▁ఉద్ 1
ൊക്കെ 1
▁Sena 1
vo 1
risht 1
ത്തെക്കുറിച്ച് 1
▁പ്രശ്നങ്ങള 1
▁பொது 1
' 1
وا 1
▁తె 1
▁চ্যাম্পিয়নশীপ 1
▁والوں 1
াইড 1
ized 1
▁घेर 1
▁പെട്ടെന്നു 1
▁రూపొందించ 1
ൊന്നുമില്ല 1
عل 1
II 1
▁দুজন 1
▁अभियुक्त 1
द्वीप 1
▁निजी 1
▁act 1
▁নারী 1
సంబంధ 1
▁গায়ক 1
க்கோட்டை 1
nagar 1
▁निधन 1
ভু 1
▁മിനിറ്റ 1
▁வருகிறார் 1
▁حفیظ 1
▁[5] 1
▁आक्रोश 1
▁ইউ 1
▁పాల 1
▁खराब 1
▁रिहा 1
▁جنگ 1
स्व 1
▁அரசர் 1
▁స్పానిష్ 1
▁چھٹی 1
▁brother 1
وڑ 1
▁Jadhav 1
▁சை 1
▁மருத 1
▁रेप 1
യെക്കുറിച്ച് 1
▁സംഘർഷ 1
▁வகைப்பாட்டில் 1
▁மேலும் 1
▁पीएम 1
ప్పు 1
▁ஓட 1
+ 1
▁ചെയ്യും 1
▁ব্যবস্থা 1
▁অবলম্বন 1
45 1
▁নে 1
னாக 1
ம்பல 1
▁প্রো 1
▁உலோக 1
نڈ 1
▁अलग 1
▁തെളിവ 1
▁بیوی 1
▁کھا 1
▁మార్కెటింగ్ 1
▁killing 1
బడతాయి 1
▁کہاں 1
कुशल 1
ശേഷം 1
ന 1
▁చివరి 1
▁বিরোধী 1
▁دخل 1
യിലെ 1
▁ബെംഗളൂരു 1
▁آواز 1
▁சரி 1
▁مبین 1
▁cricket 1
▁దుర్ 1
ప్ 1
▁புது 1
▁ఇంగ్లీష్ 1
▁ضمانت 1
▁ரூ 1
▁சீனா 1
▁terror 1
▁एंटनी 1
▁विचार 1
▁தங்க 1
▁ڈگری 1
തൃ 1
గ్ర 1
▁அணை 1
▁Google 1
▁అల్ల 1
▁পৃষ্ঠপোষক 1
▁trip 1
▁ഇക്കാര്യത്ത 1
▁جواب 1
▁دیکھے 1
▁బి 1
కంగా 1
টিকে 1
▁অভিনয়ের 1
▁हर 1
स 1
▁تحفہ 1
শন 1
▁బల 1
▁উৎপন্ন 1
▁Nand 1
▁حضرات 1
▁நொ 1
▁கட்டட 1
▁മുട്ട 1
▁കഴിയ 1
▁मस्जिद 1
நில 1
▁ল 1
▁కలిగించ 1
ative 1
▁കാലത്ത് 1
▁ജീവ 1
▁পড়েন 1
িন 1
▁Tra 1
▁जागरण 1
▁கொண்டாட 1
▁நாணய 1
ത്തിലേക്ക് 1
▁نزدیک 1
▁శాశ్వత 1
▁گہری 1
വച്ചു 1
▁boycott 1
సై 1
ایا 1
ల్లో 1
▁ഇതേ 1
▁வேதியியல் 1
▁مدت 1
▁ആയ 1
▁equipment 1
▁जीवन 1
▁हजारे 1
▁अभियोजन 1
▁اگر 1
মার 1
▁చేయడం 1
▁പ്രവേശന 1
▁পুণরা 1
ക്കുന്നത് 1
৪ 1
▁രണ്ട് 1
▁Express 1
ল্ড 1
▁মাস 1
▁بلے 1
▁പ്രസിഡന്റ 1
▁చెరువులు 1
▁மழை 1
ிருச்சிராப்பள்ளி 1
▁রয়্যাল 1
▁Terrorist 1
▁अवसर 1
▁गुर 1
▁লম্বা 1
చర్ 1
▁നമുക്ക 1
▁चैनल 1
▁ഓഫീസ 1
▁തൃശൂർ 1
ம்பட்டி 1
▁ബുദ്ധിമുട്ട 1
▁কেবল 1
▁பரவிய 1
▁ڈانٹ 1
▁വെ 1
हा 1
▁పద్మ 1
▁பரி 1
▁जल्द 1
▁వరుస 1
▁అనుసరించి 1
▁வீர 1
▁Research 1
▁அண்ணா 1
▁వ్రా 1
▁സാമൂഹിക 1
▁বরাবর 1
▁جزاک 1
▁Kailash 1
▁ছেড়ে 1
▁வைக்கப்பட்ட 1
▁judgment 1
फ्ट 1
▁शुक्ला 1
ലക്ഷം 1
▁بولنے 1
▁மீ 1
▁বিদ্যালয় 1
▁இதனை 1
▁کرنی 1
▁سجا 1
▁ఆర్ 1
▁കോണ് 1
▁निर्माण 1
മില്ലാത്ത 1
▁गहरी 1
১৬ 1
▁بلی 1
തുപോലെ 1
▁chief 1
▁Seeing 1
▁हरिद्वार 1
▁मजिस्ट्रेट 1
▁تقریب 1
என் 1
▁لیکن 1
▁പച്ച 1
▁കൂടിക്കാഴ്ച 1
مہ 1
ंडा 1
▁అభిప్రాయ 1
▁টুর্নামেন্ট 1
▁തിരിച്ചറിയ 1
▁स्थायी 1
ത്തിനിടെ 1
▁প্রাক্তন 1
ത്തിലാണ് 1
▁कैंसर 1
▁Sudhir 1
▁introduced 1
▁style 1
▁माकपा 1
▁منگل 1
▁पर्याप्त 1
▁ہوتی 1
▁மின்சார 1
▁നീക്കം 1
▁quota 1
▁سرچ 1
క 1
▁পেছনে 1
▁just 1
▁آرزو 1
▁war 1
బి 1
റ്റേഷന 1
▁ഇൗ 1
▁৮ 1
▁later 1
ci 1
▁ചിത്രങ്ങള 1
তৃ 1
▁শিক্ষা 1
▁एकमात्र 1
చెరువు 1
▁آج 1
▁beaten 1
▁এর 1
తం 1
▁കഥ 1
▁विधायक 1
▁track 1
ில் 1
▁சிற்ற 1
▁जिन्होंने 1
▁آجکل 1
ফর্ম 1
han 1
वां 1
▁মাত্র 1
▁حوصلہ 1
▁আন 1
▁വൃത്തിയാക്ക 1
▁referring 1
▁least 1
▁பயன்பாடு 1
▁لم 1
চী 1
▁వున్నవి 1
چے 1
▁forcibly 1
ص 1
▁فضا 1
▁About 1
▁कवायद 1
▁স্থানীয় 1
▁డె 1
▁بدھ 1
▁முனை 1
గల్ 1
बंद 1
▁পদার্থবিজ্ঞান 1
ul 1
▁अपील 1
സി 1
వంతు 1
▁உபயோக 1
▁സാധിക്ക 1
എൽ 1
▁পদে 1
▁రాఘవ 1
▁കൊഴുപ്പ 1
▁বার 1
▁لکھ 1
லெ 1
పల్లిలోను 1
▁జరిగింది 1
▁बजे 1
▁ATM 1
▁జంక్షన్ 1
▁பருவ 1
▁കാണിക്ക 1
▁adjourned 1
▁Gu 1
▁লড়াই 1
▁دکھایا 1
▁മേഖലകളില 1
▁రంగంలో 1
▁தன்ன 1
▁retired 1
▁दलित 1
▁جاسکتی 1
▁मदद 1
▁জগতে 1
▁வெண் 1
غل 1
▁প্রত্নতাত্ত্বিক 1
▁زور 1
▁সম্মেলন 1
▁shelter 1
▁ఆలయ 1
राष्ट्रीय 1
▁gift 1
లేఖ 1
▁know 1
▁مح 1
▁مرکزی 1
களில் 1
▁அதை 1
▁രഹസ്യ 1
▁اش 1
▁organize 1
▁செயல்திறன 1
▁Mun 1
▁فارسی 1
▁عدد 1
▁তে 1
▁باتوں 1
▁suffer 1
▁ఒత్తిడి 1
▁మినహా 1
▁গার্ 1
گل 1
dar 1
াবলী 1
മി 1
▁తెలుస్తుంది 1
▁ہندوستان 1
▁ఏదైనా 1
ష్ట 1
▁ഭീഷണി 1
▁बीमारी 1
▁పురస్కార 1
▁مردوں 1
news 1
▁అనేది 1
▁رحمت 1
▁২৩ 1
ക്ഷ 1
▁എൻ 1
▁মুহাম্মদ 1
▁ബിസിനസ 1
▁একত্রিত 1
▁భక్తులు 1
ങ്ങളില 1
▁കുഞ്ഞ 1
▁బె 1
▁অধ্যায় 1
99 1
▁عرف 1
▁কম্প 1
▁cancel 1
▁उड़ान 1
ట్లయితే 1
ூ 1
▁تعلیم 1
ियां 1
▁سکتے 1
▁ED 1
▁எலும்பு 1
▁correct 1
▁सुनवाई 1
▁তড়িৎ 1
▁വരുമാന 1
▁لیتے 1
▁حنیف 1
▁১৭ 1
▁अफजल 1
▁কুরআন 1
▁ஜி 1
▁രണ്ടു 1
▁चै 1
▁মানুষ 1
▁நிகழ்ந்த 1
57 1
▁അസുഖ 1
▁తెలుగుదేశం 1
▁ഉദയ 1
ত্রি 1
▁கழி 1
সার 1
జ 1
▁لنکا 1
▁स्टेट 1
▁یا 1
▁निपटने 1
▁నిర్మల్ 1
▁تجارت 1
लि 1
▁कनेक्शन 1
▁১৯৯৪ 1
▁چوبیس 1
▁బలహీన 1
ம் 1
▁situated 1
▁यूपीए 1
▁फायर 1
▁منظر 1
at 1
▁کھایا 1
▁months 1
▁দূরে 1
▁بچی 1
ుకుంటారు 1
▁അംഗ 1
▁মিলিয়ন 1
▁যথেষ্ট 1
▁ট্রান্স 1
ie 1
▁শো 1
ుడిగా 1
స్తూ 1
శేష 1
▁اوتار 1
▁പ്രകാശ 1
▁पड़ता 1
▁धोखाधड़ी 1
▁ह 1
▁चली 1
▁सुख 1
▁absolute 1
▁సుబ్రహ్మణ్య 1
▁Independence 1
▁কোর্স 1
▁ஒலி 1
▁আদালত 1
▁students 1
▁hotel 1
▁ویسے 1
▁റഷ്യ 1
▁समन्वय 1
▁بیرون 1
▁جی 1
▁హిందూ 1
▁ప్రచారం 1
▁కావ్య 1
▁رجسٹر 1
▁స్వేచ్ఛ 1
த்துவ 1
ాది 1
▁এন্ড 1
செ 1
▁পরিবর্তিত 1
লাল 1
ാടി 1
▁درکار 1
▁அழைக்க 1
▁1989 1
னா 1
▁affected 1
▁declared 1
▁ప్రజా 1
▁خالق 1
▁کئی 1
ോളജി 1
▁Chinese 1
িয়ে 1
▁சேர்ந்தவர் 1
▁എന്ന് 1
▁ডা 1
▁huge 1
க்க 1
ద 1
प्र 1
▁ശരീര 1
களுக்கும் 1
▁বলেন 1
▁बनाए 1
▁historic 1
▁महज 1
▁low 1
▁அறியப்படுகிறது 1
▁روک 1
▁സംരംഭ 1
ണ്ണ 1
▁தெரிந்த 1
ుకోవటం 1
alit 1
▁சாதி 1
▁NDA 1
▁run 1
▁বইয়ের 1
▁കൊല്ലപ്പെട്ട 1
▁زیب 1
▁सुनिश्चित 1
▁மந்திர 1
▁प्रबंध 1
▁نوکری 1
▁உள்ள 1
▁Mukherjee 1
▁খেতাব 1
▁பெரும்பாலான 1
ించారు 1
anjan 1
▁عمدہ 1
र्न 1
▁విలువ 1
▁Jagaran 1
▁دیئے 1
▁nature 1
▁ప్రేక్షకుల 1
▁پو 1
▁حاضری 1
▁సరైన 1
▁اپریل 1
களுக்கான 1
▁candidate 1
ിരിക്കുന്നത് 1
▁اطلاع 1
▁కన్నడ 1
▁چیز 1
▁paid 1
▁ఒకే 1
▁मानव 1
▁വിസ്മയ 1
▁జొన్న 1
ത്തിനു 1
▁ہوئی 1
▁నియమించ 1
▁క్రమంలో 1
▁బిలియన్ 1
▁faith 1
▁ترا 1
▁स्टाफ 1
▁জার্মান 1
औ 1
▁அறிஞர் 1
▁टक्कर 1
▁அடுத்து 1
▁अकबर 1
▁ശാരീരിക 1
ঝা 1
▁امیدوار 1
▁ടാങ്ക 1
▁इ 1
▁சித்திரை 1
▁ഗാന്ധി 1
৭৬ 1
▁escape 1
▁Every 1
▁getting 1
▁ஊரக 1
సా 1
ق 1
▁انسان 1
▁விளையாட்ட 1
▁১৯৫৯ 1
▁fully 1
▁ஒருங்கிணை 1
▁শান্তি 1
▁ٹکڑے 1
▁अग्नि 1
▁মিলিত 1
யம் 1
W 1
▁Pak 1
▁అవసరాల 1
న్న 1
▁बम 1
▁బాయిలరు 1
ত্যাগ 1
▁இயந்திர 1
▁റെഡ് 1
▁കലാകാരന 1
▁భాగం 1
▁موسیقی 1
▁بظاہر 1
ائیں 1
▁लिहाज 1
▁ہوچکی 1
▁संबोधन 1
▁பேரா 1
▁ബാല 1
▁جان 1
ராய 1
▁लाख 1
▁ஆசியா 1
▁ঘণ্টা 1
20 1
▁हाईकोर्ट 1
▁जिनक 1
▁eat 1
्ह 1
▁রান 1
▁فرا 1
▁മു 1
ுடனான 1
▁గొల్ల 1
▁Ahmad 1
shankar 1
▁सूत्रों 1
▁சாலை 1
▁مسکرا 1
▁फॉर 1
▁k 1
▁receive 1
ശേഷ 1
▁కనిపిస్త 1
▁سپر 1
தற்கு 1
ும 1
▁कितना 1
▁ملائکہ 1
▁పోలీసు 1
పోయింది 1
ধর 1
▁demise 1
▁রাজ্যের 1
▁सामूहिक 1
▁அளவிலான 1
গুলির 1
▁re 1
నగర్ 1
▁సాగు 1
▁வெப்ப 1
▁penalty 1
ത്തിയാക്ക 1
▁കൊടുക്ക 1
▁కి 1
▁বেগম 1
▁सौदे 1
▁bought 1
▁مشق 1
వె 1
▁خط 1
▁రక్షిత 1
▁شرعی 1
▁our 1
▁Patna 1
▁ভুল 1
▁प्रशिक्षण 1
▁यौन 1
▁सू 1
gg 1
▁യാത്ര 1
▁உள்நாட்டு 1
ঐ 1
▁easily 1
ాభివృద్ధి 1
থি 1
হো 1
▁विपक्षी 1
ంగ్ 1
▁ఫి 1
▁کروں 1
ഗ 1
▁ساڑھے 1
▁பத்தொன்பதாம் 1
খান 1
▁কঠোর 1
▁দৈনিক 1
▁ചെയ്തു 1
க்காடு 1
▁കേസ 1
▁ബുക്ക 1
ാസ് 1
hi 1
▁நெ 1
एमसी 1
▁വയനാട് 1
▁मोबाइल 1
▁बेंगलूर 1
▁বৃহত্তর 1
▁போல் 1
▁চো 1
▁একাধিক 1
ging 1
▁മന്ത്രി 1
▁दिन 1
▁పన్ను 1
▁തന്നെ 1
ത്ത 1
▁शिमला 1
▁मुताबिक 1
▁സഭ 1
▁ഇന്ത്യ 1
▁مقابلہ 1
▁உதய 1
achin 1
▁అంగన్ 1
▁விகிதம் 1
▁start 1
▁విద్యా 1
▁winning 1
▁क्रम 1
रेट 1
▁நீதி 1
▁சிவாகம 1
▁ഉള് 1
▁حملے 1
▁முத்து 1
▁यही 1
▁തിരുവോണ 1
▁entire 1
▁plea 1
▁بزم 1
▁submit 1
▁చేయ 1
▁Son 1
▁ফ্যা 1
▁نیٹ 1
▁उदाहरण 1
क्ट 1
▁সর্বমোট 1
▁റദ്ദാക്ക 1
▁aspect 1
▁तिवारी 1
▁முதலாவது 1
യെയും 1
▁పర్యవేక్ష 1
min 1
ব্যা 1
പ്പിച്ച 1
▁Major 1
৪১ 1
▁నియోజకవర్గం 1
চি 1
▁دروازے 1
বাংলা 1
ఫి 1
సింహ 1
▁மாவட்ட 1
▁machine 1
पूर्व 1
▁ശതമാനത്ത 1
▁২১ 1
ുകയോ 1
▁تین 1
▁వృత్తులు 1
a 1
▁surrender 1
▁योग्य 1
▁দূরত্ব 1
▁ساٹھ 1
▁விடுதலை 1
▁সংগীত 1
▁Ansari 1
▁आपको 1
▁آنے 1
▁But 1
▁కనుగొన్న 1
▁surface 1
स्ट 1
▁ప్రథమ 1
▁எண்ணெய் 1
▁finance 1
▁چلو 1
▁decline 1
मी 1
▁সাহসিকতা 1
ധ 1
లోను 1
▁நடிகை 1
గి 1
▁అసాధారణ 1
▁വർഷം 1
▁বৌদ্ধবিহার 1
▁வேறு 1
▁نمونہ 1
▁നിന്നുള്ള 1
▁വാണിജ്യ 1
▁இசுலாமிய 1
யம்மன் 1
వ్యవస్థ 1
▁कमिश्नर 1
▁কর 1
▁কোচ 1
▁సాహిత్య 1
▁ഇന് 1
▁देती 1
ख 1
োয়া 1
▁২৪ 1
▁হয় 1
▁ফে 1
▁समुदाय 1
ग्राफ 1
▁पुंछ 1
▁یورپ 1
▁எழுத்துக் 1
▁உண்டு 1
▁ര 1
▁জেমস 1
ിനെ 1
ுள்ளார் 1
ical 1
▁நடத்திய 1
▁Himachal 1
सू 1
▁একই 1
▁احباب 1
▁இறுதி 1
▁സര് 1
▁clear 1
టం 1
▁പോലീസ 1
q 1
▁متعدد 1
▁CBSE 1
▁পড়া 1
పి 1
▁అవుతున్నాయి 1
▁கோண 1
▁फायरिंग 1
▁ജനകീയ 1
ദോഷ 1
▁ഏപ്രിൽ 1
धी 1
▁விவிலிய 1
▁అంగ 1
▁1999 1
▁अमृतसर 1
▁எண் 1
▁अभि 1
▁உணர்வு 1
▁അഞ്ചു 1
▁যদি 1
▁found 1
കൊണ്ട 1
▁அல்லாத 1
▁বার্ 1
▁बिहार 1
ிருக்கிறது 1
▁my 1
▁violent 1
▁حساب 1
ிலும் 1
▁ബാധിക്കുന്ന 1
▁जन्म 1
▁قبر 1
▁బిరుదు 1
▁കിണറ 1
ళి 1
▁बताए 1
▁cha 1
▁হাত 1
▁عامر 1
▁اکرم 1
ரோ 1
▁trouble 1
▁സി 1
ஷ் 1
▁filed 1
▁हालांकि 1
▁ஊராட்சியில் 1
▁सूबे 1
షిప్ 1
▁எதிரான 1
▁Azhar 1
▁প্রযোজক 1
▁പക്ഷേ 1
▁சி 1
▁തിരിച്ചെത്ത 1
▁شیخ 1
മേ 1
▁پراجیکٹ 1
▁اح 1
▁होगा 1
▁الا 1
▁మ 1
पो 1
▁চেয়ে 1
▁लापता 1
▁போலவே 1
▁ছেলে 1
▁چینل 1
▁जिम्मा 1
▁लिया 1
▁കാന് 1
ஞான 1
▁several 1
శక్తి 1
బద్ధ 1
க்கப்பட்டு 1
వపేజీ 1
▁شراب 1
▁conduct 1
▁urged 1
▁spirit 1
▁सावधान 1
▁learn 1
▁లక్షణాల 1
১২ 1
▁शिरकत 1
▁ఇప్పుడు 1
▁close 1
▁brand 1
▁कारण 1
வின் 1
▁حسب 1
▁raising 1
▁ఇంగ్లీషు 1
▁പൊലീസ 1
▁diplomat 1
▁డిగ్రీ 1
▁ডাক 1
্যান্ড 1
ক্কা 1
▁ചെന്ന 1
ेल 1
▁brought 1
▁திரி 1
▁prison 1
▁डॉक्टर 1
றி 1
▁പ്രൊഫ 1
आ 1
മാണ 1
▁சேர்ம 1
िर 1
গাঁও 1
பு 1
▁এসে 1
▁দখল 1
▁முன்ன 1
ইন 1
▁நிறை 1
▁discussed 1
▁بہنا 1
யைச் 1
▁create 1
▁Chief 1
மர 1
▁bus 1
▁হলিউড 1
▁ആശ്രയ 1
▁worship 1
শু 1
▁తర 1
▁செய்வத 1
▁தோ 1
ീകരണ 1
▁இலட்ச 1
▁আত্মপ্রকাশ 1
ുണ്ടായ 1
▁పుష్ప 1
▁Rashtrapati 1
▁rifle 1
▁خاموشی 1
▁भी 1
▁పాకిస్తాన్ 1
▁ആധുനിക 1
▁नेहरू 1
▁پہلو 1
▁नवंबर 1
▁प्रणब 1
▁مدد 1
; 1
▁ہندی 1
▁violence 1
▁1990 1
ాపూర్ 1
▁rank 1
▁rupees 1
▁नक्सलियों 1
▁பேரரசின் 1
▁ناک 1
▁ناراض 1
▁உள்ளிட்ட 1
▁வகுப்பு 1
నారాయణ 1
నిర్మాణ 1
▁অবসর 1
▁Jaitley 1
▁Mehta 1
▁புரிந்த 1
▁सुल्तान 1
▁কাউন্টি 1
▁மூல 1
▁হংকং 1
▁முதலிய 1
▁کہ 1
▁തു 1
زاد 1
e 1
93 1
భాగం 1
51 1
▁فساد 1
▁कंट्रोल 1
▁بیٹے 1
▁थोड़ी 1
▁नियम 1
▁कमी 1
▁అసలు 1
▁২০০৪ 1
ఫల 1
ിച്ചത് 1
▁করে 1
▁اقدامات 1
বাদী 1
▁dozen 1
പക്ഷ 1
▁साहित्य 1
▁सर्वाधिक 1
▁ഏറ്റവും 1
▁seen 1
▁rumor 1
▁25 1
▁technical 1
▁ఉన్నాయి 1
യ് 1
▁پڑھی 1
▁बह 1
▁നടി 1
▁সোসাইটি 1
▁دھاگہ 1
▁وحی 1
அழைக்கப்படுகிறது 1
▁పాట 1
▁35 1
▁రక్షణ 1
dal 1
▁സ്വന്തം 1
▁வரலாற்ற 1
▁முக்கியத்துவம் 1
ുണ്ടെന്ന 1
▁عنوان 1
▁కాలువలు 1
▁দিতে 1
▁కనుక 1
▁amendment 1
▁दंगे 1
▁ദേശീയ 1
కులు 1
uri 1
▁Amar 1
▁পুরনো 1
வர்களுக்கு 1
▁संबंध 1
▁కృష్ణ 1
▁കിലോമീറ്റർ 1
Amritsar 1
law 1
▁অল্প 1
▁decrease 1
▁রঙ 1
mit 1
டன் 1
مع 1
▁early 1
▁শেষ 1
▁என்பவற்ற 1
▁पाकिस्तानी 1
ഛ 1
▁agreed 1
▁दक्षिण 1
▁వినియోగదారు 1
யு 1
ருடன் 1
▁स्वागत 1
▁తాగునీటి 1
▁শিল্পী 1
ণ 1
▁వ్య 1
▁अभिषेक 1
▁गर्म 1
▁হিসাবে 1
▁അനുവദിക്ക 1
▁సంప్రదాయ 1
▁പ്രേമ 1
ac 1
▁నిర్వహించిన 1
விலிருந்து 1
▁passport 1
▁ரே 1
▁Manoj 1
▁डाटा 1
▁دیوان 1
▁all 1
▁দেওয়া 1
▁شہزاد 1
در 1
▁आदिवासी 1
ങ്ങിയ 1
bi 1
▁ഓഗസ്റ്റ് 1
▁సంవత్సరాలు 1
▁தோட்ட 1
ியலாளர் 1
▁ഒന്നര 1
▁ہمیں 1
▁పునర్ 1
▁نیو 1
़ 1
va 1
ப்பட்ட 1
▁ब्लॉक 1
▁reply 1
▁మట్టిరోడ్ల 1
▁విద్యార్థులు 1
▁industry 1
75 1
▁ప్రక్రియ 1
▁రాత్రి 1
▁బంగారు 1
▁خوب 1
▁1, 1
▁పరిష్కార 1
▁کھیلنے 1
▁سب 1
▁दूसरे 1
▁ఋణ 1
▁ప్రత్యక్ష 1
▁بیٹھا 1
ரண 1
▁அளித்த 1
▁street 1
രീ 1
▁وسائل 1
▁అయిన 1
ఞ 1
▁पूर्व 1
▁Britain 1
tain 1
▁बच 1
ித்து 1
▁مان 1
▁തിരിഞ്ഞ 1
▁వ్యక్త 1
▁चे 1
▁अलगाववादी 1
जि 1
▁raid 1
▁తగ్గించ 1
▁जिले 1
▁উত্ 1
▁చల్ల 1
நல்லூர் 1
▁آئیں 1
▁కలిపి 1
▁ஆல் 1
▁ஆங்கிலேய 1
▁guilty 1
▁খুলনা 1
ষা 1
E 1
▁നൽകാൻ 1
▁ബാങ്കുകള 1
▁Ashok 1
ച്ഛ 1
▁ordinance 1
▁নির্বাচনে 1
ങ്ങള് 1
▁हमलावर 1
T 1
▁గంటల 1
കളിൽ 1
ంధ్ర 1
▁चुन 1
എം 1
▁نیت 1
▁رہائش 1
▁आदेश 1
పేట 1
▁খ্রিস্টাব্দ 1
▁ഇന്നു 1
ക്കള 1
দেশ 1
▁Both 1
▁తగ్గ 1
▁ఇక్కడి 1
▁అవి 1
▁കളി 1
ক্ষু 1
த்துக்கு 1
▁నృత్య 1
▁അഴിമതി 1
ക്കൊ 1
▁college 1
▁விரைவாக 1
▁ت 1
▁पटरी 1
▁মধ্য 1
ுடைய 1
▁পৃথিবীর 1
▁کاغذ 1
▁মাইল 1
▁آہ 1
നിര 1
▁கலவை 1
৬ 1
ush 1
ந்தா 1
▁చదువ 1
▁വരുത്ത 1
▁ترکی 1
▁సౌకర్యాలు 1
திறன் 1
▁चले 1
യിലൂടെ 1
പ് 1
▁புத்தக 1
▁मुजाहिदीन 1
▁सिलेंडर 1
▁বছরের 1
ടിയ 1
▁நூற்றாண்டு 1
▁اہم 1
▁امریکہ 1
கூட 1
▁একক 1
▁کا 1
പ്പിക്കാന 1
▁മെഡിക്കല് 1
▁joined 1
ഥാപ 1
▁لگائی 1
▁നിരാശ 1
▁تاہم 1
▁ഡല് 1
▁satisfied 1
▁ഇഷ്ട 1
▁വാ 1
▁പ്രതിനിധി 1
▁ہمیشہ 1
▁تجربہ 1
▁गिलानी 1
▁স্নাতক 1
Kamal 1
▁Administration 1
▁جاپان 1
ally 1
മൊഴി 1
▁معافی 1
▁அம்ம 1
▁കയറ 1
▁జీవిత 1
▁కేసు 1
▁cyber 1
▁చేసిన 1
▁থাকতে 1
ডে 1
! 1
▁തമ്മിൽ 1
▁பத 1
▁नवाज 1
వీ 1
س 1
▁जुलूस 1
▁دیکھی 1
▁സഞ്ചരിക്ക 1
▁above 1
▁لئیے 1
▁ideology 1
চ্যুত 1
എല് 1
▁அதற்கு 1
▁दंगों 1
▁நிகழ்த்த 1
▁హ 1
▁উদ্দেশ্য 1
▁జ 1
প 1
▁help 1
▁مہر 1
▁Ri 1
▁ദു 1
▁جاؤں 1
▁நியம 1
▁మహా 1
▁بنیاد 1
▁former 1
▁হবার 1
▁দেহ 1
▁Kumar 1
ూరి 1
▁Fa 1
▁वाराणसी 1
డంతో 1
▁பாடல்களை 1
▁रुप 1
▁പാട്ടു 1
▁പശു 1
▁reconsider 1
hy 1
یں 1
▁get 1
▁പരിസര 1
▁ملزم 1
▁కళా 1
▁స్థానంలో 1
▁പരിധി 1
▁বিষ্ণু 1
▁संरक्षण 1
▁रुपये 1
▁ফ্ল 1
▁గమనించ 1
▁ति 1
▁جاوید 1
ുളള 1
▁Lo 1
க்கொண்ட 1
▁కలసి 1
▁రంగస్థల 1
ेंद्र 1
▁নি 1
▁اجلاس 1
▁زخمی 1
களுடைய 1
നെ 1
വ്യാപ 1
▁چوری 1
▁ചെന്നൈ 1
விழா 1
▁பயன்படும் 1
పల్లె 1
▁جنت 1
▁महा 1
▁बां 1
ப்பட்டுள்ளது 1
▁ఎప్పుడూ 1
▁मैसेज 1
▁இவை 1
wal 1
▁अब्बास 1
▁आइआइटी 1
ক্ল 1
▁మాతా 1
గలిగి 1
▁bad 1
▁त्याग 1
رت 1
▁విభజన 1
▁choice 1
▁সম্পৃক্ত 1
▁current 1
▁আমরা 1
▁സാധിക്കും 1
ഴി 1
▁मंत्रिमंडल 1
ంట 1
த்தைப் 1
जेएनएन 1
▁വിശദമായ 1
▁شمالی 1
▁अंत 1
ടക്കം 1
▁হ্রদ 1
శీ 1
▁খান 1
▁জানতে 1
▁ആറ 1
▁দে 1
▁അറിഞ്ഞ 1
▁കൂടുതല് 1
کے 1
ার্থ 1
▁PDP 1
▁बरेली 1
জ্ঞা 1
കള് 1
▁فطری 1
▁কৌশল 1
▁திரைப்படங்களில் 1
▁നിഷേധിച്ച 1
▁कड़ी 1
னின் 1
▁கொண்டது 1
▁எனும் 1
പ്പോൾ 1
▁मांझी 1
▁مطلب 1
ूंगा 1
ஏ 1
▁అమ్మ 1
▁पायलट 1
▁স্থাপিত 1
▁غصے 1
▁సంస్థలు 1
പ്രവർത്തിക്കുന്ന 1
▁తెలుప 1
▁ప్రాంతము 1
భి 1
▁सफाई 1
▁शर्त 1
▁প্রকৃত 1
▁dismiss 1
▁కలిసి 1
▁பூங்கா 1
▁جھاڑ 1
లు 1
▁മനുഷ്യ 1
▁ప్రకృతి 1
▁سلیم 1
৮১ 1
▁[1] 1
▁appear 1
▁ఆసక్తి 1
مر 1
▁ملوث 1
వల్ల 1
▁वेबसाइट 1
▁সফটওয়্যার 1
▁water 1
▁cooperate 1
▁Apart 1
▁மைல் 1
▁அம்சங்கள 1
▁پڑے 1
▁विफल 1
▁ارے 1
▁تفصیلات 1
ڈی 1
విధంగా 1
குமார் 1
ുന്നുവെന്ന 1
▁సంక్షేమ 1
▁movement 1
▁যুদ্ধের 1
పడిన 1
ുകളില 1
्वा 1
▁Char 1
ദിവസം 1
▁declare 1
▁భద్రత 1
▁एयर 1
وت 1
▁ఆదిలాబాద్ 1
▁Shiv 1
গ্রা 1
▁کراچی 1
▁అన 1
go 1
▁ബ്ര 1
ंक 1
च्च 1
শ্রম 1
▁গ্রিক 1
▁जुटा 1
▁பதிப்பு 1
▁जिन 1
▁জড়িত 1
▁दुश्मन 1
▁சுதந்திர 1
▁صبح 1
▁अंतरराष्ट्रीय 1
ை 1
▁उग्र 1
ستہ 1
▁పార్ 1
చో 1
బడ్డాడు 1
▁விளைவாக 1
▁Su 1
▁పరిమాణ 1
ഴ 1
▁இம்ம 1
খালী 1
▁جج 1
▁land 1
▁سسٹم 1
▁10 1
▁Naqvi 1
▁തിരികെ 1
▁فیض 1
हे 1
0,000 1
வே 1
▁speculation 1
▁विश्व 1
ंगा 1
▁வினை 1
▁production 1
▁occur 1
▁সময়ের 1
ങ്ങി 1
▁अर्थव्यवस्था 1
▁الہ 1
▁স্থানে 1
▁രാ 1
▁അരി 1
▁సల్ఫ 1
ండ్ల 1
▁வணங்க 1
▁इस 1
▁restriction 1
ఆంగ్లం 1
▁అవుతోంది 1
▁പെമ്പിള 1
▁ایران 1
▁விரும்ப 1
▁১৯৮৯ 1
▁குழப்ப 1
ட்ஸ் 1
▁याचिकाकर्ता 1
डे 1
▁کیلئے 1
▁மக 1
ত্ত্ব 1
▁experience 1
മാർ 1
▁बेरोजगार 1
▁থা 1
ব্যাপী 1
▁مضامین 1
▁हमला 1
▁idea 1
▁कोयला 1
న్నారు 1
▁చక్రవర్తి 1
▁கட்சி 1
▁successful 1
▁గ 1
▁ఆరంభ 1
▁வகை 1
▁பெரும் 1
▁അതേസമയം 1
▁కొంత 1
ാസ 1
da 1
▁अकेले 1
దారు 1
▁നേട 1
ൽ 1
▁வீழ்ச்சி 1
కారులు 1
▁రెండింటి 1
جھ 1
▁स्वीकार 1
ത്തില് 1
▁Resource 1
▁तो 1
▁ஈடுபட 1
▁நிர்வாக 1
▁முஸ்லிம் 1
▁आगामी 1
▁జనాభా 1
▁आर 1
▁தா 1
▁moving 1
▁speak 1
ुआ 1
വില് 1
▁resentment 1
▁অল 1
▁जुटे 1
▁ബാധിക്ക 1
▁മണിക്കൂർ 1
▁express 1
பியன் 1
ுகிற 1
▁അധ്യക്ഷ 1
வதி 1
pi 1
▁روح 1
▁سعودی 1
▁గ్రీకు 1
▁time 1
ുണ്ടോ 1
▁പ്രകൃതി 1
স্কার 1
র্ব 1
▁night 1
▁മലയാളി 1
▁നിയന്ത്രിക്ക 1
▁कटौती 1
▁৫১ 1
▁करवा 1
▁ఆఫ్ 1
ப 1
தாகக் 1
▁शादी 1
▁सहमत 1
▁చూప 1
▁সংকেত 1
▁C 1
റിൽ 1
▁പാട്ട് 1
▁ضمن 1
യോടു 1
▁మంచిర్యాల 1
▁நல 1
▁এশীয় 1
▁ആൽബ 1
▁কক্ষ 1
▁శైలి 1
کو 1
▁لینکس 1
▁votes 1
▁illegal 1
▁افضل 1
▁نقش 1
ेड 1
நகர 1
▁प्रधान 1
▁संकल्प 1
▁قربانی 1
▁चलते 1
ങ്ങ 1
▁نستعلیق 1
▁আব্বাস 1
▁فرد 1
▁ഇടപെട 1
▁ഏറ്റെടുത്ത 1
സ്റ്റി 1
▁వాడీ 1
▁Modi 1
ండు 1
▁deposit 1
रण 1
▁शहर 1
▁১৯৮২ 1
▁Hindi 1
▁اننگز 1
▁elect 1
ির 1
se 1
▁Agriculture 1
ులను 1
▁কানাডা 1
▁পেয়ে 1
ുവ 1
▁طلب 1
ر 1
▁ه 1
▁protest 1
ചെയ്യ 1
तैयबा 1
▁کرکٹ 1
ance 1
▁ആദിവാസി 1
▁मिसाइल 1
▁बढ़ोतरी 1
> 1
▁گھنٹوں 1
▁راضی 1
▁విస్తరించ 1
▁जिम्मेदारी 1
▁Municipal 1
▁ആക്രമിച്ച 1
▁நடித்தார் 1
▁இடத்தை 1
▁Ru 1
▁सुबह 1
▁period 1
▁surgery 1
▁تلوار 1
▁جھانک 1
নিয়া 1
▁সপ্তম 1
▁بحران 1
সংখ্যা 1
▁Shimla 1
▁way 1
▁பாடல் 1
▁हिम्मत 1
▁पिटाई 1
فع 1
▁ട്രാഫിക് 1
▁தலை 1
▁சட்டம் 1
▁உதாரண 1
▁officers 1
▁அரசியல்வாதி 1
ാവകാശ 1
വൃത്തി 1
കുന്ന 1
▁Manish 1
▁২০১২ 1
ver 1
▁लेकर 1
▁problem 1
நா 1
▁కచ్చా 1
▁পরিচয় 1
▁జనన 1
▁পাকিস্তান 1
▁گئے 1
▁అడుగు 1
▁దూరంలో 1
▁system 1
▁జరిగిన 1
▁claim 1
▁మండ 1
▁अचानक 1
▁উইজডেন 1
▁difficult 1
ক্টর 1
▁चलाने 1
▁जिसक 1
▁NCP 1
▁Ca 1
াধিকার 1
▁எழுத்தாளர 1
▁নৌ 1
ുമെന്നാണ് 1
▁হত্যা 1
వర్తి 1
ണ 1
▁गौरतल 1
ல்லா 1
ect 1
▁بور 1
ঠ 1
▁মাই 1
▁పనిచేశాడు 1
▁కాయగూరలు 1
▁గ్రామములో 1
▁welfare 1
৪৮ 1
ष 1
ാരംഭ 1
▁விளையாட 1
place 1
▁Ravi 1
തിൽ 1
జో 1
▁उत्पीड़न 1
ओमप्रकाश 1
▁ஏ 1
▁کمی 1
▁কর্মচারী 1
▁لاگ 1
▁مصنف 1
ঁড় 1
▁হার 1
ack 1
ా 1
▁പുലർച്ചെ 1
▁پسندوں 1
▁बनाने 1
▁دکان 1
▁دھیان 1
▁سابق 1
ort 1
চর 1
▁పరిస్థితుల 1
▁கிளை 1
▁இங்கிலாந்த 1
▁تم 1
▁حسین 1
జాల 1
▁স্বর্ণ 1
▁रद 1
▁টাঙ্গাইল 1
▁ஒரே 1
▁वालों 1
▁మీదుగా 1
▁जारी 1
ணம் 1
▁گرام 1
മുള്ള 1
lal 1
▁رو 1
▁विभाग 1
▁ڈاکٹر 1
▁admission 1
▁ভালো 1
▁पा 1
▁அவை 1
▁వారం 1
▁EVM 1
▁గుర 1
എസ് 1
பாடு 1
▁பிரெஞ்சு 1
▁भूकंप 1
▁సౌకర్యాలున్నాయి 1
▁21 1
▁తీసుకున్న 1
▁പ്രചാരണ 1
▁उठाए 1
▁Former 1
▁Chennai 1
▁انکشاف 1
▁عنایت 1
▁సా 1
▁சூரிய 1
▁రా 1
▁उतार 1
ۃ 1
▁കൊണ്ടുവര 1
▁अंदर 1
▁ലഭിക്കും 1
▁ఉండటం 1
▁வீட்டு 1
▁అర 1
▁विवाह 1
▁علامہ 1
▁قومی 1
▁line 1
▁హిందీ 1
▁जुलाई 1
▁തോമസ 1
▁గా 1
▁कन् 1
ப்பாடு 1
▁ہاں 1
▁ceasefire 1
▁మంచినీటి 1
▁عجب 1
▁স্ব 1
বাড়ি 1
▁بلا 1
ور 1
జ్ఞ 1
▁சா 1
ത്ഥ 1
▁தெற்கு 1
▁एनडीए 1
▁تصوف 1
৩৭ 1
▁আর্ 1
లోనూ 1
▁गुस्सा 1
స్తుందని 1
▁सेंट्रल 1
▁మో 1
▁কোম্পানি 1
▁مکان 1
▁चुनावी 1
▁समान 1
▁बहुत 1
▁అధిక 1
▁പെട്രോൾ 1
▁بہ 1
কাল 1
▁సోమ 1
▁செயல்படுகிறது 1
▁emphasis 1
പ്രവർത്തക 1
▁Intelligence 1
▁আইন 1
Special 1
ग 1
)" 1
▁আগমন 1
▁rainfall 1
▁working 1
▁انٹرنیشنل 1
▁اختر 1
▁hundred 1
▁কূটনৈতিক 1
বৈজ্ঞানিক 1
▁ممتاز 1
▁অ্যা 1
గల 1
▁এসময় 1
kar 1
▁চোখ 1
▁ప్రజలు 1
▁வந்த 1
০ 1
▁हे 1
▁ആണ് 1
▁सैकड़ों 1
▁सीनियर 1
▁अली 1
வரிசை 1
▁بھجوا 1
▁রো 1
শাসিত 1
▁پال 1
▁نعمت 1
▁கிளா 1
▁private 1
▁অংশগ্রহণ 1
▁बहाल 1
▁పంట 1
▁अल् 1
▁జరిపి 1
▁मधु 1
▁ധനുഷ 1
le 1
▁లొకేషన్ 1
▁பர் 1
▁కొన్ని 1
▁സുഖ 1
charge 1
▁continuous 1
▁across 1
▁जागरूक 1
▁ক্যাপ্টেন 1
▁</ 1
رحم 1
▁আত্মহত্যা 1
▁নামক 1
ञ 1
ீ 1
▁दौरे 1
▁పర్వత 1
▁സംഘടിപ്പിച്ച 1
▁കല്ല 1
▁الدین 1
▁सजा 1
ెను 1
▁سوال 1
▁soldier 1
▁அன்னை 1
▁అరకులోయలోను 1
▁much 1
ക്കുള്ള 1
▁পতাকা 1
▁জার্মানি 1
▁பொருட்களை 1
ദേഹ 1
▁نفس 1
▁തണുപ്പ 1
ரான 1
▁ദിവസം 1
▁bill 1
టార్ 1
▁పాఠశాల 1
फो 1
▁சேர 1
ాన 1
▁విధాన 1
▁Saeed 1
▁যার 1
▁দলে 1
మి 1
▁চক্রবর্তী 1
▁शिक्षक 1
▁హత్య 1
code 1
▁చిత్రం 1
▁సై 1
ൻസ് 1
ഠ 1
ஃ 1
▁respect 1
▁সাত 1
▁மாநில 1
▁विमान 1
▁మగవారి 1
▁సీతా 1
▁tremendous 1
▁both 1
▁ശതമാനം 1
▁ആക് 1
▁card 1
▁സ്വന്തമാക്ക 1
ശാസ്ത്ര 1
ின்றனர் 1
▁لگایا 1
▁ناممکن 1
రియా 1
ുണ്ടാവ 1
▁विशाल 1
▁தாக்க 1
েও 1
▁জন্য 1
▁2014, 1
▁investigate 1
izing 1
▁لہذا 1
▁மே 1
▁ജോസഫ് 1
▁ശത്രു 1
▁آیات 1
স্ 1
য় 1
▁শত 1
▁reward 1
▁നിന്നാണ് 1
ity 1
▁Along 1
চ্ছ 1
▁தேர் 1
യാള 1
▁কমিটি 1
▁Additional 1
▁membership 1
▁প্রশান্ত 1
▁బ్రాహ్మణ 1
▁Left 1
▁کاروائی 1
ാക 1
▁पहुंची 1
▁अपनी 1
পোর্ট 1
▁رشتہ 1
▁ওয়েলস 1
▁తెలంగాణ 1
▁बुखार 1
▁ఫిలిప్ 1
▁উদাহরণস্বরূপ 1
▁मोह 1
▁நல்ல 1
▁যেখানে 1
▁കാറ 1
▁M 1
▁Kanpur 1
▁فارمیٹ 1
ഗ്രാഫ 1
▁سخت 1
▁INS 1
▁वी 1
▁முக்கிய 1
घा 1
▁सहारनपुर 1
▁సందర్శించ 1
▁अक्सर 1
▁گنجائش 1
▁বোর্ড 1
▁গোপন 1
▁নজরুল 1
- 1
ah 1
▁நவ 1
▁खतरा 1
▁संभावित 1
▁اجتماع 1
ാവസ്ഥ 1
▁जाएं 1
▁कांफ्रेंस 1
▁உரிமை 1
▁न 1
▁طوفان 1
▁مسعود 1
▁হা 1
▁قیاس 1
▁திருத்தந்தை 1
▁என்பவரால் 1
▁blood 1
ாக்சி 1
▁সো 1
▁మార్చ 1
▁ఘ 1
▁gun 1
మయ్య 1
প্ত 1
▁পরিচালিত 1
▁തിരഞ്ഞെടുപ്പ 1
ുണ്ടാ 1
پٹ 1
▁proposal 1
▁parents 1
▁न्यूज 1
▁இயற்பியல 1
▁सदस्य 1
▁விண்ண 1
▁قیام 1
ali 1
സാഹ 1
▁பகுதியை 1
▁sources 1
▁طرز 1
র্গ্যাল 1
▁வரையறை 1
ভ্র 1
▁കാര്യങ്ങള് 1
▁right 1
▁পাওয়া 1
▁তামিল 1
ாளரும் 1
▁শব্দটি 1
▁फाउंडेशन 1
▁সমকামী 1
▁அடி 1
▁வயது 1
پ 1
▁சௌ 1
▁శ్రీరాములు 1
▁چاہتے 1
▁കൂടുതൽ 1
▁گویا 1
స్థాన 1
▁हिस्सेदारी 1
▁చెక్క 1
▁Medical 1
▁मुद्दा 1
▁review 1
▁मंदिर 1
▁suicide 1
▁അല് 1
▁മൃതദേഹം 1
▁समाप्त 1
▁response 1
▁Chandigarh 1
▁രോഗങ്ങള 1
▁অভ্যন্তরীণ 1
55 1
▁ऐतिहासिक 1
▁నంది 1
یس 1
▁دیجیے 1
H 1
▁l 1
▁വീട്ടമ്മ 1
▁ఉంటే 1
ிற்காக 1
▁நாடக 1
▁மூத்த 1
▁changed 1
പരിശോധന 1
മില്ലാതെ 1
▁అడ్డ 1
▁ఆరు 1
லட்சுமி 1
▁जला 1
ual 1
▁కాని 1
▁నెల్లూరు 1
▁இராச 1
▁appreciated 1
▁عارف 1
▁مارکیٹ 1
▁বেড়ে 1
oo 1
▁సొసైటీ 1
ary 1
▁সীমান্ত 1
ती 1
▁கருத்த 1
क्ष 1
▁புவி 1
शाली 1
▁আঞ্চলিক 1
▁മന്ത്ര 1
▁ব্যক্তিত্ব 1
▁২০০০ 1
▁ঈশ্বর 1
▁സുരക്ഷാ 1
▁जोधपुर 1
െങ്കിലും 1
5% 1
▁حسرت 1
men 1
▁English 1
▁Nir 1
റെ 1
▁دفعہ 1
▁jump 1
का 1
ిస్తుంది 1
হিত 1
▁پلا 1
▁আরোহণ 1
▁அறநிலையத்துறைய 1
▁പറയ 1
▁any 1
▁చేసే 1
▁இந்தக் 1
▁خوبصورت 1
ശാന്തി 1
▁প্রভাবিত 1
റ്റോ 1
▁गोयल 1
tul 1
▁انگریزی 1
▁బ్యాంకు 1
யை 1
ப்பாக 1
▁উপাদান 1
▁کل 1
▁தூ 1
▁పైన 1
▁കെട്ടിട 1
▁ഇല്ല 1
पीसी 1
▁ഫോണ 1
▁सूची 1
▁അക്ഷര 1
▁Follow 1
▁ഉപയോഗിക്കുന്ന 1
யா 1
▁শ্রী 1
దీ 1
▁लिखे 1
▁ஐதரசன் 1
▁ஒவ்வொரு 1
▁better 1
▁ప్రయత్నించ 1
ுவதால் 1
▁गैंग 1
▁দা 1
▁इलाहाबाद 1
ఫు 1
▁Mayawati 1
তন 1
▁funeral 1
▁since 1
▁മുഖ 1
টিক 1
▁സ്കൂൾ 1
▁తిరుగుతున్నాయి 1
பெருமாள் 1
▁دیوار 1
▁వేరుశనగ 1
▁ভূমি 1
கள் 1
ate 1
▁হাতে 1
▁بٹن 1
০০০ 1
ভূমি 1
ப்பூர் 1
▁কোনো 1
▁చట్ట 1
▁মিউজিক 1
▁রচনা 1
స్వామ్య 1
▁দুই 1
▁ശ്രമ 1
▁राजनीति 1
▁دہائی 1
▁ڈیٹا 1
▁तथा 1
ത്വ 1
▁গ 1
ഹ 1
৬৬ 1
▁இயக்குநர 1
പ്രകാരമ 1
▁हार 1
ుట 1
▁சிறுகதை 1
▁ഗതാഗത 1
نا 1
▁اصول 1
ാദ 1
▁மென்பொருள் 1
▁ശ്രദ്ധ 1
▁সর্বশেষ 1
▁چھوٹ 1
▁வெங்கட 1
பாளையம் 1
▁ایڈ 1
31 1
▁திட்டத்தின் 1
▁மாவட்டம் 1
▁Referr 1
▁பென் 1
▁நாட்ட 1
▁job 1
▁विषय 1
▁எரிமலை 1
▁کرتے 1
യെന്ന് 1
▁పథకం 1
cal 1
▁వచ్చాయి 1
▁തര 1
▁நாடாளுமன்ற 1
▁گم 1
▁প্রধানমন্ত্রী 1
▁بیٹھ 1
اور 1
▁தொகுதியில் 1
▁याचिका 1
▁ఇచ్చ 1
पे 1
▁নির্ 1
▁خصوصی 1
▁دارالحکومت 1
▁الحق 1
▁அனு 1
▁At 1
▁উচ্চ 1
▁তীরে 1
▁نفسیات 1
▁উইকেট 1
നിന്ന് 1
▁প্রসিদ্ধ 1
▁مول 1
▁فائرنگ 1
ంచ 1
▁लेने 1
মন 1
▁ഉറപ്പാക്ക 1
▁జ్ఞాన 1
ിലെത്തിയ 1
▁Describ 1
▁Gautam 1
▁सहायक 1
▁सुबूत 1
▁प्रयोग 1
85 1
▁पक्ष 1
▁পর্যায়ে 1
লান 1
▁সুপরিচিত 1
▁এক্সপ্রেস 1
▁வருமான 1
േറ്റ 1
▁موڑ 1
▁പൊടി 1
▁పిలువబడ 1
▁ஒதுக்க 1
బర్ 1
▁اپنے 1
வேண்டும் 1
ുന്ന 1
india 1
▁ہلاکت 1
▁जहां 1
বা 1
ক্রা 1
▁வச 1
▁साहब 1
െല്ലാം 1
med 1
▁ফিলিপাইন 1
▁ప్లాంట్ 1
टीसी 1
▁مجھے 1
ப்பகுதி 1
▁கவிஞர் 1
▁مالی 1
▁হোসেন 1
ঠা 1
▁কাছ 1
പ്പോഴും 1
▁ఇండియన్ 1
തോടെ 1
▁کرلی 1
▁ഇട 1
ിക് 1
▁جھک 1
▁politics 1
പ്രവര് 1
▁ഉദ്ഘാടന 1
▁middle 1
▁ஷா 1
▁भ्रष्ट 1
జీ 1
▁నాలుగ 1
pa 1
▁جہنم 1
ాలను 1
▁அறிகுறி 1
▁ايس 1
னூர் 1
▁गो 1
াব 1
லிருந்து 1
▁Labor 1
▁பேச்சு 1
▁जब 1
▁بعض 1
▁सुरेश 1
▁వాడేందుకు 1
▁துணி 1
▁द्विपक्षीय 1
▁கீழ்க்கண்ட 1
▁ஜான் 1
▁acquitted 1
▁division 1
▁দলটি 1
▁जुड़े 1
▁suddenly 1
▁অনুষ্ঠান 1
▁सिपाही 1
▁മക്കള 1
▁around 1
▁കുറ്റ 1
▁কার্ 1
క్షణ 1
ഷ്ഠ 1
▁projects 1
കക്ഷി 1
▁نرم 1
▁வடக்கு 1
▁প্রজাতির 1
ഷ 1
▁ஆகஸ்ட் 1
▁اسلام 1
പ്ര 1
▁റണ് 1
▁نازک 1
▁সংরক্ষণ 1
▁social 1
ائ 1
▁ജാ 1
▁سکتا 1
▁శాంతి 1
য়ের 1
▁ஒன்றாகும் 1
▁১৯৯০ 1
▁جماعت 1
▁Not 1
▁లేదా 1
र्ण 1
▁whatever 1
▁जनरल 1
▁उपराष्ट्रपति 1
▁தீ 1
▁ഉറച്ച 1
యిన 1
ഭാര 1
▁প্রিমিয়ার 1
செய்த 1
രൂപ 1
▁പറയുന്നത് 1
▁باری 1
▁సంఘ 1
▁باطل 1
▁नहीं 1
▁recent 1
▁வரலாற்று 1
der 1
▁حدیث 1
▁গম্বুজ 1
▁افسوس 1
ka 1
▁چ 1
id 1
▁তিনটি 1
വശ 1
▁Indrani 1
▁प्रश्न 1
க்கிறது 1
ജീവിത 1
▁पूछा 1
ட்ரா 1
▁تھک 1
▁జి 1
ফ্রে 1
▁தன் 1
▁పెదబయలు 1
▁పరిసర 1
ാണല്ലോ 1
▁अपमान 1
തെന്നും 1
▁wedding 1
▁व्यापार 1
▁நேபாள 1
▁இவர்களில் 1
▁ഫാ 1
▁പ്രണയ 1
▁മുന്നറിയിപ്പ 1
கிறாள் 1
▁శాతం 1
▁سلطنت 1
ంతో 1
▁கூட்ட 1
▁57 1
▁উৎস 1
▁चि 1
▁சந்த 1
▁বেশী 1
▁பணிபுரிந்த 1
▁होना 1
لم 1
Q 1
▁আম 1
ণা 1
▁വിവരം 1
▁Pradhan 1
▁गिरावट 1
রেখা 1
▁పట్టణమైన 1
▁fine 1
▁নামের 1
▁സ്വാഗത 1
▁ఎకరాల 1
▁మూడవ 1
کا 1
▁செயல்படுத்த 1
ണമെന്നു 1
ഐ 1
ത്തിനിടയ 1
▁company 1
▁उद्धव 1
ெல்லாம் 1
▁वर्मा 1
▁उठाने 1
▁অফ 1
▁വിനോദ 1
▁आर्थिक 1
▁காட்டு 1
▁১৯৬৫ 1
▁నంద్యాల 1
ண்டு 1
▁পদক 1
▁disappeared 1
▁http 1
▁తదుపరి 1
▁ईमानदार 1
▁वीर 1
▁நடித்த 1
▁ঘটে 1
മൂല 1
▁आश्चर्य 1
▁যেকোন 1
▁Rajendra 1
▁चुनाव 1
▁गाय 1
▁ब्लैक 1
▁identified 1
▁फायदे 1
▁আফগানিস্তান 1
▁സംശയ 1
▁আন্তঃ 1
▁సహ 1
▁تھریڈ 1
▁பங்கேற்ற 1
▁ইতালীয় 1
▁Affairs 1
▁വ്യാഴ 1
പേര 1
▁Act 1
▁जितेंद्र 1
▁ഹൈദരാബാദ 1
▁ফজল 1
মুখী 1
ম্ভ 1
▁சம 1
▁সফল 1
▁surgical 1
ేశారు 1
▁கடற்கரை 1
▁left 1
▁ജനങ്ങള 1
▁12 1
▁Sunil 1
லு 1
▁وال 1
▁घटनाक्रम 1
▁വാര് 1
▁অংশ 1
▁రాజ్యాంగ 1
▁آگ 1
పె 1
ీ 1
டம் 1
▁సంపాదించ 1
▁जमा 1
▁అంతర్జాతీయ 1
രേഖ 1
▁चल 1
▁फौज 1
44 1
▁सुरक्षित 1
▁చె 1
▁సు 1
▁సామాజిక 1
ுள்ளது 1
▁కాం 1
▁నరస 1
▁विपरीत 1
▁Although 1
ൊരു 1
▁যা 1
▁Thane 1
▁నిర్ణయ 1
▁മടങ്ങി 1
▁अंबेडकर 1
▁பெப்ரவரி 1
▁ഉയര് 1
▁desire 1
প্রতিদ্বন্দ্বিতা 1
▁نہ 1
▁मुद्रा 1
37 1
▁ٹیکنالوجی 1
पुर 1
াব্দ 1
స్టి 1
▁বৈজ্ঞানিক 1
▁Muhammad 1
▁दब 1
▁மக்கள்தொகை 1
▁की 1
▁সেবা 1
▁പ്രതികൂല 1
ாகும் 1
▁متبادل 1
৬৫ 1
▁جوہری 1
▁داغ 1
▁നമ്പര 1
led 1
స్పష్ట 1
▁ভি 1
▁सत्य 1
గ్గు 1
യു 1
▁আঘাত 1
▁آئ 1
▁راشد 1
▁घंटों 1
▁अब 1
▁कार्यक्रम 1
▁apart 1
▁ഇൻ 1
வாக 1
▁भूख 1
वाद 1
▁വസ്തു 1
ుకుని 1
▁ഖ 1
▁భీమ 1
▁நகரம் 1
▁Italian 1
കളിലൂടെ 1
രുതെന്ന 1
టానికి 1
▁वीके 1
దో 1
▁seriously 1
▁interrogation 1
▁ശ്രമിക്കുന്ന 1
▁ആവശ്യപ്പെട്ടു 1
▁w 1
▁عسکری 1
▁స్టేట్ 1
▁கணினி 1
శాఖ 1
▁மனித 1
▁বরং 1
▁ধাতু 1
▁partner 1
▁ചെന്നിത്തല 1
▁shoot 1
▁ఇంటి 1
▁another 1
▁విడుదలైన 1
فاع 1
ాద్రి 1
▁വന്ന 1
▁মঞ্চ 1
▁ঐতিহ্যবাহী 1
▁نامعلوم 1
▁শহীদ 1
▁तलाश 1
ടു 1
െങ്കില് 1
শো 1
▁becoming 1
▁वित्तीय 1
▁ప్రవహిస్తుంది 1
▁కాపాడ 1
▁مذہب 1
▁صحافت 1
▁روز 1
കരമായ 1
▁రో 1
▁title 1
▁దిగువ 1
▁மாறாக 1
▁নাট্য 1
▁কৃষক 1
தொழில 1
ணை 1
▁నాయకత్వం 1
▁திராவிட 1
▁existence 1
▁اچانک 1
▁بھارتی 1
▁മരണ 1
▁congratulate 1
ండ్ 1
▁పాల్గొన్నారు 1
▁കൊണ്ടുവന്ന 1
▁వివరణ 1
▁' 1
▁உற்பத்தி 1
▁चिंता 1
▁आपातकाल 1
▁با 1
▁హా 1
▁பஞ்சாப் 1
▁ഫോട്ടോ 1
रत 1
ানুসারে 1
సంవత్సరం 1
▁பாத்திர 1
▁സമിതി 1
anwar 1
সা 1
▁স্থাপনা 1
▁ബൈക്ക 1
▁మన 1
▁बांग्लादेश 1
ండ 1
▁summer 1
िक्स 1
▁spokesman 1
▁انڈین 1
▁ஆண்டில் 1
யின் 1
▁হাওড়া 1
▁February 1
ु 1
▁ഫേസ്ബുക്ക 1
▁विजय 1
▁अधिकारी 1
▁सहमति 1
▁இன்று 1
াতে 1
▁Prime 1
పేటలో 1
▁ٹیکس 1
▁जवानों 1
▁सिफारिश 1
▁क्या 1
▁strong 1
தான 1
▁उन 1
▁واقعی 1
▁چاہیئے 1
▁దా 1
▁எழுந்த 1
▁کلی 1
▁need 1
▁پن 1
ుతాయి 1
யில 1
▁کریم 1
▁கடின 1
▁ھی 1
▁ബിജു 1
സെ 1
▁ముఖ్యమంత్రి 1
▁lakh 1
మన్ 1
ुल 1
▁شخصیت 1
రెడ్డి 1
pan 1
▁شریک 1
▁آمین 1
▁فار 1
▁अदालत 1
നിൽ 1
▁حج 1
க்கூறு 1
ങ്ങളിലെ 1
▁రీ 1
▁தலைவர் 1
▁தயாரிக்கப்பட்ட 1
ീകര 1
▁నటించిన 1
▁പറഞ്ഞു 1
▁فرقہ 1
▁ताजा 1
▁പണ 1
▁नेपाल 1
▁طارق 1
▁ट्रेन 1
▁എത്തിയത് 1
র্ণ 1
▁তীব্র 1
▁पूछताछ 1
▁پختونخوا 1
కరించ 1
▁ঘর 1
▁افطار 1
▁వరకు 1
▁acquisition 1
▁నె 1
▁ചെയ്യുന്ന 1
▁యంత్ర 1
▁చ 1
▁ఇండియా 1
abad 1
నియా 1
▁খেলোয়াড় 1
▁కల్ 1
▁ഇതു 1
▁സുരക്ഷ 1
bility 1
▁ഓ 1
പ്പാട 1
▁injured 1
బ్రహ్మ 1
▁3. 1
▁युवा 1
▁GST 1
▁১২ 1
தேச 1
▁جانے 1
▁ഡൽഹി 1
▁సిద్ధ 1
▁rebel 1
▁removal 1
▁اگست 1
▁সাঁতার 1
▁fixed 1
▁किये 1
ప 1
ఫార్మ 1
ులుగా 1
▁2018 1
▁തിരക്കഥ 1
▁పెరుగుదల 1
▁خارجہ 1
▁வாழும் 1
▁बर्बाद 1
▁நகர 1
▁جاگ 1
গুলোর 1
▁வைர 1
▁यात्रियों 1
▁రాష్ట్ర 1
▁వంతెన 1
▁صدیق 1
ंप 1
▁সহযোগী 1
▁শারীরিক 1
▁تیس 1
▁వలె 1
▁చాల 1
▁నలుగురు 1
▁பரம்பரை 1
ाउंड 1
ുണ്ടാകും 1
▁തുടർച്ചയായ 1
ভূ 1
দ্য 1
ാ 1
▁कहीं 1
పబ్లిక్ 1
ണ്ട് 1
▁ലഭിക്കുന്ന 1
▁പുനര 1
ভারত 1
▁హనుమ 1
ిచాడు 1
▁காமிகாகம 1
▁चौहान 1
രിച്ച 1
▁ഏത 1
▁Gur 1
▁কার 1
▁ভাইরাস 1
▁அஞ்சல் 1
േണ്ടി 1
▁എഴുത 1
▁மேம்படுத்த 1
▁పట్టణం 1
▁துவங்க 1
▁यात्रा 1
কেন্দ্র 1
▁ڈاؤن 1
▁यूनिट 1
▁माल्या 1
▁প্রদান 1
ంలోని 1
▁वो 1
▁ലോക 1
ഹാ 1
లూరు 1
▁അസോസിയേഷന 1
▁جشن 1
৩৯ 1
▁కాంగ్రెస్ 1
▁Dar 1
▁പീഡന 1
▁ദേവ 1
▁investigation 1
▁show 1
▁भाजपा 1
ڑی 1
মেন্ট 1
▁ఆమ్ల 1
▁చిత్రంలో 1
ஸின் 1
▁سارا 1
த்திரை 1
▁संपादक 1
க் 1
▁دیش 1
▁দেন 1
▁১৯৮৩ 1
▁What 1
▁సింగ్ 1
▁ക്യാ 1
▁December 1
ാണെങ്കില് 1
▁عراق 1
വുമ 1
കൃഷി 1
പ്പിക്ക 1
▁فاتح 1
▁యూరోపియన్ 1
कि 1
▁प्रतिनिधिमंडल 1
▁പുറത്തിറങ്ങ 1
ప్రతిష్ఠ 1
▁విష 1
▁نام 1
▁کوئٹہ 1
▁రామ 1
ئی 1
▁voice 1
▁கெ 1
േ 1
കൂട്ട 1
ক্ষমতা 1
▁উল্লেখযোগ্য 1
▁বিনিয়োগ 1
▁కాకుండా 1
▁چن 1
▁মানসিক 1
▁نیا 1
▁চার 1
▁ٹا 1
▁سوا 1
▁नीलामी 1
▁విశ్వవిద్యాలయం 1
நி 1
சல் 1
tor 1
▁সমাপ্ত 1
▁அவசிய 1
▁فورم 1
ട്ടെ 1
▁പ്രശ്നങ്ങൾ 1
തെന്നു 1
▁کھیت 1
▁تر 1
▁মির্জা 1
▁तृणमूल 1
వో 1
▁துல்லிய 1
▁میری 1
রা 1
▁ভূমিকম্প 1
▁आजाद 1
▁مظلوم 1
▁আর্জেন্টিনা 1
▁সেন 1
▁حوالہ 1
கால 1
65 1
▁மாறுபட 1
ani 1
▁പരിഗണന 1
▁दोषियों 1
ഥാന 1
▁பால் 1
▁కౌన్సిల్ 1
▁rapidly 1
സവ 1
▁లక్ష్మీ 1
▁পেয়েছিলেন 1
جا 1
व्य 1
▁Bhardwaj 1
▁শক্তি 1
y 1
্টার 1
▁अजहर 1
▁सबूत 1
▁എത്തി 1
▁dig 1
▁दूर 1
▁অধিকার 1
▁திரைப்படமாகும் 1
▁दर 1
▁missile 1
▁உணவ 1
▁দাবি 1
▁बच्चे 1
ముగా 1
▁ফা 1
▁কর্ম 1
തിരി 1
▁ఘన 1
▁வசித்து 1
▁Expert 1
▁ఎన్నికైనారు 1
▁ఆర్థిక 1
صف 1
సార్లు 1
▁रवैये 1
▁നിൽക്കുന്ന 1
▁തന്റെ 1
▁ا 1
▁مین 1
బడ్డాయి 1
▁పరీక్ష 1
ராஜ 1
▁गिरोह 1
▁طاقت 1
▁Team 1
▁रखा 1
▁लांच 1
റ്റി 1
ங்கே 1
▁వయస్సు 1
▁பெயர் 1
ക്കാണ് 1
▁అందువలన 1
ধারা 1
▁ஐ 1
▁mind 1
র্মা 1
يں 1
▁tried 1
▁تعبیر 1
▁കടന്നു 1
▁का 1
▁బుద్ధ 1
▁ड्रा 1
▁ভেঙ্গে 1
ంపై 1
▁पढें 1
▁निशाना 1
jan 1
▁தொடக்க 1
▁యువ 1
▁সংগঠন 1
ஜெ 1
▁ఆశ్రమ 1
চিত 1
▁సౌకర్యాలేమ 1
ీయ 1
▁ارکان 1
سے 1
▁عزت 1
▁भर 1
कर्ता 1
▁अखबार 1
▁D 1
▁آتش 1
▁ఏటీఎమ్ 1
▁அப்துல் 1
ெண் 1
▁പരാമർശ 1
నాడు 1
▁മനസ്സ 1
எஃப் 1
▁उलझ 1
▁మూడు 1
▁ఓ 1
േണ്ടതുണ്ട് 1
▁ఖా 1
ুয়া 1
▁طلاق 1
▁دھماکوں 1
சம 1
చి 1
ുമ്പോഴ 1
▁طریق 1
ാല് 1
గు 1
▁வெளியிடப்பட்டது 1
▁ஏற்பாடு 1
▁Tripathi 1
▁हमलों 1
யினர் 1
▁காணலாம் 1
ئل 1
▁ഉപദേശ 1
▁പങ്ക 1
யிலிருந்து 1
▁passed 1
িল 1
ഗ് 1
▁சமுதாய 1
▁Rajnath 1
▁सामान्य 1
▁साक्ष्य 1
▁Hurriyat 1
▁ابلاغ 1
▁మండలాలు 1
வன் 1
▁انقلاب 1
▁method 1
▁প্রচলন 1
▁ചികിൽസ 1
▁Gun 1
সমূহের 1
க்கை 1
▁கிடைக்கிறது 1
भाव 1
▁കട 1
62 1
மயமாக்க 1
▁১৯৮১ 1
▁బాలల 1
▁ശതമാനവും 1
▁नवीन 1
▁بیٹا 1
ड़ा 1
▁اسکین 1
▁not 1
▁প্রশাসন 1
্যাক্ট 1
▁سٹ 1
ना 1
▁suggest 1
▁problems 1
▁മാന 1
▁फैल 1
தெ 1
▁پردہ 1
▁மதுரை 1
▁शायद 1
▁নাগরিক 1
ലെ 1
▁راستے 1
▁economic 1
▁اطلاق 1
og 1
▁management 1
▁দ্রুত 1
ാകും 1
▁روزہ 1
▁ഗോള 1
▁بھٹو 1
▁পদ 1
താണു 1
ோடு 1
▁picture 1
▁کیوں 1
▁అక్షరాస్యత 1
ٹھی 1
▁suspension 1
▁উপ 1
బ్ 1
▁تار 1
▁रहते 1
▁చేయబడ 1
ப்பாடல் 1
দার 1
▁সমাধি 1
▁അവതരിപ്പിക്ക 1
▁পঞ্জিকা 1
▁Bank 1
▁separate 1
▁रंग 1
▁వెలుపల 1
▁परिवार 1
▁Netaji 1
▁تجاویز 1
ce 1
▁structure 1
▁பெற 1
▁வழக்க 1
দিয়া 1
ധാന 1
گیا 1
▁Lokayukta 1
▁serial 1
▁সাক্ষাৎ 1
▁തങ്ങളുടെ 1
▁ജ 1
▁کوئی 1
▁تنہا 1
▁approved 1
▁منصب 1
▁சிவகங்கை 1
C 1
వై 1
▁ছিল 1
▁গ্রহণ 1
▁ব্যাটিং 1
▁Narayan 1
▁Sho 1
▁ঘোষ 1
formula 1
ண்ண 1
वेद 1
▁گرم 1
বিদ্যা 1
ন্ত 1
▁شب 1
▁கௌரவ 1
▁تقدیر 1
മെന്റ് 1
அல்லது 1
থু 1
▁सिद्ध 1
▁పంజాబీ 1
▁দ্বীপ 1
ക്കൊള്ള 1
▁பட 1
▁copy 1
्रो 1
▁basic 1
▁سفیر 1
▁তারা 1
തു 1
శాస్త్రి 1
ఋ 1
▁پسندیدہ 1
கம் 1
▁further 1
▁അടുത്തിടെ 1
▁தொலை 1
69 1
▁হাদিস 1
▁అల్ 1
ത്തെക്കുറിച്ചു 1
నాయక 1
৬১ 1
▁தொ 1
నీ 1
▁ने 1
▁തുക 1
வாகும் 1
సన్ 1
▁नई 1
▁برتن 1
▁आने 1
▁स्मार्ट 1
▁நான் 1
▁মোবাইল 1
▁parliament 1
▁బా 1
कों 1
ాడు 1
▁நின்று 1
مان 1
▁এসিড 1
வுக்கு 1
▁वसुंधरा 1
▁ব্যাট 1
▁कर्मचारियों 1
▁سلمان 1
గో 1
▁ఉన్నది 1
▁বিনোদন 1
▁ഏപ്രില 1
▁பயன்படுத்தி 1
▁language 1
▁திறமை 1
▁கல 1
▁مخلوق 1
▁जिसके 1
ob 1
▁terrorists 1
▁മൂന്നു 1
▁Pur 1
యిన్ 1
دھر 1
▁മാതാവ 1
▁వదిలి 1
▁బదులుగా 1
ால் 1
த்திற்காக 1
▁ذر 1
▁alive 1
▁currency 1
ng 1
യുണ്ടാകും 1
▁എംഎൽഎ 1
▁اچھے 1
▁بیل 1
▁അയ 1
▁الاقوامی 1
▁വ്യക്തമാക്കുന്ന 1
▁অন্যান্য 1
▁موسی 1
▁As 1
▁పరిశోధన 1
ഗാന 1
▁ٹیم 1
▁سپاہی 1
▁వివర 1
▁மரண 1
▁قبل 1
ాయని 1
রত্ন 1
ത്രീ 1
ില്ലാതെ 1
பெயர் 1
▁अंतरिक्ष 1
తూ 1
▁തകര് 1
eet 1
▁కెమెరా 1
▁অধিনায়ক 1
হর 1
▁discrimination 1
▁प्रेस 1
▁مذاق 1
▁దేశ 1
যোগ 1
▁আধুনিক 1
মন্দির 1
▁ചോദിച്ച 1
▁২০০৮ 1
▁ലൈ 1
▁ആശംസ 1
▁விபரக்குறிப்பு 1
ോടെ 1
") 1
▁இயல்பு 1
▁জ 1
ിരുന്നില്ല 1
▁संबोधित 1
▁Technology 1
▁காண்ப 1
మాన్ 1
▁particular 1
▁Front 1
▁গ্রেফতার 1
ട്രോള 1
▁स्पष्ट 1
যো 1
▁वहीं 1
▁बाग 1
▁जदयू 1
▁కాలంలో 1
ാന 1
▁രക്ഷ 1
▁ஜார்ஜ் 1
▁പരാതി 1
نام 1
▁دور 1
▁కళాకారుల 1
▁उसने 1
▁boy 1
ाइज 1
▁उड़ 1
▁இடத்தில் 1
▁പ്രസ്താവന 1
▁বৈষ্ণব 1
▁महानगर 1
मन 1
த்திலுள்ள 1
▁ആവേശ 1
പര 1
▁മൊബൈല 1
▁പഞ്ചായത്ത 1
▁resolve 1
▁நடத்தப்பட்ட 1
▁చేతిపంపులు 1
▁भर्ती 1
▁پر 1
▁இணைப்பு 1
▁घाट 1
▁కరీంనగర్ 1
▁Engineer 1
▁سکھا 1
▁அருகில் 1
▁அருகே 1
▁১৫ 1
▁बढ़ती 1
▁పేరుతో 1
▁പുറത്താക്ക 1
▁پل 1
സഹായ 1
▁చేస్తున్న 1
▁investment 1
▁مرزا 1
ఒ 1
ूल 1
▁Hi 1
▁rule 1
▁disclosure 1
బాలబడులు 1
▁వాడ 1
▁needs 1
▁സ്വപ്ന 1
▁పి 1
വേദ 1
ுமாறு 1
▁दावे 1
▁मशीन 1
േക്കാം 1
പ്പെടുന്നത് 1
దర్శన 1
▁increasing 1
▁ലൈംഗിക 1
▁Kishor 1
▁اڑا 1
వలసి 1
విరుద్ధ 1
نٹ 1
ുമെന്നും 1
▁আফ্রিকার 1
▁ঘুর 1
▁सोशल 1
▁अच्छा 1
▁அரசாங்க 1
▁மை 1
ణ 1
▁రష్యన్ 1
▁தொழில்நுட்ப 1
▁డివిజన్ 1
▁سمجھنے 1
▁communication 1
▁पाकिस्तान 1
▁abducted 1
▁मा 1
तत्कालीन 1
▁شرف 1
▁مرحلہ 1
▁روابط 1
▁ഒമ്പത 1
సి 1
▁accused 1
িয়ার 1
▁کاروبار 1
▁ফলাফল 1
ஸ் 1
▁స్నేహిత 1
▁council 1
▁پھل 1
▁രാജി 1
|| 1
▁১৩ 1
▁চিন্তা 1
▁జు 1
▁విస్తీర్ణం 1
লো 1
ஷா 1
▁মাত্রা 1
▁दंगा 1
▁बयान 1
▁গান 1
▁தி 1
▁station 1
പാ 1
ष् 1
▁Management 1
▁शिवराज 1
▁జరిగే 1
▁অধিকাংশ 1
يا 1
▁ইঞ্জিন 1
▁इंडिया 1
बंध 1
▁அமையும் 1
▁अभिनेत्री 1
▁ധാരാളം 1
▁birth 1
▁जाएंगी 1
▁பகுதி 1
▁டெ 1
▁today 1
ാതി 1
▁آب 1
▁सऊदी 1
▁जुड़ा 1
▁الش 1
rup 1
18 1
▁உரோமை 1
▁चीनी 1
ല്ലോ 1
రిగి 1
▁এগুলি 1
▁நூல்கள் 1
▁ഞെട്ടി 1
ിലധികം 1
cor 1
▁panchayat 1
▁targeted 1
▁Education 1
പ്പുറം 1
▁தவற 1
র্ত 1
▁বিজ্ঞাপন 1
▁انفرادی 1
▁فا 1
പ്പി 1
▁چاہئے 1
سی 1
▁ch 1
▁शुभ 1
▁బొమ్మ 1
▁ఒప్పంద 1
▁رکھی 1
جو 1
year 1
স্টো 1
വെച്ച 1
▁উভয় 1
న్నింటి 1
সেন 1
ो 1
ുന്നതു 1
▁زیادہ 1
ের 1
▁پیدا 1
▁వృత్త 1
▁জানুয়ারী 1
க்கும் 1
انی 1
▁മലയാള 1
படுத்தி 1
ठी 1
▁ശേഷമാണ് 1
▁உதவுகிறது 1
▁सोच 1
ता 1
▁ചെയ്യേണ്ടത 1
▁அறிமுக 1
ദ്ദേശ 1
▁تبصرے 1
ant 1
▁ഇള 1
লাস 1
▁हवा 1
▁காலமானார் 1
▁technology 1
▁দায়িত্ব 1
▁انتخاب 1
▁rural 1
▁me 1
ഭാഗത്ത 1
த்திர 1
▁many 1
▁अलावा 1
▁দেখা 1
புரி 1
▁தொலைபேசி 1
▁మ్యాచ్ 1
▁డా 1
▁பின்பு 1
▁സഹകരണ 1
▁விளங்குகிறது 1
▁t 1
▁वेतन 1
வராவார் 1
▁ജൈവ 1
க்கண 1
▁मैनेजर 1
▁دیکھنا 1
▁గూ 1
யாகவும் 1
▁జిల్లాకు 1
▁मिलेगा 1
▁fourth 1
▁উপজেলায় 1
رے 1
▁హోటల్ 1
▁पूजा 1
▁ఔషధ 1
▁جملہ 1
▁रघु 1
▁غالبا 1
▁Go 1
▁Read 1
▁दशक 1
▁जूझ 1
சா 1
▁Dutt 1
സര് 1
▁నిలిచి 1
▁উয়েফা 1
▁गहरा 1
▁وکٹیں 1
▁کتابیں 1
యర్ 1
▁സൃഷ്ടിക്ക 1
టీఎం 1
திரு 1
▁لڑکی 1
▁note 1
ോള 1
▁fill 1
▁sent 1
▁दि 1
▁கொண்டுள்ளார் 1
▁رہتا 1
▁چال 1
▁पै 1
▁prohibit 1
▁print 1
ট 1
▁బహిరంగ 1
▁അല്ല 1
▁सुनाई 1
▁ഡിഗ്രി 1
▁వ 1
த்தள 1
bh 1
വിഭാഗ 1
థా 1
▁बिजनेस 1
জাত 1
▁కంప్యూటర్ 1
தொகு 1
▁مہاجر 1
▁రీడింగ్ 1
▁पाठ्यक्रम 1
था 1
▁each 1
▁எடுக்கப்பட்ட 1
▁शोध 1
▁Welfare 1
▁భౌతిక 1
▁मुद्दों 1
▁കഴിച്ച 1
நாயக 1
▁కిందకు 1
▁டை 1
த்தைச் 1
▁सीआरपीएफ 1
▁చదివిన 1
▁اخلاق 1
▁সম্প্রসারণ 1
▁സർക്കാർ 1
v 1
▁സേവന 1
সিয়া 1
कृत 1
▁കാലാവധി 1
▁حیثیت 1
▁আজ 1
▁അടുത്ത 1
ാണെന്നും 1
▁అన్నది 1
دم 1
లియా 1
▁ഉന്നയിച്ച 1
▁ഇടപാട 1
▁attitude 1
▁সবুজ 1
▁مطابق 1
రైడ్ 1
▁పుస్తక 1
▁نافذ 1
▁cap 1
▁ذریعہ 1
நோ 1
▁Defense 1
▁Assam 1
▁ഗാനം 1
▁പേരിൽ 1
தன் 1
▁ब्रांच 1
▁விரைவு 1
▁নিজ 1
▁பார்த்த 1
▁opportunities 1
পন্থী 1
নায়ক 1
▁آرام 1
▁హింస 1
▁ജല 1
▁دشوار 1
▁ബന്ധുക്കള 1
▁been 1
▁Guru 1
▁దీన్ని 1
▁Law 1
▁মধ্যবর্তী 1
▁வாழ்ந்து 1
▁సగటు 1
▁अप 1
▁शंकर 1
▁అది 1
▁اسلئے 1
▁ఉపయోగించి 1
▁میسر 1
▁ایوارڈ 1
▁திருவள்ளூர் 1
▁1977 1
▁رفتار 1
▁பக்தர்கள 1
▁பெருமாள் 1
रा 1
ബ്ര 1
▁गोलाबारी 1
▁ദിവസ 1
ிற்கு 1
৬২ 1
▁మండలానికి 1
▁عموما 1
ঙ্ক 1
▁வெவ்வேறு 1
▁স্বয়ং 1
ध 1
▁यह 1
▁যাচ্ছে 1
▁लगाकर 1
▁അലർജി 1
▁دیکھتا 1
▁వెల్ 1
ட்டா 1
▁home 1
▁Political 1
2 1
ൻഡ 1
▁മഹ 1
▁School 1
▁بھول 1
▁شکایت 1
സ്ഥല 1
▁లా 1
▁రోజుల 1
ம்பு 1
▁वारदात 1
▁ഒടുവിൽ 1
వ్యాప్త 1
▁प्रति 1
▁వీర 1
▁পর্দা 1
▁সাল 1
▁கட்டாய 1
▁attention 1
▁2015, 1
నో 1
লিস 1
▁ഫൈനല 1
▁rupee 1
பரப்ப 1
▁பொதுவான 1
▁Sud 1
▁quarter 1
▁অন্তর্ভুক্ত 1
▁wish 1
হা 1
▁চালিয়ে 1
ping 1
▁அவ்வாறு 1
▁போராட 1
▁जमकर 1
▁মিডিয়া 1
▁వినియోగం 1
▁நிறுவனங்கள் 1
▁First 1
▁మంచి 1
▁department 1
াধীন 1
▁১১ 1
▁ഇതിന 1
▁நூல 1
▁கண்டி 1
▁چاہتی 1
▁निकाल 1
▁శిక్ష 1
▁பெருங்கடல 1
▁पेट्रोल 1
▁stage 1
னல் 1
▁చేసింది 1
িক 1
▁व 1
ॉल 1
▁Enforcement 1
▁വിധി 1
▁پیٹ 1
▁लापरवाही 1
▁அமைப்ப 1
ஜி 1
▁ஏற்பட்டது 1
ுள்ளனர் 1
▁sought 1
▁വൈകി 1
రు 1
▁واپس 1
▁شاکر 1
▁ഏജൻസി 1
▁గే 1
▁ఇన్ 1
భావ 1
▁establishment 1
▁आपके 1
▁سرزمین 1
చెర్ల 1
▁ఏడు 1
▁২৬ 1
ful 1
▁இலை 1
▁fly 1
ப்படி 1
ஷ 1
▁কার্য 1
▁এগুলো 1
ிய 1
▁بٹ 1
ھم 1
మూల 1
▁वृद्धि 1
▁भगवान 1
▁O 1
▁مقاصد 1
▁పది 1
▁मुहिम 1
▁Ke 1
▁no 1
▁hands 1
▁മാറ്റ 1
നിന്നു 1
▁காரணம் 1
▁Bahadur 1
▁Maharashtra 1
▁അമേരിക്ക 1
▁फैसले 1
▁করতে 1
ঞ 1
▁കഴിയും 1
▁मानना 1
▁বিকাশ 1
▁கல்வி 1
▁நடித்துள்ளார் 1
▁ল্যা 1
▁বাচ্চা 1
▁കത്ത 1
ড় 1
▁പിറ്റേ 1
ষ্ঠ 1
▁deep 1
▁പാക്കിസ്ഥാന 1
▁کھینچ 1
▁പിന്നീട് 1
▁തമ്മില 1
▁ஓட்ட 1
▁फायदा 1
▁تہ 1
▁పదార్థం 1
▁ली 1
▁ডলার 1
▁சென்னை 1
எல் 1
ములు 1
▁సామ్రాజ్యం 1
షా 1
▁miscreants 1
జు 1
▁இணைக்கப்பட்ட 1
▁వీటి 1
▁മീഡിയ 1
▁எழுதப்பட்ட 1
নীতি 1
▁کہتے 1
▁নিজেদের 1
▁தொடர்பான 1
▁কর্মী 1
▁തിരുവാതിര 1
▁taken 1
▁ஆழ 1
▁تیرا 1
▁قاسم 1
▁poor 1
▁ইউনিভার্সিটি 1
▁భ 1
▁உருவாகும் 1
▁కాల 1
▁முட்டை 1
▁இந் 1
▁थोड़ा 1
▁অনুমোদন 1
▁लगे 1
▁இதில் 1
▁స్థానాల 1
▁இரண்டாவது 1
▁سن 1
लो 1
▁সিপিআই 1
▁achievement 1
▁కార్యక్రమం 1
▁குட 1
கிழ 1
▁കമ്മിഷൻ 1
▁പേരില് 1
▁లేని 1
▁വില 1
▁चेतावनी 1
▁ദിന 1
▁జన్మించారు 1
▁Javadekar 1
▁அவன் 1
▁সর্বাপেক্ষ 1
▁Then 1
▁telecom 1
▁recruit 1
▁സബ് 1
▁அலெக் 1
▁ध 1
▁status 1
▁বিতর্ক 1
▁অনুশীলন 1
ുമായി 1
▁ഭൂമി 1
▁रहेगी 1
▁ई 1
ফা 1
യല്ല 1
▁رپورٹ 1
▁பண்பாடு 1
▁அதிகமான 1
▁அமைக்க 1
▁رہی 1
वी 1
▁গল্প 1
بار 1
▁Malik 1
▁हसन 1
▁मौका 1
▁পথ 1
▁ஏறத்தாழ 1
▁பெண்களின் 1
▁صحافی 1
▁ஆகியவற்ற 1
▁London 1
ுடனும் 1
కాయ 1
िंग 1
▁باہر 1
▁नसीहत 1
গ্রেগরীয় 1
వ్యాపారాత్మక 1
34 1
▁अयोध्या 1
▁చర్య 1
ாது 1
▁لانے 1
▁अधिग्रहण 1
▁ভর 1
▁Shyam 1
கிராம 1
نے 1
▁नतीजे 1
▁പൂജ 1
▁മുന്നില 1
▁సోవియట్ 1
▁நாட்காட்டி 1
▁समक्ष 1
वर 1
▁ال 1
▁பஞ்சாபி 1
▁آؤ 1
ദാ 1
▁সেনা 1
▁দার্শনিক 1
ঘু 1
▁கடைசி 1
▁इतिहास 1
హిత 1
▁اتوار 1
▁लड़कियों 1
▁ప్రాజెక్టు 1
▁क्रिकेट 1
ரெ 1
▁رہتی 1
▁সি 1
▁বিষয়ে 1
▁దుస్తుల 1
▁വല 1
▁فیصد 1
▁గెలుపొంద 1
▁selection 1
▁national 1
▁کوشش 1
اط 1
▁പിന്നില 1
▁ഫ്ല 1
▁आस 1
▁ശിക്ഷ 1
▁پوسٹ 1
▁اگرچہ 1
government 1
▁عنہ 1
▁പൗര 1
▁ఏడాది 1
▁ജിഷ്ണു 1
▁കള്ള 1
▁غریب 1
யாக 1
▁Vinod 1
▁പുറത്തുവിട്ട 1
▁ప్రైవేటు 1
▁பதி 1
▁நிர்வகிக்க 1
▁assured 1
▁खो 1
▁मुसलमानों 1
▁لاکھ 1
▁purpose 1
▁స్వామి 1
தற்காக 1
▁removing 1
▁سردی 1
গ্রহণ 1
रो 1
விலும் 1
చేసి 1
▁रिटर्न 1
▁കരുത്ത 1
১৪ 1
▁توہین 1
▁புதின 1
రేట్ 1
▁பணியாற்றிய 1
▁created 1
▁गिरफ्तारी 1
▁बाहर 1
▁অংশে 1
ளவில் 1
▁ലഭ്യമ 1
▁दूरसंचार 1
▁پت 1
▁அதில் 1
ുമെല്ലാം 1
▁بندے 1
ிப்பு 1
▁Jain 1
▁अनु 1
▁موقع 1
▁రాజు 1
▁పాడ 1
▁notes 1
▁رکھتی 1
▁నగరాల 1
▁अर्जुन 1
ാനുഭവ 1
▁अधिक 1
▁சென்ற 1
▁মডেল 1
▁लाल 1
ম 1
▁হত 1
▁காணப்படுகின்றன 1
থে 1
▁নিয়ন্ত্রিত 1
▁ইন্সটিটিউট 1
▁rape 1
േജ 1
▁অব্যাহত 1
▁வியட்நாம 1
వరంలో 1
▁പുതുക്കുളം 1
▁مذاکرات 1
▁قوانین 1
▁சிக்கலான 1
▁நெல் 1
▁மன்ற 1
১১ 1
▁फूंक 1
▁বুঝতে 1
▁freedom 1
▁കുറിപ്പ 1
bu 1
▁سات 1
ുന്നു 1
পাদ 1
▁पता 1
▁ശ്രമിക്ക 1
▁Control 1
▁(; 1
রি 1
-20 1
▁വയ്ക്ക 1
▁مصروف 1
கொண்ட 1
കേരള 1
മാറ്റ 1
▁ശ 1
க்கலை 1
▁खर्च 1
▁सुन 1
za 1
▁बारे 1
▁फांसी 1
▁शेयर 1
▁இவரின் 1
▁cadre 1
▁हालात 1
▁లాటిన్ 1
বর্তমান 1
▁குறி 1
▁principal 1
▁విశ్వవిద్యాలయ 1
▁পারমাণবিক 1
▁సేవా 1
▁അനുഭവ 1
▁ensure 1
▁নেপাল 1
▁ادارہ 1
▁डेस्क 1
ায় 1
اع 1
▁अफसरों 1
▁মাঝারি 1
▁রং 1
▁ക്വ 1
▁এইচ 1
ర్ణ 1
ओं 1
கிரி 1
ٹھ 1
▁جمع 1
▁ഒക് 1
▁చెందిన 1
▁بتاؤ 1
▁بتائے 1
▁চলচ্চিত্র 1
▁টাউন 1
▁ترجمان 1
▁منا 1
ப்பெயர் 1
പ്രശ്ന 1
نگی 1
▁লিখে 1
▁రావ 1
▁گن 1
▁فرمائے 1
▁La 1
চ্ছিল 1
▁نیل 1
▁పర్యటన 1
▁पश्चिम 1
▁this 1
▁കർക്കടക 1
▁lie 1
▁stood 1
▁वाणिज्य 1
▁ग्रामीणों 1
ச்சா 1
▁চরিত্র 1
▁যন্ত্র 1
▁times 1
▁say 1
ായിരുന്ന 1
▁Gopal 1
▁पर्यटक 1
▁Bar 1
కాలంలో 1
ள 1
▁Baba 1
▁వ్యవహర 1
▁কিছু 1
▁ساتھ 1
▁നിലവാര 1
▁இத்தல 1
▁বাহিনী 1
▁வல 1
স্থান 1
▁twice 1
▁انہوں 1
نہیں 1
ുമെന്നു 1
▁பில்லியன் 1
▁খাদ্য 1
▁reached 1
फ्ल 1
স্তা 1
▁ذمہ 1
▁நிர்ணய 1
লেন 1
कुल 1
▁खां 1
▁condemn 1
▁یعنی 1
ഞ്ഞു 1
▁தரவு 1
▁అతిపెద్ద 1
▁फरार 1
▁ശരാശരി 1
▁दिये 1
▁১৯৬৭ 1
మ్ 1
▁വയറ 1
▁పే 1
లోకి 1
ങ്ങളുടെ 1
▁അതായത് 1
▁పోలింగ్ 1
▁important 1
▁കിഴക്ക 1
▁அரசியலமைப்ப 1
▁വിലയിരുത്ത 1
▁Jail 1
▁এদের 1
▁غازی 1
▁petition 1
▁வம்ச 1
38 1
▁information 1
▁suspicion 1
▁கிடைத்த 1
▁جد 1
পার 1
▁para 1
▁گھڑی 1
జర్ 1
▁Mukhtar 1
ंदा 1
▁ആയിര 1
కెట్ 1
▁ফেলে 1
ദ്ധ 1
▁independence 1
ডি 1
ফো 1
ட்டு 1
▁మొదటి 1
▁സംബന്ധിച്ച 1
▁ন 1
ర్ధ 1
▁front 1
▁ब्लाक 1
▁خیبر 1
৯৩ 1
▁చూడండి 1
▁dowry 1
ுயிர் 1
▁കമ്മിഷന 1
▁ప్రకటన 1
▁Hazare 1
▁منفی 1
പാദിപ്പിക്ക 1
▁తెర 1
▁నర్స 1
▁അയച്ചത് 1
▁انکل 1
▁வென்ற 1
▁மிக 1
নির্মাণ 1
▁தத்துவ 1
▁ചിത്രത്തിന്റെ 1
▁ഉദാഹരണ 1
▁کھلاڑیوں 1
▁সম্ভব 1
స్తే 1
▁Ga 1
▁ஒன்பது 1
प 1
নে 1
ొ 1
▁அனுபவ 1
▁சோவியத் 1
▁আবদ্ধ 1
▁سیاست 1
▁responsible 1
▁نمک 1
భాగ 1
சன 1
▁closed 1
▁প্রকল্প 1
നിന്ന 1
▁انکار 1
▁सीसीटीवी 1
▁সচিব 1
శాల 1
ப்படுகிறார் 1
▁చివర 1
▁అధ్యయనం 1
▁ex 1
▁assistance 1
ান্তর 1
▁ওয়েবসাইট 1
بھ 1
▁چونکہ 1
▁பாடல 1
▁అవార్డు 1
▁خورشید 1
▁నేల 1
▁रविवार 1
▁সপ্তাহ 1
ാമെന്ന 1
▁లభిస్తుంది 1
▁باب 1
▁ప్రపంచంలో 1
கண்ட 1
tra 1
▁റാ 1
▁مال 1
▁മ 1
▁انگلینڈ 1
పరంగా 1
ുമ്പോൾ 1
▁स्थापित 1
▁talked 1
ঝ 1
ल्ड 1
யூ 1
▁വെള്ളിയാഴ്ച 1
ക്ര 1
▁മർദ 1
ുടെ 1
▁തിരിച്ചടി 1
▁خیز 1
▁ఉపయోగించ 1
రా 1
ாள 1
▁negotiation 1
▁একসময় 1
▁প্রদর্শিত 1
▁ഹർജി 1
▁நீர் 1
▁प्रभु 1
▁ഉൾ 1
▁அலக 1
ন্যা 1
பீ 1
▁కీలక 1
వారి 1
ந்தது 1
▁മത്സര 1
▁జీవ 1
▁قبض 1
▁دم 1
দৈর্ঘ 1
▁Vadra 1
▁ചോദ്യം 1
▁عثمان 1
▁ஊராட்சி 1
▁राजनाथ 1
ീവ് 1
▁காரண 1
ുമെന്ന് 1
▁स्पेक्ट्रम 1
▁১৯৮৮ 1
▁سبھی 1
▁இயற்றிய 1
▁برس 1
▁رائٹ 1
▁மாற்ற 1
▁انتظامیہ 1
▁రోజుకు 1
▁చు 1
▁حکیم 1
▁finger 1
▁ഇടയാക്ക 1
▁block 1
▁రేడియో 1
▁హాల్ 1
▁वापस 1
▁अध्यक्ष 1
మొ 1
జ్జ 1
▁প্রিন্স 1
▁बचाने 1
▁దూ 1
▁வேக 1
▁ബാധിച്ച 1
▁একত্রে 1
▁something 1
▁నేపథ్య 1
▁Rai 1
▁چاہئیے 1
▁బరువు 1
▁சிறப்பான 1
தமிழ 1
▁फंड 1
▁পেশাদার 1
▁মজুমদার 1
▁ഏതെങ്കിലു 1
▁পরিচিত 1
▁عالی 1
▁ఎత్తైన 1
▁യാതൊരു 1
▁مٹھائی 1
▁[2] 1
வில் 1
▁বাড়ি 1
▁কয়েক 1
▁ചുരുക്ക 1
▁उत्तार 1
یات 1
▁ہوجائے 1
▁reservation 1
▁ایمان 1
▁لوں 1
▁இந்து 1
▁సభ్య 1
ائی 1
▁violation 1
▁കാണ 1
ப்படை 1
▁രോഗ 1
▁আর্ট 1
گن 1
ങ്ങള 1
மலை 1
▁شک 1
▁স্ট্যা 1
▁২০০৩ 1
▁link 1
▁पेट 1
▁عیسائی 1
ঔ 1
▁కల 1
▁অতি 1
▁जिम्मेदार 1
▁খুঁজে 1
▁ఇలా 1
▁ആഭ്യന്തര 1
ন্স 1
▁పరికరాల 1
▁নাগাদ 1
তী 1
▁আচরণ 1
جے 1
മായിരുന്നു 1
▁ലൊക്കേഷന 1
▁digital 1
▁ক্যাথলিক 1
তাত্ত্বিক 1
▁विपक्ष 1
▁रु 1
ुक 1
▁കേ 1
▁প্রতিযোগিতায় 1
▁ambassador 1
▁कही 1
▁అణువు 1
▁অধ্যক্ষ 1
▁చిత్రీకరించ 1
▁മന്ത്രിസഭ 1
▁సమాధి 1
ുന്നതിനായി 1
▁गैस 1
▁बर्फबारी 1
▁এন 1
▁Foundation 1
▁പേടി 1
▁کلام 1
▁சொந்த 1
േണ്ട 1
▁بان 1
▁hidden 1
▁अवैध 1
▁బావులు 1
ंड 1
▁పేరు 1
▁परियोजना 1
▁വെല്ലുവിളി 1
▁ദീർഘ 1
▁مواقع 1
▁residence 1
లెక్ 1
ురాలు 1
দৃশ্য 1
▁ఎక్స్ 1
തെന്നാണ് 1
▁सुनील 1
▁चार्जशीट 1
▁মার্টিন 1
▁ചന്ദ്ര 1
▁believed 1
▁प्रशासन 1
▁defense 1
ുടെയും 1
▁पसंद 1
▁யானை 1
▁സൗജന്യ 1
▁maintain 1
▁LPG 1
▁झ 1
▁Poonch 1
▁اکیلا 1
▁مقابلوں 1
▁नाराज 1
ண்ட 1
▁बि 1
▁الف 1
▁demanding 1
▁తెగల 1
▁সেনাবাহিনী 1
▁فقہ 1
ship 1
▁منعقد 1
▁: 1
▁పో 1
▁received 1
റു 1
▁ضرورت 1
টো 1
▁ജി 1
శెట్టి 1
ప్రెస్ 1
▁இன 1
▁nephew 1
▁applicable 1
বু 1
▁ব্যয় 1
▁কাশ্মীর 1
▁তিন 1
▁American 1
▁ഹിന്ദി 1
പ്പള്ളി 1
▁प्रधानमंत्री 1
▁మరియు 1
▁CEO 1
▁निर्दलीय 1
▁ഭാഷ 1
స్త 1
▁क्षेत्र 1
▁पश्चिमी 1
07 1
யார் 1
▁അതിന 1
▁यूपी 1
▁राजस्थान 1
▁चाहे 1
9 1
▁സഹായത്തോടെ 1
▁لیں 1
▁مشرف 1
▁ہاؤس 1
పోయిన 1
▁بقول 1
ென்று 1
▁देकर 1
ष्ठ 1
▁அமைவ 1
▁থানার 1
▁चाहती 1
▁سہارا 1
এম 1
▁പകുതി 1
లియ 1
▁மா 1
▁expenditure 1
Br 1
▁പോര 1
▁মুক্তি 1
▁tunnel 1
ఎత్తు 1
▁నౌక 1
▁திருவ 1
சாமி 1
▁ബന്ധപ്പെട്ട 1
▁ஏற்றுக்கொள்ள 1
انے 1
গু 1
▁مسلک 1
▁ఐదుగురు 1
ூட்ட 1
▁married 1
▁lack 1
▁deposited 1
▁खिलाफ 1
▁युद्ध 1
▁లో 1
▁Office 1
ப்பதற்கு 1
▁পক্ষ 1
▁تنظیم 1
▁దొ 1
pon 1
▁Asaram 1
▁പുരസ്കാര 1
▁پاکستان 1
▁తెల్ల 1
▁ہنس 1
▁days 1
▁रत्न 1
▁رسالت 1
▁بخش 1
▁ബന്ധുക്കൾ 1
▁यातायात 1
▁সম্পদ 1
▁Pulwama 1
▁సంభవించ 1
ড 1
▁പറഞ്ഞ 1
▁വാഹനങ്ങൾ 1
▁لطف 1
▁எழுத்தாளர் 1
ധ്യ 1
▁வெற்றி 1
▁Organization 1
▁flat 1
১ 1
▁కేవలం 1
டை 1
▁ఆరుగురు 1
▁மிக்க 1
രു 1
▁عین 1
UTC 1
▁सफेद 1
▁خرم 1
▁pump 1
ളി 1
▁lo 1
▁করেছিলেন 1
▁نکلے 1
▁হিসেবে 1
▁অধ্যয়ন 1
▁mass 1
▁పొద్దుతిరుగుడు 1
▁بارش 1
▁اسکور 1
▁UPA 1
ল্ 1
▁लि 1
▁فروغ 1
▁వీ 1
▁సాధన 1
▁scholar 1
ിക്കാനുള്ള 1
ുകളെ 1
bit 1
▁شادی 1
ra 1
▁শহরে 1
▁தென்னிந்திய 1
▁بیٹی 1
▁hit 1
▁علوم 1
▁پیپلز 1
ంటారు 1
▁விதி 1
▁മുടി 1
▁പുറത്തു 1
▁নদীর 1
ங்களைக் 1
▁जमीन 1
▁India 1
▁ভাগ 1
▁अभी 1
▁শুমারি 1
▁సరఫరాల 1
▁വളർത്ത 1
▁Upadhyay 1
▁എതിർ 1
▁കരുതുന്ന 1
▁ہے 1
▁ناعمہ 1
▁provision 1
▁வார 1
▁नारे 1
ശുദ്ധ 1
▁Assistant 1
से 1
▁ردعمل 1
▁প্রতিযোগী 1
ٹے 1
▁پوزیشن 1
▁خلوص 1
▁துணை 1
▁kill 1
ری 1
▁വായിച്ച 1
▁प्यार 1
▁घिर 1
গণ 1
ther 1
കരണ 1
▁स्वास्थ्य 1
▁music 1
▁ট 1
▁ഓവറ 1
▁नेताओं 1
▁मिशन 1
▁त्रि 1
وٹ 1
▁भोपाल 1
শাস্ত্র 1
▁టి 1
▁ഉട 1
తుల 1
▁مومن 1
▁একমাত্র 1
]] 1
light 1
▁சேர்ந்தது 1
▁தடுக்க 1
▁لال 1
▁ڈھیر 1
▁نصیحت 1
▁Manjhi 1
▁విశాఖపట్నంలోను 1
▁every 1
▁महात्मा 1
way 1
▁mechanism 1
వాహక 1
▁కాశ్మీర 1
▁आधार 1
య్ 1
झ 1
▁সংগ্রহ 1
கிருஷ்ண 1
▁सह 1
▁ذاتی 1
▁کافی 1
▁Saturday 1
ان 1
▁উদ্দেশ্যে 1
▁സ്റ്റാ 1
▁अन्नाद्रमुक 1
▁Australia 1
▁এগিয়ে 1
▁ঘোষণা 1
▁दरवाजा 1
▁سلطان 1
▁टैक्स 1
ষ 1
cy 1
▁വേ 1
▁سرکار 1
▁جر 1
▁గణ 1
▁செயற் 1
ించే 1
▁போன்றவை 1
▁இறங்க 1
▁ஐரோப்பா 1
▁இருவரும் 1
▁عباس 1
▁اشتہار 1
▁দৌড় 1
▁अनुभव 1
▁फंस 1
ില്ലെന്നു 1
▁total 1
▁పూర్వ 1
▁వ్యాధుల 1
▁কাঠ 1
যোগ্য 1
ാള 1
▁നല് 1
री 1
▁দশ 1
ధా 1
▁बांट 1
▁prove 1
▁ഒന്നാം 1
▁सुधार 1
▁നില് 1
राज्य 1
▁slip 1
▁ক্ষমতা 1
▁প্রাপ্ত 1
ح 1
▁వలస 1
▁soldiers 1
▁Iqbal 1
▁डर 1
▁மரபணு 1
▁मुकाबला 1
▁opinion 1
▁অনুরূপ 1
▁தகுதி 1
▁అమలు 1
▁name 1
▁अकाउंट 1
▁ورک 1
▁علاقہ 1
▁! 1
▁مظاہرین 1
▁மரபு 1
▁উন্নয়ন 1
▁خوف 1
▁direction 1
▁Air 1
▁different 1
▁mark 1
▁സാധിച്ച 1
▁Sa 1
ড়ানো 1
మడుగు 1
▁యొక్క 1
படுத்த 1
▁identity 1
झा 1
তায় 1
▁ہمارے 1
▁নিম্নলিখিত 1
িতে 1
▁സത്യ 1
بان 1
ரிய 1
▁অনুসারী 1
▁ব 1
ে 1
▁आरक्षण 1
ழு 1
▁அடிக்கடி 1
▁توانائی 1
▁ஆனாலும் 1
▁பிரா 1
CH 1
▁రూపాయల 1
▁മുതിർന്ന 1
▁on 1
▁target 1
പെ 1
नायक 1
▁launch 1
▁बरामद 1
▁സാധ്യമ 1
▁Chand 1
▁കി 1
▁കോഴിക്കോട് 1
రియ 1
▁தொல்லியல் 1
▁خوش 1
▁بھوک 1
▁గుర్తు 1
▁కెనడా 1
বল 1
▁కార్య 1
▁काफी 1
৩৩ 1
▁সূর্য 1
▁ஒன்றை 1
▁ఫ 1
▁পারিবারিক 1
ண 1
ার্ধ 1
▁ट्रस्ट 1
“ 1
▁సె 1
ిన 1
▁crores 1
▁हरीश 1
▁دان 1
مت 1
▁முதல்தர 1
▁സ്വന്തമാക്കിയ 1
ருக்கு 1
▁പരിശോധിക്ക 1
▁অন্তর 1
▁তাঁকে 1
▁সিরিয়া 1
▁Because 1
▁गौतम 1
ভাব 1
গ্রী 1
▁انہی 1
ত্তা 1
കുഞ്ഞാലിക്കുട്ടി 1
▁സ്വാതന്ത്ര്യ 1
▁কর্ 1
▁গোয়েন্দা 1
▁نظامی 1
▁நெடுஞ்சாலை 1
లొ 1
রাস 1
▁छवि 1
വു 1
▁प्लांट 1
▁السلام 1
▁محبوب 1
▁ഒഴിവ 1
தில் 1
▁کعبہ 1
లలో 1
ശന 1
▁सड़क 1
▁राजधानी 1
▁ముద్రించ 1
▁টেকনোলজি 1
▁ত্রি 1
ंव 1
▁رونق 1
▁அரண்மனை 1
▁గీత 1
্যু 1
శ్లేష 1
స్తారు 1
▁ஏரி 1
▁گرمی 1
▁Trump 1
▁അട 1
▁چہرے 1
▁والے 1
▁राकांपा 1
▁∙ 1
▁বিংশ 1
ڈ 1
▁لائن 1
ثر 1
▁growing 1
▁ബാങ്ക് 1
▁വാക്കുകൾ 1
ச்ச 1
▁پروگرام 1
▁ദിവസവും 1
مار 1
ఎస్ 1
Raj 1
▁زہر 1
▁پلٹ 1
▁मिला 1
▁مراد 1
▁দেশের 1
▁গা 1
▁ভিডিও 1
▁தெரிவிக்க 1
கன் 1
▁லி 1
▁बंगाल 1
te 1
▁ذہنی 1
मु 1
▁படி 1
▁కార్యక్రమాలు 1
▁एम्स 1
▁प्रारंभ 1
షి 1
ശാ 1
िया 1
▁رکھ 1
دل 1
▁இந்தியா 1
▁उसमें 1
▁அனுமதி 1
▁वाजपेयी 1
▁സാഹചര്യത്തില 1
▁सभी 1
▁മി 1
▁దేశాల 1
▁Be 1
ors 1
▁मंजूर 1
▁তারপর 1
▁जयंती 1
സു 1
ക്കല് 1
end 1
act 1
▁مقرر 1
ాలు 1
▁access 1
▁purchase 1
▁পাঁচ 1
▁بدنام 1
യുള്ള 1
▁divorce 1
▁அந் 1
▁سردار 1
▁পরিবারের 1
কল্প 1
▁விட 1
▁പ്രേക്ഷക 1
▁ढांचा 1
▁प्रावधान 1
బా 1
▁ابھی 1
యోగ 1
▁book 1
టరీ 1
▁தெளி 1
▁प्रक्रिया 1
▁বর্ণনা 1
श्र 1
▁നിന്ന് 1
ുവിന്റെ 1
பந்தாட்ட 1
▁పరి 1
▁Delhi 1
▁رن 1
▁اعجاز 1
cl 1
ె 1
▁pro 1
▁अफ 1
▁छेड़छाड़ 1
▁ডানার 1
▁স্বাগতিক 1
زہ 1
▁খুব 1
▁அணுக்கரு 1
▁ঝা 1
বন্ধ 1
▁ہوتا 1
▁سنا 1
▁گ 1
▁پیش 1
▁உண்டாக்க 1
▁Suresh 1
▁لسٹ 1
▁सालों 1
▁خواہ 1
▁प्रभारी 1
▁संग्रह 1
▁घरेलू 1
কাউন্ট 1
▁गुरु 1
▁মহাদেশ 1
ট্র 1
▁न्यायाधीश 1
లింగ 1
▁பொருள 1
▁உபசன்னதி 1
ുന്നതിന 1
▁தஞ்சை 1
▁Assembly 1
▁வட்டாரத்தில் 1
▁വീട്ടുകാര 1
▁కూడా 1
▁ఖనిజ 1
ునిగా 1
▁চার্লস 1
ாளர்கள் 1
▁பரிந்துரை 1
▁ఉండి 1
▁دہشت 1
▁গুণ 1
డ్డ 1
▁मेट्रो 1
▁talks 1
▁شدت 1
▁ഡോക്ടർ 1
▁innocent 1
▁വലിയ 1
▁மேலே 1
மான் 1
▁मांगी 1
▁कुछ 1
పల్లి 1
▁കോ 1
▁Giri 1
▁எடுத்துக் 1
▁सदस्यों 1
fu 1
▁ఆలయం 1
த்தல் 1
▁برا 1
▁پارٹی 1
▁അന്ത 1
▁స్ 1
▁Dur 1
▁कब्जे 1
▁किताब 1
▁noise 1
▁जरूरत 1
▁30 1
▁ശുഭ 1
▁നൽകുന്ന 1
▁فلم 1
▁ஆக்சிசனேற்ற 1
▁companies 1
▁سائیکل 1
▁संस्थापक 1
▁প্রকাশ 1
फी 1
▁জেনারেল 1
▁अतिरिक्त 1
▁পার্টি 1
▁regular 1
റിയ 1
▁doctor 1
த்திற்கும் 1
▁سرخ 1
▁وسعت 1
▁നടത്തുന്ന 1
▁മാർഗ 1
▁احسن 1
గొ 1
ড়িয়ে 1
08 1
రేషన్ 1
▁সংস্করণ 1
▁से 1
▁എ 1
1 1
▁में 1
▁ഒരു 1
▁affect 1
▁அடக்க 1
ലീ 1
▁پلیز 1
▁عمل 1
▁రాసిన 1
▁గుర్తిస్తూ 1
▁బే 1
▁గ్రామీణ 1
▁వహించ 1
▁believe 1
▁قرض 1
▁বলা 1
▁പ്രവാസി 1
▁کررہا 1
தம் 1
க்கல் 1
▁ചെയ്യ 1
▁வித 1
▁liquor 1
▁வெப்பநிலை 1
▁گھس 1
কালে 1
ంట్ 1
ல்ல 1
▁ഫ്ര 1
▁செய்தார் 1
▁Chandra 1
वीं 1
▁पटियाला 1
▁ఫ్రాం 1
▁فضول 1
▁विकास 1
▁விளை 1
▁نیم 1
ീഷ് 1
▁കൂടാതെ 1
நிலை 1
▁২৮ 1
▁ممالک 1
▁لایا 1
▁পতিত 1
▁National 1
▁خالی 1
ఫే 1
മാന 1
▁വരെയുള്ള 1
one 1
▁பயின்ற 1
▁طریقے 1
ाइड 1
േട്ടന 1
▁ஆதி 1
▁उसे 1
നിന്നുള്ള 1
▁சட்ட 1
ষ্ 1
▁নিদর্শন 1
▁عرفان 1
▁మొదలగు 1
▁മറികടക്ക 1
▁Aadhaar 1
▁reported 1
▁کچ 1
▁فہیم 1
▁ബാഹുബലി 1
▁میزبان 1
▁करेंगी 1
▁last 1
▁महीने 1
▁سمیت 1
▁తరచూ 1
▁शिक्षा 1
প্রথম 1
▁জয়ী 1
▁We 1
▁دفتر 1
▁துறையில் 1
ക്കാ 1
▁വേഗ 1
▁شاعر 1
▁முடிந்த 1
▁Pandit 1
▁వల్ల 1
▁ఆగస్టు 1
▁కలిగిన 1
▁طب 1
▁பாரசீக 1
▁அதனால் 1
▁విజయనగరం 1
க்களை 1
▁associated 1
▁রাখা 1
▁അറിയിച്ച 1
▁గోదావరి 1
▁focus 1
▁completed 1
▁घो 1
▁Taking 1
▁গীত 1
▁ఉండే 1
▁ব্যর্থ 1
രാഷ്ട്ര 1
▁কমান্ড 1
▁సినీ 1
ক্ট 1
ച്ചു 1
▁നിന്നും 1
ారంలో 1
▁భారీ 1
▁तेज 1
▁mo 1
▁করছেন 1
▁ആരാധകര 1
▁گاڑی 1
▁மூன்றாம் 1
നില് 1
▁ডিগ্রী 1
▁ফাইনাল 1
दूसरे 1
▁প্রার্থী 1
▁good 1
मू 1
▁മേഖല 1
▁ప్రాంగణ 1
▁13 1
▁ఉచిత 1
= 1
▁അല്ലെങ്കില 1
▁सम् 1
ുകള 1
▁நிலப்பரப்ப 1
▁hear 1
▁শক্তিশালী 1
ശ് 1
கின்றன 1
▁حفاظت 1
▁কেন 1
മുണ്ടായ 1
▁প্যা 1
▁زیادتی 1
res 1
▁ڈ 1
▁करीब 1
▁কম 1
▁wrong 1
▁তীর্থ 1
▁income 1
▁پہنچنے 1
শৃঙ্খল 1
▁మాట 1
एन 1
▁आरोप 1
▁నాగ 1
▁ప్రమాద 1
▁supply 1
▁शब्द 1
▁آفس 1
▁সম্ভাব্য 1
▁राजद 1
▁سین 1
ിലായിരുന്നു 1
▁لنک 1
▁شہادت 1
களுக்கிடையே 1
▁उससे 1
▁واہ 1
స్ట్ 1
▁சிறை 1
▁main 1
▁লবণ 1
▁আদম 1
Find 1
▁পত্রিকা 1
▁నూజివీడు 1
▁পরিকল্পনা 1
▁comes 1
▁जैन 1
▁لی 1
▁مست 1
বাদ 1
گر 1
▁విభాగ 1
▁অধিকারী 1
మై 1
▁பெரிய 1
കളിലെ 1
▁পার্বত্য 1
▁enough 1
▁அடங்கும் 1
▁40 1
वास 1
▁ചീഫ് 1
▁భూమి 1
▁তু 1
గె 1
▁took 1
▁உரை 1
▁বগুড়া 1
▁मार 1
▁ആഗ്രഹ 1
▁کون 1
▁സംഭവ 1
▁নামেও 1
▁ஆகியவற்றில் 1
▁డ 1
ात्मक 1
▁நிறுவப்பட்டது 1
▁விட்ட 1
കഴിഞ്ഞ 1
▁స్వాధీనం 1
؟ 1
▁डाय 1
▁निभा 1
৩৬ 1
en 1
▁കുടുംബാംഗങ്ങള 1
▁اثر 1
▁ఇక్కడ 1
▁Sonia 1
▁ആലപ്പുഴ 1
ign 1
▁रूप 1
▁ইসরায়েল 1
▁expand 1
▁உரு 1
শ 1
பெற்ற 1
▁നാ 1
▁ஏற்பட 1
▁مواد 1
▁panel 1
▁उनको 1
▁इं 1
ണമെന്ന 1
ഓ 1
▁actress 1
▁చెత్తను 1
▁బాలబడి 1
्रेट 1
▁मीडिया 1
ండ్ర 1
▁Negi 1
▁பதிவு 1
▁মাধ্যমিক 1
▁விலை 1
▁ఐరోపా 1
ഭേദ 1
▁چٹ 1
▁স্তম্ভ 1
▁(19 1
ழி 1
▁Jha 1
▁وزن 1
▁പുരുഷന്മാര 1
▁వస్త్ర 1
▁شعبے 1
▁టెలిగ్రాఫ్ 1
वान 1
▁ഫോ 1
66 1
▁झारखंड 1
ச்சொல் 1
▁ऐ 1
▁దుకాణం 1
▁revolution 1
▁छात्रों 1
▁refused 1
▁চীনা 1
റില് 1
▁بدقسمتی 1
▁సంకేత 1
▁فرخ 1
നാ 1
▁చైనా 1
फ्र 1
▁ডাকা 1
▁കച്ചവട 1
چار 1
▁ധരിച്ച 1
ous 1
▁किस 1
▁കൂടുതല 1
▁வருகின்றனர் 1
جن 1
▁മണി 1
భు 1
▁स्थान 1
▁முன்னர் 1
▁मौजूदगी 1
فہ 1
স্বরূপ 1
▁தெற்கே 1
▁शराब 1
ট্রা 1
▁دولت 1
dwaj 1
ാൻ 1
্রু 1
▁विस्तृत 1
త్య 1
▁Bha 1
▁یقینا 1
▁taught 1
▁संस्थान 1
▁حروف 1
▁جتنی 1
▁مرحلے 1
▁பகுதியில் 1
▁trial 1
▁ട 1
यू 1
▁മുഴുവൻ 1
▁വിഷമ 1
▁recommendation 1
▁اعلان 1
▁സുരക്ഷിത 1
▁घटनाओं 1
▁অবস্থায় 1
ீடு 1
▁grand 1
▁ربط 1
தேவ 1
▁اماں 1
مید 1
▁Jat 1
▁مشورے 1
▁शि 1
▁কারণ 1
▁இரு 1
▁ഇല്ലാത്ത 1
▁കാര്യങ്ങൾ 1
▁சான்று 1
▁वास्तव 1
விட 1
▁चिट्ठी 1
వంత 1
▁ചോദിക്ക 1
▁consume 1
▁அதிகாரி 1
▁தொழிலாளர் 1
▁key 1
▁'' 1
▁नियंत्रण 1
▁सीएम 1
▁فرانس 1
புற 1
▁তাঁর 1
▁مثلا 1
▁শে 1
▁اوباما 1
▁கன 1
▁زبیر 1
▁மக்கள் 1
▁వేద 1
▁చెప్పవచ్చు 1
▁குறைவாக 1
▁സ്റ്റേഷന 1
வாழ் 1
രാ 1
గ్ 1
▁دفن 1
rap 1
സംഖ്യ 1
िस 1
▁crore 1
▁rain 1
▁పక్ష 1
▁mis 1
ரல் 1
▁সাহায্য 1
▁کتاب 1
▁अक्टूबर 1
▁ہلاک 1
▁पवित्र 1
▁സിപിഎം 1
▁themselves 1
▁خدا 1
▁failure 1
▁بیچ 1
▁jewelery 1
▁ফো 1
जीत 1
▁Shankar 1
▁ഇവര് 1
91 1
▁परेशानी 1
▁ஒன்றாக 1
aspx 1
▁God 1
নি 1
▁संवेदनशील 1
▁immediately 1
▁ద్రవ 1
▁Anil 1
▁ডান 1
▁مہربانی 1
▁বেশি 1
▁அளவு 1
▁ചേര് 1
▁police 1
▁عزیز 1
▁കുട്ടികളെ 1
▁മുഖ്യ 1
▁risk 1
▁پیار 1
▁ഒര 1
▁جگہ 1
▁दोबारा 1
ানোর 1
▁یونس 1
▁पीट 1
▁অনেক 1
കി 1
▁ప్రాణ 1
দূর 1
▁Khe 1
▁Bhushan 1
▁viral 1
యన 1
லாந்து 1
ப்பெற 1
യ്ക്ക 1
ிக் 1
▁উপন্যাস 1
▁যাওয়ার 1
▁علیحدہ 1
▁ചലച്ചിത്ര 1
▁இள 1
▁മൂല്യ 1
▁الق 1
▁Center 1
▁അന്വേഷിക്ക 1
hal 1
ന്മാര 1
▁नोटबंदी 1
▁Bajpai 1
▁پھیل 1
▁راولپنڈی 1
▁সত্য 1
▁تمہاری 1
ాపురంలో 1
വരും 1
▁راز 1
▁രണ്ടാമത്തെ 1
▁దృష్టి 1
▁బోధన్ 1
▁This 1
▁భాగంగా 1
▁relation 1
▁সম্প্রচার 1
க்கே 1
▁एजेंसियां 1
▁खुल 1
▁Dehradun 1
▁রবার্ট 1
జాతీయ 1
▁প্রত্ন 1
ேஸ்வரர் 1
▁مشتمل 1
▁റൺസ 1
▁खून 1
▁summoned 1
▁योजनाओं 1
▁సైన్య 1
▁പിതാവ 1
टी 1
▁அலுவலர் 1
▁బయట 1
റ്റര് 1
த்தோ 1
▁অসমীয়া 1
▁തുടങ്ങുന്ന 1
▁Masood 1
▁దోహద 1
▁seized 1
▁لکھے 1
▁सिद्धांत 1
یٹر 1
▁آمیز 1
▁చట్టం 1
মূল 1
▁نقوی 1
▁খে 1
▁शशिकला 1
▁উপায় 1
▁அமைந்துள்ளன 1
ullah 1
▁حد 1
▁character 1
▁అక్టోబరు 1
▁టా 1
▁మహిళల 1
jit 1
▁आपराधिक 1
▁فوج 1
▁অর্থাৎ 1
▁శిశు 1
▁घोटाला 1
യാണെന്ന് 1
▁इंटर 1
▁category 1
▁hospital 1
▁வித்தியாச 1
▁പെട്രോള 1
▁آرہے 1
▁pollution 1
▁سیکشن 1
▁بچ 1
▁सामाजिक 1
▁ശോഭ 1
▁ruling 1
▁പ്രശ് 1
▁கிழக்கு 1
gh 1
▁، 1
పు 1
മാരായ 1
▁अध्यक्षता 1
▁शुक्रवार 1
സ 1
▁कौशल 1
৯৯ 1
▁தெரிவு 1
▁into 1
▁৪০ 1
▁(1 1
▁ম্যাচ 1
যুগ 1
শা 1
▁മുതിര് 1
▁انکو 1
▁ద్వీప 1
െന്നാണ് 1
▁سمجھے 1
ానంద 1
▁पासपोर्ट 1
ണമെന്നും 1
▁Ojha 1
▁কি 1
▁என்ப 1
▁ফরাসি 1
▁غصہ 1
சூழல 1
▁اب 1
وم 1
▁Madhu 1
▁مقدمہ 1
▁صفائی 1
▁atmosphere 1
▁ঋণ 1
▁தொடர்வண்டி 1
▁सीधे 1
وف 1
▁سورج 1
▁ஏனைய 1
▁there 1
▁माल 1
▁پار 1
▁scope 1
▁ওয়েস্ট 1
গুলো 1
ുമ്പോള് 1
▁শুধুমাত্র 1
▁ভিন্ন 1
▁temperature 1
വ് 1
▁registration 1
▁انیس 1
▁photo 1
▁निश्चित 1
▁রংপুর 1
▁کارکن 1
বদ্ধ 1
▁ভাষার 1
▁জায়গা 1
▁వ్రాసిన 1
তু 1
▁సైన్స్ 1
▁سیکورٹی 1
▁తయారీ 1
ലി 1
▁వివిధ 1
ుటకు 1
▁ട്ര 1
ாவின் 1
ரண் 1
▁তিব্বত 1
ർച്ച 1
▁اوورز 1
▁use 1
▁কাটা 1
▁weak 1
▁Doctor 1
▁பலரும் 1
ொ 1
▁উত্ত 1
▁జిల్లాలో 1
ائن 1
▁تھوڑا 1
▁கால் 1
▁इतनी 1
ుచున్న 1
एच 1
▁பயன்பாட்ட 1
▁অলিম্পিক 1
▁उसका 1
புளோரைட 1
▁alias 1
▁ভট্টাচার্য 1
▁respective 1
▁भीषण 1
▁آپکو 1
ിക്കഴിഞ്ഞു 1
▁মহিলা 1
▁مفت 1
▁దేవాలయం 1
▁ویل 1
▁സീ 1
ब 1
▁बड़े 1
க்கூட 1
▁शिकायत 1
▁കുള 1
▁resign 1
▁কমিউনিস্ট 1
▁സൗ 1
പ്പെടുത്തുന്ന 1
▁کافر 1
▁സുപ്രീംകോടതി 1
▁മൃതദേഹ 1
▁فرمائش 1
▁முறையாக 1
एंगे 1
योग 1
▁অভিনীত 1
▁নারীদের 1
▁দিয়েছেন 1
▁കൊളസ്ട്രോൾ 1
▁Roy 1
▁فرض 1
▁सलाह 1
▁ప్రస్తుత 1
ண் 1
▁device 1
▁اندھیر 1
ப்படுகிறது 1
ధార 1
▁انگلستان 1
▁పట్ట 1
▁రై 1
ேந்திர 1
▁گور 1
▁பச்சை 1
▁fund 1
▁ట్రాక్టర్లు 1
▁गठन 1
ن 1
▁مثبت 1
ి 1
য়ার 1
ോടുള്ള 1
▁வங்காள 1
▁भंडार 1
▁دال 1
▁arrival 1
▁सेवा 1
▁center 1
▁सिख 1
▁জেলার 1
▁विकसित 1
▁شرح 1
यर 1
▁उस 1
▁প্রতিষ্ঠিত 1
▁జాలగూడు 1
▁succeed 1
▁چیزیں 1
▁प्रसाद 1
▁मसूद 1
▁വായ്പ 1
▁جعفر 1
▁সীমাবদ্ধ 1
▁ஆகியவற்றின் 1
ٹھا 1
ക്കുവേണ്ടി 1
▁ஏப்ரல் 1
▁நீண்ட 1
11 1
▁പരുക്കേറ്റ 1
▁రి 1
▁turn 1
▁১৯৮৪ 1
▁de 1
▁الله 1
▁పోషించ 1
▁पोस्टमार्टम 1
▁دیکھئے 1
▁పురాతన 1
্ম 1
▁ഈ 1
ந்த 1
▁বিনিময় 1
▁China 1
▁கருத 1
ஃபி 1
▁chairman 1
ినప్పుడు 1
கின்ற 1
▁Sharif 1
▁چار 1
▁கல்லூரியில் 1
▁உறுப்பு 1
▁அமைப்பு 1
উদ্দিন 1
▁اٹھارہ 1
▁ఇబ్రహీంపట్నం 1
▁جارہا 1
▁తెనాలి 1
▁அன்று 1
দণ্ড 1
▁carrie 1
▁resort 1
▁مرحوم 1
▁डाल 1
ন্ট 1
▁ঘা 1
▁ட 1
▁विद्या 1
▁موڈ 1
▁ہاہاہا 1
▁கரு 1
▁اگلے 1
▁രമേശ് 1
▁रामदेव 1
▁जिलाधिकारी 1
شا 1
▁لوڈ 1
▁సంపూర్ణ 1
▁sanction 1
▁जेटली 1
▁চালু 1
▁കീഴടങ്ങ 1
▁தொகை 1
▁Transport 1
▁مہم 1
▁जल 1
▁constituted 1
▁सड़कों 1
▁പ്രാദേശിക 1
▁ആന്റണി 1
డ 1
▁Plan 1
▁কোম্পানী 1
. 1
టు 1
van 1
▁female 1
▁దీప 1
▁حضرت 1
▁شپ 1
▁reform 1
▁نصف 1
ణ్య 1
▁كے 1
▁means 1
▁సంఘం 1
▁broadcast 1
▁వె 1
▁فرمایا 1
বাজার 1
▁కులాల 1
গ্রহ 1
▁س 1
▁प्लान 1
▁advice 1
▁oppose 1
ിക്കാൻ 1
▁جاہل 1
▁اخبارات 1
▁ایس 1
▁hope 1
▁அரசின் 1
▁fifth 1
▁सीमित 1
▁সশস্ত্র 1
▁ذکر 1
బ్రా 1
▁পারবে 1
▁ఆగ్నేయ 1
▁बेहद 1
▁ప్రపంచ 1
▁दिनों 1
भाग 1
▁legal 1
▁رکھنا 1
▁unique 1
▁सेवाओं 1
முக 1
▁مشکل 1
▁ലാ 1
اؤ 1
▁محض 1
▁न्यायिक 1
▁বিজয় 1
▁वर्षीय 1
▁ஆத்திரேலிய 1
▁کیے 1
ാട 1
▁ది 1
▁شم 1
▁कुमार 1
▁எதுவும் 1
▁పా 1
ജന 1
▁ఢిల్లీ 1
▁পদার্থ 1
▁planning 1
ിനെക്കുറിച്ച 1
▁पिछड़ 1
▁ചാനല 1
ியது 1
▁திகதி 1
▁उन्हीं 1
▁নিয়োজিত 1
▁رنز 1
▁snow 1
▁రామాయణ 1
▁खेती 1
▁സമ്മതിച്ച 1
▁നേരത്തേ 1
▁శా 1
▁മാംസ 1
▁விளைவு 1
লী 1
▁జాబితా 1
▁bridge 1
தல 1
▁সাগর 1
▁স্বীকৃত 1
▁اقتصادی 1
ర్స్ 1
▁صفحات 1
▁பிரதான 1
ിലേറെ 1
▁అతి 1
▁വെറുതെ 1
শ্রী 1
▁പ്രശ്ന 1
പ്പെടുത്ത 1
▁சுற்றுலா 1
▁ब्योरा 1
▁ബാ 1
▁families 1
വിമര് 1
కు 1
▁పేర్కొన్న 1
▁sa 1
مین 1
▁शरीर 1
▁राजा 1
കരിച്ച 1
▁हाफिज 1
பட 1
▁event 1
▁अपने 1
▁कुशवाहा 1
▁প্রকৃতি 1
▁আলী 1
▁पे 1
▁لگائے 1
▁دھ 1
▁ఉదయ 1
▁போட்டியிட்டு 1
▁ഓരോ 1
▁கை 1
hir 1
▁আত্ম 1
பால 1
▁फा 1
শূন্য 1
▁பார்க்கப்பட்ட 1
▁க 1
▁स्वयंसेवक 1
▁മീറ്റർ 1
▁இரண்டு 1
പെട 1
▁لاش 1
▁حتمی 1
▁kg 1
▁था 1
▁ഡിഎംകെ 1
▁പ്രസിദ്ധ 1
▁بطور 1
▁مور 1
ുകയായിരുന്നു 1
▁ష 1
▁Hardik 1
মাত্র 1
▁സംസ്ഥാന 1
▁kilometers 1
▁Metro 1
▁institutions 1
▁పీడన 1
▁హాజర 1
▁شعبہ 1
▁பெரு 1
▁کریں 1
▁സർ 1
▁জন্মগ্রহণ 1
▁सुलझाने 1
জাতীয় 1
▁സമൂഹ 1
▁Sun 1
▁নিজের 1
▁دینا 1
க்கழக 1
▁laundering 1
▁joint 1
▁چلتی 1
బడుతున్నాయి 1
നില 1
▁గుర్తించ 1
▁बैंक 1
▁व्यवसाय 1
▁టె 1
▁Sinha 1
log 1
▁साझा 1
గలిగే 1
வட்ட 1
▁मिले 1
▁निशाने 1
▁St 1
▁پندرہ 1
▁افغانستان 1
▁bodies 1
▁Jawaharlal 1
▁১৯৩০ 1
யே 1
▁বিশাল 1
▁வந்தது 1
కో 1
▁बहरहाल 1
,000 1
▁تری 1
▁দত্ত 1
▁ডে 1
മൂന്ന 1
अलग 1
▁ماضی 1
▁करनी 1
▁నిమిత్తం 1
ற்க 1
▁मुखर्जी 1
▁സംയുക്ത 1
▁నిర్మాత 1
▁سوچ 1
▁توجہ 1
▁دامن 1
▁சகோதர 1
മാകുന്ന 1
▁ق 1
▁इजरायल 1
▁উপমহাদেশ 1
പ്പോ 1
▁فعل 1
▁witness 1
▁अरुण 1
▁என்பன 1
▁ज्यादा 1
▁கூடுதல் 1
غ 1
▁term 1
▁രൂപയുടെ 1
▁शा 1
▁ہوجائیں 1
▁पार्टियां 1
▁روانہ 1
▁ट 1
സ്ബുക്ക 1
▁সেমি 1
02 1
▁విశేష 1
ाचार्य 1
▁صورت 1
▁പതിപ്പ 1
▁அறிவியல் 1
த்தைக் 1
▁എന്നിവര് 1
▁ر 1
శతాబ్ద 1
യർ 1
▁ANI 1
▁స్వతంత్ర 1
▁ద్వ 1
৮৫ 1
▁मैदान 1
▁আগুন 1
▁కట్ట 1
▁കിടന്ന 1
▁شہباز 1
కల 1
▁supporters 1
▁সুর 1
ുമാണ് 1
▁حالات 1
▁ఉ 1
▁مج 1
▁انکی 1
▁تبدیل 1
▁షెడ్యూల్డ్ 1
▁అంచనా 1
▁एटीएस 1
▁പുരോഗതി 1
▁കഴിക്ക 1
band 1
▁মাদ্রিদ 1
▁battle 1
ডো 1
▁কৃতিত্ব 1
▁నగర్ 1
ஜ் 1
▁आयोग 1
▁تماشا 1
21 1
▁रेल 1
▁हिंदी 1
▁तिथि 1
ent 1
▁শাসনামলে 1
തില് 1
▁புதிதாக 1
▁நைட் 1
▁کشتی 1
▁VK 1
▁എന് 1
മെന്റ 1
▁டிசம்பர் 1
▁இந்நா 1
▁بابا 1
▁کاشفی 1
▁मतदाता 1
▁জি 1
ആര് 1
▁स्थित 1
▁పాత 1
▁চারটি 1
▁திருமண 1
லாக 1
▁کرسکتے 1
▁प्रकार 1
▁पड़ोस 1
▁മനസ 1
▁रख 1
▁হালকা 1
▁ஆண் 1
▁کردار 1
▁പരിചയ 1
▁നോട്ടുകള 1
▁Through 1
▁മലപ്പുറം 1
ப்பது 1
▁मिलते 1
▁District 1
ുകളിൽ 1
▁تن 1
ംബ 1
pai 1
▁తే 1
▁சென்று 1
▁अनुच्छेद 1
ংক 1
▁billion 1
▁ലോക്സഭ 1
▁गर्मी 1
▁ఛా 1
▁படைப்பு 1
▁പൊലീസ് 1
ন্য 1
ূ 1
▁உயர் 1
▁తిరిగి 1
▁servant 1
▁প্রদেশের 1
▁امن 1
▁Police 1
▁প্রান্ত 1
اتی 1
▁October 1
▁اٹھائے 1
▁भु 1
▁भूटान 1
▁requested 1
▁കിട്ടിയ 1
▁लगाया 1
▁కాలం 1
లపాడు 1
एम 1
▁روزانہ 1
হ্ 1
▁شعور 1
▁لائی 1
▁हमारे 1
ियन 1
ിരിക്കുന്നു 1
టివ్ 1
▁న్యూయార్క్ 1
्यू 1
▁নির্ধারণ 1
▁Lieutenant 1
▁Schedule 1
▁سربراہ 1
▁ആയിരുന്നു 1
▁خاص 1
▁ദിവസങ്ങള 1
য়েল 1
▁வன 1
ிகள் 1
Pratap 1
▁صد 1
সান 1
▁thought 1
▁जवान 1
▁camp 1
▁پروفیسر 1
▁ఇద్దరు 1
▁گفتگو 1
▁प्रतिदिन 1
▁opportunity 1
▁مرنے 1
കളെ 1
▁মূলত 1
పురం 1
▁but 1
▁നിർദേശ 1
िव 1
Tiwari 1
▁90 1
న్నాయి 1
▁request 1
ெழுத்து 1
▁عبادت 1
▁হো 1
▁গঠন 1
▁ہندو 1
▁الت 1
▁பிப்ரவரி 1
▁out 1
▁Bas 1
▁बढ़ 1
▁award 1
▁যুদ্ধে 1
▁ভাস্কর্য 1
▁administration 1
▁پشت 1
▁நூலை 1
രുത് 1
▁खाना 1
▁کرنا 1
▁തുടങ്ങ 1
▁വെച്ച 1
േക്കും 1
ीकरण 1
▁देखने 1
▁approval 1
களிலும் 1
▁গো 1
▁নির্মাণ 1
िश 1
▁మంత్ర 1
mail 1
▁മൂ 1
▁صحت 1
▁उद्घाटन 1
▁knowledge 1
ाया 1
▁অবস্থান 1
▁Women 1
▁জাপান 1
২০০ 1
▁പദവി 1
یب 1
▁பணியாற்றி 1
▁قبول 1
▁கோட்டை 1
▁کھو 1
▁3 1
▁मेरी 1
▁অভ 1
▁இழந்த 1
రూ 1
నది 1
▁ట్రాన్స్ 1
▁রাই 1
▁തീരുമാനം 1
రస 1
▁உடைய 1
▁رحمان 1
▁موصول 1
▁داری 1
▁கல்லூரி 1
▁রক্ষা 1
▁صف 1
▁ఇప్పటి 1
▁కోడ్ 1
▁डालने 1
▁শিব 1
▁modern 1
▁సిద్ధిపేట 1
▁নব 1
▁ர 1
लू 1
▁গ্রামীণ 1
▁புற்றுநோய 1
മായി 1
▁and 1
ിക്കുന്നു 1
▁നാട്ടുകാർ 1
▁ملتے 1
▁चाह 1
ിൽനിന്ന് 1
त्व 1
▁year 1
പ്പെടുന്ന 1
▁فائر 1
▁সন্ধান 1
ാളി 1
▁ഏതു 1
▁ڈھ 1
▁பக 1
ாளி 1
▁recorded 1
▁DGP 1
▁संस्था 1
▁రైలు 1
) 1
▁గోల్ 1
▁villages 1
▁లాభ 1
▁Sikkim 1
▁പണി 1
▁টার্মিনাল 1
র্ 1
▁ধরণের 1
▁അല്ലെങ്കിൽ 1
റി 1
▁அனைத்து 1
कु 1
▁ఆమె 1
▁துருக்கி 1
gar 1
▁राजमार्ग 1
▁قص 1
▁خیریت 1
▁সংঘটিত 1
▁সমৃদ্ধ 1
▁സാ 1
▁வகிக்க 1
▁பேராசிரியராக 1
▁വ്യാപക 1
നേ 1
▁بھیج 1
▁مذمت 1
▁فلک 1
▁لیکر 1
▁ग 1
த்தான் 1
▁اچھا 1
▁alone 1
▁ఉంచ 1
ക്കുകയാണ് 1
▁சதவீத 1
▁CM 1
▁பூ 1
കൊ 1
▁மூலக்கூறு 1
▁arrangement 1
▁നിരന്തര 1
সম্মত 1
భద్ర 1
▁airport 1
▁محترم 1
▁पिछली 1
▁நிலையில் 1
▁నివసించ 1
▁பாதை 1
▁ஹி 1
▁construct 1
ാമ 1
ക്ഷമത 1
ఎ 1
▁குறிப்பு 1
▁ask 1
▁दौरा 1
▁৯ 1
▁వసతి 1
▁আসাম 1
▁বাস 1
ః 1
▁வளர்ச்சி 1
▁promise 1
சன் 1
▁जरूरी 1
▁పడ 1
▁విస్తరణ 1
▁মোট 1
▁creat 1
▁সম্ভবত 1
▁രേഖപ്പെടുത്ത 1
عی 1
▁ഇത്തരം 1
▁घोषित 1
▁جاتی 1
బడుతోంది 1
لہ 1
ദിന 1
▁అక్కడ 1
▁New 1
▁फाइल 1
▁நாராயண 1
▁আমাদের 1
రాజ్య 1
▁संग 1
▁بلاگ 1
▁بو 1
▁تاب 1
▁राज्य 1
▁ক্রো 1
াইল 1
▁position 1
▁disclose 1
▁motive 1
▁சேர்ந்த 1
▁old 1
▁വാങ്ങിയ 1
▁گری 1
▁പഴയ 1
▁बाल 1
▁اول 1
▁areas 1
ములను 1
▁पांच 1
▁২০ 1
▁জ্যোতির্ 1
▁arrive 1
പേ 1
▁grenade 1
மா 1
▁alternative 1
▁असर 1
ర్ల 1
▁سیر 1
▁ফর 1
▁രോഗം 1
▁opened 1
▁عشق 1
సో 1
▁Senior 1
▁bribe 1
▁متعلق 1
▁photos 1
ব 1
സ് 1
is 1
▁சேலம் 1
▁روم 1
▁కింది 1
▁خاتمہ 1
▁अपहरण 1
▁घूम 1
▁हरकत 1
▁সড়ক 1
ப்பர் 1
▁بنایا 1
బడ 1
▁पंचायत 1
▁موت 1
* 1
▁ప్రచురణ 1
▁یار 1
േഷ് 1
▁लंबित 1
మాన 1
▁Ramesh 1
▁পো 1
মাস 1
▁പകർത്ത 1
▁১৯৬২ 1
▁जयपुर 1
vi 1
▁মেয়ে 1
▁सम्मान 1
▁വൈകിട്ട് 1
▁عمر 1
▁SIT 1
▁رشید 1
▁బియ్యం 1
▁कैबिनेट 1
▁চন্দ্র 1
▁இதை 1
▁खाने 1
▁దానిని 1
▁holiday 1
▁सां 1
▁اتحاد 1
nk 1
▁আ 1
▁പിടി 1
▁infrastructure 1
▁দু 1
▁सोमवार 1
தர் 1
▁ہمت 1
▁لمبے 1
ைப் 1
ായിരിക്കും 1
▁வழங்கப்பட்டது 1
▁ఇవ్వ 1
▁ഇന്ത്യൻ 1
▁ശ്വാസം 1
▁ہا 1
زم 1
چہ 1
▁गयी 1
▁or 1
మూ 1
▁দম্পতি 1
▁प्राथमिक 1
▁എല്ലാ 1
▁അറിയിച്ചു 1
▁உடன் 1
▁آخرت 1
মুক্ত 1
▁అందిస్తుంది 1
▁प्रतिक्रिया 1
▁only 1
D 1
▁चंद्रशेखर 1
▁ആശുപത്രി 1
▁குடி 1
ിംഗ് 1
▁نشان 1
▁கொண்ட 1
▁நி 1
റ്റു 1
ঙ্গি 1
▁দাবী 1
▁கல்வெட்டு 1
▁slogan 1
▁കിടക്കുന്ന 1
▁மீற்றர் 1
യേറ്റ 1
▁parts 1
▁உரோம 1
▁مہارت 1
▁আর 1
▁സ്വീകരിക്ക 1
▁बारिश 1
▁കഴുത്ത 1
▁کھڑا 1
▁प्रियंका 1
▁Kal 1
▁പാര് 1
▁زمانہ 1
▁सम्मानित 1
▁Do 1
সী 1
▁ദമ്പതികള 1
्हीं 1
▁চ 1
्य 1
▁খলিফা 1
▁बेटियों 1
▁உட்பட்ட 1
ற்கு 1
▁১৯৪০ 1
্যান 1
▁வெளியான 1
▁محب 1
▁स्कोर 1
హా 1
▁ساری 1
▁నిర్వహణ 1
కర్నూల్ 1
▁मोर्चा 1
▁బౌ 1
രഹിത 1
లిక 1
▁بیان 1
▁being 1
▁കാർ 1
▁ഇന്ധന 1
▁مقامات 1
▁శాసనసభ 1
৭৩ 1
▁ইনিংসে 1
▁सौ 1
▁శుభ 1
▁পড়ে 1
▁নেন 1
▁മര 1
▁Ahmedabad 1
▁ക്ഷേത്ര 1
▁قر 1
▁وہی 1
మూర్తి 1
▁তারিখে 1
▁kidnapping 1
▁سماجی 1
സ്ത 1
▁गेट 1
▁दाखिल 1
▁చేసాడు 1
▁औसत 1
▁అధికారిక 1
▁বিলুপ্ত 1
▁موجود 1
▁نعمان 1
ঙ্ঘ 1
ിട്ടില്ല 1
सा 1
▁শহর 1
▁voters 1
▁അത്ര 1
▁قاضی 1
▁ഒബാമ 1
▁വന 1
തന്ത്ര 1
▁منع 1
▁మొదలైనవి 1
ائم 1
గ్రామ 1
▁రోడ్డుతో 1
SP 1
▁knock 1
"), 1
▁வழிபட 1
br 1
த்தினர 1
▁رشتے 1
tar 1
▁সামগ্রিক 1
▁জগন্নাথ 1
▁రే 1
नाथ 1
മ്മ 1
▁উর্দু 1
▁doubt 1
▁पार 1
▁আমলে 1
▁challenging 1
▁২০০১ 1
▁رات 1
▁Mu 1
▁പങ്കെടുക്ക 1
▁సెంట్రల్ 1
▁सेल्सियस 1
ളം 1
▁تخلیق 1
▁இவருடைய 1
▁विवेक 1
▁importance 1
▁करेगा 1
▁ہورہا 1
▁assembly 1
ങ് 1
▁கே 1
ഫ് 1
▁പള്ളി 1
▁وقت 1
▁జంతువుల 1
▁கண்ணாடி 1
▁பண்டைய 1
▁১৯৫৫ 1
▁شہریوں 1
ability 1
▁தேசிய 1
▁কথিত 1
లం 1
▁கிட்டத்தட்ட 1
▁path 1
▁সেতু 1
തിന്റെ 1
▁Second 1
▁लाभ 1
▁എട്ടു 1
കളിലേക്ക 1
ధీ 1
▁തേ 1
▁அ 1
▁இருந்து 1
ঞ্চ 1
▁ல் 1
েন্দ্র 1
ാക്കിയ 1
വിജയ 1
▁తరచుగా 1
▁international 1
▁कायम 1
▁प्रतिनिधित्व 1
▁इसीलिए 1
طر 1
▁பரு 1
▁জয়লাভ 1
▁அறை 1
▁వంటి 1
▁Lord 1
▁organization 1
▁ചിത്ര 1
▁Sai 1
▁வெள்ளை 1
▁Recently 1
▁करार 1
▁என்பதால் 1
हि 1
▁اضافی 1
▁دیر 1
▁స్కా 1
▁बढ़ते 1
ar 1
▁रो 1
വരുന്ന 1
▁బో 1
▁সেখান 1
▁संचालित 1
▁वित्त 1
▁مقدار 1
വേ 1
ముద్ర 1
▁খেলা 1
0 1
▁తిరుమల 1
▁ٹر 1
డె 1
▁মাঠ 1
▁প্রতিরক্ষা 1
▁फीट 1
▁നേ 1
▁উপজেলার 1
ফু 1
ம்பி 1
▁marriage 1
ash 1
▁صارفین 1
വിൽ 1
▁গ্ 1
▁یہودی 1
▁తిమ్మ 1
ஹா 1
▁সাউথ 1
▁రాజ 1
ிணை 1
▁அக்டோபர் 1
▁থাকলে 1
▁بکر 1
കള 1
▁صوبائی 1
▁Constitution 1
▁دہرا 1
పట్నం 1
▁Banerjee 1
▁महबूबा 1
▁ठहराया 1
▁ज्ञान 1
▁پٹ 1
ia 1
▁began 1
▁পর্যন্ত 1
னியா 1
▁Yatra 1
▁نا 1
ക് 1
▁പെരുമാറ 1
pen 1
বিয়া 1
▁కన్ 1
ڈو 1
▁Mumbai 1
▁తు 1
ക്കാര 1
▁നാട്ടുകാര 1
പിടിച്ച 1
▁personal 1
▁تحاریر 1
▁तर्क 1
▁అతడి 1
▁Dharmendra 1
▁سکا 1
par 1
▁കാ 1
▁Secretary 1
▁మత 1
▁फार्म 1
▁رہ 1
ار 1
▁ہوں 1
▁अधिसूचना 1
▁طالوت 1
▁नारेबाजी 1
▁धर्म 1
▁সংকলন 1
▁ஆற்றின் 1
ానికి 1
▁১৯৮৫ 1
ின்றது 1
▁شاندار 1
▁file 1
▁تیرے 1
▁গ্রন্থাগার 1
▁ഒരിക്കലും 1
ാണെങ്കിലും 1
न 1
பிரகாச 1
▁সময়ে 1
ിനുവേണ്ടി 1
▁खड़ी 1
▁ইন্ডিজ 1
▁درد 1
▁احکامات 1
▁ٹائپ 1
▁ناکام 1
▁पुख्ता 1
▁இடைவெளி 1
▁committed 1
▁elections 1
▁गोवा 1
▁انٹر 1
▁নিয়মিত 1
▁victory 1
▁క 1
▁Jharkhand 1
▁മാത്രമല്ല 1
▁تعلیمات 1
▁तकनीक 1
▁سہی 1
▁आयुक्त 1
▁দৃশ্য 1
▁সার 1
▁പൂ 1
▁compromise 1
ദ് 1
▁ഫ 1
▁யோ 1
▁سرا 1
▁مرغ 1
నూర్ 1
▁result 1
▁వ్యాప్తి 1
▁ముంబై 1
▁व्यक्ति 1
▁হাসান 1
ായിരുന്നു 1
▁போட்டிகளிலும் 1
▁மன்னர 1
▁थी 1
മാരുടെ 1
▁வரி 1
▁community 1
▁university 1
▁பௌத்த 1
▁جرم 1
▁टै 1
▁వారీ 1
टो 1
▁സൂചിപ്പിക്കുന്ന 1
▁2004 1
▁Va 1
▁बनारस 1
কা 1
▁অপ 1
্ল্যা 1
▁छेड़ 1
▁یاد 1
▁ஏற்படும் 1
▁மொழி 1
▁manager 1
▁البتہ 1
ரை 1
▁आग्रह 1
AI 1
▁پیغام 1
▁மார்கழி 1
▁ماشاءاللہ 1
▁தேவ 1
▁Panaji 1
ये 1
▁വ്യക്തമാക്കിയ 1
▁குறித்த 1
کل 1
▁Kejriwal 1
▁അന്ന 1
రోజు 1
▁लगाई 1
60 1
▁போ 1
▁हत्याकांड 1
▁region 1
ন্ধ 1
▁सी 1
▁బౌద్ధ 1
▁म 1
▁ഘടക 1
▁मै 1
▁Pro 1
▁కో 1
▁पाए 1
▁విష్ణు 1
▁st 1
▁मॉडल 1
▁సర్ 1
▁புரிந்து 1
▁ரூபாய் 1
সহ 1
▁امریکا 1
ాభి 1
▁tr 1
ഗോ 1
▁متنازع 1
▁بلال 1
▁ছয় 1
▁نہیں 1
▁எதிர் 1
क्का 1
ష 1
▁sub 1
▁धन 1
▁மாதம் 1
▁வரலாறு 1
s 1
▁true 1
ശക്തി 1
▁முன்னாள் 1
▁এস 1
▁اقبال 1
▁website 1
▁സ്ഥാപന 1
▁N 1
▁സാഹിത്യ 1
یہ 1
ிருக்கிறார் 1
कुमार 1
یئں 1
▁ড 1
▁fl 1
▁കൂട്ടി 1
▁పోషకాహార 1
▁Ghulam 1
▁یوم 1
▁ইচ্ছা 1
▁విమానాశ్రయ 1
▁নিযুক্ত 1
▁اہتمام 1
▁سنچری 1
▁ابراہیم 1
▁হামলা 1
▁ফসল 1
▁থাকেন 1
▁دونوں 1
▁making 1
▁टेस्ट 1
▁অনু 1
Th 1
ങ്ങളില് 1
▁উৎপত্তি 1
▁resources 1
हाल 1
போன்ற 1
▁നിലപാട 1
ഞ്ച് 1
▁অবস্থিত 1
▁মতো 1
യര് 1
▁سمت 1
▁മറ 1
▁जानकारी 1
▁عائشہ 1
ണ്ഡ 1
▁অনুসারে 1
▁బెల్లంపల్లిలో 1
▁অভি 1
വകുപ്പ് 1
களால் 1
▁ശബ്ദ 1
▁آگئی 1
19 1
▁సత్యనారాయణ 1
▁வெளிப்படுத்த 1
ബജറ്റ 1
▁کھانے 1
▁రోజువారీ 1
▁ভেতর 1
▁ط 1
▁சிவ 1
▁اقتدار 1
▁द्विवेदी 1
▁సాగ 1
▁কঠিন 1
▁പ്ലേ 1
▁அவற்றில் 1
▁نتیجہ 1
▁कूटनीति 1
▁spoke 1
ঢ় 1
▁তুর্কি 1
▁പ്രസിഡന്റ് 1
▁অতীত 1
▁بعد 1
000 1
▁domestic 1
கிறான் 1
▁கிருஷ்ணகிரி 1
శ్రీ 1
▁campaign 1
▁భవన 1
▁లై 1
▁اپلوڈ 1
▁ٹھہر 1
म्ब 1
ল্ল 1
ान 1
▁कार्यकाल 1
സിൽ 1
▁سپورٹ 1
സ്വ 1
▁ஐய 1
దం 1
కృతి 1
▁वारंट 1
▁സിനിമയുടെ 1
▁associate 1
्टर 1
▁بول 1
▁മഹീന്ദ്ര 1
▁அழைப்ப 1
▁பழங்குடி 1
▁monsoon 1
▁mother 1
▁രേഖകള 1
▁அவற்ற 1
▁నివాసగృహాలు 1
▁earthquake 1
▁Finance 1
بن 1
▁buy 1
▁नीचे 1
▁Se 1
▁کتنا 1
ud 1
▁கதாபாத்திர 1
▁ഹെ 1
▁गौर 1
▁निकाय 1
▁tweeted 1
▁তিনি 1
▁సామ్రాజ్య 1
▁see 1
▁শিশু 1
▁ഉന്നത 1
▁جاں 1
▁স্কুল 1
▁பாரதிய 1
শিক্ষা 1
▁যুব 1
தான் 1
▁সেন্টার 1
▁مظاہر 1
▁تیسرا 1
▁लाइव 1
റ 1
െക്കാൾ 1
▁अधिकारियों 1
lay 1
▁পরিষ্কার 1
▁safety 1
▁শাহ 1
ব্রা 1
▁survey 1
▁ആദായ 1
▁لٹ 1
▁అలాగే 1
▁produce 1
▁वाला 1
▁வட்டம் 1
▁தீவிர 1
▁متعلقہ 1
▁withdraw 1
▁എളുപ്പ 1
▁whereas 1
▁നീക്ക 1
▁حاکم 1
▁থাকা 1
▁غ 1
▁గృహ 1
▁करना 1
رد 1
ক্ষ 1
శ్య 1
▁ഉദ്യോഗ 1
▁worried 1
▁उद्देश्य 1
▁విభజించ 1
▁बातें 1
▁اسلوب 1
▁report 1
▁রাষ্ট্রপতি 1
▁వే 1
टे 1
▁zero 1
▁போரின் 1
ക്കാന് 1
কে 1
▁مجموعہ 1
▁announce 1
▁সরবরাহ 1
▁திருவிழாவாக 1
▁இயலாத 1
▁தாக்குதல 1
▁நன்கு 1
ত্য 1
▁ഏഴ 1
ൗ 1
▁முடிய 1
▁ఆసియా 1
▁ہم 1
▁పంపిస్తున్నారు 1
▁operation 1
▁इलेक्ट्र 1
▁সালে 1
▁ফ্রি 1
▁तब 1
▁അഭി 1
▁cases 1
▁ஞான 1
▁ताकि 1
▁భావిస్తున్నారు 1
▁প্রতিক্রিয়া 1
▁স্বাভাবিক 1
▁നേതൃത്വം 1
றிஞர 1
▁అనేక 1
▁انعام 1
▁தனியார் 1
▁لازم 1
বৃত্তি 1
▁యుద్ధ 1
ংশ 1
▁play 1
▁29 1
▁نمائش 1
▁பரப்பளவில் 1
▁ہوا 1
వుల 1
▁पार्टी 1
▁பாண்டிய 1
▁پرانی 1
77 1
▁माहौल 1
▁जमानत 1
ത്തെ 1
▁തെരഞ്ഞെടുപ്പ 1
▁چہرہ 1
▁বাংলাদেশের 1
வரும் 1
▁headquarters 1
చంద్ర 1
మ్యూ 1
▁Gul 1
▁পে 1
▁മഹാ 1
▁സുഹൃത്തുക്കള 1
ائش 1
▁तक 1
▁ഇത്തവണ 1
െപ്പറ്റി 1
▁دعاؤں 1
▁மிகப்பெரிய 1
▁প্রভৃতি 1
மையான 1
বর 1
▁পর্বতমালা 1
▁കൊണ്ടുപോക 1
▁আমেরিকান 1
ായ 1
▁याद 1
▁నిరోధ 1
علم 1
▁members 1
▁dangerous 1
▁مزاج 1
▁तय 1
க்கிய 1
வீ 1
▁దర్శించ 1
ফে 1
▁निर्यात 1
▁വ്യവസായ 1
పేట్ 1
▁18 1
▁ট্রেন 1
▁ফাংশন 1
▁were 1
▁కొందరు 1
▁consent 1
▁accelerate 1
▁ചെറിയ 1
▁മധ്യ 1
పథ 1
▁আপ 1
▁ظفر 1
▁మైక్రో 1
▁പ്രസിദ്ധീകരിച്ച 1
▁ദൃശ്യങ്ങള 1
പരി 1
സീ 1
റിന്റെ 1
▁عبداللہ 1
ആർ 1
▁১৯৫১ 1
▁সু 1
വ 1
▁সমালোচক 1
▁Comp 1
▁System 1
▁give 1
৭৭ 1
▁इनके 1
▁അവതരിപ്പിച്ച 1
▁outside 1
▁যোগদান 1
▁నామ 1
▁cash 1
▁منسلک 1
రాన్ 1
৮৯ 1
দিকে 1
ക്കുറവ 1
( 1
▁completing 1
▁ക്ലാസ 1
es 1
▁خدمات 1
شی 1
▁பறவை 1
▁पुल 1
সমূহ 1
▁بوقت 1
▁معاملے 1
▁మై 1
▁مند 1
▁ക്യാമറ 1
కల్ప 1
▁Si 1
తంత్ర 1
সে 1
▁എസ്റ്റേറ്റ 1
▁ജേക്കബ് 1
▁चीज 1
सं 1
మీ 1
▁بڑے 1
ting 1
▁छोड़कर 1
പ്രവർത്തന 1
▁उठाया 1
▁বয়সী 1
खंड 1
▁హె 1
ఔ 1
▁চেষ্টা 1
▁వజ్ర 1
ৰ 1
▁सचिव 1
▁عبید 1
▁এরপর 1
▁గ్రా 1
ത്തേക്ക് 1
ఒక 1
ിട്ട് 1
▁തുടങ്ങിയവ 1
▁advocate 1
▁industrial 1
▁মহিলাদের 1
▁جبکہ 1
ത്തിന്റെ 1
▁officer 1
ear 1
▁ডি 1
▁বাংলার 1
▁జన్యు 1
▁benefit 1
▁ধরনের 1
mar 1
▁నవంబరు 1
▁പോസ്റ്റ 1
▁তালিকা 1
▁بندہ 1
▁மேற்கு 1
ৎ 1
▁شرط 1
▁అనంతపురం 1
▁ফল 1
▁ఆధారపడి 1
ാണിത് 1
▁speed 1
▁காலம் 1
▁சென்றார் 1
▁तबाह 1
▁ദീര് 1
▁গোত্র 1
▁అవకాశం 1
▁అంతర్గత 1
▁പഴ 1
▁मो 1
▁தயாரிப்பாளர 1
▁కర్ణాటక 1
మృత 1
▁মুদ্রা 1
▁تح 1
த்தில் 1
▁खा 1
▁বিশ্ব 1
▁श्रेय 1
▁ప్రవేశించ 1
▁गायब 1
▁ఇంగ్లాండ్ 1
▁అవ 1
உ 1
ീഷ 1
▁திட்டம் 1
▁தீர்த்த 1
▁shortage 1
▁रविशंकर 1
▁بھلا 1
▁بھا 1
▁செயல்முறை 1
▁anyone 1
▁ڈرا 1
▁வீட்ட 1
▁आंध्र 1
▁پورے 1
▁املا 1
▁سپریم 1
▁ہر 1
▁আলো 1
▁దాడుల 1
▁సుప్రసిద్ధ 1
സാധ്യത 1
▁Gupta 1
▁लंबा 1
ിക്കേണ്ട 1
▁fe 1
▁மாவட்டங்களில் 1
ാനാവില്ല 1
▁దీని 1
▁ఆర్ధిక 1
▁അറ 1
▁Cha 1
▁காரணி 1
▁مسترد 1
▁அமைச்சராக 1
▁बुलाया 1
मो 1
ড়ে 1
▁വെളുത്ത 1
ினர் 1
▁जिलों 1
▁अंतर 1
▁quick 1
লি 1
▁వారి 1
▁உயிர 1
▁कैसे 1
▁సమాన 1
▁ഭക്ഷണം 1
▁दिलाया 1
▁hanged 1
▁کو 1
▁संवाद 1
▁చేర్చ 1
യാണു 1
▁filing 1
ান 1
ுவதில் 1
▁here 1
▁திண்டுக்கல் 1
ற் 1
▁கிரிக்கட் 1
▁நியூயார்க் 1
▁சுழல 1
భాష 1
ക്കാൻ 1
ത്തിലുള്ള 1
களிடையே 1
nika 1
ബാ 1
▁مغربی 1
▁ప్రతిపాదించ 1
▁Mamta 1
▁remove 1
▁হরি 1
మర్ 1
▁سطح 1
▁रिश्तों 1
▁அரி 1
▁افریقہ 1
▁ডিগ্রি 1
▁चुका 1
र्द 1
▁ഗുജറാത്ത 1
▁यहां 1
கல் 1
ഞ്ജ 1
ుకునే 1
▁جوابات 1
▁نگاہ 1
▁இ 1
▁Council 1
▁കൂ 1
థ 1
▁चर्चा 1
ില് 1
▁Trinamool 1
▁rescue 1
▁ادبی 1
▁ஆற்ற 1
▁കാര്യങ്ങള 1
▁secular 1
पीएस 1
▁گذر 1
ظ 1
ടി 1
ഫൈ 1
▁সারা 1
ச்சி 1
▁இங்குள்ள 1
▁Amritsar 1
▁फीसद 1
▁consensus 1
▁നിയമന 1
▁পরিসংখ্যান 1
ون 1
▁முருக 1
▁दर्शन 1
▁Such 1
▁چکر 1
▁آگے 1
র্ম 1
ாசிரியர் 1
ওয়ার্ড 1
ുമുണ്ട് 1
▁آداب 1
லை 1
ക്രിയ 1
▁نق 1
▁నెట్ 1
▁Ranjan 1
▁धनराशि 1
▁লিঙ্গ 1
حق 1
▁up 1
▁আখ্যায়িত 1
▁جانتے 1
क्शन 1
▁अन्य 1
മെന്ന് 1
اللہ 1
ho 1
বিশেষ 1
▁ضلع 1
▁कांस्टेबल 1
▁truth 1
▁Bhagat 1
▁دوست 1
▁ন্যায় 1
▁হ্যা 1
ிருக்கின்றன 1
راج 1
വാസ 1
செய்ய 1
▁इंडियन 1
▁पुराना 1
আ 1
▁എടുത്ത 1
▁ప్రాంతంలో 1
▁மூன்று 1
तांत्रिक 1
▁দেয়া 1
▁ஆயுத 1
▁അവരെ 1
▁स्ट्राइक 1
বিদ 1
▁राव 1
ట్టి 1
టిక్ 1
▁براہ 1
▁Ba 1
▁শতাব্দীতে 1
ఘా 1
▁واٹ 1
▁34 1
▁മഴ 1
▁ہوسکتی 1
डा 1
▁सांप्रदायिक 1
ad 1
▁affair 1
▁Myanmar 1
ഭരണ 1
▁ক্যালিফোর্নিয়া 1
▁him 1
▁தெய்வ 1
யைக் 1
▁لیجئے 1
▁notice 1
▁கொள்ளவில்லை 1
▁اعداد 1
▁தயாரிப்பு 1
தா 1
4 1
యం 1
▁सफर 1
▁రామకృష్ణ 1
▁संत 1
کار 1
ब्ब 1
களும் 1
▁announcement 1
வது 1
▁మాధ్యమిక 1
▁various 1
▁অভিনেত্রী 1
▁spoil 1
▁புகழ்பெற்ற 1
▁திகழ்ந்த 1
▁ചരിത്ര 1
▁ஊடக 1
▁സു 1
ேஸ்வர 1
త 1
ుకోవడానికి 1
▁سامنے 1
▁నెలకొల్ప 1
▁आइ 1
▁ट्विटर 1
▁లి 1
ാനു 1
▁निष्पक्ष 1
▁criminal 1
▁developed 1
▁జిల్లాలోని 1
▁കോൺഗ്രസ 1
▁মুখ 1
▁டே 1
▁അടി 1
▁పురుషుల 1
▁విజయం 1
▁الٹ 1
▁Narendra 1
▁పొందింది 1
▁सार्वजनिक 1
▁رقم 1
▁تائید 1
▁racket 1
▁பகுதிகள் 1
▁گوگل 1
▁مع 1
▁دھوپ 1
▁हवाई 1
▁धरती 1
▁Authority 1
ోత్సవ 1
▁लालकृष्ण 1
▁became 1
▁സ്ഥാനത്ത 1
تع 1
▁বলেছেন 1
▁price 1
▁دریا 1
▁معاملات 1
▁करा 1
▁പഠിപ്പിക്ക 1
▁ധൈര്യ 1
▁م 1
▁परिसर 1
▁மேற்பட்ட 1
▁কেবলমাত্র 1
▁കൈകാര്യം 1
▁चला 1
▁دوڑ 1
▁বিয়ে 1
▁সিংহাসন 1
ంచి 1
▁ఎక్కువగా 1
▁रि 1
▁پیارے 1
▁ఆత్మ 1
▁screen 1
▁how 1
▁প্রস্তাব 1
▁লে 1
we 1
▁നായിക 1
▁डाक्टर 1
▁கனடா 1
▁पाई 1
▁సుమారు 1
▁உள்ளது 1
▁സോഷ്യല് 1
ாயிரம் 1
▁அடிப்படையில் 1
ডার 1
▁పశ్చిమాన 1
▁வருட 1
തന്നെ 1
▁property 1
ക്കിടയില 1
తృ 1
▁ఇచ్చిన 1
ுள்ளன 1
▁ஆரம்பிக்கப்பட்ட 1
▁കൊച്ചു 1
▁காட்டிலும் 1
▁മതി 1
▁رہنما 1
▁భావించ 1
▁है 1
ிலிருந்து 1
▁बचाव 1
▁तीख 1
▁set 1
▁कम 1
▁वर्ष 1
▁لڑیاں 1
وار 1
▁दुकान 1
▁কৃত্রিম 1
تھا 1
▁تیاری 1
ിൽനിന്നു 1
▁দেবী 1
▁rest 1
▁ভাই 1
ذکر 1
▁Maoists 1
त् 1
▁branch 1
▁৫০ 1
▁அலுவலக 1
▁পুরস্কার 1
▁প্রাণ 1
ത്തിലും 1
▁অস্ত্র 1
▁Krishna 1
പര്യ 1
▁চ্যাম্পিয়ন 1
లింగ్ 1
▁పాకిస్థాన్ 1
▁شگفتہ 1
ാണ 1
फर 1
▁cold 1
భక్త 1
▁of 1
15 1
পূ 1
▁फैक्ट्री 1
▁খ্রিষ্টাব্দে 1
കൾക്ക് 1
ங்க 1
യിലേക്ക് 1
▁యూనియన్ 1
▁बनाकर 1
হাম 1
ভেন 1
▁भेजा 1
"- 1
▁రఘు 1
▁முறைப்படி 1
▁கோட்ட 1
▁ক্যারিয়ার 1
▁مضمون 1
▁প্রতিটি 1
▁பேர 1
▁இதழ் 1
▁بڑ 1
నర్ 1
▁گئ 1
▁نیوزی 1
mer 1
சை 1
ियो 1
▁ट्रायल 1
▁সংজ্ঞা 1
▁ভাল 1
ap 1
▁दें 1
▁area 1
িয়ন 1
▁कांग्रेस 1
▁വർധിക്ക 1
▁గ్రామాలు 1
▁ऑफ 1
▁வேலை 1
কু 1
▁గొ 1
▁सबक 1
▁1996 1
▁১৬ 1
▁Jodhpur 1
▁1947 1
ള 1
▁പ്രശംസ 1
▁World 1
▁husband 1
▁منظور 1
▁دہشتگرد 1
▁पूरी 1
com 1
an 1
▁മോ 1
▁حرف 1
▁ஹ 1
▁बनाया 1
▁اور 1
▁videos 1
னர் 1
▁அத்துடன் 1
▁തുറന്നു 1
▁قیمت 1
▁কাউন্সিল 1
ుల 1
▁ராமநாதபுரம் 1
▁അദ്ദേഹത്തിന്റെ 1
▁سو 1
▁मु 1
▁ജനുവരി 1
▁குடியரச 1
▁cause 1
রূপে 1
▁ইন্ডিয়া 1
▁వాల్ 1
▁எந்த 1
▁చెల్లించ 1
▁விஜய 1
▁جائیں 1
▁Thursday 1
▁জন 1
त्र 1
▁విద్యార్థుల 1
▁காட்சி 1
పదార్థ 1
▁Special 1
▁river 1
▁விரிவாக்க 1
▁except 1
േർ 1
▁மற்ற 1
పాద 1
▁इनमें 1
▁They 1
▁ఇటువంటి 1
Ch 1
▁تقریبا 1
ाइट 1
▁আন্তর্জাতিক 1
த்திற்கு 1
▁sh 1
▁un 1
▁चिंतित 1
చ్చ 1
▁तुरंत 1
— 1
▁கவிதை 1
▁لگی 1
▁இன்னும் 1
▁control 1
▁मंगलवार 1
▁স্প 1
▁एंड 1
▁चाहता 1
▁സംഘ 1
▁मिनट 1
▁சேர்மமாகும் 1
நகர் 1
▁জুন 1
▁పండుగ 1
▁మానవ 1
▁কমপক্ষে 1
▁അനു 1
▁उत्तर 1
▁വിവാഹ 1
द्र 1
▁నవల 1
▁পুনরায় 1
െടുക്ക 1
सी 1
▁സമർപ്പിക്ക 1
▁पीठ 1
▁புல 1
జె 1
▁रिलीज 1
▁द 1
పై 1
▁रुख 1
ব্রি 1
▁রিচার্ড 1
▁پے 1
▁ذہن 1
▁வானொலி 1
ड़ी 1
▁present 1
्ज 1
▁कैप्टन 1
▁সামান্য 1
▁مبتلا 1
ന്റ 1
▁نظیر 1
▁প্রভাবশালী 1
రెన్ 1
▁آمدید 1
▁ఉత్తర 1
പ്പുറത്ത 1
▁wheat 1
▁इंकार 1
യോഗ 1
টিং 1
ার্স 1
▁ء 1
ster 1
▁വിളിച്ച 1
▁imposed 1
▁ఇతని 1
▁శాసన 1
▁খেলায় 1
▁കമ്പനി 1
▁കൊച്ചി 1
▁கடவுள் 1
▁ground 1
▁సృష్టి 1
യാകും 1
▁آؤٹ 1
▁సామర్థ్య 1
▁include 1
▁فر 1
▁preparation 1
▁ذ 1
▁spent 1
▁বৃহত্তম 1
▁ട്വീറ്റ 1
▁সম্ 1
▁ప్రవేశపెట్ట 1
▁വിപണി 1
ol 1
▁തയാറാക്ക 1
90 1
తాయి 1
▁తొమ్మిది 1
▁প্রথমবারের 1
pat 1
▁గ్రామానికి 1
▁زم 1
▁గోపాల 1
▁ড্যা 1
▁കുട്ടി 1
▁بنائیں 1
▁তরঙ্গ 1
ग्रस्त 1
▁সম্পাদক 1
▁visible 1
▁یونیورسٹی 1
▁لوک 1
▁بخوبی 1
▁সংস্কার 1
నాథ్ 1
▁வா 1
▁குறித்து 1
▁half 1
▁ఖాన్ 1
▁अंग 1
▁సముద్రమట్టానికి 1
▁സ്വയം 1
▁சேர்த்து 1
▁ور 1
গতি 1
▁Afghanistan 1
▁हि 1
ద్ 1
വസ്തുക്കൾ 1
▁உள்ளூர் 1
▁इन्कार 1
▁जी 1
▁Hotel 1
▁చేసారు 1
▁पेट्रोलियम 1
▁ऊपर 1
ঙ্গু 1
െത്തിയ 1
ধ 1
▁پیغامات 1
▁নিয়ন্ত্রণ 1
▁anti 1
▁تکمیل 1
▁दिखाया 1
▁2016 1
▁اشک 1
▁সভা 1
▁వరల్డ్ 1
ொரு 1
স্ত্র 1
▁August 1
▁వేంకట 1
മാണിത് 1
: 1
▁CCTV 1
▁promoting 1
▁बैठे 1
▁देंगे 1
▁ఇష్ట 1
▁دیتی 1
▁واقعے 1
▁فیلڈ 1
▁శి 1
▁অগ্নি 1
▁நோ 1
▁ஒன்று 1
▁भोजन 1
▁1995 1
সন 1
▁مدینہ 1
▁పదార్థాల 1
▁വൃക്ക 1
ight 1
joshi 1
▁രോഗി 1
▁സംഗീത 1
▁ओर 1
▁আজিজ 1
▁బృందం 1
▁Station 1
▁மார் 1
96 1
▁নিবন্ধ 1
▁والی 1
▁نمبر 1
▁ശനിയാഴ്ച 1
নির 1
▁सैनिक 1
▁দিবস 1
▁ادب 1
▁నడి 1
பிரி 1
▁సుబ్బారావు 1
▁हिंदुओं 1
▁வை 1
▁വിൽപ്പന 1
മാണെന്നും 1
▁کارکردگی 1
▁پک 1
దైన 1
▁தோல்வி 1
▁समाचार 1
▁योग 1
نت 1
▁State 1
ास 1
▁breath 1
▁ചുവ 1
▁क 1
വിട്ട 1
▁চট্টগ্রাম 1
▁విస్తరించి 1
▁سیکرٹری 1
▁Iraq 1
पाकिस्तान 1
▁ہوگا 1
▁நுகர்வ 1
▁civil 1
▁شریعت 1
▁existing 1
▁সাদা 1
భా 1
ారెడ్డి 1
▁சிங்கப்பூர 1
▁1998 1
▁determin 1
▁मशहूर 1
शासित 1
ियत 1
▁നേതാവ 1
▁బస్సు 1
േക്ക് 1
▁2. 1
▁പുതിയ 1
▁القاعدہ 1
▁Ma 1
▁واضح 1
شار 1
▁పంచాయతీ 1
▁നേതാക്കൾ 1
▁افسانہ 1
▁వ్యాధి 1
▁வண்ண 1
▁ഗാന 1
గుర్తింపు 1
▁ఇంద్ర 1
▁প্রদত্ত 1
▁تنقید 1
▁چپ 1
▁Khan 1
ൂര 1
▁నిర్వహించెదరు 1
▁റിപ്പോര് 1
▁ഗുണ 1
ருவ 1
▁उम्मीद 1
ரூ 1
▁जवाब 1
▁मामले 1
▁सर्वे 1
نک 1
▁lower 1
▁दोस्त 1
▁बीते 1
బంధ 1
களைத் 1
▁மலர் 1
▁സമരം 1
▁రోగ 1
▁राह 1
▁মহাসাগর 1
▁Korea 1
வளை 1
▁भाई 1
▁নিয়ে 1
▁शारीरिक 1
؛ 1
▁hard 1
ेशन 1
సెప్టెంబరు 1
▁دھمکی 1
▁हुई 1
▁عائد 1
پا 1
▁തീര 1
▁टैंक 1
▁ওডিআই 1
یش 1
▁तस्वीर 1
ిస్తున్న 1
▁மொழியில் 1
▁work 1
▁يہ 1
▁पाने 1
▁Sal 1
▁स् 1
▁آپریشن 1
▁பிறந்த 1
▁സഹ 1
▁वर्ल्ड 1
▁ইয়া 1
▁கொண்டிருந்த 1
കാരി 1
ok 1
যোদ্ধা 1
വുമായി 1
स्ट्र 1
▁बै 1
▁মন্ত্রী 1
శో 1
விட்டது 1
less 1
▁بہار 1
▁آئے 1
▁تصدیق 1
▁super 1
▁সৌদি 1
▁felt 1
▁மத்திய 1
த்திலேயே 1
िस्ट 1
নগর 1
▁ബാബു 1
▁தமிழில் 1
▁as 1
▁கண்டுபிடித்த 1
▁نوٹ 1
▁నవంబర్ 1
▁উৎপাদিত 1
▁হে 1
▁Mufti 1
▁ڈالا 1
বার 1
ائر 1
mission 1
ٰ 1
ിരിക്കുകയാണ് 1
▁Government 1
▁cell 1
▁گھنٹے 1
▁strict 1
▁उत्साह 1
▁യുവതി 1
▁تحت 1
▁رنگ 1
▁కార్యకర్త 1
▁എന്നും 1
[ 1
▁Sangh 1
ங்கு 1
▁سنہ 1
ெடுக்க 1
▁विरासत 1
ప్పటి 1
▁سکول 1
▁উপস্থিত 1
▁ব্যবস্থাপনা 1
▁opposing 1
ందా 1
▁Niranjan 1
▁বিধানসভা 1
▁ഇന്ന 1
ছেন 1
ات 1
▁১৯৭৮ 1
രക്ഷ 1
▁ഉപദ്രവ 1
ganj 1
▁साइबर 1
▁চাঁদ 1
ve 1
▁ধ্বনি 1
▁जापान 1
▁আফগান 1
ندہ 1
▁పొందారు 1
▁সম্মুখীন 1
అవనిగడ్డ 1
MC 1
▁Company 1
چھ 1
நீர் 1
▁ورلڈ 1
▁farmers 1
▁ഇതിൽ 1
▁released 1
নেট 1
ീയ 1
ٹن 1
▁জাতি 1
▁दर्ज 1
▁तस्वीरें 1
िक 1
▁Sing 1
▁an 1
▁উত্তীর্ণ 1
46 1
০৪ 1
▁ந 1
▁স 1
धे 1
▁পালিয়ে 1
▁गुजार 1
▁مختلف 1
▁ग्रामीण 1
▁పిలిచే 1
বর্ধন 1
▁பி 1
▁اٹھایا 1
த்தி 1
▁کھلاڑی 1
▁برائے 1
▁தனிம 1
▁ஆகத்து 1
▁പ്ലാസ്റ്റിക് 1
▁ধ 1
▁সাধারণত 1
▁வருகை 1
ஹி 1
▁ഗുരു 1
▁یو 1
ുൾപ്പെടെ 1
w 1
pt 1
▁తప్ప 1
▁திருவாரூர் 1
▁ജന്മ 1
می 1
▁ടിക്കറ്റ 1
ండా 1
ন্থ 1
ন্দ 1
▁آبادی 1
▁రోడ్డు 1
▁legislator 1
▁சிந்தனை 1
ఫా 1
▁دستخط 1
▁आत्महत्या 1
▁বিমান 1
▁শুরুতে 1
▁بدل 1
▁Governor 1
▁violate 1
▁definitely 1
▁మొదలైన 1
வர்கள் 1
▁மூலக்கூற்று 1
▁நற்செய்தி 1
▁विस्फोट 1
▁مزہ 1
▁ഓഫ് 1
▁برتری 1
▁خواب 1
▁الگ 1
▁സന്ദേശ 1
▁బాల 1
▁பாகிஸ்தான 1
▁ക 1
▁সুযোগ 1
▁food 1
লিং 1
▁மாநிலத்தில் 1
▁క్రీడ 1
▁Now 1
▁চাকরি 1
▁பின்ன 1
▁والدہ 1
▁ഔഷധ 1
രോ 1
▁जिसे 1
▁پس 1
ங்களில் 1
▁ഇപ്പോള് 1
▁تاثر 1
▁وکی 1
▁मुआवजा 1
▁১৯৭৬ 1
▁మిలియన్ 1
▁fighter 1
പ്രയോഗ 1
▁तत्काल 1
ٹ 1
▁அணு 1
▁پیج 1
▁রসায়ন 1
ান্ত 1
▁بھگ 1
ency 1
▁خون 1
▁வாய்ப்பாடு 1
பார் 1
▁പതിനഞ്ച 1
▁لغت 1
▁نو 1
▁الفاظ 1
▁فانٹ 1
▁సమాజ 1
▁sit 1
▁معنی 1
▁Sector 1
മര 1
▁বিমানবন্দর 1
▁அலகு 1
▁টু 1
▁మీటర్ల 1
▁forward 1
▁پنڈ 1
▁कामयाब 1
▁జూ 1
ell 1
▁context 1
ബല 1
▁Bhupendra 1
▁അവാർഡ 1
▁বন্দ্যোপাধ্যায় 1
▁రుద్ర 1
ীদের 1
chand 1
▁indication 1
▁இடங்களில் 1
▁دست 1
▁জীব 1
▁ഓൺലൈൻ 1
▁sun 1
▁strike 1
▁आपूर्ति 1
রাম 1
▁প্রজাপতি 1
▁జాతుల 1
మండల 1
▁చదువు 1
▁ഏർപ്പെടുത്ത 1
▁custody 1
▁पहली 1
▁علیہ 1
ک 1
▁کیجئے 1
িজম 1
▁நடக்கின்றன 1
▁Operation 1
ानंद 1
▁പ്രയാസ 1
▁জরিপ 1
షియా 1
ইয়া 1
▁হন 1
▁statue 1
▁پہچان 1
▁दुख 1
▁ঘোড়া 1
▁റ 1
▁tiger 1
▁കഴിവ 1
▁ప్రసిద్ధ 1
▁انبیاء 1
ల్స్ 1
▁शासन 1
بل 1
▁Five 1
▁संतुष्ट 1
▁রোগ 1
▁न्याय 1
▁हिंसा 1
▁ஷ 1
▁عید 1
kh 1
▁aircraft 1
▁കുട 1
▁white 1
▁সামুদ্রিক 1
▁قطر 1
▁صاحبہ 1
▁بار 1
▁పనుల 1
▁शर्मा 1
▁অস্ট্রেলিয়ার 1
▁താന് 1
వాస 1
इ 1
ब्र 1
▁தெளிவாக 1
പ്പോഴ 1
▁سکیورٹی 1
▁دھو 1
▁தில்லி 1
▁చంద్ర 1
▁روس 1
pri 1
▁door 1
वाड़ा 1
▁கணிதவியல 1
▁چکی 1
▁अस्पताल 1
নায় 1
▁Nadu 1
▁தம் 1
▁service 1
▁فارغ 1
லாம் 1
▁Lal 1
▁समूह 1
▁পারেন 1
▁carry 1
▁ल 1
▁باقاعد 1
لے 1
▁উদ্ভব 1
▁ملاحظہ 1
▁करें 1
▁తి 1
▁அரங்க 1
▁देख 1
▁تردید 1
ును 1
मान 1
ۂ 1
▁నిర్మాణం 1
▁மல 1
▁بیٹنگ 1
▁جہاد 1
▁इस्तेमाल 1
▁தொகுப்ப 1
▁স্বীকার 1
▁നിലയില 1
▁ஜூலை 1
▁Lt 1
▁उ 1
നാള 1
▁காணப்படும் 1
▁فوجی 1
یئر 1
▁formula 1
▁ملک 1
ிடம் 1
▁പഠിക്ക 1
కూర్ 1
▁ഗ്രാമ 1
▁പൂര് 1
▁personnel 1
▁राज्यमंत्री 1
▁वीरभद्र 1
্ 1
মুখ 1
▁ഇ 1
▁ചോ 1
▁നിമിഷ 1
j 1
، 1
▁శతాబ్దంలో 1
▁ظالم 1
▁مناظر 1
മു 1
▁১৯৩১ 1
▁বংশোদ্ভূত 1
ర్ 1
ும் 1
▁network 1
कांग्रेस 1
▁যথাক্রমে 1
▁bilateral 1
పాడులో 1
कार्यकारी 1
▁مجلس 1
റോ 1
पु 1
▁اشعار 1
▁ఉత్తరాన 1
▁திறந்த 1
▁சில 1
▁తిరుగు 1
▁छूट 1
▁১৯৮০ 1
▁दिसंबर 1
▁১৯৭৭ 1
▁അതിൽ 1
▁ചെയ്യുക 1
▁प्रशासनिक 1
▁ഇന്ത്യന് 1
▁Especially 1
▁യാത്രക്കാര 1
▁पारित 1
స్టు 1
▁അടക്കമുള്ള 1
▁చిత్తూరు 1
വിന് 1
▁প্রধান 1
বাড়ী 1
52 1
▁நாட்கள் 1
मंडल 1
▁सप्ताह 1
کٹر 1
▁पी 1
94 1
▁रिकार्ड 1
തുകൊണ്ട 1
▁సైనిక 1
▁دہ 1
یا 1
▁ن 1
▁جاتے 1
టి 1
▁Tata 1
▁ये 1
▁FIR 1
▁سامان 1
ിപ്പിക്കുന്ന 1
మార్ 1
▁శాస్త్రం 1
▁मनरेगा 1
▁സ്വ 1
▁زاد 1
▁sheet 1
▁LK 1
▁bottle 1
র্গ 1
▁once 1
▁ജിയോ 1
▁شکل 1
▁علامت 1
▁எதிர 1
▁தான் 1
▁who 1
శీల 1
▁సమ 1
ढ 1
▁ظہور 1
ൂ 1
▁கலைஞர் 1
▁serve 1
ി 1
▁type 1
▁অনন্য 1
పో 1
▁பயன்பட 1
పోయాడు 1
▁থাকত 1
जी 1
▁IPS 1
▁രാമ 1
▁बजट 1
▁one 1
ாவில் 1
▁ഉപയോഗിക്ക 1
▁then 1
▁without 1
▁ভিত্তি 1
▁কয়েকজন 1
23 1
▁By 1
▁उपभोक्ता 1
▁విధంగా 1
▁প্রজাতি 1
▁১৯৯১ 1
▁திருக்கோயில் 1
▁വിവിധ 1
▁ഭംഗിയ 1
▁پابندی 1
யில் 1
▁நோய் 1
தார 1
റിന് 1
▁ഇത 1
▁دائر 1
▁സിപിഐ 1
ജ്ജ 1
▁منصوبہ 1
▁ہٹ 1
▁Legislative 1
▁قریب 1
▁উৎসাহ 1
ാണെന്നാണ് 1
ോളം 1
▁عورت 1
▁വിജയ 1
▁నాటికి 1
▁eliminate 1
▁سہولت 1
▁election 1
▁تحقیق 1
▁వైద్యశాల 1
▁پھینک 1
▁شرارت 1
04 1
▁app 1
▁ഇടുക്കി 1
এসসি 1
▁सालाना 1
▁چاچو 1
▁گھنٹہ 1
▁പ്രതികരിച്ച 1
ാര 1
97 1
▁செய்து 1
▁محسوس 1
▁probably 1
▁விருப்ப 1
▁സ്വദേശി 1
▁सेना 1
▁उनकी 1
▁Road 1
▁laptop 1
d 1
ക്കി 1
▁joining 1
▁தொடர்பு 1
▁ग्रुप 1
▁सेक्टर 1
▁ساز 1
ില്ലെന്ന് 1
▁निदेशक 1
▁पेड़ 1
▁মূল 1
▁ڈھونڈ 1
▁நூலக 1
ர்கள் 1
▁Pan 1
▁രംഗത്ത 1
▁ఇంటర్నేషనల్ 1
▁किलोमीटर 1
దర్ 1
▁கரூர் 1
▁تعاون 1
▁تقریر 1
▁തനി 1
▁চিকিৎসক 1
കുമാർ 1
ண்டா 1
▁ఆనంద 1
ாள் 1
▁மக்களை 1
▁BSP 1
▁కాల్ 1
വച്ച 1
▁-- 1
▁छानबीन 1
▁होगी 1
యె 1
ടുത്ത 1
డూరు 1
▁कमांड 1
ழ் 1
പോലെ 1
▁حالانکہ 1
ুল্লাহ 1
▁శంకర 1
▁اپیل 1
▁पत्रकार 1
▁progress 1
14 1
्या 1
▁సేకరించ 1
▁গিয়ে 1
▁ദൂര 1
ഘോഷ 1
▁course 1
▁চলাচল 1
▁played 1
▁நாட்டை 1
▁পান 1
▁دکھ 1
▁Dalit 1
மாக 1
നായി 1
▁دلائل 1
നാഥ 1
▁anything 1
▁eye 1
▁famous 1
▁during 1
▁1980 1
▁గింజల 1
▁స్త్రీ 1
▁Virbhadra 1
ch 1
▁खाद्य 1
▁বে 1
▁கொண்டுள்ளது 1
▁அமைந்த 1
▁നിയമ 1
ിക്കും 1
▁সা 1
▁پچیس 1
ൊന്നു 1
சீ 1
▁बाढ़ 1
বিশিষ্ট 1
৭৪ 1
ضی 1
▁మె 1
▁करती 1
▁خارج 1
▁పాల్గొన 1
ான 1
▁எழுப்ப 1
▁خدمت 1
▁نقل 1
సం 1
దగిన 1
▁కాలేజీ 1
▁సమాఖ్య 1
▁క్యా 1
▁threatening 1
▁తరగతి 1
▁মানব 1
▁امر 1
▁প্রমাণ 1
▁انگلی 1
▁مارے 1
▁انسانی 1
▁பத்ம 1
ത്തിലെ 1
▁ఎ 1
▁/ 1
▁பெயரில் 1
▁त 1
▁श 1
▁Neeraj 1
▁দিক 1
▁കോടിയേരി 1
াইট 1
▁వచ్చారు 1
പ്രതി 1
▁سجدہ 1
▁అనియత 1
▁பகுதியாக 1
▁உதவி 1
▁കണ്ടു 1
▁విడుదల 1
▁ప్రయత్న 1
▁தமிழ் 1
▁తిరు 1
▁നിലവിൽ 1
▁ہائے 1
▁भ्रम 1
▁Sha 1
▁এ 1
ങ്ക 1
▁ഹൈ 1
▁लूट 1
▁ഡിസംബർ 1
▁permission 1
98 1
▁permanent 1
▁জর্জ 1
▁গবেষক 1
▁چلتا 1
ग् 1
▁फ्रंट 1
▁డాక్టరు 1
▁Ch 1
▁ప్రభావ 1
▁প্রথম 1
▁সাম 1
▁കൃഷി 1
▁ওপেন 1
ാറുണ്ട് 1
▁വേണ്ട 1
▁டொ 1
▁व्यापक 1
فر 1
▁குரு 1
▁سوات 1
▁equal 1
▁న్యూ 1
▁குறியீடு 1
തല 1
▁وزارت 1
▁সভ্যতা 1
▁लोग 1
▁प्राकृतिक 1
▁تاریخ 1
-2 1
▁চীনের 1
▁പേരില 1
▁నీ 1
▁controversial 1
ിരിക്ക 1
వతేదీ 1
ാനാണ് 1
▁അര 1
▁آغاز 1
▁കണ് 1
▁பிரதிநிதி 1
৭৯ 1
▁money 1
শ্চ 1
▁നിലനിർത്ത 1
▁স্থাপন 1
▁മനസ്സില 1
▁കുത്തി 1
▁[ 1
▁شرمندہ 1
▁தாய் 1
▁pregnant 1
▁കൃത്യമായ 1
▁“ 1
▁टाटा 1
▁چڑھ 1
▁സുഹൃത്ത 1
▁ഡയറക്ടർ 1
▁disaster 1
গি 1
▁గు 1
▁मणिपुर 1
▁पर 1
▁welcome 1
യുണ്ട് 1
▁സജീവ 1
টির 1
▁వస్తున్న 1
▁തടഞ്ഞ 1
▁டா 1
▁മുടങ്ങ 1
be 1
▁प्रस्तावित 1
▁अधिनियम 1
▁Jai 1
▁বিপ্লবী 1
12 1
▁கனிம 1
కై 1
▁வில்லியம் 1
▁निर् 1
▁संदेह 1
▁court 1
▁അസാധുവാക്ക 1
▁require 1
▁स्वराज 1
▁স্পেন 1
▁ఆహ్వాన 1
ౌ 1
▁ചാർജ 1
▁तलब 1
▁এবং 1
▁head 1
വര 1
▁گھر 1
ంజ 1
▁عینی 1
▁कैमरे 1
మరియు 1
▁सूरत 1
▁festival 1
▁छापेमारी 1
▁കണ്ണ 1
▁சந்தை 1
ौ 1
▁داستان 1
കാര്യ 1
▁দীর্ঘ 1
▁பெரும்பான்மை 1
▁लड़ 1
▁balance 1
▁कहा 1
▁जाती 1
మూరు 1
▁asked 1
க்கள 1
ph 1
▁திருமணம் 1
▁যদিও 1
▁உள்ளனர் 1
▁Pune 1
▁पठानकोट 1
▁طور 1
▁2001 1
▁इस्लाम 1
▁আল্লাহ 1
▁നീണ്ട 1
▁पांडेय 1
▁শিল্পকলা 1
▁جذبات 1
▁பஞ்ச 1
▁खबर 1
▁আন্দোলন 1
লিকা 1
বাস 1
▁Civil 1
▁இயக்கத்தில் 1
▁ആശങ്ക 1
▁s 1
▁വാഹനങ്ങള 1
▁کرکے 1
▁ستم 1
▁समाधान 1
స్థాపన 1
▁ప్రవహించ 1
▁জৈন 1
▁تلخ 1
▁రూం 1
▁భారతదేశ 1
▁together 1
▁సెంటర్ 1
▁சிங் 1
▁চলচ্চিত্রের 1
യെന്ന 1
വർഷ 1
ിട്ട 1
▁तहसील 1
▁युवती 1
▁জন্মগ্রহণকারী 1
▁the 1
▁টাকা 1
▁گھبرا 1
41 1
▁تنگ 1
▁வேண்டிய 1
▁आदमी 1
▁आवाज 1
▁రచన 1
పొంద 1
▁തൊട്ടടുത്ത 1
▁degrees 1
▁Colony 1
▁കൈവരിക്ക 1
ంగ 1
▁ఏర్పడింది 1
▁قلم 1
▁field 1
▁fell 1
ৎস 1
▁పెరిగి 1
▁সৈনিক 1
▁நேரத்தில் 1
▁విజయ 1
▁evening 1
... 1
▁premises 1
▁சோ 1
▁constitutional 1
▁প্রমুখ 1
▁സിനിമയിൽ 1
▁പ്രമേയ 1
▁circumstances 1
▁একটা 1
▁آ 1
▁అకాడమీ 1
▁ஒன்றியம் 1
▁ప్రదర్శన 1
র্প 1
▁இறந்த 1
▁विज्ञान 1
▁লর্ড 1
கின்றனர் 1
▁স্থানান্তর 1
भारत 1
▁தலைவராக 1
▁പ്രസംഗ 1
▁b 1
▁కథలు 1
गु 1
రో 1
বেল 1
▁سنائی 1
வையாக 1
▁இலங்கையின் 1
▁এয়ার 1
▁stopped 1
▁सहित 1
▁கணித 1
▁സ്ഥാപനങ്ങള 1
▁ச 1
▁internet 1
▁बहन 1
▁حرام 1
▁நகைச்சுவை 1
▁تھے 1
▁ஆடி 1
▁ব্রিটিশ 1
யினை 1
▁കുറയ്ക്ക 1
▁மாதிரி 1
▁വിറ്റ 1
▁आरएसएस 1
▁রঙের 1
▁വിശ്വസിക്ക 1
▁when 1
▁সিদ্ধান্ত 1
census 1
২৯ 1
గ 1
▁खुद 1
কো 1
ेट 1
▁অনুসরণ 1
▁ഫെ 1
▁standard 1
ही 1
▁منسوب 1
▁സന്താന 1
▁স্কুলে 1
▁Par 1
▁వ్యాసాలు 1
స్తా 1
▁guidelines 1
க்குரிய 1
▁ഉത്തരവാദിത്ത 1
▁நாடுகளில் 1
▁دائیں 1
कांत 1
▁దళాల 1
▁தாவர 1
ender 1
▁فن 1
ప్పుడు 1
▁Aadmi 1
▁जहर 1
▁ایسی 1
▁support 1
▁ناول 1
▁அதன் 1
▁समझौते 1
ওয়া 1
▁மக்களின் 1
దుర్గ 1
യ്ക്കായി 1
▁অর্থনীতি 1
▁ছড়িয়ে 1
▁ஒன்ற 1
▁shift 1
▁बुनियाद 1
▁کونسل 1
▁মাথা 1
▁நாக 1
▁girl 1
▁സീരിയല 1
▁খেলে 1
ప్రసాద 1
வை 1
▁உதவ 1
▁সংশ্লিষ্ট 1
▁Saudi 1
▁പിറന്ന 1
▁முழுவதும் 1
▁மூலமாக 1
▁செய்கிறது 1
▁helicopter 1
▁نبی 1
▁Naxalite 1
▁ভূ 1
মু 1
▁= 1
టింగ్ 1
] 1
▁कोर्ट 1
▁great 1
▁مق 1
▁അവരുടെ 1
▁സമര 1
▁উৎপাদন 1
▁പരിശ്രമ 1
ക്കാര് 1
▁पूंजी 1
▁কারণে 1
▁রাষ্ট্রীয় 1
▁तट 1
▁Agarwal 1
▁திருவிழா 1
শত 1
▁மற்றொரு 1
▁campus 1
▁వారు 1
▁غرض 1
▁இடம் 1
▁crowd 1
▁সমান 1
▁collapse 1
▁Tharoor 1
▁عرصے 1
▁നോ 1
▁Jaipur 1
िस्तान 1
▁शहरों 1
▁सूचित 1
ক্ষা 1
▁এলাকার 1
▁സ്വന്തമായി 1
▁மாற்று 1
▁संगठन 1
▁Republic 1
▁തെളിഞ്ഞ 1
▁ఏర్ప 1
খি 1
களுடன் 1
▁இக்கோயிலில் 1
▁സോ 1
ിക്കുന്നത് 1
പോക 1
دہ 1
▁silence 1
▁தீர்ப்ப 1
▁expect 1
ഹാര 1
▁بارے 1
▁जिनके 1
▁కొంతమంది 1
▁لمحہ 1
▁break 1
× 1
__t2ml__ 1
షన్ 1
▁نشست 1
പ്പോഴാണ് 1
▁నట 1
▁constant 1
▁ജെ 1
▁वैज्ञानिक 1
▁നന്ദി 1
ലേഖന 1
▁സമയ 1
▁তুলনায় 1
▁வணிக 1
▁இல் 1
▁বিচ্ছিন্ন 1
▁remain 1
ില്ലാത്ത 1
▁भूषण 1
▁నది 1
▁Saraswati 1
கர 1
▁ആശയ 1
▁single 1
▁வன்முறை 1
▁حیات 1
▁کثیر 1
▁जरूर 1
▁حل 1
▁തസ്തിക 1
▁Information 1
ాయ 1
▁باجو 1
தி 1
▁സേവ 1
▁رب 1
▁సైన్యం 1
▁నిషేధ 1
▁रवैया 1
▁பாதுகாக்க 1
लैंड 1
▁मिलकर 1
▁চক্র 1
▁కక్ష్య 1
టో 1
▁अर्थ 1
▁خاندان 1
▁தெரு 1
3 1
وی 1
▁உயர 1
पाल 1
▁خام 1
30 1
▁رہنمائی 1
▁అవసరం 1
க்காரர் 1
▁elements 1
▁सकेंगे 1
▁மன 1
▁बदमाश 1
▁অন্তর্ 1
▁যেটি 1
▁repair 1
▁இலக்கிய 1
মূলক 1
▁അട്ടിമറി 1
▁স্পর্শ 1
ाने 1
ni 1
▁ബന്ധ 1
▁colleague 1
▁യൂണിവേഴ് 1
▁దశ 1
▁കുടി 1
▁திரைப்படம் 1
▁தூண்ட 1
▁सिक्किम 1
സംരക്ഷണ 1
▁कठिन 1
▁तभी 1
▁मतदाताओं 1
▁মতবাদ 1
యము 1
▁ఇసుక 1
▁दल 1
▁teenager 1
▁উদ্ধার 1
▁دوبارہ 1
▁শতাব্দী 1
▁चालक 1
▁آدھ 1
▁വഹിക്ക 1
▁இணை 1
▁অন্যদিকে 1
▁চ্যা 1
ింపు 1
▁தன்மை 1
டி 1
▁ఇం 1
ந்தை 1
లైన 1
നൽ 1
▁దానికి 1
▁হারিয়ে 1
ப்பொருள் 1
▁ఎత్తు 1
കണ്ഠ 1
ாயிற்று 1
▁होकर 1
▁জেলা 1
லா 1
▁இவ்வ 1
▁জাতীয় 1
▁ഗർഭ 1
▁కథా 1
▁சக்தி 1
▁సరిహద్దు 1
▁விளங்க 1
ുമൊക്കെ 1
ాచార్య 1
புதூர் 1
▁affidavit 1
▁వైభవంగా 1
▁২৫ 1
▁നോട്ട 1
▁سافٹ 1
ാതിരിക്ക 1
▁continuously 1
▁عمارت 1
▁నిరంతర 1
▁date 1
▁اعزاز 1
▁park 1
▁கோட்பாட்ட 1
▁குறை 1
प्ल 1
▁कश्मीर 1
▁vegetable 1
కూరు 1
▁బీడీలు 1
ला 1
▁న 1
पन 1
▁చదరపు 1
▁బయలుదేర 1
▁تو 1
▁আদায় 1
பாட 1
▁शनिवार 1
▁ha 1
▁ईरान 1
▁کمرے 1
ിന് 1
▁bar 1
▁கொழும்பு 1
▁बहादुर 1
▁to 1
குறிச்சி 1
▁চি 1
ive 1
▁ব্যবসায়ী 1
ൂട്ട 1
▁শত্রু 1
▁உறவ 1
▁Devi 1
▁നാളെ 1
▁Pradesh 1
CO 1
▁জমি 1
▁بنا 1
अंतरिम 1
▁بس 1
▁میر 1
▁అద్భుత 1
▁രണ്ട 1
▁சீ 1
▁গাড়ি 1
▁example 1
▁शख्स 1
▁پتہ 1
▁2002 1
▁രാജ്യങ്ങള 1
▁থেকে 1
▁ప్రశ్న 1
ंस 1
ేవారు 1
▁ہوٹل 1
▁आंदोलन 1
▁सुर्खिय 1
రాజు 1
▁എക് 1
▁প্রশাসক 1
▁மேற்கொண்ட 1
▁قتل 1
▁insurance 1
▁children 1
रों 1
▁கொடுக்க 1
▁Shukla 1
▁১৯৪৫ 1
▁फोटो 1
▁Union 1
▁ছিলো 1
▁Haridwar 1
▁नीतीश 1
▁گہرا 1
క్ష 1
▁سعید 1
ٹھے 1
லம் 1
▁കുട്ടികള 1
ങ്ങളും 1
പ്പിച്ചു 1
▁morning 1
▁human 1
▁گزر 1
▁పనిచేసే 1
▁जम्मू 1
▁వివాహం 1
সব 1
▁تحقیقات 1
▁Election 1
ْ 1
ఠ 1
▁పుట్ట 1
▁ഉയർത്ത 1
▁పత్రిక 1
▁குஜராத் 1
▁Secretariat 1
▁সাফল্য 1
hra 1
నిర్దేశ 1
قت 1
▁हिरासत 1
▁മകന 1
▁وکٹ 1
▁औपचारिक 1
▁జరుగుతోంది 1
ക്ക 1
▁keeping 1
▁অঞ্চলের 1
▁വിശദ 1
▁సర్పంచిగా 1
▁நச்சு 1
▁വിഷ 1
▁मेहता 1
▁अनेक 1
▁കുറവ 1
▁temple 1
ത്താ 1
▁ഉപയോഗിച്ച 1
▁పదం 1
▁ఇంత 1
ling 1
▁बधाई 1
ाक 1
▁तीसरी 1
▁ബസ് 1
▁صورتحال 1
▁لو 1
த்தார் 1
▁గోధుమ 1
▁Ar 1
▁Omar 1
▁నగరంలో 1
▁Piyush 1
▁Command 1
▁மின் 1
▁شاخ 1
▁உதாரணமாக 1
▁Even 1
▁घटनास्थल 1
▁మరుగుదొడ్ల 1
▁സ്വീകരിച്ച 1
▁മാറിയ 1
സ്ഥിതി 1
సామాజిక 1
தன 1
മുണ്ട് 1
▁সীমানা 1
▁മുതൽ 1
▁கருவி 1
▁உணர்ந்த 1
▁بائی 1
లై 1
▁समझ 1
▁కోర 1
▁అనువాద 1
தல் 1
5 1
கர் 1
▁دي 1
ഊ 1
▁خفیہ 1
▁కొడుకు 1
▁छह 1
جر 1
▁ধারণ 1
▁സൗകര്യ 1
▁देना 1
▁cr 1
▁നല്ലതാണ് 1
▁മിക്ക 1
▁ప్రతి 1
▁இருக்கிறது 1
▁banks 1
▁റവന്യൂ 1
പോകുന്ന 1
ുടേയും 1
▁دوپہر 1
▁கான் 1
▁നിലനിൽക്ക 1
▁वीजा 1
▁yesterday 1
▁কালো 1
▁অভিযান 1
▁বন্যপ্রাণী 1
▁খ্যাতি 1
গাছ 1
▁Che 1
▁करते 1
▁తిరుగుబాటు 1
▁খ্রিস্টান 1
▁ضمیر 1
▁கண்டறிய 1
ন্ত্র 1
▁చలనచిత్ర 1
▁Smriti 1
وپ 1
▁جھگڑ 1
இ 1
▁खुर्शीद 1
▁اینٹ 1
▁क्लिक 1
▁தொடர்ந்து 1
▁எதிரி 1
▁ടീ 1
फा 1
▁முதன்முதலில் 1
▁جدوجہد 1
▁చేస్తుంది 1
انا 1
▁సంరక్షణ 1
▁ఆధునిక 1
▁बैंकों 1
▁مقامی 1
వలసిన 1
▁തീ 1
ంద 1
వైపు 1
▁ట్యూ 1
্বা 1
▁मालूम 1
▁കഴിഞ്ഞു 1
▁तलवार 1
wi 1
▁സൂക്ഷിക്ക 1
▁warning 1
ानी 1
▁సంత 1
▁मूल 1
▁مار 1
87 1
டல் 1
▁न्यायपालिका 1
▁సమకూర్చ 1
▁आतंकवाद 1
▁वाली 1
டைய 1
▁எதிராக 1
▁مشورہ 1
▁হু 1
▁Work 1
▁इंस्टीट्यूट 1
▁itself 1
▁ബുള്ളറ്റ 1
▁علاج 1
▁مارا 1
▁విద్యార్థి 1
▁రచయిత 1
राम 1
▁പലരും 1
▁মার্ক 1
ിക്കപ്പെട്ട 1
బీయెస్ 1
▁increased 1
▁air 1
ഭൂമി 1
▁آن 1
▁২০১৭ 1
▁وہاں 1
▁பே 1
▁கண்ட 1
▁নিউজিল্যান্ড 1
টন 1
▁ஆற்றல் 1
▁ഇത്രയും 1
ய் 1
▁जनजाति 1
▁تصویر 1
▁காங்கிரச 1
▁سرحد 1
▁ഉയർന്ന 1
ద్య 1
▁ഇന്റ 1
▁నూనె 1
▁বার্ষিক 1
▁ബോർഡ 1
▁ആരംഭിക്ക 1
▁یوزر 1
▁বাস্তব 1
▁നവ 1
زار 1
▁Ghaziabad 1
▁Social 1
ப்பே 1
৭ 1
▁Corporation 1
യെല്ലാം 1
▁बेटी 1
▁పద్ధతి 1
▁திரைப்படத்தில் 1
ാകുമെന്ന 1
▁سلوک 1
▁എസ് 1
ഗാ 1
▁పోరాడ 1
▁ஆகியோர 1
▁strength 1
S 1
▁سامنا 1
▁ప్రాథమిక 1
▁सराहना 1
ട് 1
ശാല 1
▁came 1
ন্না 1
పోవడం 1
అక్టోబరు 1
▁കാണിച്ച 1
▁பரிச 1
▁സ്നേഹ 1
▁corporate 1
▁ఇంధన 1
▁கிருஷ்ண 1
▁remarks 1
▁कार्रवाई 1
ణ్ 1
▁বিশ্বব্যাপী 1
▁എൽ 1
▁ढूंढ 1
▁کرسکتا 1
▁ام 1
▁سبب 1
৫৪ 1
তে 1
নাথ 1
▁செயல்பாட்ட 1
▁سم 1
▁ప్రేమ 1
▁பெயரை 1
यु 1
▁conducted 1
▁జలవనరుల్లోకి 1
▁ঈদ 1
▁امور 1
▁നിരക്ക 1
▁ഉണ്ടാക 1
ur 1
మణి 1
▁complex 1
▁ஆனார் 1
ரா 1
▁সিরিজের 1
▁समझा 1
▁साहिब 1
▁జాగ్రత్త 1
▁ద 1
▁മൽസര 1
▁لائیں 1
▁സീന 1
തിര 1
ക്കൽ 1
ஸ்ட 1
▁قصہ 1
अप 1
ز 1
▁യുവ 1
▁change 1
▁അവസാന 1
▁పలువురు 1
▁1997 1
▁പത്തനംതിട്ട 1
ণী 1
▁പഠനം 1
▁magazine 1
▁loss 1
ఇది 1
▁invited 1
▁Class 1
వ్రత 1
രി 1
▁పై 1
▁ஜா 1
▁اف 1
▁weather 1
கோள் 1
▁చేశాడు 1
▁جانتا 1
▁ہونا 1
▁تجربات 1
▁সংক্ষিপ্ত 1
▁विशेष 1
▁जबरदस्त 1
னுக்கு 1
▁मेडिकल 1
▁ప్రశంస 1
▁ఫలిత 1
▁உடல் 1
▁উ 1
▁পাকিস্তানের 1
▁साक्षात्कार 1
▁Pokhriyal 1
▁پڑتا 1
▁গাণিতিক 1
▁சமய 1
▁. 1
▁even 1
li 1
▁گزار 1
ভার 1
میں 1
▁മത്സ്യ 1
క్ 1
▁వ్యక్తిగత 1
▁Jitendra 1
▁రాశారు 1
▁পণ্য 1
শে 1
▁باقی 1
▁donation 1
▁మామిడి 1
▁கிரி 1
ற்ப 1
▁छोड़ 1
ेगा 1
കൊടുക്ക 1
▁खोल 1
▁অধিবাসী 1
ഭാഗം 1
▁کردیا 1
▁Vinay 1
▁குறிப்பிட்ட 1
▁جیل 1
▁ஏற்கனவே 1
▁এখনো 1
▁कॉलोनी 1
▁قانونی 1
সম্ভব 1
▁ബോധ 1
▁اقدام 1
▁خوشگوار 1
ஸ்டர் 1
▁Hospital 1
▁سادہ 1
▁ബ 1
▁جانب 1
▁harm 1
৪২ 1
▁شائد 1
चंद्र 1
▁चुनावों 1
▁पैमाने 1
▁পঞ্চম 1
ുമുള്ള 1
▁ഹാജരാക്ക 1
▁అనుసరించ 1
▁कस 1
▁کورٹ 1
▁বিষয় 1
ప్రా 1
▁গভীর 1
ন 1
▁revealed 1
ধু 1
▁جملے 1
▁പുറമെ 1
▁সৃষ্টি 1
డే 1
▁నేర్చ 1
వార్ 1
▁হয়েছে 1
▁ஏற்ப 1
▁Moradabad 1
▁রেজিমেন্ট 1
▁شیطان 1
▁నిర్వహ 1
▁weapons 1
▁2015 1
▁അടിസ്ഥാന 1
▁हक 1
▁நட்சத்திர 1
எ 1
▁করবে 1
▁முன்பு 1
▁ঘ 1
▁নেদারল্যান্ড 1
pp 1
▁ہفتہ 1
▁गांधी 1
மிய 1
വില 1
▁نس 1
▁ലക്ഷ്യം 1
▁52 1
▁واحد 1
▁বন্দী 1
▁மக்களுக்கு 1
▁بات 1
ারি 1
▁think 1
ওয়্যার 1
▁வீடு 1
▁ഉപേക്ഷിക്ക 1
ஃபா 1
▁tour 1
ক্লি 1
▁அப்போது 1
▁এছাড়া 1
കളിലൊന്ന 1
▁بالآخر 1
▁شی 1
▁کالج 1
▁اکاؤنٹ 1
ানো 1
▁இஸ்லாமிய 1
▁harassment 1
▁లక్ష్మణ 1
▁دوستوں 1
যাত্রা 1
ആ 1
▁கலிபோர்னியா 1
▁প্রতিযোগিতা 1
Chancellor 1
▁சைவ 1
ങ്ങോട്ട 1
▁జనరల్ 1
▁चीफ 1
▁स्वतंत्रता 1
▁ആത്മഹത്യ 1
▁বিবাহ 1
▁مؤ 1
▁৩০ 1
▁துறையின் 1
െഴുത 1
▁pic 1
▁व्यक्तिगत 1
▁ദാമ്പത്യ 1
▁جرمنی 1
▁പരിഹാര 1
▁CPI 1
▁سوشل 1
గూడ 1
▁ماں 1
▁natural 1
▁గుండె 1
▁সম্মান 1
పురంలో 1
▁মাছ 1
ന്നാണ് 1
▁صحابہ 1
▁गणतंत्र 1
▁சுற்று 1
▁والد 1
▁شدہ 1
bar 1
ിലുള്ള 1
▁राजनीतिक 1
▁സംഭവം 1
ண்டை 1
र्ग 1
৯০ 1
▁கணிப்ப 1
گے 1
▁दूसरा 1
▁कमेटी 1
▁بڑھ 1
▁بجے 1
▁संचालन 1
▁এসব 1
▁टीवी 1
▁মনো 1
▁मंडल 1
▁ایجنسی 1
▁സംവിധാനം 1
னீ 1
▁அளிக்க 1
▁शीघ्र 1
చ్ 1
▁പക്ഷെ 1
▁طویل 1
▁గ్రామ 1
▁ঢাকা 1
తను 1
▁آف 1
സിറ്റി 1
సు 1
ম্বা 1
▁ഏറെ 1
ध्य 1
పాటు 1
▁Bombay 1
ലിന് 1
युक्त 1
▁விளையாட்டு 1
▁Therefore 1
▁दा 1
▁himself 1
PF 1
– 1
ub 1
▁president 1
▁مارچ 1
▁सीईओ 1
ചന്ദ്ര 1
ശ്രീ 1
▁Radha 1
▁परिस्थितियों 1
▁exemption 1
▁ఏటియం 1
▁இப்பகுதி 1
▁नोट 1
▁വീഡിയോ 1
▁ভূষিত 1
▁زندگی 1
▁धरना 1
▁পুত্র 1
മാരും 1
৮২ 1
king 1
▁বিভাগের 1
ائز 1
▁जताई 1
▁பள்ளி 1
బడి 1
যান 1
▁लंबी 1
ियम 1
তম 1
▁அணியின் 1
▁entrusted 1
▁ഫിലിം 1
▁Mahesh 1
▁मार्च 1
▁ఉప 1
ంగా 1
▁భాష 1
▁ബേ 1
കർ 1
▁ভিত্তিতে 1
▁പെരു 1
▁நீல 1
ுகிறார் 1
▁సూ 1
▁دیکھنے 1
▁చికిత్స 1
▁সাম্রাজ্যের 1
▁மக்கட்தொகை 1
▁most 1
▁క్రైస్తవ 1
▁ইঞ্জিনিয়ারিং 1
▁శుక్ర 1
ங்கோ 1
▁എണ്ണ 1
▁cognizance 1
ডিয়া 1
▁ناپسند 1
▁పొందాడు 1
▁అనువదించ 1
▁आयकर 1
▁അമിത 1
▁భక్తుల 1
▁वेंकैया 1
▁জয় 1
▁తెలి 1
▁செயல 1
▁পরি 1
▁अंदाज 1
▁victim 1
▁எழுத 1
മന്ത്രി 1
▁دو 1
▁انجام 1
▁அவர்களுக்கு 1
மாற்ற 1
▁रहेंगे 1
▁ڈو 1
ശ്ച 1
▁இருந்த 1
ண்டி 1
دھا 1
ness 1
▁చెబుత 1
▁चेयरमैन 1
ினால் 1
▁భారతీయ 1
▁అనుభవ 1
▁मेरठ 1
▁మాట్లాడ 1
▁خلیل 1
▁आखिरी 1
▁हिसाब 1
▁उपाय 1
▁৩৫ 1
பூ 1
▁Ha 1
رک 1
▁റെക്കോർഡ 1
▁ఆఫీసు 1
▁தொகுதிக்கும் 1
▁மிகுந்த 1
▁చింత 1
▁स्क 1
▁কালী 1
ru 1
▁கதை 1
▁احترام 1
▁حیدرآباد 1
▁మౌ 1
▁കൈമാറ 1
ت 1
▁বসু 1
▁शुरु 1
▁RJD 1
▁నమోదు 1
▁மில்லியன் 1
ాలని 1
▁లభించింది 1
ళ్ళ 1
▁ప్రమాణ 1
▁2014 1
▁نعت 1
வந்த 1
▁വന് 1
▁कैलाश 1
▁எனவே 1
भाजपा 1
▁তাঁরা 1
خ 1
▁இராம 1
▁പീ 1
▁মনে 1
▁पढ़ें 1
২০ 1
▁named 1
▁கிறிஸ்தவ 1
னோ 1
­ 1
eshwar 1
▁लेते 1
کہ 1
▁വിവാഹം 1
▁തേട 1
கார் 1
▁নিজেকে 1
▁ప్రాంతీయ 1
▁జారీచేసింది 1
▁निगाह 1
▁തകരാറ 1
▁కొన్నిసార్లు 1
▁लैस 1
▁ఏకైక 1
az 1
▁agricultural 1
▁ইন্টার 1
▁రూపకల్పన 1
ام 1
சார் 1
▁effort 1
கை 1
▁প্রথিতযশা 1
▁مظاہرہ 1
ట్ల 1
కోడ్ 1
▁बनाई 1
▁निवासी 1
▁भ 1
నూ 1
▁لاجواب 1
▁अमेठी 1
തായിരുന്നു 1
▁ایل 1
▁آہستہ 1
▁శాఖ 1
▁തി 1
▁ചേര 1
చె 1
▁அவற்றை 1
▁Parishad 1
▁सम्मेलन 1
▁Salman 1
▁শরীর 1
▁زیک 1
▁వారికి 1
யிலேயே 1
दि 1
▁വരും 1
▁మొదట 1
▁دوکان 1
▁قانون 1
▁టై 1
ji 1
▁১৯৪৮ 1
மோ 1
▁Chairman 1
▁സുസുക്കി 1
▁ధర్మ 1
▁அவ்வ 1
▁mercy 1
▁জটিল 1
▁പുര 1
கோ 1
]। 1
▁வியாபார 1
ton 1
▁imprisonment 1
തിനെ 1
മായാണ് 1
▁হচ্ছে 1
വസ്ഥ 1
▁Speaking 1
బొ 1
ിട്ടുണ്ടെന്ന 1
ంటుంది 1
వెల్ 1
ண்ட் 1
▁party 1
ിലേക്കു 1
▁చక్ర 1
▁गंवा 1
▁கல்ல 1
▁مہ 1
▁లోపల 1
बा 1
▁পর্যটন 1
▁പൂർത്തിയാക്ക 1
▁जबकि 1
ास्पद 1
inspector 1
▁জাতিসংঘ 1
▁ഉൽപാദന 1
ஆர் 1
▁പാല 1
▁جمعرات 1
▁Energy 1
▁مض 1
▁விசை 1
▁പ്രോ 1
74 1
▁بستی 1
▁ملکی 1
▁زمرے 1
▁பெற்றோர் 1
▁குழந்தைகள் 1
▁அவர் 1
ore 1
▁উৎ 1
▁கொள் 1
lam 1
▁देगा 1
▁दिल्ली 1
ع 1
യോ 1
▁ए 1
▁Madhav 1
▁पीड़िता 1
▁വിദഗ്ധ 1
ുണ്ടായിരുന്നു 1
▁valid 1
▁ముందు 1
ీకరణ 1
▁जज 1
വേഷ 1
▁রাজকীয় 1
------ 1
▁നോക്കിയ 1
▁reduc 1
▁எடுத்துக்காட்டு 1
▁Uttarakhand 1
▁निगम 1
▁উন্নীত 1
▁అగ్ని 1
▁పశ్చిమ 1
ங்களிலும் 1
▁عہد 1
▁பின் 1
▁വേദി 1
▁പോയിന്റ 1
▁ক্রম 1
കളിലും 1
▁வேண்டும் 1
▁Superintendent 1
वल 1
▁Space 1
▁لحاظ 1
▁ఉష్ణ 1
▁number 1
తారు 1
▁मुख्यमंत्री 1
mortem 1
▁முனைவர் 1
▁chose 1
▁পতন 1
▁scandal 1
▁fishermen 1
▁एवं 1
etween 1
▁పంప 1
▁आपत्तिजनक 1
▁allocation 1
▁ഓസ്ട്രേലിയ 1
ப்பெரு 1
▁భగవ 1
▁క్రొత్త 1
▁আসন 1
வள 1
▁Under 1
▁सीबीआइ 1
▁కనిపించ 1
▁महाराज 1
▁స్వ 1
ల్లీ 1
▁لسانی 1
ya 1
▁ساحل 1
▁editor 1
▁فاطمہ 1
▁بھارت 1
▁आवश्यक 1
▁परिणाम 1
▁స్థాపించ 1
▁ന്യൂ 1
நெ 1
▁টেস্ট 1
▁തീവ്ര 1
▁അളവു 1
छ 1
▁launched 1
▁स्मृति 1
বে 1
▁الحمد 1
▁فاصلے 1
ാകുന്ന 1
▁झंडी 1
गढ़ 1
డియా 1
▁NSG 1
▁முயற்சி 1
த்தினர் 1
▁त्रिपुरा 1
▁इस्तीफा 1
▁খ্রিস্টাব্দে 1
▁کلمات 1
वाह 1
ுவத 1
▁कं 1
▁हिमाचल 1
▁बना 1
ലും 1
▁کش 1
▁شکست 1
▁200 1
▁நிறைவு 1
ட்டோ 1
▁స్కూల్ 1
दर्शक 1
▁फेसबुक 1
▁சூழ்நிலை 1
▁നടപടി 1
▁Bharat 1
▁सियासत 1
▁عدلیہ 1
▁Of 1
▁चपेट 1
▁Prabhu 1
நாட்டு 1
மடைந்த 1
▁బట్టి 1
▁దృశ్య 1
ചാര 1
▁রহস্য 1
▁a 1
▁మహిళ 1
▁സഹായിക്കുന്ന 1
▁తెలియ 1
▁എവിടെ 1
নিক 1
ہا 1
▁گز 1
ார் 1
▁సరిహద్దులో 1
▁చంద 1
খণ্ড 1
ఎల్ 1
▁वरिष्ठ 1
গুলোকে 1
ையும் 1
▁ശേഷമ 1
▁ഓർമ 1
‘ 1
▁تب 1
▁معلوم 1
▁हैं 1
▁نقصان 1
▁کارروائی 1
కార్ 1
▁காட்ட 1
▁confidence 1
പ്പോള് 1
▁അണ്ണാ 1
▁Only 1
ణి 1
▁சட்டமன்றத் 1
ھا 1
▁अमेरिका 1
▁responsibility 1
స్టిట్యూట్ 1
▁जाहिर 1
▁ago 1
▁ড্র 1
വിട 1
▁बिल 1
▁Israel 1
▁லட்ச 1
▁மூன்றாவது 1
▁తాగునీరు 1
▁करता 1
▁గారి 1
ഡിയ 1
▁صدارت 1
▁மாற 1
یاں 1
▁हॉ 1
▁അത്തര 1
▁சூன் 1
▁local 1
▁যৌগ 1
▁సింగ 1
▁success 1
▁యె 1
ஃப 1
é 1
▁ആശുപത്രിയിൽ 1
▁Madan 1
മോ 1
▁விண்மீன் 1
▁Nitin 1
▁Manipur 1
▁সর 1
▁கிராமத்தில் 1
▁പിന്നിട്ട 1
▁severe 1
▁മാത്രം 1
▁சார்ப 1
▁বহু 1
▁cross 1
▁മൈ 1
▁ശശികല 1
▁competition 1
▁lot 1
▁ക്യാംപ 1
▁removed 1
▁could 1
▁plan 1
▁آسان 1
▁বো 1
മീ 1
▁facility 1
▁Opposition 1
▁ஆகும் 1
▁ఫిబ్రవరి 1
▁তাছাড়া 1
ംഗ 1
▁ఒంగోలు 1
▁ஆகிய 1
▁تحریک 1
▁মালয়েশিয়া 1
▁explosive 1
district 1
গামী 1
ணி 1
▁presented 1
▁বর্ধমান 1
ిస్తారు 1
▁रहेगा 1
▁উদ্ 1
▁কলকাতার 1
▁നാഴിക 1
▁बर्फ 1
▁Manohar 1
▁നിർമിച്ച 1
▁প্রয়োজনীয় 1
▁northern 1
द्द 1
▁করা 1
▁गिर 1
▁എന്ന 1
▁भट्ट 1
▁எல் 1
▁आडवाणी 1
▁പറ 1
▁go 1
▁விவசாய 1
sa 1
▁இந்தப் 1
▁விரி 1
▁تعلقات 1
▁మండల 1
▁went 1
▁ہمارا 1
▁അന്ന് 1
▁tension 1
▁चा 1
▁ఉంటాయి 1
▁SP 1
▁ক্রিকেটার 1
▁پاک 1
▁പത്താം 1
ஸ்தான 1
▁सबसे 1
▁ആളുകള 1
▁সাম্প্রতিক 1
లియన్ 1
▁ഇല 1
▁গি 1
ভূত 1
▁புரத 1
▁Arabia 1
പ്പറ 1
▁ക്യൂ 1
▁పరిషత్తు 1
▁வெளியே 1
▁সফরকারী 1
▁റോ 1
കൃത 1
▁വിദ്യാര് 1
▁لائے 1
▁വേണ്ടി 1
▁curb 1
▁കൂടെ 1
▁مداخلت 1
▁लगी 1
▁হিন্দি 1
రిక 1
ുണ്ടാകുന്ന 1
▁మొబైల్ 1
అమృత్ 1
▁बताते 1
▁संभावना 1
▁پتھر 1
ിട 1
▁வளை 1
▁நீ 1
భ్ర 1
▁Internet 1
▁கந்தக 1
ு 1
▁ഇര 1
▁ബജറ്റ് 1
▁ప్రకారము 1
റാ 1
▁राजदूत 1
▁وکیل 1
▁stone 1
▁ധന 1
▁लोकायुक्त 1
মিটার 1
work 1
▁उम्मीदवारों 1
and 1
▁रास्ता 1
▁పుణ్య 1
▁ఫిలిం 1
03 1
▁examined 1
▁Yeddyurappa 1
▁நடைமுறை 1
▁ച 1
▁प्रस्तुत 1
▁function 1
ിയ്ക്കുന്ന 1
▁ஆய்வ 1
▁उपलब्ध 1
▁रुपए 1
్యత 1
▁मेहनत 1
গ 1
▁साल 1
▁অণু 1
▁ఈనాడు 1
▁അഥവാ 1
▁Rajiv 1
▁اعتراض 1
▁ड्राइवर 1
्व 1
▁पेशकश 1
▁കുടുംബ 1
▁हिंदू 1
▁পূর্ণ 1
▁অভিযোগ 1
▁स्थिति 1
▁commission 1
▁প্রবাহিত 1
▁கிலோ 1
▁شوق 1
▁നേര 1
▁چلیں 1
▁bureau 1
▁inter 1
▁মহারাষ্ট্র 1
▁பை 1
▁ചൂട 1
▁మళ్ళీ 1
▁গেছে 1
▁അനുമതി 1
▁పేర్లు 1
▁تلاش 1
▁threat 1
னில் 1
▁ডোমেইন 1
▁پلان 1
جی 1
▁treatment 1
▁തടസ 1
▁پہنچا 1
▁இந்தியாவில் 1
स्ती 1
▁സമ്മേളന 1
काल 1
▁فروری 1
▁لشکر 1
▁ڈائ 1
▁നെഞ്ച 1
টাই 1
▁জল 1
டின் 1
▁നടന്ന 1
▁সরকারী 1
প্রা 1
▁উক্ত 1
▁ব্যবহারকারী 1
▁روایات 1
▁ഒഴിവാക്ക 1
మైంది 1
▁student 1
▁devotees 1
ود 1
▁கேட்ட 1
▁रावत 1
▁വന്നു 1
చిన 1
▁مصباح 1
▁कहने 1
ിനെതിരായ 1
▁கழு 1
సముద్రం 1
▁ریلیز 1
▁committee 1
▁ब 1
▁بنگال 1
▁నివృత్తి 1
▁വൈറല 1
▁സന് 1
▁డాక్టర్లు 1
▁కాక 1
▁ஒடுக்க 1
সংখ্যক 1
ப்பதற்காக 1
▁केदारनाथ 1
য়া 1
▁നേരിട്ട 1
rs 1
▁রবীন্দ্র 1
▁தொழிற்சாலை 1
▁എല്ലാം 1
▁കീഴടക്ക 1
▁स्वच्छ 1
▁स्व 1
▁sc 1
▁വിക്കറ്റ 1
▁discussion 1
▁உபசன்னதிகள 1
▁പുരുഷ 1
▁والا 1
▁കാര് 1
▁century 1
▁নিচে 1
▁माना 1
प्रकाश 1
ാനായി 1
▁Health 1
▁পৌঁছ 1
باد 1
▁లాంటి 1
▁জুনিয়র 1
▁সমর্থন 1
▁ശുദ്ധ 1
▁happiness 1
▁പഠന 1
▁খ্রিষ্ট 1
▁വലിച്ച 1
▁लिमिटेड 1
▁tribute 1
▁वापसी 1
▁کھول 1
নু 1
▁U 1
▁বস্তু 1
▁सुशील 1
തെന്ന 1
▁ل 1
▁വിമാനത്താവള 1
য়াং 1
▁মেডিকেল 1
▁সঙ্গে 1
▁مت 1
▁پیسے 1
▁నిర్మాణ 1
▁الوقت 1
ట 1
▁सुभाष 1
▁पाल 1
▁ആയുധ 1
▁बढ़ाने 1
▁charges 1
▁continuing 1
▁పోస్ట్ 1
▁گھوم 1
▁இரா 1
▁निरस्त 1
▁স্বামী 1
னெ 1
▁கா 1
▁সিঙ্গাপুর 1
▁நோக்கி 1
▁கழக 1
▁മധുര 1
▁خاک 1
முள்ள 1
▁किया 1
▁വൈറസ 1
▁साध 1
▁എടുക്ക 1
▁خاتون 1
▁நேரடியாக 1
৮০ 1
▁ഉപയോഗിച്ച് 1
▁مولانا 1
നേഹ 1
এর 1
▁মনোনয়ন 1
▁گول 1
▁लेंगे 1
▁Tri 1
▁گذشت 1
▁ఉష్ణోగ్రత 1
▁two 1
▁آنکھوں 1
▁తల్లి 1
▁medicine 1
▁இவர்கள் 1
▁ప్రత్యామ్నాయ 1
▁his 1
▁നടപ്പാക്ക 1
▁ادائیگی 1
ந்தி 1
ేంద్ర 1
▁చెంద 1
നി 1
▁उप 1
▁பரிசோதனை 1
▁गति 1
মত 1
gaon 1
▁ভাবে 1
ിക്കുക 1
▁কল্যাণ 1
ട 1
▁جنوری 1
▁மொத்த 1
▁निर्देश 1
പ്പെടുന്നു 1
▁आरोपों 1
▁জনসংখ্যা 1
కి 1
▁इतन 1
▁doctors 1
▁उल्लंघन 1
▁तारीफ 1
না 1
▁विवादित 1
▁సముదాయ 1
▁ی 1
▁വാർത്ത 1
▁লিখেছেন 1
بع 1
▁বয়সে 1
ab 1
▁పర్యావరణ 1
திரைப்படம் 1
▁அமர் 1
▁ন্যাশনাল 1
इंड 1
▁رمضان 1
आइएम 1
59 1
▁ഉപേക്ഷിച്ച 1
▁রি 1
▁തിരിച്ചു 1
▁చనిపోయ 1
▁മികച്ച 1
▁سفارت 1
രിയ 1
പത്ര 1
▁১৯৬৯ 1
▁चुके 1
▁ചില 1
▁ഭൂരിപക്ഷ 1
▁bail 1
▁Mukesh 1
▁media 1
▁নিরাপত্তা 1
▁دوران 1
ు 1
▁గుండా 1
▁کالعدم 1
▁Syed 1
▁വിദ്യാർഥി 1
▁হয়নি 1
തുടങ്ങ 1
▁लड़ाई 1
ப்படுத்தப்பட்ட 1
▁మొదలు 1
్యాల 1
ేటప్పుడు 1
▁دوسروں 1
▁2009 1
▁چھوڑ 1
▁तंबाकू 1
▁اولاد 1
▁घायल 1
டாக 1
▁کب 1
▁పర 1
▁ഇങ്ങനെ 1
▁نصاب 1
▁దాదాపు 1
▁కల్పించ 1
▁کیفیت 1
یر 1
▁তাপমাত্রা 1
▁ঝুঁকি 1
▁नाकाम 1
নের 1
▁सुझाव 1
▁gr 1
▁সাব 1
ുണ്ടെങ്കിലും 1
▁வைத்து 1
▁നൽകിയ 1
ദാന 1
▁مزا 1
▁രക്ത 1
▁towards 1
▁கூடுதலாக 1
▁regard 1
▁వాటిలో 1
ീ 1
▁বন্ধন 1
▁আলাদা 1
▁افسر 1
▁restaurant 1
▁വിര 1
▁இயேசு 1
▁লক্ষ 1
▁draw 1
▁ভৌগোলিক 1
ي 1
▁అభివృద్ధి 1
▁ഗുരുതര 1
এসএ 1
▁పరిణామ 1
▁ഉച്ച 1
▁نی 1
த்துடன் 1
▁நூற்றாண்டின் 1
▁thing 1
▁मार्ग 1
వర్తన 1
▁ترس 1
▁প্রজনন 1
காண 1
ड 1
▁ڈال 1
െയും 1
▁یہاں 1
▁मद्देनजर 1
▁করি 1
▁వ్యవసాయం 1
▁ഉപ 1
▁twenty 1
▁గాలి 1
▁ठिकानों 1
▁listen 1
▁population 1
▁foreign 1
బెట్ట 1
▁জমিদার 1
▁تحصیل 1
▁7 1
▁সমর্থ 1
▁അതു 1
▁दोपहर 1
▁இதழ 1
डब्ल्यू 1
▁వర్ణించ 1
▁আয়োজিত 1
▁ব্লু 1
▁ٹوٹ 1
कर्मियों 1
▁হিন্দু 1
▁भूमिका 1
യാത്ര 1
▁ചിത്രത്തിലെ 1
த்தை 1
▁కేంద్రం 1
▁நேர் 1
▁വേണമെന്ന 1
▁ceremony 1
▁fundamental 1
ினார் 1
▁province 1
▁తొ 1
രിക്ക 1
▁tell 1
▁پھر 1
▁افغان 1
▁பணி 1
ుకుంటున్న 1
▁மகா 1
▁సంవత్సరాల 1
▁കാല 1
▁चीन 1
▁crack 1
ராஷ்டிர 1
▁அளவை 1
▁زبردست 1
க்கம் 1
ies 1
▁ஆதரவ 1
▁அளவில் 1
▁letter 1
ത്തുടര 1
വർ 1
▁गई 1
सर 1
▁ആലോചിക്ക 1
▁وارث 1
जा 1
▁चेहरा 1
▁পরিবহন 1
▁পরবর্তীকালে 1
▁less 1
▁সমীকরণ 1
▁Naxal 1
▁uniform 1
▁യന്ത്ര 1
▁মুসলমান 1
▁പിന്തുണ 1
ാരോഗ്യ 1
▁പര 1
▁حریف 1
தாகவும் 1
▁sharp 1
▁পা 1
▁बंद 1
দু 1
▁बेटे 1
▁credit 1
▁প্রতি 1
▁शिव 1
ज्ज 1
▁जोरदार 1
▁അത്ഭുത 1
▁Bangladesh 1
▁لیئے 1
▁வரு 1
▁హి 1
inder 1
പ 1
▁بند 1
২৪ 1
▁ஈர 1
▁died 1
▁ناظم 1
▁When 1
▁ہماری 1
mo 1
▁স্পষ্ট 1
দ্ব্যর্থতা 1
▁2007 1
▁உண்மை 1
▁دشمن 1
▁భావిస్తారు 1
▁दुबई 1
▁అను 1
▁ভ্যা 1
▁আনুষ্ঠানিকভাবে 1
▁പരമ്പര 1
▁incidents 1
▁ജ്യോതി 1
▁چھ 1
▁सितंबर 1
ക്രീ 1
മാധ്യമങ്ങള 1
▁facing 1
▁നില 1
വസ്തുക്കള 1
qui 1
▁سحر 1
െ 1
▁എന്തു 1
▁ലാല 1
▁রাজ 1
▁മൂലം 1
▁ठंड 1
▁लोक 1
లకు 1
ాన్ని 1
▁అవుతుంది 1
▁இருப்பது 1
▁നഷ്ടപ്പെട്ട 1
বি 1
▁செவ்வ 1
▁പെ 1
▁ماشاء 1
পদ 1
▁వర్ణ 1
വള 1
▁برطانوی 1
▁நிறைவேற்ற 1
மம் 1
▁আজারবাইজান 1
▁ஒலிம்பிக் 1
▁President 1
▁तहत 1
ക്കൾ 1
▁मायावती 1
▁नक्सली 1
ടെ 1
ഗ്ല 1
శ్వాస 1
ானது 1
▁समस्या 1
▁పట్టణ 1
▁प्रतिपक्ष 1
▁حمایت 1
▁വായിക്ക 1
▁غم 1
▁கூடிய 1
மணி 1
▁mistake 1
▁सतीश 1
మును 1
ులైన 1
▁प्रेम 1
▁مرد 1
▁அங்கு 1
ாளர் 1
▁मानते 1
▁نصیب 1
▁ترجمہ 1
▁పు 1
▁சட்டமன்ற 1
▁Shan 1
▁পার্থক্য 1
ிருக்க 1
▁চল 1
▁ఇంజనీరింగ్ 1
▁இந்த 1
▁കേന്ദ്രീകരിച്ച 1
ാവശ്യ 1
गर 1
▁மருந்து 1
▁پذیر 1
▁శతక 1
▁சேர் 1
▁തിരുവനന്തപുരം 1
▁వినియోగించ 1
▁دیتا 1
പ്പെടുത്തി 1
গোষ্ঠী 1
▁यमुना 1
▁కమిటీ 1
▁Pathankot 1
▁নদী 1
▁అభి 1
▁കാണാതായ 1
फे 1
জীব 1
▁Rawat 1
▁avoid 1
പരിപാടി 1
▁آنکھیں 1
▁عربی 1
▁এই 1
▁بنانے 1
▁കലാ 1
▁flow 1
▁جارہے 1
▁జనగణన 1
▁డి 1
▁அமைதி 1
▁blast 1
▁برداشت 1
▁death 1
وب 1
▁common 1
రక 1
▁പ്രകടന 1
▁അ 1
▁نماز 1
▁2012 1
ற்கால 1
▁നിശ്ചയ 1
▁हलफनामा 1
▁పద్య 1
மீ 1
വെ 1
▁அனுமதிக்க 1
▁Mamata 1
▁৫ 1
▁অভিহিত 1
▁பணியாற்ற 1
▁vacant 1
▁नोएडा 1
സാ 1
▁പോ 1
▁ধরা 1
▁ഭ 1
▁six 1
দেব 1
ട്ട് 1
▁பழங்கால 1
▁celebration 1
डीआर 1
टा 1
▁తక్కువ 1
▁தஞ்சாவூர் 1
▁சின்ன 1
sha 1
▁ডিম 1
▁தெரிய 1
fi 1
▁baby 1
▁ഫീ 1
▁சொல்ல 1
▁fear 1
▁মৃত্যুবরণ 1
▁पढ़ेंः 1
▁కారణంగా 1
▁لیتا 1
క్రీ 1
▁கொடி 1
▁رواں 1
▁झा 1
▁கேரள 1
▁உருவாக்கப்பட்ட 1
▁അധികൃതർ 1
লেট 1
▁പിന് 1
▁written 1
▁सांसदों 1
▁కవిత 1
▁Ravindra 1
▁receiving 1
ுலக 1
▁हिस्सों 1
ரு 1
▁அமெரிக்காவில் 1
▁தீவு 1
▁सिब्बल 1
▁ప్రదేశ్ 1
▁দেখ 1
▁رہو 1
▁तौर 1
▁online 1
▁related 1
ുവെന്ന 1
عب 1
ക്കൊപ്പം 1
▁சனவரி 1
ڈر 1
▁Bhagwat 1
லே 1
▁ക്ര 1
పాల 1
▁যুগ 1
டே 1
▁full 1
▁விலக 1
▁फुट 1
ങ്ങളിൽ 1
കുട്ടി 1
▁തമിഴ് 1
▁انگریز 1
വാര 1
▁লক্ষ্য 1
▁നാലു 1
▁گاؤں 1
▁ప్రాంతం 1
▁ময়মনসিংহ 1
▁భోజన 1
▁Mallya 1
▁చేసుకో 1
▁തോ 1
▁مد 1
▁حضور 1
▁बाइक 1
▁இடையில் 1
▁জিম্বাবুয়ে 1
▁h 1
▁অধীনে 1
▁প্রচার 1
▁لگتی 1
▁தனி 1
ര് 1
▁Al 1
স্তর 1
৫০ 1
▁सकती 1
▁escaped 1
▁குடியேறி 1
▁வாச 1
▁உரிய 1
▁ఉపరితల 1
▁தெற்கில் 1
▁confirm 1
▁പഞ്ചസാര 1
bb 1
▁கையாள 1
▁سہیل 1
▁منطق 1
▁പേർ 1
▁பிணை 1
▁تخت 1
▁उत्पाद 1
▁కనుగొన 1
▁बतौर 1
• 1
▁கட்டி 1
▁അംഗങ്ങള 1
▁ملنے 1
▁fish 1
▁مرے 1
ஹ 1
്യ 1
▁भरोसा 1
▁बहु 1
▁వ్యాసాల 1
▁ভাষায় 1
▁വ 1
चल 1
০৯ 1
نگے 1
জ 1
▁بغاوت 1
6 1
na 1
▁la 1
▁తిరుపతి 1
▁പന്ത്രണ്ട 1
▁stick 1
▁reason 1
▁রাষ্ট্র 1
▁அறியப்பட்ட 1
▁عطا 1
▁Airport 1
ാവ 1
▁تسلی 1
▁degree 1
ജ 1
▁ஆக்சைடு 1
▁அடைய 1
▁സൈന്യ 1
▁বা 1
▁நாள் 1
▁కణ 1
ধ্ব 1
▁ফিলিপ 1
▁वर्तमान 1
▁Fateh 1
▁അധ്യാപക 1
ிருக்கும் 1
▁کرنے 1
▁पुष्टि 1
▁বোন 1
▁వ్యా 1
Cl 1
▁چاند 1
put 1
▁AIIMS 1
▁ఉపయోగించే 1
▁సూచి 1
आउट 1
www 1
▁নীল 1
▁senior 1
▁مکتب 1
ஒரு 1
▁வேறுபட 1
▁اپنا 1
▁her 1
▁program 1
▁four 1
▁ഊ 1
▁لڑکوں 1
▁सिर 1
పరిషత్ 1
رز 1
धु 1
தே 1
▁लागू 1
ரம்ப 1
▁expressed 1
▁பயன் 1
▁ایڈیٹر 1
▁Since 1
▁যোগ্যতা 1
▁پیسہ 1
▁Sisodia 1
▁حصول 1
▁రెండు 1
▁looking 1
▁స్టీ 1
▁Gadkari 1
th 1
▁எளிய 1
িনী 1
വരെ 1
▁ہوئے 1
▁ആളുകൾ 1
▁వా 1
▁हल 1
▁حکمران 1
▁peak 1
▁இப் 1
▁आम 1
▁عام 1
▁walk 1
▁जुट 1
▁dam 1
▁മുംബൈ 1
வெளி 1
▁రంగారెడ్డి 1
▁थे 1
▁ছবিতে 1
▁பல்வேறு 1
াবস্থা 1
▁చారిత్రక 1
▁انصاف 1
▁جیسا 1
▁ব্যাটিংয়ে 1
হান 1
▁உடன 1
▁अन 1
▁कभी 1
ট্রি 1
ితే 1
▁ఎదుర 1
▁গ্রুপ 1
▁रांची 1
ुद्दीन 1
▁வாங்க 1
▁தெரிவித்த 1
▁Anna 1
▁Singh 1
రించ 1
esh 1
▁बल 1
▁వేర్వేరు 1
▁लेना 1
▁চরিত্রে 1
▁കൊടുത്ത 1
▁friendship 1
வார 1
▁வெ 1
ഷിപ്പ 1
▁മറ്റ് 1
▁امام 1
__t2te__ 1
போது 1
مل 1
ंध 1
ിട്ടു 1
▁मतलब 1
آپ 1
▁प्रदेश 1
▁சாத்திய 1
▁کلک 1
▁செல்லும் 1
▁Jyoti 1
ہو 1
▁noteworthy 1
▁تاج 1
▁ఓడించ 1
▁ഹി 1
ப்பூ 1
▁শ্যাম 1
▁border 1
▁മറുപടി 1
▁fee 1
▁পরিষেবা 1
▁விமர்சன 1
▁హృదయ 1
▁حجاز 1
▁film 1
ాలతో 1
బోర్ 1
▁உறை 1
▁مستقل 1
▁తయారుచేస 1
▁കുഴ 1
▁घुसपैठ 1
▁दिखा 1
▁निशान 1
وک 1
▁دھر 1
▁विरोधी 1
▁একজন 1
▁سارہ 1
▁کرو 1
گھ 1
▁آدم 1
▁Uddhav 1
▁விநாயகர் 1
ator 1
▁বৌদ্ধ 1
▁Rajya 1
যেমন 1
দূত 1
▁गुलाम 1
▁آپکے 1
▁আশেপাশে 1
▁వరంగల్ 1
▁ప్రధాన 1
▁സ്വഭാവ 1
▁కంటే 1
▁லே 1
ছা 1
▁patrol 1
▁পৃথক 1
▁Advisor 1
▁வ 1
▁लोकपाल 1
▁২৭ 1
▁மறு 1
▁శాస్త్రీయ 1
▁గ్రామము 1
▁খনিজ 1
நாதர் 1
ീന 1
▁असम 1
حد 1
बद्ध 1
ലഗ്ന 1
நாடு 1
▁மருத்துவமனை 1
▁പട്ട 1
▁பிராந்திய 1
▁അഭിമാന 1
▁point 1
ழா 1
▁వుంటుంది 1
▁پہلی 1
▁খাওয়া 1
▁प्रौद्योगिकी 1
▁बीमा 1
▁அறிய 1
▁வைக்க 1
▁महानिदेशक 1
രോഗ 1
▁शिवसेना 1
ാനാകില്ല 1
ऑ 1
▁प्रणाली 1
▁احتجاج 1
▁surprise 1
▁കണ്ടെത്തിയത് 1
36 1
▁मि 1
र्ड 1
▁ചിന്തിക്ക 1
వ్ 1
▁Ban 1
▁کھڑی 1
▁నొప్పి 1
▁கர்நாடக 1
▁स्टेडियम 1
టా 1
நீ 1
▁کرے 1
రే 1
डी 1
▁കുറിച്ച 1
▁مایوس 1
ോപ 1
▁இவ்வி 1
▁enthusiasm 1
▁காணப்படுகிறது 1
▁புள்ளி 1
▁পছন্দ 1
▁सैयद 1
▁وار 1
േഴ് 1
జా 1
▁ত্যাগ 1
▁نیرنگ 1
▁challenge 1
▁അവധി 1
▁দক্ষ 1
ോടൊപ്പം 1
കിട 1
▁صبر 1
পি 1
[...]
